a r
e r
i n
Ã ¼
a n
Å Ł
± n
Ä ±n
e n
i l
Ġ b
Ä Ł
i r
Ġ d
Ġ k
m a
Ã §
Ġ s
Ġ y
l ar
Ġ v
Ġ t
e l
Ġ g
e k
Ã ¶
a l
Ġ o
e s
a k
e t
u n
Ġ i
a y
e m
Ġv e
t d
d e
d a
Ġ h
l a
l er
a t
± l
Ä ±l
o n
> <
l i
e d
a s
± r
Ä ±r
o r
i z
i y
u r
u l
Ã¼ n
Ġo l
. Ċ
Ġb ir
l e
i m
Ä °
Ġ B
i k
± k
Ä ±k
i ÅŁ
Ġ m
Ġ K
Ġ a
Ã¼ r
es i
a p
Ġd a
Ġ il
< /
s t
Ġ A
Ġ Ã§
i t
2 0
a ÅŁ
a z
lar Ä±n
a m
in e
± ÅŁ
Ä ±ÅŁ
Ġ M
Ġg Ã¶
d an
Ġ Ã¶
. .
Ġ p
in de
e y
Ġ T
Ġd e
± ÄŁ
Ä ±ÄŁ
a b
u k
Ġ D
± m
Ä ±m
i s
Ġ f
Ġ S
l an
Ã¼ k
u m
a h
c e
ma s
Ġk ar
â Ģ
in in
Ġ n
y a
d i
Ġ al
Ġi Ã§
Ã¼ z
lar Ä
larÄ ±
Ä±n da
Ġ u
a d
il m
a ÄŁ
Ġ H
t r
Ġ ma
Ġ E
d en
o l
± z
Ä ±z
t i
Ġv er
Ġy ap
Ġ ar
in i
t ir
Ġt ar
Ġg er
ĠgÃ¶ r
a c
Ã¼ m
Ġil e
Ġ r
ÄŁ i
Ġ ÅŁ
el er
20 1
e v
d u
Ġ Y
ma k
l Ä
lÄ ±
a f
Ã¼ l
Ġb u
Ġ Ä°
o k
Ġ ed
Ġ in
ler i
Ġ an
Ä±n a
Ġda v
il er
Ġkar ar
d ir
Ġ (
Ġ G
Ġ C
u ÅŁ
ĠiÃ§ in
Ġ Ã
Ä±n Ä±n
lar ak
li k
mas Ä
masÄ ±
l en
u s
Ä±l Ä
Ä±lÄ ±
Ġi ÅŁ
e b
Ġs on
i h
Ã¼ ÅŁ
Ã¶ n
Ġu y
e z
Ä±ÄŁ Ä
Ä±ÄŁÄ ±
Ġ et
± s
Ä ±s
e c
Ġs ay
Ä±n Ä
Ä±nÄ ±
>< /
âĢ Ļ
a v
du ÄŁ
Ġ z
Ä±n dan
t Ä±r
u t
o s
Ġo larak
Ġb aÅŁ
d Ä±r
Ġ c
Ġb ul
il ir
Ġde ÄŁ
Ġt em
e Ã§
ĠÃ¶ n
o ÄŁ
Ġy er
Ġ P
Ġ ay
t e
il en
l em
Ġk on
Ġi st
un u
ak i
t a
Ġ O
' n
Ġger ek
r o
i c
la ÅŁ
y or
Ä±l an
il i
k em
iy le
Ġb el
e ÅŁ
Ġg el
Ġs Ã¼r
.. .
1 9
Ġol duÄŁ
Ġma d
Ġtar ih
m Ä±ÅŁ
ed en
an Ä±n
Ġbul un
1 0
l Ä±k
m ek
Ġo r
y iz
as Ä
asÄ ±
m e
al Ä
alÄ ±
Ġa Ã§
iy e
o p
Å ŀ
iÅŁ tir
Ġ Ġ
c a
Ġol an
o m
la ma
Ġi s
ler in
Ġsay Ä±lÄ±
i b
Ġ en
Ġh Ã¼k
t h
Ġ F
r a
Ġtem yiz
Ġb il
a ir
d Ä
dÄ ±
Ġg Ã¼n
iy or
A R
ul lan
an Ä
anÄ ±
l u
ek i
e ce
Ġuy g
e ÄŁ
Ġtar af
i ÄŁ
c ak
un un
Ġ Ã¼z
u z
Ġmad d
ĠD air
c el
Ġy ar
Ġk ullan
ĠÃ¼z er
Ġy Ã¶n
i p
il di
c Ä
cÄ ±
le ÅŁ
t an
ĠB u
Ã¶ r
a ma
in iz
d aki
Ġ R
uk uk
al Ä±ÅŁ
Ġk ur
Ġda h
Ã¼ y
y on
h e
ek il
Ġh ak
u p
Ġ ...
in den
' d
Ġ N
Ġbel ir
ĠgÃ¶r e
ah kem
d Ä±ÄŁÄ±
Ã ľ
m an
t ur
t er
Ġk al
un da
Ã ¢
Ġ "
ĠÃ§ alÄ±ÅŁ
0 0
Ã¼r k
d Ä±ÄŁ
Ġd Ã¼ÅŁ
k in
u Ã§
es ine
t Ä
. ,
Ġo y
tÄ ±
ar k
Ġn eden
Ã¶ z
ib i
en i
Ġg eÃ§
e p
Ã¶ l
y la
20 0
e de
Ġdah a
es inde
iy et
Ġol ma
Ġk ad
Ġd ur
Ġd Ã¼z
larÄ±n Ä±n
ĠÃ§ ok
ĠÃ ĩ
el i
i st
Ġ el
1 8
l Ã¼
as Ä±nda
Ġa d
ĠM ahkem
i d
ÄŁ r
ed ir
is i
Ġk ay
k i
Ġtaraf Ä±ndan
Ġ âĢ
Ã¶ y
Ġh er
ĠDair esi
ĠÃ¶ z
es inin
Ġy Ä±l
ec ek
li ÄŁ
Ġp ar
M A
l et
± t
Ä ±t
m en
ĠK an
lar a
Ġkar ÅŁ
a da
ey e
20 2
Ġ V
Ã¼ t
y e
ay a
Ġy az
ar Ä
arÄ ±
Ġg ibi
1 2
ĠÃ ĸ
en d
Ġin cel
Ġs an
Ġ Ã¼
am an
Ġv ar
er s
ĠA n
ĠÃ§ Ä±k
Ġs aÄŁ
a Ã§
c i
Ġ ek
an s
k en
er i
Ġb o
ĠH ukuk
Ġt he
ilm esi
g i
un a
Ġo n
Ġh al
ar ak
Ġis e
ed i
l ay
Ġy aÅŁ
ĠolduÄŁ u
ez a
e h
Ġson ra
o t
d eki
b ir
ad Ä±r
mak t
m et
t edir
Ġd os
i f
Ġt op
im iz
Ġal Ä±n
Ġma h
c u
uÅŁ tur
m esi
ĠC eza
t en
Ġ L
ĠT Ã¼rk
d Ã¼
1 1
larÄ±n Ä
larÄ±nÄ ±
ac Ä
s el
acÄ ±
eler i
ĠaÃ§ Ä±k
o d
Ġd oÄŁ
makt adÄ±r
er ek
Ġ es
la m
Ġp ro
Ġs or
Ġk at
Ġk ap
1 4
lar da
et im
e f
Ġil iÅŁ
Ġz aman
ac ak
Ġve ya
aÄŁ Ä
aÄŁÄ ±
Ġde v
N A
Ġ I
1 5
Ġ Åŀ
Ġ U
Ġt es
Ġh ar
n i
Ġk ab
s an
st er
Ã ĩ
m iÅŁ
u b
Ġs ah
s a
Ġo f
Ġt ek
Ã§ ek
âĢ Ŀ
Ġ :
t al
el ik
Ġo la
ĠhÃ¼k Ã¼m
ma z
Ġm Ã¼
> Ċ
Ġ ce
Ġ ak
ĠdeÄŁ er
ĠÅŁ ekil
ul an
Ġg Ã¼
1 3
ĠÃ¶z el
ĠdÃ¼ÅŁ Ã¼n
Ġkad ar
Ġhak k
Ġy Ã¼k
h at
ĠhÃ¼k m
Ġdav alÄ±
ĠgÃ¶ ster
E S
Ġ -
Ġ Ã¼r
Ä±m Ä±z
Ä±s Ä
Ä±sÄ ±
e ÄŁi
ler e
Ġyap Ä±lan
E R
mas Ä±na
ay Ä
ayÄ ±
Ã¼y Ã¼k
ĠB aÅŁ
larÄ±n a
en in
Ġed ilm
Ġb aÄŁ
Ġd Ã¶n
Ġs uÃ§
Ġal an
es in
Ġdur um
Ġyap Ä±l
u y
± yor
Ä ±yor
Ġy eni
ĠâĢ ľ
Ġil g
in g
i Ã§
Ġk iÅŁ
ĠÅŁekil de
Ġ w
Ġd en
Ġg ir
g e
T A
Ġt aÅŁ
ĠÃ¶ ÄŁr
ler inin
Ġ at
Ġkab ul
ma ya
.. ..
Ġg en
ar t
mÄ±ÅŁ tÄ±r
ĠiÃ§ er
ĠgÃ¶r Ã¼l
Ġy ol
a de
# #
Ä±n Ä±z
Ġb Ã¶l
ler ini
Ġ as
em e
E M
d Ã¼r
Ã¼n de
ĠdÃ¼z en
r et
iÄŁ er
Ġr ed
im i
le y
Ġs Ã¶z
Ġuyg un
ay an
Ġver ilm
us u
i g
Ġa ÅŁ
Ġy an
ar Ä±n
s iz
Ġger Ã§ek
Ġy et
er k
o c
: Ċ
ES Ä°
1 7
* *
Ġver ildi
ĠÃ¶n em
" Ċ
Ġ ev
t ik
1 6
Ġmadd esi
, Ċ
r am
2 3
Ġt ak
Ġf ark
ĠkarÅŁ Ä
ĠkarÅŁÄ ±
n Ä
es t
Ġk an
ab ilir
Ġk Ä±s
ĠMahkem esi
ÄŁ ini
nÄ ±
Ġa ma
g Ä
d er
gÄ ±
len dir
ma y
Ġor t
a at
lan an
S I
u h
Ġy ak
Ġb ak
Ġo k
Ġu z
Ã ĸ
ĠÃ ľ
en t
Ã¼n e
mek tedir
y i
r u
ĠgÃ¶ z
Ġt ut
r Ä
Ä±n daki
ar a
rÄ ±
Ġk o
r e
Ä±m Ä
Ä±mÄ ±
iz met
li ye
Ġdav a
ĠdeÄŁ iÅŁ
larÄ±n da
Ġan d
Ġi h
Ġal t
Ġdos ya
ĠM et
Ġk az
li ÄŁi
k an
d ur
'n Ä±n
en di
b ar
ĠiÅŁ lem
Ã¼ s
Ä±l Ä±k
as yon
Ġar asÄ±nda
la t
ĠiliÅŁ kin
Ġver ilen
ĠiÃ§ inde
eb ilir
Ġil k
ĠK ur
s iniz
Ġy Ã¼z
19 9
2 5
ĠĠ Ġ
ar et
Ġilg ili
ĠY ar
un dan
t ar
Ġmah kem
ĠA r
2 7
ic i
Ġk end
v en
Ġd il
s Ä±z
Ġn e
Ġb Ã¼yÃ¼k
3 0
Ġh ay
s e
Ġtarih inde
Ġt Ã¼m
et ir
Ä° Ã§
Ġf az
'n in
ĠhÃ¼km Ã¼n
at Ä
atÄ ±
Ġ \
k a
Ġd iÄŁer
iler i
ĠB ir
tir az
âĢĻ n
i on
Ġ eÄŁ
ĠÃ§alÄ±ÅŁ ma
l Ä±ÄŁ
es ini
Ã ®
o z
r an
ti hat
Ġhakk Ä±nda
Ġb en
ol o
ĠdeÄŁ il
Ġet k
l Ä±ÄŁÄ±
Ġs Ä±r
Ġ <
Ġdav acÄ±
Ġbelir t
ul u
h an
Ġs eÃ§
Ġg etir
b ilir
Ġi tiraz
lar dan
Ġce z
ĠMet ni
± la
Ä ±la
ĠolduÄŁ unu
Ä°Ã§ tihat
Ġh izmet
leÅŁ tir
Ġi d
s ek
len en
l o
" Ä°Ã§tihat
G I
Ġist em
ab er
Ġd er
Ġh em
Ġay nÄ±
TA Y
Y AR
H K
Ġh as
Ġs ev
m ey
ĠÃ¶nem li
Ġy as
ĠA l
r af
Ġfaz la
Ġa z
Ġbir lik
Ġt al
ler ine
Ġsah ip
in ce
Ã¼l dÃ¼
ist em
at Ä±r
Ġs er
m iÅŁtir
ĠK ar
2 4
Ġson u
Ġd Ä±ÅŁ
YAR GI
st an
ĠÃ§ ek
t Ã¼r
ĠTÃ¼rk iye
i v
YARGI TAY
c ret
di ÄŁi
Ġol mak
Ġger eÄŁi
d Ä±m
d Ä±k
arÄ±n ca
ĠA y
Ã§ e
Ġy ay
Ġ li
Ġuy arÄ±nca
Ġred d
HK EM
ler de
Ġbo z
2 2
Ġar t
Ġd ol
Ġyer inde
dÄ±ÄŁ Ä±nÄ±
HKEM ESÄ°
Ġv ek
18 6
Ġbulun an
Ġi z
il ik
ĠÃ¶ l
Ġbil g
Ġs eb
Ġkon u
k et
Ġy ok
Ġan laÅŁ
± p
d uk
Ä ±p
g Ä±t
ĠÃ¶ r
ilm ek
ĠÃ¼zer ine
v er
ĠT L
iy at
Ä±l masÄ±
lik le
iz e
Ġs it
ĠÃ¶ÄŁr en
az Ä
azÄ ±
gÄ±t ay
Ġbirlik te
it im
Ġol uÅŁ
.Ċ Ċ
o li
Ġ Z
as Ä±nÄ±n
Ã¼ p
Ġsan Ä±k
Ġs Ã¶y
Ã§ a
Ġi yi
Ġs at
ĠKan un
Ġ *
ĠgÃ¶r ev
v ur
lÃ¼ ÄŁ
Ġi m
p or
Ġi ti
b il
m in
ĠgÃ¶r Ã¼ÅŁ
Ġkaz an
Ġy a
Ġy Ã¼r
Ġed en
MA SI
Ġet ti
tÄ±r ma
s iy
Ġuyg u
ĠÃ¼zer e
Ġdev am
Ġn it
Ġuyg ulan
Ġincel en
iler in
liÄŁ iyle
b et
Ġt er
Ġkap s
ĠgÃ¶ n
Ġt an
ler le
y al
t u
ĠÃ¼ cret
olo j
Ġin san
2 9
2 1
ed iÄŁ
b ul
B u
iz i
Ġz or
Ġ Ã¼l
Ġk am
Ġi ki
Ġ %
' un
s i
Ġ ,
oc uk
al an
2 8
p it
± cÄ±
Ä ±cÄ±
MASI NA
Ġol masÄ±
d ik
s ul
y an
r up
Ä° N
Ġs istem
Ġk or
'n un
ĠYar gÄ±tay
5 0
MA HKEMESÄ°
Ġi f
Ġs av
ĠÄ° n
Ġh az
Ã¼t Ã¼n
em ek
ĠÄ° ÅŁ
ĠdoÄŁ ru
; Ċ
Ġed ilen
Ġd ik
t Ã¶r
ĠÄ° l
) ,
2 6
ĠÃ¶n ce
0 1
Ġol uÅŁtur
l Ã¼k
ĠbaÅŁ vur
duÄŁ u
c Ã¼
Ġt Ã¼r
Ġoy bir
Ġtes pit
D av
in deki
Ġiti bar
ĠE r
at e
Ġt o
Ġdav anÄ±n
t Ä±ÄŁÄ±
lar la
iÅŁ im
ĠgÃ¼ ven
Ġb as
Ġt ah
? Ċ
ĠtaÅŁ Ä±n
ĠgÃ¶n der
Ġf or
ir ket
ĠG en
Ġol up
Ġk i
Ġpar a
Ġkaps am
ap or
Ġs un
Ġg id
g u
Ġm il
Ġ W
Ġ Ø
ler den
Ġvek ili
Ġoy un
ĠdeÄŁer lendir
Ġyar gÄ±
Ä±ÄŁ Ä±n
stan bul
Ġk ol
at ion
mas Ä±nÄ±
) Ċ
ĠÃĸ z
Ġ e
ĠdÃ¼ÅŁÃ¼n Ã¼ldÃ¼
iy as
Ġh ukuk
Ġ J
Ġf a
Ġfark lÄ±
ĠdÃ¶n em
Ġa ÄŁ
Ġd uy
ĠA s
A N
ĠÅŁ ey
Ã¼n Ã¼
ab il
Ġkarar Ä
ĠkararÄ ±
ÄŁ u
Ġh es
Ġ eÅŁ
erk ez
Ġd el
p an
ĠA d
Ġkon usu
Ġb ah
g ram
m i
n ak
Ġyaz Ä±lÄ±
k anÄ±
l uk
Ġk r
Ġd ayan
Ä° L
ĠyÃ¼k sek
Ġhaz Ä±r
5 3
c h
4 0
Ġdos y
Ã¶y le
Ġkur ul
Ġbulun ma
Ġd o
b r
Ã¼n den
Ġes as
et i
m em
Ġd Ã¼n
lem e
Ġm es
Ġgen el
as Ä±l
f or
uk arÄ±
Ġda ir
ma lÄ±
Ġgel en
t em
ler inde
s ik
Ġu laÅŁ
us unda
Ġt ama
Ġneden iyle
r ak
ĠB el
h ur
ac aÄŁ
larÄ±n dan
ti on
Ġkarar Ä±n
Ġb in
o w
ece ÄŁ
Ġ ede
Ġr apor
Ġdik k
m eye
t Ã¼
Ġ er
m uÅŁ
Ä±n Ä±r
eler in
Ġgerek Ã§
u v
ĠtaÅŁÄ±n maz
s al
Ġb ek
Ġtarih li
Ã¼z el
Ġar k
siy on
Ġf Ä±k
ĠÃ¼r Ã¼n
Ġoybir liÄŁiyle
ĠM Ã¼
Ġt ab
s un
ĠbÃ¶l Ã¼m
is inde
ĠE s
r es
i de
E N
Ġkon uÅŁ
0 2
Ġy atÄ±r
Ġk esin
Ġv ekil
ĠE n
Ġm ik
Ġ '
d em
Ġbel g
ab le
ik a
Ġu sul
Ġ un
Ġbo y
' Ä±n
um hur
0 5
ĠÃ§ ev
Ġol ur
or t
eh ir
iler ek
rÄ± ca
ĠB Ã¶l
ĠÅŁ irket
on om
Ä±r ak
Ġdel il
ĠÃ¼ st
Ġson uÃ§
as ar
' in
as Ä±ndaki
ade ce
ĠÃ¼l k
os yal
Ġk Ã¶
ey i
k Ä±r
ĠB ak
u yor
ĠÃ§ ocuk
ĠÄ° stanbul
Ġk im
Ġ l
> -
Ġb Ã¼tÃ¼n
Ġh iÃ§
Ġa it
edi ÄŁi
ĠdeÄŁiÅŁ ik
Ġdil ek
Ġ em
ĠA k
ĠÃ§Ä±k ar
t o
Ġs u
Ġm od
Ġs aat
r i
Ġ $
ĠÃ¼zer inde
Ġseb ep
U L
Ġor an
t Ä±k
Ġbelir len
Ġs Ä±nÄ±r
ar i
ma l
g an
ĠyÃ¶n elik
Ġh at
el t
0 3
ek et
ece ÄŁi
Ġtek n
Ġb an
0 6
m uÅŁtur
unu z
est ek
.. .Ċ
Ġhay at
Ġar aÅŁ
ĠO r
Ġol ay
Ä ŀ
Ġb or
Ġt e
| |
ĠÃ¼ Ã§
Ġola cak
Ġb Ä±rak
ĠA v
Ġk endi
10 0
Ġh av
o y
Ġmadd esinin
Ġger eÄŁ
ĠGen el
Ġm ev
al Ä±k
19 8
M K
Ġi k
Ġan lam
ĠfÄ±k r
Ġol duk
0 9
ol u
may Ä
mayÄ ±
ĠÅŁ ek
0 4
Ġgerek ti
ĠÃ§ Ã¶z
ĠanlaÅŁ Ä±l
ukarÄ± da
s il
ĠbaÅŁ la
Ġs iz
ĠH ak
Ġuygu lama
Ġan cak
ĠKan unun
ĠeÄŁ itim
Ġgerek tir
.... ....
k Ã¼
E L
A n
Ġtak dir
Ġm et
Ġs Ä
Ä±z Ä
Ä±zÄ ±
ĠgÃ¶r Ã¼n
en iz
ĠsÄ ±
u ma
Ġp ay
ilm iÅŁ
ĠÃ¶n c
ter n
ĠP ro
ada ÅŁ
Ġort aya
s Ä
Ġh af
ildi ÄŁi
3 6
Ġi p
ĠbÃ¶l g
Ġma l
s ub
Ġd in
ĠsÃ¶z leÅŁ
sÄ ±
t Ä±ÄŁ
ey en
t iy
Ġz ar
ĠS an
g Ã¼n
ti f
ac Ä±nÄ±n
ĠgereÄŁ ince
Ġed il
o v
in ci
Ġredd ine
Ġyer ine
er li
t able
0 7
) .Ċ
Ġgerek ir
k Ä
or um
d ar
ĠsÃ¼r esi
Ġn asÄ±l
as Ä±na
Ġs adece
m anÄ±n
Ġr es
) .
Ġtal ep
lerin den
O N
kÄ ±
Ġs Ä±k
k Ã¼n
Ġ Ã¼y
Ġid di
lan dÄ±r
Ġay kÄ±r
Ġyar dÄ±m
mas Ä±nÄ±n
E T
lar Ä±mÄ±z
Ġkay nak
Ġt az
m Ã¼ÅŁ
m eler
Ã§ i
Ġt eb
la h
y Ä
Ġm uh
ĠgÃ¼n Ã¼nde
Ġb azÄ±
f a
ĠC umhur
Ġd estek
v an
Ġb iz
ĠK on
ĠĠ ĠĠĠ
tr ol
yÄ ±
Ġar asÄ±ndaki
Ã¼ Ã§
ĠgerÃ§ek leÅŁtir
Ġs al
Ġb ey
g el
az et
Ã¼n Ã¼n
U Ãĩ
ers it
s pan
ĠB il
Ġist en
eÅŁ it
al l
Ù Ħ
00 0
Ġkam u
Ġhal inde
Ġt aki
Ġt el
ĠD er
l ak
3 7
es iyle
y et
abilir siniz
lay an
Ġdilek Ã§
E K
3 5
ĠY as
' t
Ġgel iÅŁ
Ġp oli
l um
Ġc an
Ġ... '
ab et
NA N
Ġm Ã¼m
Ø §
Ġb ur
ĠKan unu
Ġf iyat
n e
Ġed iyor
em iz
Ġh Ä±z
ĠdÃ¼z elt
ĠgÃ¼ Ã§
Ġn ok
ĠyargÄ± lama
Ġp lan
Ġel de
Ġsonu c
Ġm an
en k
ĠbaÅŁ ka
n am
da v
Ġtama m
n ek
Ġma k
Ġn um
Ġs ek
Ġneden le
ĠmÃ¼m kÃ¼n
ĠE ÄŁ
Ġt eÅŁ
oÄŁ lu
f i
et ic
ah at
Ã¼ yor
ĠyÃ¼r Ã¼r
Ġdol ayÄ±
Ã »
= "
Ġyap Ä
ĠyapÄ ±
A L
AR AR
Ġson r
Ġhar eket
ab a
Ġg Ã¼zel
anÄ± t
q u
Ġkat Ä±l
k ara
Ġbil gi
ĠiliÅŁ k
Ġyeni den
Ġkullan Ä±l
Ġedilm ek
Ġhes ap
dÄ±ÄŁ Ä±ndan
Ġb it
ĠaÅŁ aÄŁÄ±
Ġs en
C K
Ġyar ar
ĠbaÄŁ lÄ±
dÃ¼ ÄŁ
ek tr
ĠAn cak
Ġark adaÅŁ
Ġsav un
il e
Ġs ur
ĠyÃ¶n tem
ti v
Ġed er
la mak
NAN MASINA
U K
Ġf ir
Ã¼ÅŁ ter
c ut
Ġt h
Ġet mek
o st
laÅŁ tÄ±r
Ġtaz min
Ġih tiy
ilm esine
is ine
) </
ĠBaÅŁ kan
mey en
ĠY Ã¶n
ĠgeÃ§ ir
az ar
ĠT ar
ĠiÃ§er isinde
ĠÄ° s
ek k
Ġk aÃ§
3 4
el en
Ġsan Ä±ÄŁÄ±n
ĠyÄ±l Ä±nda
Ġsor un
Ġay r
I I
Ġol du
Ġincel em
ĠE k
Ġgerek en
Ã§ ok
n un
Ġ ey
ay et
c aÄŁ
Ġbir i
ĠBel ed
m er
p er
ĠS on
Ġverilm iÅŁtir
Ġdav acÄ±nÄ±n
la masÄ±
Ġkol ay
la s
Ġm ut
ar asÄ±
Ġpro gram
mas Ä±nda
Ġkur um
Ãľ K
ĠalÄ±n an
ĠÃ§ eÅŁit
Ġt asar
Ġp r
di ÄŁ
I N
Ã¼l en
Ġk it
3 8
ĠO NANMASINA
er e
Ġa da
eb il
iler e
g in
r ar
Ġuz un
Ġk om
' a
s uz
ĠÃ¶ÄŁren c
Ġgid er
ĠBaÅŁ kanÄ±
Ġ Ù
od y
o g
Ġkad Ä±n
0 8
ĠmÃ¼ da
Ġgel ir
s up
b er
st r
Ġed ilmesi
âĢĻ da
Ġm erkez
eler e
Ġh an
" >
Ġad Ä±na
e ad
ĠyatÄ±r Ä±m
Ġk av
3 1
Ġb iÃ§
ĠtaÅŁ Ä
ĠtaÅŁÄ ±
Ġt r
ĠsÃ¼r e
Ġif ade
Ġ le
ĠD av
Ġh aber
Ġbil dir
ĠMÃ¼ dÃ¼r
at an
Ġs o
Ġdur uÅŁ
es inden
ul uk
ĠâĢ ĵ
ĠÃ¶zel lik
ĠS ay
os ya
Ã¼l tÃ¼r
Ġip tal
kin ci
Ġkabul Ã¼ne
ĠH az
t b
al e
Ġyak laÅŁ
Ġhar c
al iyet
is inin
ĠÃ¶ d
Ġkal dÄ±r
Ġt am
Ġko ÅŁ
Ġar aÃ§
ic aret
da ÅŁ
an t
Ġoy n
Ä±l mÄ±ÅŁ
* ,
Ġol un
m esine
ĠG Ã¼n
Ġdikk at
6 0
Ġger i
s in
ĠT em
Ġitiraz larÄ±nÄ±n
ĠT CK
Ġpro j
ĠAd liye
Ġk Ä
um lu
ĠÃ¶l Ã§
g il
oÄŁ un
Ġyet k
Ġk es
4 4
Ġm ey
Ġb er
Ä±s Ä±nda
Ġkon usunda
ĠkÄ ±
6 5
Ġ =
Ġtarih i
Ġkay Ä±t
a j
T ar
- i
D A
ĠkiÅŁ i
may an
ĠM il
Ġd ok
Ġver ilmesi
ĠBÃ¶l ge
Ġkarar Ä±nÄ±n
Ġd iye
et men
ed ik
Ġr e
Ġs osyal
Ġkon trol
ĠY ap
Ġtop lan
Ã¼n cÃ¼
Ġcez a
Ä±ÅŁ Ä
Ä±ÅŁÄ ±
han gi
iÅŁ i
t s
Ä° R
ak at
ĠB ur
Ġtem el
c il
Ġ |
is ini
Ġs ig
tb ody
ĠI n
Ġp er
Ġek onom
Ġbak Ä±m
Ġal acak
Ã¼Ã§ Ã¼k
A s
! Ċ
Ãľ M
lem ek
Ġgel iÅŁtir
ĠyÃ¶n etim
Ä±l Ä±ÄŁÄ±
ĠÃ¶zel likle
f er
3 9
ma dan
Ġh is
Ġola bilir
eler inin
L AR
Ġteb liÄŁ
Ġb ed
ĠÃ¼zer inden
al et
t or
Ġbah is
Ã¼m Ã¼z
Ġb un
4 5
it e
ĠÅŁek l
ĠCumhur iyet
ĠiÅŁ let
ĠD ev
um u
Ġzar ar
ek li
Ġvar dÄ±r
Ã¶ k
ĠAn kara
ĠaykÄ±r Ä
ĠaykÄ±rÄ ±
a g
M ahkem
Ġson unda
Ġay rÄ±
Ġyak Ä±n
Ġsur et
ĠÃ§ev r
ef on
ĠaÃ§Ä±k lama
d d
Ġm Ã¼ÅŁter
ĠolduÄŁ undan
Ġh us
Ġitibar en
b aÅŁ
Ġboz ma
ĠsaÄŁ lÄ±k
ni v
ilm iÅŁtir
ĠdÃ¼zen lenen
Ġolma yan
Ġg it
A K
ĠM uh
Ġmahkem ece
el im
ĠR es
Ä±la cak
A Y
Ġter c
dan a
ĠB O
B ir
## #
iyor um
c om
Ġd edi
g Ã¶r
âĢĻn in
âĢĻ de
Ġil eri
z er
Ġbil in
ĠsÃ¼r ec
Ġdev let
ĠM ah
Ġd em
T Ã¼rk
Ġyay Ä±n
Ġmad de
Ġyaz Ä
ĠyazÄ ±
Ġsonu cu
ĠdÄ±ÅŁ Ä±nda
Ġvekil inin
Ä±s Ä±ndan
Ġm u
Ã¼n kÃ¼
E D
dik ten
Ġin dir
ar e
Ã§ Ä
Ã§Ä ±
ley en
4 8
th ead
Ġ /
niv ersit
ĠdeÄŁ iÅŁtir
Ġ la
Ġyol u
4 7
er j
ĠbaÅŁ ar
li m
Ġfa aliyet
Ġbir Ã§ok
Ä° K
Ġmik tar
Ġtaki p
ĠdeÄŁil dir
ede f
Ġce v
Ġm em
is yon
L ER
Ġmod el
Ġek sik
Ġg r
D osya
Ä±l Ä±r
or e
Ġher hangi
Ġalt Ä±nda
Ġtal eb
k um
Ġtazmin at
al t
Ġedilm iÅŁtir
ĠÃ¼r etim
Ġincel eme
ĠBak an
siz lik
Ã¼m Ã¼
ĠAs liye
Ġtop lum
Ġbil e
3 3
Ġko y
m el
Ġpay laÅŁ
oÄŁ raf
d Ä±ndan
ĠbiÃ§ im
e g
lar dÄ±r
Ġc on
Ġs tr
ĠyÃ¶n Ã¼nden
Ġa v
Ġbulun duÄŁu
ĠÃ§alÄ±ÅŁ an
iniz i
ĠÄ°l k
Ġama cÄ±
Ġd ir
o ÅŁ
ĠÅŁ art
ĠÅŁ u
m ez
ĠbaÄŁ lan
Ä±l Ä±ÄŁ
a lar
Ġk ir
Ġama Ã§
Ġterc ih
o bil
ler imiz
Ġor ta
Ä±l masÄ±na
ĠaraÅŁ tÄ±rma
ĠgeÃ§ en
ĠaÃ§Ä±k lanan
Ġmadd esinde
Ġey lem
Ġet kin
ĠÃĸz el
Ġolma dÄ±ÄŁÄ±
Ġyap tÄ±ÄŁÄ±
c ek
ĠA B
Ġden ey
Ġk Ä±r
u cu
ĠaÄŁ Ä±r
Ä±nÄ± f
ĠÃ¶r g
. </
Ġy ukarÄ±da
Ġt at
Ġnit elik
Ġb Ã¶yle
Ġil et
m ir
ĠdÃ¶n Ã¼ÅŁ
5 5
ilmek tedir
Ġsuret iyle
Ù İ
Ġkapsam Ä±nda
ĠB Ã¼yÃ¼k
h t
Ġg rup
ĠT ek
rup a
es s
ĠÃ¼r et
lÃ¼ÄŁ Ã¼
us lar
en ek
ev i
oÄŁ u
Ġz iy
4 9
Ġp iyas
Ġo t
ĠgerÃ§ek leÅŁ
Ġgerek li
Ġkat Ä±lan
r ac
6 7
m eli
c aÄŁÄ±
Z UL
Ġm er
ĠhÃ¼kÃ¼m et
ĠÃ¶ den
v e
eÄŁ in
tern et
' ye
Ġsonuc unda
Ġ </
Ġyap an
as t
Ġedilmek le
ah a
Ġda ÄŁ
l Ã¼l
ĠAy rÄ±ca
. com
. "
Ġs t
Ġzaman da
Ġan al
ĠP ar
ti ÄŁi
b ol
ĠH er
it h
Ġm i
mak ta
Ä° Z
ay Ä±n
ĠgÃ¶z et
ma larÄ±
ul masÄ±
Ġed ildi
ZUL MASINA
Ġmev cut
Ġb e
ĠgÃ¼n Ã¼
ĠkÄ±s m
Ġdav ran
A T
Ġben im
Ġil am
um uz
Ġbelirt ilen
Ġm ark
Ġort ak
Ã¼ b
Ġkan un
Ġsat Ä±ÅŁ
Ġiddi a
Ġyas al
l ek
Ãľ R
Ã¼ c
ĠsÄ±r asÄ±nda
ĠG azet
>- </
g Ä±n
ĠyaÅŁ am
el e
ĠdÃ¼n y
ĠKar ar
± da
im e
Ä ±da
Ġb ilir
_ {
v et
âĢĻ Ä±n
Åŀ ekil
Ġtel efon
Ġ erk
O R
al i
Ġde p
ĠU y
Ġi kinci
Ġh edef
esin ce
ÃľK ÃľM
ĠÄ° Ã§
Ù Ĩ
' e
lÃ¼ÄŁ e
en c
la dÄ±
Tar af
Ġolduk Ã§a
Ġgen iÅŁ
Ġm ek
ĠdÃ¼n ya
in af
u st
Ġr aÄŁ
it y
Ġd iy
Ġy orum
Ġgir en
ĠBO ZULMASINA
19 7
ĠMahkem esinin
Ġan lat
ĠsÃ¶y l
ac aÄŁÄ±
Ġy ine
Ġsek tÃ¶r
et k
Ġ Ã¼n
Ġ mas
Ġ [
iler inin
o b
eler de
ĠkoÅŁ ul
ĠaÃ§ Ä±sÄ±ndan
iy i
Ġt Ã¼k
ĠKur ulu
san Ä±z
Ġs ab
ĠG Ã¶r
ĠE l
larÄ± yla
ĠT he
Ã¢ n
d Ä±n
an k
ĠÃľ niversit
Ġtar t
Ġar dÄ±ndan
Ġr ahat
Ġver en
ĠkÄ±s a
Ġte dav
Ġf ilm
oÄŁ an
ĠT op
es el
kum iyet
ĠraÄŁ men
Ġort am
lan masÄ±
âĢĻ in
ĠhiÃ§ bir
Ġder ece
ĠsÄ±r a
ĠY Ä±l
5 8
Ġetti ÄŁi
is k
man Ä±z
Ġy aÄŁ
ĠB unun
iyor uz
Ġdosy anÄ±n
Ġk Ã¼Ã§Ã¼k
ĠâĢ ĺ
U R
d et
ecek tir
Ġtop lam
c ad
iÄŁ ine
ĠyaÅŁ an
5 23
Ġetk il
Ġbir inci
ĠO n
Ġbed el
ĠyÃ¼z de
ĠD eÄŁ
l uluk
Ġkullan Ä±cÄ±
on g
Ġgir iÅŁ
as Ä±nÄ±
Ġd ay
Ġen gel
Ġyap mak
d in
< br
eÄŁ inin
ĠK ay
ab an
ĠyÃ¼rÃ¼r lÃ¼ÄŁe
ur t
Ä±l dÄ±ÄŁÄ±
ĠÃ§eÅŁit li
ĠÃ¶r nek
Ä±l dÄ±
H ÃľKÃľM
ĠÄ° z
Ġ Â
malÄ± dÄ±r
Ġv ur
Ġkal an
Ġk ez
Ġb Ã¼y
Ġt ap
ĠoluÅŁ an
ĠT ur
Ġdurum da
S UÃĩ
Ã¼l Ã¼p
' s
un ca
Ġim z
Ġt eh
5 27
Ġel ektr
dÄ±ÄŁ Ä±na
Ġbor Ã§
Ġt ur
Ã¼s Ã¼
Ġ ul
em esi
ĠS er
Ġmil yon
Ġtart Ä±ÅŁ
> T
Ġr ek
Ġis im
uÅŁ maz
Ġtan Ä±m
Ä±l ma
oloj ik
Ġseb eb
t in
Ġkal it
S an
d ak
Ġma ÄŁ
Ġbo ÅŁ
ĠEs as
Dav acÄ±
ĠfÄ±kr asÄ±
Ã¼ f
Ġbir bir
6 8
ta j
ĠdÃ¼z ey
men in
Ġverilm iÅŁ
oloj i
ĠsaÄŁ lay
ab Ä
Ġin an
Ä° Y
ĠgÃ¶rÃ¼l mem
w w
Ġis abet
Ġincel endi
3 2
ĠdÃ¼zen len
Ġar ac
abÄ ±
E V
iler ini
Ġm Ä
b i
l ilik
| Ċ
dÄ±ÄŁ Ä±nda
Ġpar sel
Ġy en
Ġzor un
ĠAv rupa
âĢ ¢
ĠiÅŁ in
l Ä±lÄ±k
s man
ĠÅŁekl inde
Ġk Ä±z
$ $
di ÄŁini
c ra
s at
ma dd
ĠmÄ ±
5 7
Ġhaf ta
Ġitiraz larÄ±
in o
ans Ä
ansÄ ±
Ġf Ä±r
Ġu Ã§
ĠiÅŁ ver
Ġad et
ĠH as
Ġ +
ti ÄŁ
ĠÃĸ ÄŁr
Ä° ÅŁ
14 1
Ġr ow
b e
o f
Ġsor u
ler dir
dÄ±k tan
Ã¼k Ã¼m
Ġbelg eler
atan daÅŁ
K ar
ĠH al
l y
ĠÃ¶n gÃ¶r
Ġrow span
ĠyÃ¼k sel
ebilir siniz
ma m
As liye
ĠtaÅŁÄ±nmaz Ä±n
Ġmadd eleri
Ġh ep
Ġver il
Taraf lar
Ġt av
et r
ĠN e
Ġtek rar
Ġ **
ĠdÃ¼zelt me
ama z
Ġk Ã¼ltÃ¼r
ĠdoÄŁ r
Ä° M
- Ċ
ĠiÅŁ Ã§
Ġs il
4 6
n a
> S
Ġred di
Ġhas tal
Ġok ul
s Ä±nÄ±z
in c
d it
li s
Ã¼ ÄŁ
ot oÄŁraf
Ġs iyas
Ġb unun
Ġor gan
at if
de d
mey i
ĠB en
ĠÃĸ n
Ġkur al
Ġor man
k Ä±n
Ġihtiy aÃ§
ab lo
Ġedilm iÅŁ
Ġk as
Ġziy aret
raf ik
eler inde
az i
Ġs p
Ġa c
Ġtut an
ers on
Ġyay Ä±m
u la
Ġuz ak
li yet
9 0
A S
ĠsuÃ§ undan
etk ik
Ġhem en
Ġar tÄ±r
Ä°N E
ĠT r
Ġf ay
Ġs es
s en
m ediÄŁ
h bet
Ġp eÅŁ
c o
ĠalÄ±n arak
ĠA t
ro m
ĠÃ§Ã¶z Ã¼m
Ġbilir k
Ġd es
Ø ±
Ġtarih inden
lu ÄŁ
Ġy oÄŁun
- -
Ġs Ä±nÄ±f
Ġmey dana
l k
ece ÄŁini
A r
< table
eler ine
ĠdÃ¼ÅŁ Ã¼k
Ġv ak
ĠA ÄŁ
Ġs ak
Ġh ap
iy esi
eler ini
ĠEÄŁ itim
Ġc in
. madd
Ä° n
iler ine
6 2
us al
Ġerk ek
ĠseÃ§ im
Ġkullan Ä±lan
Ġredd iyle
ĠD r
Ġd ers
ĠhÄ±z lÄ±
ĠY Ã¼k
Ġneden lerle
as Ä±ndan
Ġp ek
Ġs ap
Ġgr ub
ĠM erkez
ler iyle
ĠK al
Ġist inaf
b o
A P
Ġ ir
Ġr enk
Ġd ak
m eden
Ġincelen erek
Ġok un
if t
laÅŁ tÄ±rma
A B
Ġnok ta
m esini
ĠÃ¶rg Ã¼t
Ġm en
ĠyardÄ±m cÄ±
± larak
Ä ±larak
am p
at Ä±lan
u an
L I
Ġes ki
Ġhis s
ĠsÄ± cak
ĠÃĸ r
ĠgÃ¶rÃ¼ÅŁ Ã¼lÃ¼p
Ġdah il
ĠÃ§Ä±k an
Ġw ith
Ġar a
uÅŁtur ma
ĠduruÅŁ ma
Ġdikk ate
dÄ±k larÄ±
c Ä±lÄ±k
Ġart Ä±k
ay as
ma tik
ĠsÃ¼r dÃ¼r
Ġtap u
sÄ±z lÄ±k
al n
Ġet miÅŁtir
Ġs por
Ù ĩ
h a
ĠN o
ĠH aber
Ġcev ap
ĠyapÄ±l masÄ±
Ġen erj
ĠÃľniversit esi
Ä° S
Ġist eyen
ĠDev let
o cu
Ġkurul uÅŁ
Ġs ize
Ġtekn ik
ĠB ey
ĠV er
u c
b lem
Ġsay Ä±sÄ±
ĠK ARAR
âĢĻn Ä±n
Ġyas aya
ĠY eni
Ã¼ ler
Ġbir ey
Ġhan gi
Ġkullan Ä±m
Ã¶r t
ĠkÄ±s men
Ġtak Ä±m
N E
g en
Ġd et
aln Ä±z
p p
len mesi
ĠD Ã¼n
Ġkan una
an lÄ±
5 9
Ġgen Ã§
Ġil Ã§
lÄ± yor
ĠKur ul
ĠkarÅŁ Ä±sÄ±nda
Ġhal de
Ġber aber
Ġdev r
8 0
Ġor tal
4 2
im di
g a
Ġhal e
ĠaraÅŁ tÄ±r
im in
Ġk il
Ġolmak la
Ġ j
m ed
Ġsat Ä±n
Ġt ed
lu ÄŁu
i j
an Ä±ÅŁ
L A
ĠO k
Ġkur ulan
Ġv atandaÅŁ
ay Ä±sÄ±
om ut
ĠÄ° st
ma t
A l
Ä±r ken
lan arak
Ġol sun
Ġif ad
Ġt hat
Ġc ih
Ġt ip
os u
Ġa dÄ±
ĠÃ§ iz
lan ma
Ù Ī
Ġekonom ik
Ġyar at
Ġmal z
ĠAB D
ĠE v
âĢ ľ
m eleri
6 6
ers iz
ĠamacÄ± yla
Ġbey an
om p
l in
> K
Ġo da
Ġgerekti ÄŁi
7 0
Ġt icaret
Ġon un
" ,
ĠÃ¶ÄŁr etmen
em ez
Ġtab i
ĠyÃ¼r Ã¼t
is el
Ġm ed
h ine
4 3
esin deki
Ä±l Ä±m
Ġtes cil
on u
ĠÃ§ aÄŁ
b ak
Ġ eki
Ġtem sil
Ġneden i
Ġyet erli
Ġel e
........ ........
Û Į
Ġb unu
Ġal mak
em i
Ġden etim
ĠK ad
Ġs ey
Ã¢ l
. âĢĿ
Ġ Ä±s
ĠH ar
er r
ĠsÃ¼r ekli
ĠØ §
TÃ¼rk iye
ili ÄŁi
Ġtem iz
ĠmÃ¼ cad
ĠS aÄŁ
ĠÃ¶n er
Ġpoli tik
d oÄŁan
Ġnit el
Ġbek len
Ã§ Ä±k
t aÅŁ
Ġf in
ĠMahkem ece
Ġf ak
Ġcan lÄ±
iz m
7 5
l ulu
' ya
Ġher k
cel ik
Ġsan at
Ġmahkem e
D I
s ur
as ino
Ä±l mÄ±ÅŁtÄ±r
Ġay rÄ±ca
te p
er n
ĠbaÅŁ lan
Ù ħ
Ġilet iÅŁim
er el
Ġas k
ĠÃ¶d eme
ĠA ma
uslar arasÄ±
Ġar e
Ã¼ ven
ĠyÄ±l lÄ±k
ĠK o
9 9
Ġ X
ĠDer ece
Ġed erek
af a
av c
t arÄ±
im leri
Dav a
Ġ .
Ġbulun maktadÄ±r
Ġu ÄŁr
s unuz
Ġe x
Ä±n tÄ±
li y
ti c
eÅŁ tir
av aÅŁ
Ã¼ le
19 6
ĠRes mi
Ġin ÅŁ
ĠE y
8 5
ĠaÃ§Ä±k lan
an i
V A
is ay
eli ÄŁi
o la
ul t
ĠG el
Ġy anÄ±
k ar
ĠC MK
y as
Ġa il
al ama
Ġkar Ä±ÅŁ
K ARAR
ĠiÅŁver en
ĠO sman
ĠkiÅŁ inin
Ġt esi
lÄ±ÄŁ Ä±n
ist an
ĠG Ãĸ
for m
- Ä
Ġsav aÅŁ
Ġm Ã¼z
. g
ĠV E
Ġmad di
Ġw h
Ġsah ibi
c ort
Ġgel di
Ġiz in
Ġdin len
asyon u
Ġsal dÄ±r
Ġal Ä±ÅŁ
Ġbulunma dÄ±ÄŁÄ±
Ãľ N
unu yor
H P
Ġuz man
or k
ÄŁ inde
Ġf i
for man
m esinde
4 1
-Ä ±
Ġo tur
r en
Ġc ol
Ġnok t
Ġf otoÄŁraf
Ġed in
y o
Ġver diÄŁi
Ġboy ut
Ġp azar
ĠBeled iye
ĠÃĩ Ã¼nkÃ¼
Ġin ci
larÄ±n Ä±z
Ġuygulan masÄ±
Ġeki p
us unun
aban cÄ±
ĠgÃ¶ster ilen
Ġy at
Ġan a
ĠsÃ¶yl edi
t eki
S ON
ĠA h
6 9
ĠbaÅŁvur u
Ġk Ã¶y
U M
a larÄ±
ĠB iz
uk at
an lar
ĠdeÄŁiÅŁik lik
Ġ &
Ġma Ã§
s u
Ġpro blem
ĠÃ¶ dem
ate j
al at
ĠyÃ¶n et
ĠÃ¶z g
ĠpeÅŁ in
Ġharc Ä±nÄ±n
Ġsev iy
ĠO y
Ġkit ap
s er
ĠbiÃ§im de
Ä±lÄ± yor
Ġin ternet
uy u
A y
Ġdavran Ä±ÅŁ
5 2
ĠK as
Ġtarih ine
Ġhukuk i
t im
at ur
unu p
K ap
Ġ... ,
Ġyan Ä±nda
Ġbu gÃ¼n
Ġsistem i
ĠmÃ¼da fi
Ġo to
Ġo p
Ġbilirk iÅŁi
Ġs ar
m esinin
Ġhas ta
Ġalt Ä±na
Ġolacak tÄ±r
ili p
ĠV e
lan mÄ±ÅŁ
ĠgÃ¶rÃ¼l mÃ¼ÅŁ
ĠÃ¼Ã§ Ã¼ncÃ¼
acak tÄ±r
ĠaÅŁaÄŁÄ± daki
ÅŁ ehir
lama ya
Ġsor um
ĠsÃ¼r eÃ§
Ã§ ev
y er
Ġhap is
ĠYas anÄ±n
ĠK r
Ä±s Ä±nÄ±n
Ġoyun cu
Ġfir ma
ĠÅŁ eh
ili ÄŁ
l ine
de ÅŁ
ĠM ar
Ġboy unca
Ġm ez
o ur
Ġser v
Ġb y
m uz
ĠÃ§ er
aÄŁ Ä±t
Ġd iz
ĠS Ã¶z
Ġsay esinde
g isi
dÃ¼ÄŁ Ã¼
ĠC M
Ġi y
ĠdÃ¼zen lem
r at
lÄ± dÄ±r
ĠA b
Ġfa iz
Ġt anÄ±
Ġhav a
Ġuy uÅŁmaz
ĠdoÄŁ al
Ġk ut
Ġs ok
Ġol sa
Ġincelen mesi
em in
ĠÅŁ ik
s on
Ġy alnÄ±z
Ġver mek
ĠAl lah
li yor
ĠbaÄŁ Ä±m
ĠÅŁ ah
ĠÅŀ ub
ĠbakÄ±m Ä±ndan
ĠSay Ä±lÄ±
Ã¢ r
Ġist ek
ark en
Ġisabet sizlik
ĠyaklaÅŁ Ä±k
abil ecek
or mal
< sub
ĠD aha
m ar
ĠYÃ¼k sek
Ġtr ans
' i
l Ä±ÅŁ
Ġetk ili
Ġyap tÄ±r
Ġf ik
Ġbel li
ĠO l
Ġad Ä±m
Ġli st
ĠYÃ¶n etim
Ġbilg iler
h ar
Ġh ey
Ġtes t
ir a
ĠB un
ĠseÃ§ enek
Ġkabul Ã¼
laÅŁ ma
Ġi t
Ġyap Ä±lacak
ak k
ef er
on e
ĠA li
ad olu
Ġboz ul
ver iÅŁ
âĢ¢ Ċ
Dav alÄ±
ĠiÃ§er iÄŁine
ĠH ay
ekk Ã¼r
Ġ Ä±ÅŁ
ma dÄ±ÄŁÄ±
h i
Ġkonu da
Ġyan i
ĠR us
Ġolma dÄ±ÄŁÄ±nÄ±
it al
Ġr isk
k aÃ§
Ġf on
ĠtÃ¼r lÃ¼
ĠM eh
Ä±yor uz
Ä±la bilir
E n
ĠTar ih
k il
Ġkesin leÅŁ
b a
53 2
d um
M ESÄ°
b est
ist ik
Ġaz al
Ġnum ar
ayÄ±sÄ± yla
Ġed ilir
Ù Ĭ
Ġso hbet
Ġb ay
Mahkem ece
ĠM A
Ä±yor um
Ġp at
6 10
Ġdosya daki
nam e
ĠiÅŁ aret
isay ar
g un
ĠsaÄŁ lan
h al
S on
im ler
Ġada m
Ġa b
ĠÃ§ ar
imiz in
ĠbaÅŁla dÄ±
Ġw eb
Ġp erson
d im
Ġn er
Ġb ar
ĠgeÃ§ erli
Ġgerek mektedir
T em
ĠE t
Ġt ep
Ġist eÄŁinin
p ar
Ã¼ cÃ¼
ĠÃ§ ocu
T L
Ġas Ä±l
ĠK am
p r
7 7
im li
y ar
Ġi ad
ĠE m
mak la
Ġhal k
Ġitibar iyle
Ã¼ st
ĠÄ°n gil
ĠsÃ¼r esinde
Ġin f
liÄŁ ini
Ġkav ram
ĠaÅŁ ama
Ġtah sil
Ġhus us
'n de
ĠCM UK
SON UÃĩ
men t
al Ä±nÄ±n
ad Ä
st ro
v ekk
Ġa m
lat form
ĠhÃ¼km Ã¼
mas Ä±ndan
ĠkiÅŁ iler
Ġban ka
ĠkarÅŁ Ä±lÄ±k
ĠbaÅŁ lay
ĠgÃ¼ven lik
adÄ ±
ĠÃ¶nc eki
Ġn ak
Ġs in
eli dir
us ur
Ġtama men
v i
es e
ĠM ay
Ġt Ä±k
Ġsavun ma
y le
ĠD em
an a
f et
Ġdurum u
Ġart Ä±ÅŁ
5 00
Ġdurum unda
ĠMÃ¼dÃ¼r lÃ¼ÄŁÃ¼
az a
Ġan lay
ĠdilekÃ§ esinde
iyet i
Ġbulun duÄŁ
Ġk anÄ±t
d ay
B aÅŁ
Y ap
c Ä±sÄ±
ĠmÃ¼ vekk
Ġol uyor
Ġfor m
Ġkay b
Ġb on
U N
Ä±ÅŁ ma
Ġistem inin
ĠBakan lÄ±ÄŁÄ±
âĢĻ a
ĠÅŁ ehir
Ġed ildiÄŁi
ĠdÄ±ÅŁ Ä
ĠdÄ±ÅŁÄ ±
uv ar
on ik
Ġmadd esine
tÄ±ÄŁ Ä±nÄ±
Ġbiz im
n eÄŁin
Ġn ot
ide o
ĠbaÅŁ arÄ±
h er
Ġist ediÄŁ
imiz e
Ġben z
em ey
ĠU z
ĠB ay
um suz
Ġbur ada
Ã¼l t
Ġbir liÄŁiyle
iz ik
ĠgÃ¼n lÃ¼k
Ġpro f
Ġt ec
ĠKanunun un
t el
ĠÃĩ alÄ±ÅŁ
s avc
S T
al a
7 8
Ġes er
Ġbir az
Ã¢ m
Ġal dÄ±ÄŁÄ±
Ä±s Ä±na
. nun
ot or
Ġverilm esini
Ġmil let
5 6
al Ä±m
lÄ±ÄŁ Ä±nÄ±
ĠaÅŁaÄŁÄ± da
c an
ĠgÃ¼n cel
Ġdav asÄ±nÄ±n
imiz i
ĠhÃ¼kÃ¼m l
n et
ic h
Ġsonr asÄ±
Ġper forman
Ġcol span
Ġyan lÄ±ÅŁ
Ġortal ama
ĠA K
Ġdak ika
Ġad res
Ċ Ċ
ĠgeÃ§ ici
Ġb una
Ġk ul
b u
Ġet miÅŁ
ĠÃ§er Ã§ev
ĠbaÅŁ lat
Ġben zer
ĠY ayÄ±n
Ġk ent
tan d
Ġede cek
AR A
ĠA mer
Ġdelil lerin
ĠaÃ§ Ä±lan
r em
Ġun sur
s Ä±n
y um
Ġal ma
ec t
Ġvar sa
Ġil er
ĠKur um
Ġtasar Ä±m
Ġp uan
leÅŁ me
Ġd al
ada stro
at a
r os
ĠM an
Ġid are
Ġanal iz
t p
ĠDair emiz
ed iye
r ek
7 9
Ġk usur
s im
da m
ir an
l Ä±nda
Ġh ac
ed eki
st a
ĠT etkik
Kap atÄ±lan
ĠÄ°z mir
ĠsaÄŁ lar
ĠyÃ¼rÃ¼r lÃ¼k
ĠH av
Ġan da
ay i
Ä° lk
Ġhakk Ä
Ø ¯
ĠhakkÄ ±
ac a
Ġd ar
ĠTek n
ĠdÃ¼ÅŁÃ¼n c
Ġk eÅŁ
ĠgÃ¶rÃ¼l en
ĠAn ayas
Ġmah kumiyet
Ġk ah
Ġtutan ak
e x
Ä±s Ä±nÄ±
Ġdet ay
Ġyap ma
r im
ĠEr doÄŁan
ĠMuh ak
Ġ #
ilm e
Ġon u
/ /
Ġgel ecek
Ġb az
tal ya
L Ä°
E C
ec i
Ġor anÄ±
Ġak tar
Ä±na v
ĠmaÄŁ dur
Ġgerekti ÄŁini
Ġcez asÄ±
ter ek
Ġsay Ä
ĠsayÄ ±
o u
Ġyer el
Ġiptal i
Ġp oz
5 4
Ġy emek
Ġtes lim
ĠMahkem esince
Ġo per
'n a
on s
5 1
Ä±nÄ±z Ä
Ä±nÄ±zÄ ±
Ġd Ã¶rt
ĠM art
ĠdÃ¶nem de
Ġay lÄ±k
19 5
8 9
Ġnit eliÄŁi
eceÄŁ iniz
is an
Ġsit esi
Ġk aÄŁÄ±t
ÅŁ Ä
dÄ±ÄŁ Ä±nÄ±n
ĠK ullan
ut bol
Ġstr atej
b Ã¼s
ĠAn adolu
Ġkend isine
Ġm in
ÅŁ am
Ġpar t
Ġbelir li
end ik
Ġal acaÄŁ
Ä° H
t Ä±m
ĠbaÅŁar Ä±lÄ±
ĠBeled iyesi
las yon
ĠK ap
ĠDÃ¼n ya
un an
s ak
Ġsig or
Ġin s
la dÄ±ÄŁÄ±
Ġcih az
ĠiliÅŁkin dir
ĠAl t
kem iz
ĠB as
Ġm o
'n e
Ġun ut
Ġg azet
Ġb ilm
Ġpar Ã§
ĠteÅŁ ekkÃ¼r
ĠÃ¶l dÃ¼r
a dan
Ġp o
ÅŁÄ ±
Ã¢ k
y anÄ±n
ĠG Ã¼ven
m ediÄŁi
r ik
Ġhar Ã§
ĠgeÃ§ miÅŁ
ĠMil let
Ġdav alÄ±nÄ±n
MESÄ° NE
Ġfak tÃ¶r
Ġkr edi
Ġr uh
n in
Ġy Ä±k
Ġter Ã¶r
Ġy Ä±lÄ±
em eleri
Ġolma dÄ±ÄŁÄ±na
g o
ĠGazet e
ĠÃ¼cret i
Ġhes ab
lik leri
ĠÃ§ ift
r esi
t on
Ġb eÅŁ
ĠG eÃ§
Ġed ilerek
ĠU l
Ä ģ
ĠS ur
Ġs aÃ§
Ġgerekir ken
ED D
Ġad ay
ar d
Ġted bir
A M
Ġkat kÄ±
: //
Y erel
ĠD oÄŁ
lÄ±k lÄ±
Ġday alÄ±
Ġan la
Ġkay bet
Ġal ey
6 3
ĠHaz ine
p at
Ġmek an
} {
Ġdayan dÄ±ÄŁÄ±
Ġtespit i
Ġbir kaÃ§
E r
Ġsil ah
Ġg ec
Ġmah all
Ġede bilir
ĠalÄ±n masÄ±
Ġg ez
Ġbas Ä±n
Ġdosy asÄ±
caÄŁ Ä±nÄ±
iy on
or m
Ġkap at
Ä° T
Ġtop rak
Ã¼l Ã¼
ĠaÅŁ a
en s
> D
( KapatÄ±lan
ĠyazÄ± lara
ar y
ĠyaÅŁ ad
Ġr ol
aÅŁ a
I L
ĠsaÄŁ lamak
r ans
Ġh Ã¼c
Ġhukuk a
ĠÃ¶n celik
tand art
Ġyok tur
ĠhÃ¼kÃ¼m ler
. '
Ġyap tÄ±k
ĠB Ã¶yle
Ġz am
ĠiÅŁ e
Ġv az
ĠsÄ± f
> M
aÅŁ tÄ±rma
ĠÅŁik ayet
^ {
ĠkarÅŁÄ± laÅŁ
Ġol umsuz
A Åŀ
u d
Ġm Ã¼k
ĠMeh met
. e
ĠS osyal
ĠB ah
ĠS Ã¼r
elen dir
Ġres mi
Ġal anÄ±
Ġzaman aÅŁ
Ġf es
mÄ±ÅŁ tÄ±
d ek
. )
Ġan Ä±lan
Ã¼m e
em ent
uv vet
Tem yiz
mek te
Ġon ay
8 8
len me
at en
ust afa
er al
Ġdelil lere
lan dÄ±
Ġbil im
Ġist iyor
Ġtop lanan
ul h
Ġgenel likle
f rac
ĠAÄŁ Ä±r
ĠkÃ¶ tÃ¼
ĠdilekÃ§ esinin
eb ek
Ġmes aj
lÄ±ÄŁ Ä±na
ĠT er
ĠHak k
is indeki
ĠgÃ¼Ã§ lÃ¼
Ġc id
Ä° Åŀ
Ġk elim
z u
iniz e
Ġtedav i
Ġol masÄ±na
Ġistem iÅŁtir
Ġv Ã¼
Ġol muÅŁtur
k u
ĠgerekÃ§ esiyle
en gin
I R
Ġp latform
Ġsahip tir
Ġy abancÄ±
Ġs ol
Ġa h
Ġd on
Ġsiz in
Ġbulun masÄ±
ĠH at
ĠPar ti
Ġi cra
ak et
Ġbelir terek
Ġist er
ĠT h
> B
ĠMay Ä±s
ĠdeÄŁ eri
Ġh atÄ±r
Ġm Ã¼l
U MK
Ã ©
Ġnitel iÄŁ
Ã¶ v
iz yon
6 1
am i
li f
is e
Ġser best
Ġkarar Ä±na
ĠI I
ĠÅŁ Ã¶yle
D E
g at
Ġkapsam Ä±na
Ġhal ine
m anÄ±
Ġtekn oloj
Ġde f
ir i
a i
Ãĸ z
ĠPro f
ĠÃ¼cret siz
Ġs ez
Ġb es
L E
Ġyarar lan
or d
Ġb ayan
Ġb et
olo g
6 4
Ġar ama
y Ä±l
O r
Ġbas it
Ġmed ya
Ġh am
ĠÃ§ocu ÄŁ
Ġtut ar
% </
: **
Ġok unup
Ġt as
asÄ± yla
Ġn et
Ġg iz
Y ar
Ġal dÄ±
x t
Ġkar ak
Ġola bil
ĠÃľ r
Ġzor unda
ĠBaÅŁ savc
iz asyon
. Åŀ
lar ca
Ġoran Ä±nda
ĠC h
Ġdo lar
ilen dir
iv e
Ġver ir
Ġay Ä±r
Ä±lÄ± p
ĠR EDD
Ġyan dan
Ġ x
al li
larÄ±n daki
Ġyap tÄ±
ĠgÃ¶rÃ¼l meyen
s ed
ĠAl man
lÄ±ÄŁ a
Ġet tik
Ġkay n
Ġn o
ĠD en
Ġb end
Dosya daki
ĠTem muz
Ġan n
l ediÄŁi
ac h
Ġsap tan
ĠiÅŁ yer
ĠÃ¼zer indeki
Ġhastal Ä±k
en er
Ġnum arasÄ±
i den
Ġy ansÄ±
ĠÃ¶n Ã¼nde
k siyon
ĠB ank
ĠH izmet
e w
ĠbaÅŁ Ä±na
Ġb ec
Ġg iy
Ġbulun mayan
Ġolan ak
ĠH an
G Ã¼n
ĠS t
Ð µ
ur e
Ġyer i
Ġzorun lu
Ġid ar
Ġi bar
Ġverildi ÄŁi
g eÃ§
ĠdoÄŁru dan
Ġver di
âĢĿ ,
Ġyer leÅŁ
ĠY aÅŁ
ĠS u
lÄ±k la
ore x
ĠÃ¶l Ã¼m
Ġsay f
ebil ecek
ĠDair esine
ek tÃ¶r
Ġkar deÅŁ
ĠEÄŁ er
Ġitibar la
ĠM ad
in a
ĠB ul
l Ã¼m
Ġolma ya
Ġban a
ĠK at
Ġk alÄ±
b ah
eÅŁ il
Ã¼p h
ĠK or
ĠEy lÃ¼l
ĠkÄ±s Ä±m
Ġli s
Ġyer de
ĠbaÅŁ kan
ĠS o
Ġb ize
et ik
Ġolun an
ĠM al
g ar
Ä±r sÄ±zlÄ±k
Ġt ay
ek siyon
ĠO cak
Ġm ir
Ġw as
iv ersit
Ġgerek iyor
Ã¢ h
ĠB or
ĠgÃ¶ster en
m it
lÄ±ÄŁ Ä±nÄ±n
Ġma kin
ĠD ur
ĠH UMK
ĠÃ§Ä±k tÄ±
ĠgÃ¶rÃ¼l mektedir
.madd esi
en ce
ĠbaÅŁvur unun
ĠÃ¶nemli dir
Ä±z a
un daki
Ġma liyet
ĠT icaret
ĠkonuÅŁ tu
gu lama
Ġet mektedir
Ġkor un
Ġm obil
Ġ emek
: Asliye
Ġsor umlu
ĠalÄ±n masÄ±na
d Ã¼k
Ġev rak
'n da
8 7
Ġet tir
den in
Ġb ab
Ġbilg isayar
la cak
Ġtan Ä±k
ĠM es
Ġn ormal
ĠÃ¼lk e
Ġtesi s
Ġn Ã¼f
ĠKas Ä±m
A D
ĠeÅŁ it
Ġtop lu
Ġpar Ã§a
Ġil an
Ġenerj i
Ãľ Åŀ
ĠÄ°n san
ĠÃĩ ocuk
ĠÅŁ ar
Ġhay van
San Ä±k
cÄ± lar
g ili
Ġok u
iy atÄ±
ĠAy nÄ±
ey in
g esi
Ġkon ut
ĠK om
ĠiÅŁ len
Ġtem in
Ġk ey
dik leri
Ġsonr asÄ±nda
ĠG er
âĢĻ e
± ma
Ġko v
ĠÃ¶ngÃ¶r Ã¼len
Ä ±ma
Ġfay d
ĠdÃ¼ÅŁ Ã¼r
Ġteh lik
ĠØ§ ÙĦ
ĠB it
ĠN isan
< sup
E B
ation s
ĠiÅŁ le
ĠiÃ§er en
Ġistem ine
Ġelektr ik
ama ya
el l
Ġm is
ey n
Ġ ef
ĠTem yiz
Ġkon um
Ġes n
Ġneden leri
ĠD iÄŁer
. .Ċ
Ġbulun dur
id det
it esi
Ġp op
eler den
Ä±ÄŁ a
v el
ĠhÃ¼km ed
Ġet me
Ġdes te
t Ä±lÄ±
ĠtÃ¼r Ã¼
ĠÃ¼y e
15 0
Ġart tÄ±r
ĠS por
ic al
ed im
Ġkarak ter
- S
H er
ĠP oli
Ã¼k m
T ablo
b in
am et
Ġol muÅŁ
Ġak Ä±l
eler le
ĠB ar
ĠA f
ĠyÃ¼z den
± yla
Ä ±yla
t is
Ġar asÄ±
Ġdir en
O L
Ġperson el
> A
d Ä±z
ĠÃ¶zellik leri
Ġfin ans
ĠM ustafa
Ġh ik
Ġm ar
Ġalan Ä±nda
Ġsab it
ĠiÅŁlem i
Ġnumar alÄ±
. C
ce ÄŁ
ĠS or
em en
ĠE f
Ã¼n deki
ĠgÃ¶rev i
Ġverilm esine
Ġhizmet i
ĠT ak
Ġbulun muÅŁtur
Ġd is
Ġiad esine
ĠgÃ¶nder ilmesine
Ġver gi
ĠÄ° li
Ġetk isi
Ġhas tan
Ġmik tarÄ±
ĠiÃ§er ik
ĠHaz iran
ĠAy dÄ±n
Ġtah s
A Z
ĠÃĩ ok
Ġad li
iz el
dÄ±ÄŁ Ä±mÄ±z
Ġ lo
> (
ĠyapÄ±l dÄ±ÄŁÄ±
ĠaÃ§ Ä±l
ĠÃ¼n iversit
Ġgel iyor
ĠF ak
Ġa van
Ð °
ĠEk im
O S
ĠdoÄŁr ult
alan dÄ±r
ĠyayÄ±m lanarak
Ġk uÅŁ
Ġorta dan
ĠG ir
j en
Ġd u
Ġek len
ĠS istem
ov a
Ġsay Ä±da
ĠiÃ§er isindeki
Ã¼y le
t aki
ĠOsman lÄ±
Ä°L ER
mediÄŁ inden
er ler
on d
ĠgÃ¶rÃ¼lmem iÅŁtir
liÄŁ in
ĠÃ¶nc esi
e ar
an an
om an
Ġd emek
Ø ª
Ġy um
ĠMA HKEMESÄ°
ĠM ec
ĠMerkez i
ĠÃĩ ev
N D
ĠT Ã¼m
âĢĻ un
ĠbaÅŁlan gÄ±
Ġv ideo
Ġc asino
Ġkar t
ad aki
ĠÄ° dar
Ġz engin
Ù Ĳ
. K
- b
Ġf izik
g er
ma lar
ic ari
in t
ĠF akat
e mal
ey le
Ġkullan arak
anÄ± yor
Ġdav ada
str ong
t ak
ĠyÃ¶n etic
o us
liÄŁ ine
ĠyÃ¼rÃ¼rlÃ¼k te
Ġal Ä±r
8 1
Ġkay d
Ġavan taj
Ġcid di
ĠD o
da ÄŁ
Ġk en
il ecek
Ä±nÄ±z a
ĠkiÅŁ isel
7 2
Ġg ece
Ġmem nun
o un
I M
Ġtar z
ĠSaÄŁ lÄ±k
ĠiÃ§ ine
± f
Ä ±f
Ġf akat
ĠsuÃ§ un
ĠT an
il l
Ġo b
ul up
ĠÃ¶r n
ler ce
ĠDair esinin
i es
ĠbaÄŁÄ±m sÄ±z
Ä±n ca
8 6
ĠdeÄŁerlendir me
Ġil aÃ§
Ġav ukat
ĠÙ Ī
Ġbelir lenen
âĢ ĺ
Ä°L MESÄ°NE
lam anÄ±n
i a
Ġkazan dÄ±r
Ġf rom
ĠD A
Ġoybir liÄŁi
uz ey
h end
B en
Ġo ÄŁ
- K
Ġyok sun
lama z
ĠsaÄŁ layan
k e
Ġn es
Ġal Ä±m
r as
ĠmÃ¼vekk il
ĠP er
Ġvek alet
s ay
en Ã¼z
a di
larÄ±n Ä±zÄ±
10 8
Ġinsan lar
Ġkend ini
in al
ĠolduÄŁ una
ĠB aÄŁ
Ġbulun du
Ġman evi
ĠgÃ¶rÃ¼n tÃ¼
Ġmut lak
ĠAr alÄ±k
Ġc Ã¼m
ĠeÄŁ it
ĠgÃ¶rev li
Ġsonr aki
Ġtar Ä±m
' l
Ġth is
' Ä
il ebilir
Ġkor u
ĠbaÅŁ layan
ĠÃ§ar p
ĠK Ä±r
Ġalan da
ĠÃ¶ÄŁr etim
Ġinsan larÄ±n
Ġkalit eli
ĠÃ¶lÃ§ Ã¼
ĠdoÄŁrult usunda
'Ä ±
at Ã¶r
Ġet mesi
ĠÃ¶zg Ã¼r
Ġbir im
Ġincelem esi
ĠfÄ±r sat
y ap
ez i
Ġg ay
ĠkaÄŁÄ±t lar
an d
Ġyer e
** ,
- p
ĠhÃ¼kÃ¼m leri
Ã¶ ÄŁr
ĠÃ§alÄ±ÅŁma larÄ±
i ir
T he
Ġyap Ä±la
Ġes cort
Ġmark a
A k
siz in
ĠB una
Ġuygu la
Ġduy ur
Ġolay da
Ġfon ksiyon
a mak
ĠaykÄ±r Ä±lÄ±k
ĠD Ã¼z
te xt
ĠolduÄŁ unun
P ro
Ġs h
ĠiliÅŁ ki
baÅŁ kanÄ±
ar lar
ĠsaÄŁ la
il t
Ġolma z
Ġs Ä±nav
ĠÃ§ at
Ġol umlu
lan mÄ±ÅŁtÄ±r
ĠK it
19 2
Ġteh dit
Ġban k
Ġdinlen dikten
Ä±mÄ±z a
Ġhar it
ĠF orex
Ġarac Ä±lÄ±ÄŁÄ±
aÄŁ a
dÄ±ÄŁ Ä±nÄ±z
es yon
. S
Ġs air
Ġmir as
g r
Ġm ec
Ġh Ã¢l
s it
es iz
Yap Ä±lan
ak a
Ġtakdir inde
w e
ĠYar dÄ±m
Ġbelirlen mesi
Ġon a
am Ä
ĠiÅŁ Ã§i
Ġek ran
Ġp an
amÄ ±
Ġul uslararasÄ±
Ġgerekti ÄŁ
sÄ±z Ä±n
Ġf er
3 21
Ġson a
ĠMil li
ĠmÃ¼dafi inin
E k
izel ge
ĠtebliÄŁ nam
Ġsor uÅŁturma
ĠS el
Ġyay gÄ±n
ĠB er
ĠÃ§ Ã¼nkÃ¼
Ġm otor
da sÄ±
Ġh oÅŁ
ĠS al
ĠmÃ¼ÅŁter i
ĠkatÄ±l Ä±m
s o
Ġder ec
ĠÃĸzel likle
Ġmes lek
_ _
ĠgÃ¼ven ilir
lan Ä±r
ĠY ukarÄ±da
ĠM od
l or
19 1
ĠdavalÄ± lar
Ġbedel inin
Ġyolu yla
19 4
in d
du c
ĠAnayas a
ĠÅŁ Ã¼ph
Ø ¨
Ġn etic
Ġetkin lik
ĠyaÅŁ ayan
ir Ã¼s
Ġolduk larÄ±
s as
st it
Ġn edir
ĠÃ¶ ÄŁ
Ġs tandart
t ul
ĠA ÅŁ
ig ht
Ä±r Ä
M E
em iÅŁ
Ä±rÄ ±
in Ã§
Ġs em
a ce
ĠhÃ¼k me
b al
Ġkim s
ĠiÃ§ i
ĠG erek
Ġel eÅŁtir
ĠtÃ¼k et
Ġtat il
I Åŀ
DA VA
r on
tiÄŁ imiz
ĠÄ°s lam
ĠmÃ¼ dÃ¼r
ĠaÃ§ Ä
g am
co in
ĠaÃ§Ä ±
ĠsuÃ§ a
ĠÃ¶n Ã¼ne
lendir me
Ġhat ta
Ġa ile
ĠyapÄ±l mÄ±ÅŁ
B oz
ed iy
Ġdav asÄ±
Ġesas tan
9 5
ĠgÃ¶zet ilm
u larak
Ġmad denin
ĠdÃ¼zen leme
Ġay ak
qu ad
B Ã¶l
ĠsÃ¼r Ã¼k
ĠkiÅŁ ilerin
in k
ĠHak imi
Ã¼mÃ¼z de
ĠyÃ¼z ey
ediÄŁ ini
Ġrek lam
- M
Ġredd ini
Ġn ci
ab ilmek
ek ili
acaÄŁ Ä±z
Ġot el
1 20
Ġce p
ĠY ak
. D
Ġperforman s
9 7
duk tan
âĢĻ ye
Ġyarar Ä±na
Ġden iz
Ġkan al
ĠyalnÄ±z ca
men iz
. "Ċ
am sun
Ä±m da
esyon el
ĠYas a
Ġtakdir ine
Ġbulunma dÄ±ÄŁÄ±ndan
ĠsaÄŁlÄ±k lÄ±
Ġsig ort
Ġver me
> G
ĠgÃ¶rÃ¼n t
ĠMahkem esine
ĠAr aÅŁtÄ±rma
ĠyÃ¼k Ã¼m
ĠÅŁ imdi
19 3
$$ Ċ
ĠyÃ¼k let
9 8
Ġg ar
Ġmil yar
en e
H Ã¼kÃ¼m
st os
ĠhazÄ±r lanan
ma masÄ±
Ġder in
ĠAh met
Ġetti ÄŁ
n iyet
Ġak tif
Ġyap arak
Ãľ Z
Ġkurul masÄ±
ĠM ak
3 00
Ġad lÄ±
Ġb eni
ĠÅŁ iddet
Ġcez asÄ±nÄ±n
Ġmalz em
I n
ĠÃ¶ÄŁrenc iler
âĢĻ den
lar daki
Ġber aat
ĠÃ¶n e
ĠfÄ±kr asÄ±nÄ±n
Ġy anÄ±t
ĠuyuÅŁmaz lÄ±k
Ġpoli s
ĠoluÅŁ tu
ĠÄ°li ÅŁ
Ġgerektir ici
Ġmahkem enin
Ġih l
ĠKam u
b it
ww w
Ġf utbol
ĠMah kumiyet
ed er
ĠK Ä
Ġsez on
at Ã¼rk
un larÄ±
ĠKÄ ±
Ġfark lÄ±lÄ±k
ĠsaldÄ±r Ä
ĠsaldÄ±rÄ ±
Ġpiyas a
ost a
ÄŁu stos
ĠF rans
Ġincelem ede
ĠSan Ä±k
ĠL is
ĠÃ§alÄ±ÅŁma lar
Ġsiyas i
Ġyas a
> C
ek im
tÄ±ÄŁ Ä±mÄ±z
d ro
ĠdavacÄ± ya
ĠY az
ĠeÄŁ len
Ġn eler
Ġil gi
ĠgÃ¶ tÃ¼r
ad em
Ġfik ir
Ġede b
Ġkazan Ã§
ĠD eniz
f t
ĠB azÄ±
b ur
Ġal Ä±yor
ĠyaÅŁan an
ĠREDD Ä°NE
ĠH Ã¼kÃ¼m
lulu ÄŁu
ĠÅŀub at
Ġharc Ä±n
el s
ac k
Â ±
ĠbaÅŁ Ä±nda
ĠB oz
f ak
Ġdeney im
ĠY ani
liÄŁ e
ley ici
ĠgÃ¶r mek
ĠbaÅŁ k
Ġask er
Ġhak sÄ±z
ĠD Ã¶n
ĠdÃ¼ÅŁÃ¼n Ã¼yor
Ġetti ÄŁini
tion s
Ġol maktadÄ±r
Ġaz alt
Ġmer ak
Ġdok tor
ĠÃ§ ap
Ġ um
Ġtut ul
Ġanlam da
Ġkarar Ä±nda
t ay
Ġen f
Ġpro t
ĠgÃ¶rÃ¼ÅŁ Ã¼ldÃ¼
ĠK Ã¶y
eÅŁ ik
Ãľ L
14 0
Ġk uvvet
Ã¼n Ã¼z
ĠgerekÃ§ eye
res s
Ġar acÄ±
O K
ĠmÃ¼ s
uz ur
ĠHakk Ä±nda
ter e
Ġgerek Ã§e
ĠRus ya
imiz de
Ġtut uk
> H
ĠaÅŁa masÄ±nda
ĠmÃ¼l k
. H
Ġli der
ĠgÃ¶r en
ĠY ol
ĠT ÃľR
la bilir
Ġt anÄ±t
im de
ĠdÃ¼ny anÄ±n
Ġar aya
Ġgir iÅŁim
maya cak
ĠgÃ¼ c
z e
Ġt icari
ĠR o
Ġsonuc una
ĠYÃ¶n et
ĠteÅŁ kil
Ù Ĵ
ĠMah all
Ġmerkez i
> Y
da t
ĠK Ã¼r
ĠK Ã¼ltÃ¼r
eler inden
Ġtar if
Ġak s
ĠsÃ¶y lem
Ġbilg ileri
y en
ab z
Ġserv is
Ġat eÅŁ
ĠÄ°ngil iz
Ġkarar da
Ġim kan
ab i
ĠDeÄŁ er
Ġyan a
y s
Ä° stanbul
s Ã¼z
m iyor
Ġay Ä±nda
liÄŁ inin
ĠmÃ¼cad ele
ma mÄ±ÅŁ
Ġdok un
> P
Ġy urt
f en
Ġb eri
ĠsÄ±r ada
Ġdil e
ic dan
Ġd Ã¶k
Ġk Ã¼r
ĠD ol
ĠyapÄ±l Ä±r
ĠÃĸr neÄŁin
ĠBÃ¼yÃ¼k ÅŁehir
Ġdah i
Ġs oÄŁ
ĠdaÄŁ Ä±t
Ġek lenen
Ġ( %
Ġvar dÄ±
ĠDem ir
Y A
Ġa larak
ĠdeÄŁer leri
Ġde fa
. A
m eni
Ġd iÅŁ
at ed
il li
duÄŁ unu
ĠT el
Ġmut lu
Ġkullan Ä±mÄ±
n er
Ġgerektir miÅŁ
ip ar
Ġdo st
T AR
B ur
ĠÅŁ er
I SI
ĠhÃ¼kÃ¼m lerin
Ġuy ar
Ġdol dur
lerin iz
Ġtaleb inin
Ġc omp
ĠS ev
il im
ĠM er
Ġar z
ĠeÅŁ ya
Ġo dak
ĠKad Ä±n
ĠBak anÄ±
Ġas lÄ±nda
D Ä°
Ã» m
ĠmÃ¼cad el
> F
ĠA lan
ÄŁ Ã¼
ru f
Ġkor k
Ġhaf if
ĠP art
Ġuygu lamasÄ±
Ġedil ebilir
ĠSon uÃ§
Ġi de
ĠU sul
Ġk adastro
ĠzamanaÅŁ Ä±mÄ±
m Ä±zÄ±
âĢĻ dan
Ġel em
lerin izi
Ä±l mak
Ã¼l mÃ¼ÅŁ
ĠMuhak emeleri
ĠdÃ¶nem inde
Ġb al
ti ÄŁini
U S
ma il
ĠN asÄ±l
ĠÄ°ÅŁ te
Ġtek lif
ĠO L
7 3
Ġcin sel
ĠkÄ± y
av e
Ġkaynak lanan
ĠbÃ¶lÃ¼m Ã¼
Ġb ent
is inden
Ġc m
ĠTarih i
Ġal maktadÄ±r
c isi
LER Ä°
Ä±m Ä±n
ir ken
n Ä±n
ĠS iz
Ġh enÃ¼z
Ġk um
ĠsÃ¶y ley
at or
7 1
Ġkal k
Ġkr it
en g
r it
Ġp la
at istik
Ä±ÅŁ tÄ±r
10 2
mam Ä±z
ĠÃ§erÃ§ev esinde
ĠBir liÄŁi
s et
ay la
Ġh ad
Ġalt Ä±n
ĠKARAR I
Ġp as
Ġsebeb iyle
Ġkay ded
Ġtah min
ildi ÄŁini
E ÄŁ
ark Ä
arkÄ ±
Ġle hine
m esinden
as e
Ġs izi
Ġner ede
m Ã¼r
ken in
ĠiÅŁ i
Ġar ada
Ġs oy
Ġdelil lerle
ĠA ÄŁustos
Ġd iyor
Ġs im
Ġi ken
ĠBur ada
Ġis pat
Ġak tiv
G en
Ġbul unuyor
ĠPro j
ÄŁ an
M ah
ĠdeÄŁiÅŁ im
ĠBaÅŁkan lÄ±ÄŁÄ±
ĠÃ¶ÄŁrenc ilerin
ĠbÃ¶l ge
th er
Ġ Î
Ġbun larÄ±n
Ġvaz geÃ§
Ġkullan mak
Ġbir leÅŁ
ĠT aÅŁ
Ġyap Ä±yor
Ġ$ \
ĠgerÃ§ek ten
ĠA Ã§Ä±k
ĠsanÄ±k lar
ĠDav acÄ±
ĠÄ°Ã§ in
ĠÃ¶ de
r in
ij ital
am Ä±z
ĠK az
acaÄŁ Ä±nÄ±
Ġkam er
r Ã¼b
Ġsun ul
iy er
et in
ĠiÃ§in deki
Ġay ar
ĠÃ§ oÄŁu
Ġkom p
g or
Ġanlam lÄ±
ilmek le
7 4
s iye
Ġen d
Ġrapor u
Ġkend isini
g ari
> ,
Ġd ek
E Äŀ
} $
ĠK Ã¶
ĠÃ¼l kemiz
7 6
aki p
ĠS ar
Ġyer leÅŁtir
Ġdol ayÄ±sÄ±yla
Ġtoplan tÄ±
Ġk af
ĠÃ¶ncelik le
Ġaley hine
g al
o og
ĠyÄ±l larda
st ik
Y Ä°Z
ÅŁ em
ĠÅŁirket in
Ġgel iÅŁim
ĠÙ ħ
Ġyap mÄ±ÅŁ
. B
ĠG ER
Ġs el
G er
27 9
ĠÃ¶n lem
h n
Ġbelir ten
may Ä±n
ĠmÃ¼mkÃ¼n dÃ¼r
ĠtaÅŁÄ± ma
8 2
ĠiÅŁlem leri
al tÄ±
Ġok uy
ĠÃ§ev ir
c Ä±nÄ±n
ĠGen Ã§
ĠsÃ¼r Ã¼len
uÅŁtur ucu
iniz de
ĠS ig
u ar
Ġver i
TA N
ĠgeÃ§ iÅŁ
Ġv b
ĠPro gram
Ä±l maz
li c
Ġmem ur
Ġm eÅŁ
ĠK im
op er
Ġp iÅŁ
MA N
ĠÃ¶zel liÄŁi
an ma
Ġc am
ĠA ra
Y eni
ĠM Ã¼s
Ġist ih
ĠmÃ¼da h
u ÄŁ
ev izyon
ma ye
bo ok
Ġs omut
EM YÄ°Z
l es
ĠÃ§ oÄŁun
Ġs e
il in
ĠbaÅŁvur usunun
ĠÄ° k
eceÄŁ ine
Ġtakdir de
oog le
ĠS p
s por
ĠÃĩ in
Ġz aten
ĠBÃ¶yle ce
arÄ± yla
Ã§ ak
' yi
ĠÃ¶z et
ation al
b ay
ĠgÃ¶ster mektedir
ĠanlaÅŁÄ±l dÄ±ktan
ĠkÄ±s Ä±t
Ġyol una
Ġnitelik te
Ġbilin en
v ik
Â °
U y
ok rat
ĠT e
Ã¼l mesi
Ã¶ÄŁr etim
lulu ÄŁ
Ġp sik
Ġm on
Ġe g
Ġolur sa
Ġnit elendir
ĠÅŀ irket
Ġim k
Ġar ay
Ġkam pan
UK UK
Ã¼ ya
ĠdeÄŁer li
ur um
9 6
á ¸
Ġhizmet leri
ĠHas tan
ĠH MK
ĠkarÅŁÄ± laÅŁtÄ±r
ĠkonuÅŁ ulup
10 1
Ġt anÄ±n
ĠÃ ¢
Ġd Ã¶v
ÅŁ Ä±k
ĠE ur
iniz in
Ġa ÄŁr
ĠG r
Ä° s
8 3
ĠGÃĸ R
tan siy
I K
Ä°Y E
Ġal tÄ±
ĠsonuÃ§ larÄ±
iler den
y st
Ġcez alandÄ±r
ĠnÃ¼f us
Ġh uzur
ĠsÃ¼r ede
om obil
Ġr ast
ĠS eÃ§
Ä°H Ä°
K ay
t ey
ĠsÃ¶y len
Ġuygulan an
Ġon larÄ±n
Ġyap ar
m emek
Ġtarih leri
iy an
R A
ul lah
ĠMÃ¼dÃ¼r Ã¼
Ġb i
bak an
Ġyet iÅŁtir
t Ä±sÄ±
ĠÃ¶ÄŁren ci
Ġ Q
oc k
ĠS tr
Ġy em
Ġkullan ma
Ġlis ans
Ġf atur
Ġk em
ĠC HP
> Åŀekil
Ġt a
ĠÃ¼rÃ¼n leri
v ekili
ĠbaÄŁlan tÄ±
Ġkap Ä
ĠkapÄ ±
ĠÃ§ al
Ġkan aat
ĠgÃ¼ven li
Ġb eÄŁ
mem iÅŁ
Ġn ef
ĠmÃ¼z ik
ĠDeÄŁ iÅŁ
Ġwh ich
Ġs Ã¼t
Ġsiz lere
ĠgÃ¶ster ir
Ġa f
Ø ³
Ġindir im
ĠÃ§Ä±k Ä±ÅŁ
d al
ayÄ± f
ĠkÄ±sm Ä
ĠkÄ±smÄ ±
Ġsit eleri
hend is
ĠsÃ¼rec i
ĠØ ¨
Ġr ak
Ġon an
Ġi ade
9 3
lÄ±k lar
edik leri
ĠgÃ¶zet ilerek
Ãĸ n
Ġmutlak a
Ġtaraf larÄ±n
er v
Ġy avaÅŁ
Ġg az
art esi
Ġmuh al
8 4
Ġoper asyon
bil ecek
ĠG azi
Ġd anÄ±ÅŁ
âĢĻ ya
II I
Ġkap as
em mel
ĠBaÅŁsavc Ä±lÄ±ÄŁ
ĠyÃ¶n leri
Ġp aket
T op
Ġanlam Ä±na
Ġc o
at Ä±n
ĠsÃ¶zleÅŁ mesi
Ġf il
on ya
Ġhay al
ir e
Ġ ...Ċ
m os
iv il
ipar iÅŁ
Ġh t
ĠM ed
Ġhak im
Ġmes af
Ġsorum luluk
ĠKurul unun
Ġtemyiz e
Ġw ere
Ġop siyon
9 2
Ġyar alan
Ġiy il
ĠTÃ¼rk Ã§e
Ġk Ä±l
ĠinÅŁ aat
Ä±s Ä±r
Ġbul uÅŁ
ĠÃ¶d Ã¼l
Ġ ....
Ã¼le bilir
o ca
ildi ÄŁ
Ġon line
Ġkal Ä±n
ĠR e
Ġbir leÅŁtir
Y ukarÄ±da
m Ä±yor
larÄ±mÄ±z Ä±n
Ġtasar ruf
ĠdÃ¶nÃ¼ÅŁ tÃ¼r
9 4
z Ä±m
Ġhey ec
i Ã§ek
Ã¼p er
d ing
p t
Ġyas ak
Ġbulun ur
p ek
Ġs tu
Ġkarar a
Ġherk es
Ġdav et
ilm esini
Ġin c
Ġmod ern
b on
. M
An cak
Ġak ÅŁam
Ã¼n y
Ġtoplum sal
lay arak
ah im
Ġr ad
ĠbÃ¶lÃ¼m Ã¼nde
O Äŀ
Ġduy gu
25 0
ĠK emal
ĠC on
Ġbas kÄ±
is m
am e
Ġbir isi
Ġu c
ĠAb d
Ġy ada
ĠK Ä±z
ĠFak Ã¼lt
Ġbek liyor
dÄ±k larÄ±nÄ±
ĠÃ§Ä±k art
Ġkullan Ä±lmasÄ±
en ler
Ġtrans fer
eceÄŁ iz
Ġht tp
b an
at ik
ĠY Ã¼z
Ġtec rÃ¼b
liÄŁ inde
r ed
9 1
Ġbey az
ĠborÃ§ lu
ĠbaÅŁ ta
- B
ĠT eb
tal Ä±k
ĠBil g
Ãĩ izelge
ĠD Ä±ÅŁ
v ar
Ġt rafik
ul tan
C I
ilm esinde
Ã¶y l
Ġdav aya
LAR I
ĠAt atÃ¼rk
tiv e
Ġbelirt ildiÄŁi
Ġsebeb i
Ã¼st Ã¼
Ġdurum un
ĠMahall esi
Ġr ef
ĠK ol
ĠyÃ¶netim i
s eniz
Ġdosy asÄ±nÄ±n
l ot
Ġpoz isyon
yas al
ĠgÃ¼n d
ĠyaklaÅŁ Ä±m
ad Ä±ÄŁ
Ġk op
Ġ )
âĢĻn un
Ġprof esyonel
ĠÄ° h
Ġer iÅŁ
u g
Ġsebep le
Ġyap Ä±sÄ±
Ġser t
Ġkov uÅŁturma
i di
E Y
Ġneden lerden
ek t
ĠAn al
ĠyapÄ± larak
r ika
ĠÄ° d
l iliÄŁi
Ġb undan
Ġbir den
mas yon
i ÄŁi
lay Ä±n
Ġboz ulmasÄ±
lÃ¼l Ã¼k
10 6
d esi
Ġdol u
ĠBur sa
tern atif
il iyor
ĠeÄŁ er
Ġbec er
el iÅŁ
ĠkiÅŁ ilik
Ġgelen ek
Ġih bar
ĠA c
10 4
ĠTur k
v ey
BÃ¶l ge
ĠC an
Ġdep o
Ġb Ã¼t
> N
ĠI II
- k
Ġtahsil ine
S A
abil eceÄŁi
ĠH UKUK
Ġiti b
af ir
Ġid ari
Ġc om
ĠDairemiz in
z a
ĠK ab
Ġhakk Ä±ndaki
Ġyet er
4 00
Ġtay in
Ġcez anÄ±n
Ø ¹
Ġhat a
ig h
Ġrek abet
1 10
âĢĿ Ċ
ĠÃ¶ yle
ĠyÃ¶n Ã¼nde
Ġsigor ta
lÄ±k larÄ±
tep e
Ġinf az
E l
Ġpo tansiy
ĠdavalÄ± dan
ĠM as
Ġn olu
ĠalÄ±ÅŁ veriÅŁ
ĠNe w
Ġverilm ek
t il
Ġi ma
Ġver im
ND ER
Ġyar Ä±ÅŁ
ĠaracÄ±lÄ±ÄŁÄ± yla
eg or
ma da
li gat
ĠBir inci
Ġfes h
ĠS avaÅŁ
ĠT ah
Ġd Ã¼ÄŁ
iÅŁ leri
ĠsÃ¼rÃ¼k lenen
ĠOr ta
Ġduy g
D Ã¼n
Ġik ti
Ġbit k
amp iyon
n al
ĠBank asÄ±
s iyet
lÃ¼m an
Ġon larÄ±
r aman
g re
d ot
iy ah
Ġkur ulu
Ã§ lar
ĠSur iye
ĠhÃ¼c r
Ġola b
Ä±l Ä±mÄ±
et er
Ġtoplan Ä±p
ĠN it
âĢ ĵ
Ġd if
ĠgÃ¶z lem
m ini
- T
m edi
âĢĻn de
Ġkat egor
im ar
ĠyargÄ±lama ya
i ma
Ġkend ine
Ġt on
ĠE ÅŁ
Ġsay fa
Ġnetic esinde
ĠaÃ§Ä±klama da
Ġhayat Ä±nÄ±
-- --
Ä±mÄ±z Ä
Ä±mÄ±zÄ ±
iÃ§ i
Ġdilek Ã§e
ĠV al
Ġs ub
Ä±l dÄ±ÄŁÄ±nda
ildi ÄŁinde
Yar gÄ±tay
iÄŁ in
ul muÅŁ
Ġkon us
Ġkanun i
ĠSan at
ĠYayÄ±n larÄ±
m elerin
Ġs unuyor
ĠAn talya
Ä±mÄ±z Ä±n
Ġyaz ar
Ġkal ma
meli dir
ĠÅŁ ans
lo g
Ġ- Ċ
ĠsÄ±nÄ±r lÄ±
w it
Ġgrub u
Ġt ez
Ġyap acak
Ġbir ik
Ġb at
Ġtazmin atÄ±
Ġkap alÄ±
ĠsÃ¼r erek
Ġsen e
ad Ä±ÄŁÄ±
Ġfiyat larÄ±
] Ċ
t iler
al p
Ù ı
z et
i e
Ġem in
ĠUy gulama
Ġist iyorum
ok ras
lay Ä±cÄ±
Boz mayÄ±
Ġanlay Ä±ÅŁ
ĠbaÅŁlangÄ± Ã§
Ġbir inin
o le
Ġesas Ä±na
Ġkur tar
Ġproj e
ĠV ak
Ġediyor um
rac at
Ġsit e
ĠT ay
Ġfay da
Ġihtiy ac
Ġhak larÄ±
mem esi
n eÄŁi
ĠP azar
s eri
ĠE d
Ġan ne
Ġc en
Ġsebep lere
- H
ARA SI
Ã¢ t
ĠG Ã¶k
ĠdeÄŁiÅŁ ken
ĠsuÃ§ u
Ġkur u
29 4
12 5
Ġolma lÄ±dÄ±r
ĠK Ä±s
Ġs efer
ĠiÅŁ bir
ĠK end
Ġad r
ĠF or
ĠyÃ¶ntem i
ev k
Ġay dÄ±n
Ġhiss et
ĠÃ¼n lÃ¼
Ġkay dÄ±
Ġkay det
ĠÅŁey i
Ġk ok
O P
ĠOr man
ĠsÄ±k Ä±ntÄ±
Ġyaz Ä±lÄ±m
ley ecek
Ġkapsam Ä
ĠkapsamÄ ±
Ġhal a
Ġon ama
ĠG Ã¼l
ra il
Ġbel ediye
ĠÄ°ÅŁ let
Ã§ esi
ĠÃ§ev re
Ġd uvar
ĠB al
m esiyle
Ġ qu
Ġisim li
a in
Ġer ken
Ġdurum larda
l ok
Ġpr im
lar Ä±m
TAR Ä°HÄ°
ĠyÃ¼klet ilmesine
ĠHal k
Ġetk ilen
Ġpop Ã¼ler
am ik
Ġg ol
. tr
Ġet ki
ĠkÃ¶ t
ĠseÃ§ en
ĠDav a
iler de
me de
ĠAlman ya
k Ã»m
Ä±s Ä±z
Ġimz a
N UM
g Ä±lan
ip to
ĠaÅŁ Ä±rÄ±
Ġins anÄ±n
Ġv al
Ġbon us
miÅŁ ti
ĠGÃĸ NDER
ĠgÃ¶ Ã§
Ġv as
Ġyet iÅŁ
ĠsÃ¼r eli
Ġuy an
ac Ä±lÄ±k
u f
ĠkullanÄ±l Ä±r
ĠalÄ±n dÄ±ÄŁÄ±nda
Mahkem esi
c ess
ĠB an
lÄ±ÄŁ Ä±nda
ĠaÄŁ aÃ§
k on
ĠP lan
ĠEl ektr
Ġyok sa
t ek
ul maz
Ġbenim sen
is h
l edi
ĠbaÅŁ lÄ±klÄ±
ĠiÃ§ eri
id er
larÄ±mÄ±z Ä
larÄ±mÄ±zÄ ±
ĠB in
ĠÃľ st
ĠÄ° yi
Ġprogram Ä
ĠprogramÄ ±
Ġtaraf lar
ĠgÃ¶rÃ¼l dÃ¼ÄŁ
Ġt Ã¶r
ĠdÃ¼zen li
abil iyor
ĠbaÅŁ lar
r Ã¼k
Ã¼km Ã¼n
d y
ĠÃ§alÄ±ÅŁ masÄ±
Ã¼y e
ĠÃ§ocuÄŁ un
ĠÃ¶lÃ§Ã¼ de
ĠS ah
ĠoluÅŁtur an
Ġc h
Ġkor uma
Ġhik ay
Ġolma dan
Ġv es
NUM ARASI
ĠF at
ĠH am
Ġyetk il
Ġyet ersiz
atÄ± cÄ±
ĠA z
ak ar
Ġu s
K K
ĠB et
Ġedilmek tedir
Ġal mÄ±ÅŁ
ĠAmer ika
g ulan
makt ay
de v
Ġv ad
duk larÄ±
ĠOy un
ĠsaÄŁlay acak
lo w
ĠgÃ¶r Ã¼yor
ter i
ev er
at es
Ġsor unu
ĠÅŁey ler
ĠM Ã¼z
y se
g n
Ä±s al
Ġvar lÄ±ÄŁÄ±
r ay
ĠÅŁ if
Ġveril dikten
Ġoy unu
Ġolma dÄ±ÄŁÄ±ndan
ĠÄ±ÅŁ Ä±k
4 40
Ġm Ã¼t
lan d
10 5
ĠÃ¶nc eden
ĠaÃ§Ä±k Ã§a
ĠFakÃ¼lt esi
y asÄ±
ĠtÃ¼k etim
ĠdoÄŁ um
ĠM ev
ĠV ar
) :
ib er
Ġeden e
k z
ĠdÃ¼zelt ilmesi
ef et
tÄ± yor
Ġkan Ä±nÄ±n
Ġred ded
Ġhayat a
ĠGÃ¼ven lik
han e
Ġb eden
10 3
Ġb izi
Ġa pp
Ġyetk ili
Ġ: Ċ
k ol
Ġver iyor
Ġtahs ili
âĢĻ i
S AY
ĠdÃ¼zey de
Ġkend isi
ĠD anÄ±ÅŁ
Ġtav siye
dÄ±ÄŁ Ä±m
Ġhak aret
ĠkÃ¶ k
ĠtaÅŁÄ± yan
d Ä±mÄ±
Ġi c
ĠoluÅŁtu ÄŁu
b n
all y
f Ä
it ion
Ġuy um
Ġbit ir
Ġyak alan
Ġ â
m ur
A Ã§Ä±k
ĠdÃ¼nya da
L AN
c ilik
Ä±lÄ± Ã§
................ ................
Ġm e
Ġb ol
ĠgÃ¼n eÅŁ
ĠyÃ¼z yÄ±l
A v
ĠG Ã¶
im d
ĠS amsun
ĠeÄŁit imi
er ken
ĠU n
S uÃ§
$ Ċ
ĠÃ§ek iÅŁ
Ġm m
ĠuÃ§ ak
ĠG Ã¶z
ey gam
y p
te in
ic il
Ġ ec
ĠCumhur baÅŁkanÄ±
ĠgÃ¼n lÃ¼
ĠteÅŁ vik
Ġoyun larÄ±
Ġt etkik
ĠEs cort
Ġhat alÄ±
ĠÅŁ iir
ĠM ur
ĠÅŁar tÄ±
l us
fÄ ±
ĠyapÄ±l ma
R es
Ġz ayÄ±f
Ġist eÄŁi
ĠkarÅŁÄ±lÄ±k lÄ±
Ġf iyatÄ±
k ek
Ġuy uÅŁturucu
ĠM ark
Ġs af
ĠTekn ik
ĠsÃ¶zleÅŁ mesinin
ĠY er
ĠyapÄ±l mÄ±ÅŁtÄ±r
ĠÃ¼y esi
is iyle
ĠyapÄ±l dÄ±
lar dÄ±
Ġpar ti
Ġn az
3 22
Ġul usal
ĠÃ¼cret inin
Ġet meye
Ġdur dur
Ġle z
ĠÃľ y
Ġisten ilmekle
ĠK ul
Ġk od
Ġil ave
ĠT EMYÄ°Z
## ##
Ġt ers
ĠinÅŁ a
lan dÄ±ÄŁÄ±
len miÅŁ
Ġkil o
ĠÃ¼rÃ¼n ler
Ġk Ã¼t
or n
ĠÄ°n ÅŁ
a ge
Ġola caÄŁ
o od
ĠÃ§ocuk lar
ĠS en
Ġiz ley
atÄ±r Ä±m
Ġtan e
Ġb Ã¼ny
gÄ± lama
ĠÄ° cra
ĠmÃ¼lk iyet
ĠD oÄŁu
Ġsab ah
Ġmes el
t uk
Ġmahkem esine
Ġl ira
ĠP aÅŁa
ĠfÄ±kr asÄ±nda
ĠÃ§ocuk larÄ±n
Ġd ey
Ġitib arÄ±yla
E v
ĠyÃ¶n de
ĠgÃ¼ cÃ¼
et ler
Ġas it
Ġediyor uz
ĠniteliÄŁ inde
Ġtes bit
Ġkay Ä±p
ĠkarÅŁ Ä±lan
ĠD Ã¼ÅŁ
ĠsonuÃ§ lar
ĠyaÅŁ ama
Ä±l dÄ±ÄŁÄ±nÄ±
Ġg Ä±da
ĠmÃ¼k emmel
ĠÃ¼l kenin
13 0
ĠanlaÅŁÄ±l makla
em iÅŁtir
Ġtekn oloji
Ġc iv
Ġel veriÅŁ
n ik
ĠsÃ¼rec ini
l ed
Ã§ iler
Ġbaz en
ĠGÃĸNDER Ä°LMESÄ°NE
Ġbelirt ti
anÄ± larak
Ú ©
Ġbun lar
ĠaÃ§Ä± dan
Ġt erk
Ġincelen en
ĠkayÄ±t lÄ±
Ãĸz el
Ġyar alama
ĠS h
ĠMÃ¼dÃ¼r lÃ¼ÄŁ
ĠcÃ¼m l
al im
.âĢĿ Ċ
Ġhak lÄ±
eler iyle
ĠD iy
c k
ĠÄ°l Ã§e
1 12
ĠE x
ĠÄ° m
Ġb ebek
Ġhar ca
ĠbaÄŁ lam
ĠÃ§ oÄŁ
ĠUsul Ã¼
ĠEk onom
y Ã¼z
Ġkesin likle
Ä±mÄ±z da
ĠvÃ¼ cu
ĠH z
ĠT es
Ä±nÄ±z da
ĠK ah
ĠyÄ±l dÄ±r
masÄ± yla
Ġbel ki
Ġmev zu
E P
ĠKan una
an e
ĠÅŀ ekil
ĠF ir
Ġyar Ä
ĠyarÄ ±
ers in
Ġfizik sel
ĠS it
ĠA m
ĠK iÅŁ
bah Ã§e
ro w
Ġk ans
Ġy ukarÄ±
Ġrak am
r um
T ek
Ġvekil ince
19 0
ĠÃ§alÄ±ÅŁma da
± cÄ±lÄ±k
Ä ±cÄ±lÄ±k
ĠdeÄŁ in
am in
Ä±l maktadÄ±r
Ġist atistik
ĠyaÅŁ Ä±ndaki
Ġyol c
Ġk m
Ġr eh
Ä±n tÄ±lÄ±
et e
' u
ĠDol ayÄ±sÄ±yla
R O
Ġbil eÅŁ
Ġask eri
ĠTr abz
Ġgel diÄŁi
Ġyap Ä±m
Ġyap maya
ĠSan ayi
Ġyar dÄ±mÄ±
ĠA pp
Ġedebilir siniz
tÄ± cÄ±
ĠistediÄŁ iniz
p h
ĠiÅŁlet me
b Ã¶l
E s
Ġed ip
icdan i
Ġgider ilmesi
Ã§ uk
ĠanlaÅŁÄ±l maktadÄ±r
ebilir iz
- C
Ġist ik
ĠfÄ±k ra
Ġmet al
' lik
Ġg al
ik let
Ġhav e
on a
Ġal ternatif
T I
Ġy ola
Ġot omobil
Ġarac Ä±n
ĠÃ¼st Ã¼n
Ġin ter
p i
ĠT V
ĠdÃ¼ÅŁÃ¼n Ã¼l
Ã ¤
ĠÄ° ran
11 1
man lÄ±k
Ġtaleb i
Ġinan Ã§
um an
L U
Ġver iler
E Z
Ġkaz a
Ġsey ahat
tur e
alat asar
Ġh Ä±rsÄ±zlÄ±k
ĠtebliÄŁnam eye
z i
ĠgÃ¶rÃ¼lmÃ¼ÅŁ tÃ¼r
Ġsah ib
ĠÃľr Ã¼n
br Ä±s
Ġt uz
ĠI s
Ġduy ar
Ġtemyiz en
ĠM a
ĠÃľ cret
Ä±ÅŁ Ä±k
' '
ĠbÃ¶yle ce
ĠÅŀ ah
Ġet raf
ĠÃĸ l
Ġk aÅŁ
ĠBun lar
Ãĸ ÄŁr
eygam ber
D ev
ĠsuÃ§ tan
ĠÃ§ eliÅŁ
ĠH em
Ġsay Ä±lan
alatasar ay
ow s
Ġkim lik
10 7
ĠaÃ§Ä±k la
Ġkr ed
Ġy ans
ĠA R
ĠDer neÄŁi
Ġs ipariÅŁ
mediÄŁ ini
Ġbay ram
la sik
f at
ĠM at
B iz
ek tif
ĠanlaÅŁÄ±l dÄ±ÄŁÄ±ndan
l iliÄŁ
ĠdÄ±ÅŁ arÄ±
Mah alli
Ġitiraz Ä±n
tr e
ĠgÃ¶rÃ¼ldÃ¼ÄŁ Ã¼nden
ĠÃĩ ek
ĠelveriÅŁ li
ĠsÄ± v
ĠyÄ±l da
ĠGÃ¼n cel
ĠkiÅŁ iye
Ġv it
Ġkarar lar
k iÅŁ
Ù Ĥ
ec ilik
Ġz il
ad Ä±k
Ġre j
d iler
ĠY ine
K an
ĠhazÄ±r lan
Ġa p
ĠF ilm
Ġol masÄ±nÄ±
Ġkend ilerine
ĠgÃ¶rÃ¼lmem esine
s or
ð Ł
± b
ĠÃ§alÄ±ÅŁ tÄ±r
Ġg iden
Ġuyg ul
ĠYap Ä±lan
23 1
Ä ±b
er g
an tep
l ediÄŁ
ĠmÃ¼vekkil inin
ĠBaÅŁ vur
ĠH ol
Ġkad ro
on un
Ġy or
s am
ĠÃ¶ÄŁr et
Ġf en
ĠBu gÃ¼n
Ġkim se
oy u
Ġver g
Ġol mas
Ġkullan Ä±larak
Ġma aÅŁ
Ġgetir en
ĠsÄ±nÄ±r larÄ±
2 23
eb ilmesi
Ġver ilir
Ġr ez
Ġbelg elere
Ġbak Ä±ÅŁ
ĠgÃ¼n de
Ġsok ak
Ġoran da
Ġkes im
ĠgÃ¼n lerde
Ġay n
ĠdavalÄ± lardan
ĠS A
Ġuy arÄ±
f ik
Ġ >
ĠB unu
h is
D P
Ġy eÅŁil
' Ã¼n
Ġgid erek
om o
Ġa cÄ±
Ġoto matik
leÅŁtir me
mak tan
Ġvar lÄ±k
Ġsev k
eÅŁik taÅŁ
ĠB o
Ġz ih
ĠÃ§ek en
etr ol
ĠyaptÄ±k larÄ±
Ã¼m rÃ¼k
SAY ISI
Ġtab lo
Ġbin a
Ġden g
Ġres im
ĠN ur
m m
ĠC ev
Ġuy umlu
yst em
lÃ¼ yor
Ġbel ge
ĠaÃ§Ä±k ladÄ±
b iy
Ġeder im
Ġim ar
Ġday anÄ±larak
ĠH Ã¼s
10 9
Ġvak it
ĠBit coin
âĢĻ te
it if
ĠC o
ĠKur umu
Ġla zÄ±m
lik ler
Ġbulunma masÄ±na
Ä±l masÄ±nÄ±
Ġuygulan masÄ±na
or din
Ġa mel
{ \
ĠG rup
Ġtamam lan
Ġbun larÄ±
ur ken
Ġgerek miÅŁtir
Ġokun duktan
Ġ ez
Ġg ide
ĠkonuÅŁ ma
oper atif
cu lar
Ġp ark
Ġal Ä±p
Ġkamu laÅŁtÄ±rma
ĠÃ§ ab
Ġm uv
Ġb alÄ±k
Ġkr iz
Ä° l
Ġd ijital
ĠÄ°ngil tere
Ġkey if
Ġkom isyon
Ä±n ar
ĠbÃ¶lg ede
ab ilmesi
18 0
ĠGer Ã§ek
ĠB on
ĠkaÃ§ ak
ĠiÅŁle v
ĠdavalÄ± ya
ĠiliÅŁk iler
ĠB atÄ±
ĠparÃ§ asÄ±
Ġy ur
Ġb aba
i ce
om etr
Ġhay Ä±r
h am
T C
eÄŁ e
Ġih ti
ĠakÄ±l lÄ±
> .
Ġelektr onik
Ġden k
Ġat an
S K
ĠkÃ¶ ÅŁ
Ġs uyu
k at
ĠY an
T K
ir ler
Ġev de
wit ter
ĠF in
ĠsÄ±cak lÄ±k
ĠKon ya
ot o
ĠI V
ĠÂ »
ĠyÃ¶n lendir
Ġkom ÅŁ
Ġvur gu
Ġd izi
ĠOk ul
Ä° D
Ġk Ä±ÅŁ
Ġg ur
Ġb iy
ah tar
Ġola caÄŁÄ±
H A
Ġfi il
Ġfayd alan
Ã¼r r
ĠvÃ¼ cut
Ġmil li
ub e
Mahkem e
Ġsigor tal
Ġolma lÄ±
Ġex p
ĠY unan
br ahim
i i
ĠhÃ¼kÃ¼m lerine
Ġkullan dÄ±
emey eceÄŁi
Ġz inc
Ġma li
ers e
m ut
O M
ĠkÄ± dem
ig ure
âĢĻ ta
ĠY orum
ĠÄ°ÅŁ lem
Ġin ce
Ġg Ã¼l
ÃľZ EL
. -
Ġderece de
l os
Ġkad Ä±nÄ±n
diÄŁ imiz
Ġkal dÄ±
Ġim kanÄ±
Ġkal dÄ±ÄŁÄ±
16 0
Ġan ti
ub u
Ġyap tÄ±ÄŁ
ebil eceÄŁi
Ġede ceÄŁ
Ġihl al
Ġak Ä±ÅŁ
Ġkor uy
ĠgeliÅŁ meler
Ġolma masÄ±
Ġetkil ey
12 3
Ġad resi
g ul
Ġelem an
. T
kÃ»m iyet
Ġsun ar
Ġy iy
ĠyatÄ±rÄ±m cÄ±
ĠÃ§ aba
I Z
enk ul
) '
let iÅŁim
k Ã¶y
Ġmah al
Ġv el
Ġyap arken
Ġkayn aÄŁÄ±
Ġ$ $Ċ
m on
14 2
ĠkaÃ§ Ä±n
Ġas la
ĠAr ap
Ġiz le
' ca
11 6
Ġdetay lÄ±
ĠyapÄ±l masÄ±nÄ±
ĠdeÄŁerlendir ilmesi
Ġolma y
ĠB r
11 5
C umhur
ĠD ok
Ġf ab
Ġmevcut tur
ĠyaÅŁ ay
ĠYÃ¶netim i
ĠD il
Ġhar ika
abil eceÄŁiniz
ĠD ir
ro p
Ġad landÄ±r
Ġmas raf
Ġyer ini
Ġbelirlen miÅŁtir
ĠÃ¶z en
l iler
m uyor
un c
ĠgÃ¼n dem
ĠS at
ener bahÃ§e
ok ul
o ut
est or
aÄŁ Ä±n
Ġi th
k er
Ġir ad
ok er
ĠS in
Ġnokta da
Ġas gari
ĠG oogle
ĠKanun la
ĠDair e
Ġdem ir
sta gram
ĠH af
ent s
Ġihtiy acÄ±
Ġhas ar
Ġpolitik a
ĠgerekÃ§ eli
Ġimz alan
Ġist ey
ĠdoÄŁ ur
Ġhaf t
ĠA Ã§
ul d
Ġser maye
ace book
ĠKo ca
ey tin
den iz
ĠkÃ¼ltÃ¼r el
S S
ĠP r
Ġver ecek
Ġkamu laÅŁtÄ±r
Ġtaraf tan
Ġkal p
Ġnitelik li
ĠÅŀ imdi
ĠA dana
Ä° z
ĠÃ§ ay
d un
as eb
Ä±r lar
ĠyargÄ± lamasÄ±
Ġb Ã¼r
k adaÅŁ
Ġ Ð
Ġmadd esiyle
ĠÃĸÄŁr etmen
ĠmÃ¼dah ale
ar Ä±nda
et leri
ĠGÃ¼n ey
ĠO f
Ġilam Ä±nda
ĠsonuÃ§ larÄ±na
em li
lÃ¼ t
Ġola ÄŁan
Ġorgan izasyon
ĠS ey
u lar
Ġbir liÄŁi
i x
ĠyÃ¼k len
olog y
Ġthe ir
ĠÃĩalÄ±ÅŁ ma
ĠM us
il d
r y
Ã¼m Ã¼ÅŁ
ĠhÃ¼kÃ¼m lerinin
Ġver miÅŁ
ĠB ek
- c
ĠanlaÅŁ Ä±lmasÄ±
ĠkarÄ±ÅŁ tÄ±r
ĠUl uslararasÄ±
dÃ¼ str
Ġoto bÃ¼s
Ġdeste ÄŁi
Ġst at
em eyen
Ġetkil eÅŁ
Ġokun du
B el
ĠalÄ±n dÄ±
ĠG Ã¼r
mas Ä±z
m Ä±z
Ġolan lar
liÄŁ name
ĠkarÅŁ Ä±lÄ±ÄŁ
Ġon lara
ul du
Ġgerek se
k al
ĠTar Ä±m
Ġar ka
ĠgÃ¶r sel
Ġte or
ĠL ig
lem esi
Ġs unu
Ġortam da
Ġisten mesi
11 4
ĠgÃ¶n Ã¼l
Ä±l Ä±ÄŁÄ±n
diÄŁ inde
Ġol gu
Ay rÄ±ca
ĠgÃ¶zetilm eden
ti al
Ġedil ecek
ĠS ultan
tÄ±k larÄ±
Ġkat Ä
b or
ĠkatÄ ±
ĠaÃ§Ä±klan masÄ±nÄ±n
bet te
landÄ±r Ä±cÄ±lÄ±k
ĠHaber leri
ĠkaÃ§ Ä±r
Ġbiri dir
A d
Ġdayan an
ra ma
c iler
man Ä±zÄ±
iy di
ĠTÃľR Ãľ
un ma
ĠMuh am
ĠoÄŁ lu
ĠMÃ¼s lÃ¼man
Ġger Ã§
m Ä
ĠÃ§alÄ±ÅŁ Ä±yor
Ãĸ Z
Ġer iÅŁim
ĠÅŁ aÅŁ
Ãĸ N
ĠÃĸÄŁr enc
larÄ±mÄ±z a
ĠYardÄ±m cÄ±sÄ±
Ġiz len
Ġbed eli
1 19
Ġboz uk
els ef
ĠaÅŁ k
ĠF ark
ĠkÃ¼r esel
Ġkur tul
ĠBay ram
ĠF iyat
ĠdÃ¼ÅŁ tÃ¼
Ġuc uz
ĠP h
bak Ä±r
eb ilmek
ĠÃ¶ÄŁren me
Ġma lik
Ġsun ulan
Ġbenz eri
ĠiÅŁÃ§ inin
ĠiÅŁyer inde
P h
l edik
ĠO t
y eri
Ġay Ä
ht tp
ĠayÄ ±
ĠdoÄŁ an
' li
Ġmuhal efet
ĠYÄ±l maz
ĠL td
ĠiÅŁ te
la mÄ±ÅŁ
ĠOr t
T Ã¼m
Ġmiktar da
ĠĠ ĠĠ
ĠKom isyon
T Ä°
Ù ģ
ĠsÃ¼r esinin
Ġhal en
> +
D AN
m elik
iy im
uÅŁmaz lÄ±k
or ta
Ġc ilt
12 8
ĠAlt Ä±n
tif ak
ĠS ab
Ġgel miÅŁ
ĠdÃ¶nem i
ĠK Ã¼Ã§Ã¼k
Ġb arÄ±n
Ġn ih
ĠiÅŁlet meler
ĠiÃ§er iÄŁ
ĠAmer ik
D aha
É Ļ
g Ã¼
Ġzaman larda
ĠoluÅŁ um
Ġtut um
H ay
E F
Ġal mÄ±ÅŁtÄ±r
b en
Ġmadd esindeki
ĠSÃ¶z leÅŁ
Ġden et
is iniz
ĠuÄŁr aÅŁ
Ġfinans al
ĠS ulh
ti h
Ġkural larÄ±
un d
ik at
ah h
abilir ler
Ġhas sas
ĠsaÄŁ lanmasÄ±
ĠÅŁirket i
ĠÃ¼r Ã¼nÃ¼
11 3
ĠÄ°dar e
a masÄ±
ĠEn stit
Ġisten ilmiÅŁ
Ġkit ab
Ġilg ilen
a il
Ġm us
Ġpotansiy el
ĠkarÅŁ Ä±n
mÄ ±
Ġz evk
. Y
ilm elidir
K on
Ġm Ã¼ÅŁ
Ġver miÅŁtir
ĠÃ¼lk ede
Ġtel evizyon
Ġfazla sÄ±
Ġbirey sel
ĠsÃ¼rec inde
Ġbeklen t
eÄŁ ine
ĠB at
Ġs ivil
Ġtak v
ĠdÃ¼ÅŁÃ¼n ce
Ġtep ki
ar bakÄ±r
ers eniz
ĠyayÄ±n lanan
de ÄŁ
T ÃľR
baÅŁ Ä
S O
baÅŁÄ ±
Ġhas t
Ġat Ä±lÄ±
st e
ĠS adece
ĠH ey
Ġdurum unun
ĠT eÅŁ
ĠT Ä±p
ĠhÄ±z la
6 00
Ġgelenek sel
> :
Ġsay gÄ±
ĠgerÃ§ekleÅŁtir ilen
ĠbulunduÄŁ unu
Ġp lak
ĠmÃ¼ÅŁter iler
Ã¢ y
an ti
ic s
Ġbel ediy
ĠÅŁek li
Ġes t
ĠC om
B il
ĠilÃ§ esinde
ĠdavacÄ± lar
Ġfa izi
ley erek
ĠbulunduÄŁ undan
13 2
Ġkas ten
ĠW eb
Ġda m
Ġbilim sel
em ize
ĠÃĩ ar
ĠAv ukat
Ġp il
Ġdiy erek
EV R
> E
Ġ eh
-p osta
Ġek ib
ĠS uÃ§
ĠKar ÅŁÄ±
Ġyap abilirsiniz
Ġedildi ÄŁini
ĠkÄ±r mÄ±zÄ±
E Ãĩ
iy a
Ġend iÅŁ
Ġeder ken
Ġbah sed
li si
an lÄ±k
ĠV ol
Ġkolay ca
Ġsan ayi
ĠÅŁah Ä±s
ĠÃ¶lÃ§ Ã¼m
ĠBunun la
Ġ Ä±sÄ±
K ur
D EN
Ġkir a
ĠgerÃ§ekleÅŁ en
5 60
Ġtarih te
ĠdÃ¶v iz
Ġar tan
ĠyansÄ± tan
ĠÃ¼r etic
Ġbelir siz
Ġgerektir ir
ÅŁ iv
Ġt ev
ĠamaÃ§ lÄ±
ĠÄ°l gili
ok ol
Ġr el
ĠA L
is iz
Ġyat ak
okrat ik
Ġgiz li
Ġsun an
âĢĻn da
âĢĻ Ä
ĠC asino
Ġh ur
Ġar az
Ġheyec an
Ġdak ik
ĠgÃ¶nder ilen
lerin deki
el le
ĠTar if
ĠgÃ¶rÃ¼lmem iÅŁ
G eÃ§
ĠyapÄ±l mak
EL ER
âĢĻÄ ±
ĠiÅŁ ler
ĠtaÅŁÄ±nmaz larÄ±n
Ġdep rem
ĠHas an
Kar ar
Ġgel ince
ma li
iy el
- D
Ġt it
ĠBaÅŁsavcÄ±lÄ±ÄŁ Ä±na
cel i
Ġsay ede
ĠdÃ¶nÃ¼ÅŁ Ã¼m
ĠY atÄ±rÄ±m
ÃľZEL T
ĠÃ§ iÃ§ek
Ã¼ ley
Ġyet ki
y dÄ±
ĠyÃ¼r Ã¼y
LÄ° Äŀ
Ġistih dam
O n
ĠsÃ¶zleÅŁ me
ĠKÄ± brÄ±s
ĠÄ° ki
ĠBil gi
( \
ĠKar arÄ±
ĠyÄ±l dÄ±z
dÄ±r Ä±m
Ġdevlet in
emiz de
ĠD aÄŁ
k ur
Ġyen ilik
lan maktadÄ±r
Ġih racat
ĠS av
Ġkal ite
Ġgerek sin
Ġv asÄ±
Ġal acaÄŁÄ±
Ġyet en
Ġsigort alÄ±
Ġist ediÄŁi
ĠÄ° kinci
an Ä±m
ĠÃ¶rn eÄŁinin
lerimiz i
b ilmesi
ĠZ aman
ĠCumhuriyet i
Ġs ec
Ġtespit ine
11 7
Ġh id
Ġ" ...
ĠÃĩ aÄŁ
Ä±ÄŁ Ä±nda
Ġg rafik
Ġincelen mesinde
14 7
Ġdur uma
ĠÃ§Ä±k arÄ±
ĠgÃ¶nder ilmesi
Ġre ak
ĠP ara
Ġhis se
ĠS eb
Ġbend inde
Ġtep k
13 3
iyor du
Ġser g
ĠÃ¼retim i
d Ã¼m
ĠgÃ¶rÃ¼n Ã¼m
ti p
ĠT EV
Ġtaraf Ä±n
ĠM ut
ece p
ma dÄ±
ĠsoÄŁ uk
ĠO p
Ġs ine
. **
Ãĸ L
ab ilmektedir
ĠT asar
Ġar alÄ±k
ĠS ch
u di
ĠyÃ¼ksel t
ĠÂ ±
Ġolay Ä±n
O B
Ġb r
ĠbÃ¼y Ã¼m
ir li
Ġs uy
ĠyÄ±l Ä±n
Ġbulunma maktadÄ±r
S ulh
erj i
Ġtutanak larÄ±
s p
ĠUz un
ĠY ay
ĠÄ°n cel
Ø§ ÙĦ
AB D
vey a
ĠbÃ¶lg esinde
Ä±l ay
Ġesn asÄ±nda
ĠÅŁekl indeki
ĠM o
12 1
Ġbilg ilendir
ĠÃ¶l Ã§ek
ĠgÃ¶r dÃ¼ÄŁ
ĠbÄ±rak Ä±lmasÄ±na
ĠM em
g Ã¼ne
Ġkend ilerini
Ġbirbir ine
ĠÅŀ eh
ĠkatÄ±l dÄ±
Ã¶r d
ik i
ĠD ep
enc er
baÅŁ kan
ayÄ± p
Ġoyn ay
ley in
ĠdilekÃ§ esi
ĠU Y
Ġt en
Ġg em
12 9
Ġmod eli
ĠKÃ¼r t
Ġzil yet
Ġi b
Ġyans Ä±t
Ġneden ler
Ġama c
ĠL e
m u
ĠmÃ¼ dd
Ġm Ã¼n
Ġmalz eme
it ap
eÄŁ ini
ĠU S
Ġteb ligat
Ġdair eye
ig n
ic k
ĠÄ°s rail
end er
o me
3 17
B M
y u
endik ten
Ġkr ipto
f e
ĠS Ä±r
ĠGazet ede
Ġn iyet
Ġist if
ĠS a
y ol
ĠgeÃ§ er
ĠDeÄŁiÅŁ ik
Ġrapor unda
> O
ÄŁ Ä
ÄŁÄ ±
Ġsiyas et
Ġkullan an
ĠÅŁ iÅŁ
ĠkÄ±y met
Ġi di
is a
us unu
Ãĩ ok
ĠsuÃ§ unun
ĠB Ä°R
ĠMec lis
1 18
ĠiÅŁlem ler
h um
y Ä±z
Ġsistem leri
Ġkan unun
Ġtab an
ilm esinin
] .Ċ
Ġik ili
Ġon lar
ĠÄ°n ternet
Ġrenk li
o id
ĠJ o
Ġal maya
Ù ĥ
Ġbilin Ã§
ar Ä±m
12 7
17 0
ĠGÃĸR ÃľÅŀ
amaz an
lem eye
ĠÃ§evr im
h aba
ĠÄ° brahim
Ġh ip
Ġli mit
An kara
Ġw e
Ġver mektedir
Ġmahkem esi
Ġkim yasal
t ing
Ġkarar larÄ±
Ġyas anÄ±n
Ġalan larÄ±
ĠdÃ¼ÅŁ Ã¼ÅŁ
ĠseÃ§enek leri
Ġmik ro
ĠyaÅŁad Ä±ÄŁÄ±
Ġev lilik
Ġsorun larÄ±
Ġn amaz
Ã¼rr iyet
or g
la z
Ġuygulama ya
c ili
Ġp ayÄ±
Ġil Ã§e
on av
Ġrahat sÄ±z
Ġmis afir
ic a
Ġgel mektedir
Ġherk esin
> %
ĠD ÃľZELT
N e
Ø Ń
13 1
Ġbirbir inden
Ġdo laÅŁ
Ġad alet
in sel
Ġgec ik
g Ã¼t
Ġ lik
ĠgeÃ§ ildi
im um
ĠB oy
ĠkeÅŁ if
ĠÃ§Ä±k Ä±yor
Ġob j
ĠO to
Ġkar ma
l eki
ĠBeled iy
Ġt ad
ĠoluÅŁtur ul
ĠD ER
ĠmÃ¼da hal
Ġat Ä±k
G Ã¶r
12 4
Ger eÄŁi
Ġbu labilir
ĠSer v
ĠS e
Ġbir er
p a
Ġor ada
ĠÅŀ ehir
ĠFrans a
Ġak l
Ġ ep
37 0
ĠiliÅŁk isi
Ġt ef
Ġola caÄŁÄ±nÄ±
at i
us una
ĠkatÄ±l ma
b ank
uz u
ay lÄ±
Ġide al
Ġnerede yse
Ġbor c
v a
Ġun cu
Ġbit ki
mey ecek
Ġs icil
b el
Ġb lok
ĠÃĩ an
12 6
Ãĩ alÄ±ÅŁ
ĠÃľ Ã§
12 2
Ġma den
LI K
Ġbul gu
Ã¼mÃ¼z deki
Ġanal izi
ĠgÃ¶nder ilmiÅŁ
ĠT at
Ġkullan dÄ±ÄŁÄ±
Ġkar tÄ±
ĠsÃ¶y lÃ¼yor
op e
M er
Ġtarih ten
Ġistiyor sanÄ±z
Ġb endi
' yÄ±
Ġt oz
r ight
ĠPart isi
ĠH Ã¢k
mek sizin
Ġp res
aÄŁ Ä±nÄ±n
ind ows
Ġgel in
ĠÅŁ imd
Ġan lama
Ġy Ã¶r
ET Ä°
ĠÃĸ d
ĠanlaÅŁ Ä±lan
ĠDer gisi
ĠBÃ¶l Ã¼m
Ġtur izm
D iÄŁer
Ġdif fer
ĠDav alÄ±
Ġalacak larÄ±nÄ±n
Ġfark Ä
ĠfarkÄ ±
ĠBaÅŁ bakan
ĠKÃ¶y Ã¼
Ġm uk
dro id
ĠÄ° Ä°K
Ġoran larÄ±
ĠS il
eÄŁ inde
Ġar al
ĠÃ§alÄ±ÅŁ tÄ±ÄŁÄ±
ra g
Ġor du
ĠkarÅŁ Ä±lÄ±ÄŁÄ±
Ġyen ilen
ef f
ĠgeliÅŁ miÅŁ
ĠsaÄŁ lam
esi s
ĠK av
ĠOr gan
ĠA ile
ĠK ara
ĠYargÄ±tay ca
Ġkullan Ä±labilir
Ġr oman
Ġhakk Ä±nÄ±n
ĠÃ¼lk eler
ĠpaylaÅŁ Ä±m
13 5
H aber
ĠÅŁart larÄ±
ab ilen
D oÄŁ
acaÄŁ Ä±nÄ±z
âĢĻ daki
DI R
Ġistem i
it ir
ro up
Ġsah n
we en
ĠeÅŁ i
Ġpoz itif
- A
Ġara larÄ±nda
ĠM Ã¼ÅŁter
Ġsonu ca
Ġiptal ine
ĠSay Ä±n
om et
ĠsÄ±nÄ±r Ä
ĠsÄ±nÄ±rÄ ±
sim um
ĠC em
ĠsÃ¶y leyen
en gi
Ġs iyah
Ġr ep
Ġbelir gin
Ġma y
en ci
al el
Gen el
l eket
ĠS ek
Ġcez asÄ±na
y n
ĠT am
ĠiÅŁ tir
Ġok uma
Ġz ek
Ġhes abÄ±
ĠM ac
re e
ĠdÄ±ÅŁ Ä±ndaki
ĠVer gi
U T
ĠbeÄŁ en
A H
ad et
Ã¼ley man
Ġzam anÄ±
l unun
ĠhÃ¼km Ã¼ne
Ãĸ r
Ġfatur a
ĠsanÄ±k larÄ±n
Ã§ eli
Ġvad eli
ĠHÃ¼s eyin
l Ã¢m
Ġz ir
ĠÅŁeh it
ay fa
- G
ĠEr z
Ġ eb
ĠT abi
ĠgÃ¼Ã§ lendir
ulu ÄŁ
s h
Ġh e
al lah
lÃ¼l Ã¼ÄŁ
ĠgÃ¶nder ilmek
ĠM obil
Ġzorun luluk
ĠyÄ±l lar
ĠMuham med
Ġmah sub
ĠI rak
ĠyaÅŁ Ä±nda
E O
ĠdÃ¼ÅŁ en
Ġal masÄ±
ĠuÃ§ uÅŁ
- a
San Ä±ÄŁÄ±n
il la
Ġgerektir mediÄŁinden
ĠB Ã¼tÃ¼n
Ġev r
ĠgÃ¶z len
ĠolduÄŁ umuz
ĠgeÃ§ ti
ab ilm
ĠtÃ¼k etic
ĠK Ä±lÄ±Ã§
Ġkapas it
ĠkoÅŁul larÄ±
Ġalt yap
Ġmar uz
ĠÃ¶r t
ĠdeÄŁer inin
ĠHastan esi
ĠÄ° bn
Ġtip i
Ġl ir
ebil iyor
Ġiyil eÅŁtir
ĠGir iÅŁ
k el
ĠÃ¼y elik
Ġmek t
Ġanlat Ä±m
Ãľ r
ĠMur at
c ar
ĠH Ä±rsÄ±zlÄ±k
Ġet ik
Ġkolay laÅŁtÄ±r
kiÅŁ ehir
ĠtÃ¶r en
diÄŁ iniz
Ġincel endikten
ar ik
ĠGÃ¶r e
18 8
ĠÄ° le
ĠsaÄŁ lÄ±yor
ĠG Ã¼zel
U z
Ġolduk larÄ±nÄ±
Ġson una
Ġkayb Ä
ĠkaybÄ ±
Ġola s
ci al
Ġpro tein
ĠÃĸ Z
Ã¼ya da
14 5
Ġtarih inin
ĠbÃ¶lÃ¼m de
ĠÄ° L
ĠFat ih
mak tÄ±r
ĠBaÅŁkan lÄ±k
ĠkadÄ±n lar
ĠÃľ l
3 40
Ġmez un
Ä±nÄ±z Ä±n
Ġm Ã¼r
ĠiÃ§eri ÄŁi
Ġinsan larÄ±
ler deki
ĠK ir
ĠE S
Ġsin yal
ok s
Ġk uzey
Ġtazminat Ä±n
Ġsistem inin
ad er
Ġuygulama larÄ±
Ġt Ä±r
et a
ĠD ÃľÅŀ
lÄ± ca
Ġev e
ĠC ar
Ġgenel inde
ĠÃ§ekiÅŁ meli
av i
Ġkullan Ä
ĠkullanÄ ±
t Ã¼rk
ĠKay nak
B ak
ÄŁ ur
Ġbo ya
Ġer t
ĠkullanÄ±l maktadÄ±r
Ġyen il
ĠkÄ±sm Ä±nÄ±n
Ġhay atÄ±
alt Ä±na
13 4
it ies
ĠH es
g az
ET Ãĸ
ĠÃĩ Ä±k
Ġ\ \
da s
ĠO dasÄ±
Ġtutanak lar
ĠM on
bÃ¶l Ã¼mÃ¼
Ġbent te
eden i
Ġm or
ĠhÃ¢l inde
Ġsal on
Ã¶rd Ã¼ncÃ¼
ĠÅŁ arkÄ±
unuz u
ot ik
Ġiddi an
Ġenf lasyon
mek le
ĠMuhak emesi
di stan
miÅŁ lerdir
ĠsÃ¶z Ã¼
ĠÂ °
Ġar ab
Ġkayd Ä±nÄ±n
Ġkampan ya
l Ã®
Ġm ol
lerin ce
ĠM ic
ula cak
Ġmodel leri
ĠiÅŁlem lerin
acaÄŁ Ä±na
Ġisten en
ulu yor
>T ablo
os e
d s
ĠC en
Ġt Ã¼rk
ĠÃ¼y eleri
g es
Ġmak al
Ġhiss ed
r is
ĠsaÄŁ lama
Ã ½
Ġyet enek
ĠGazi antep
L Ä°K
Ġlez zet
ĠP iyas
u e
ĠÅŁek er
Ġv d
uk atÄ±
Ġsebep ten
ĠHav a
ĠS aat
Ġver imli
err ah
I S
y Ä±m
ĠÄ°liÅŁ kin
Ġb esin
DÃ¼n ya
ĠÄ° ST
ĠL i
el y
ĠÅŁ unlarÄ±
44 2
ĠÄ° Ãĩ
Ġetk ileri
n ing
14 3
C A
tr al
Ġim p
el op
ĠP at
c er
ĠaÄŁr Ä
ĠaÄŁrÄ ±
Ġm ur
ĠKit ap
s um
Ġbin lerce
ĠkadÄ±n larÄ±n
O T
le c
Ġy ed
ĠKamu laÅŁtÄ±rma
> V
ĠÃĸ mer
Ġedil iyor
ĠBÃ¶l g
Ġb Ã¶
ĠBir leÅŁ
Ġettik leri
ĠMillet vekili
ce ÄŁi
am etr
ĠDÃ¼z en
oÄŁ az
c r
ĠV an
Ġbah set
ĠulaÅŁ Ä±m
Ġmak am
Ġsan Ä±ÄŁa
Ã¶l Ã§
ĠSistem i
Ġyan Ä±l
Ġ lÃ¼t
Ġkab il
H al
ĠyÄ±l Ä±ndan
Ġekip leri
iler le
m un
ĠÃ¼cret in
Ġh ab
Ġv s
ĠÃ§alÄ±ÅŁ maya
Ġs enin
Ġsebep leri
ĠoluÅŁtur duÄŁu
ĠEnstit Ã¼sÃ¼
Ġis mi
- d
I V
Ġs et
Ġtat lÄ±
Ġkullan Ä±la
Ġistem inde
ĠT Ã¼k
ĠbaÅŁ lama
) $
Ġkon s
onav irÃ¼s
c Ä±k
* </
ĠK uzey
acaÄŁ Ä±m
ler im
Ġc oÄŁraf
Ġmekan iz
Ġc es
Ù ĳ
Ġtan Ä±ÅŁ
eb ilmektedir
san tr
Ġnokt asÄ±
Ġayr Ä±ntÄ±lÄ±
an dar
ĠTur izm
ĠB eÅŁiktaÅŁ
ĠsayÄ± larÄ±
ĠgÃ¶rÃ¼l mediÄŁinden
ĠY et
'n den
ad ir
ĠT ic
Ä°LER EK
Ġdav asÄ±ndan
Ġkav uÅŁ
lan Ä±yor
> R
ĠbÃ¼ny esinde
ĠbaÄŁlam da
Ġaktiv it
Ġd ini
ĠØ ¯
ĠC uma
ĠsÄ±v Ä
ĠsÄ±vÄ ±
s ir
ĠtebliÄŁ inden
ĠR ecep
Ġdiy en
y ip
por t
ĠdÃ¼ny aya
re at
ĠÃ§ek ici
ĠÃ¶ y
ĠÃ¶ t
ĠsÄ±f atÄ±
Ġs end
ĠN edir
ad Ä±n
ĠPoli tik
abilir iz
G erek
Ġist is
dit ion
ĠgÃ¼ven liÄŁi
Ġs Ã¼s
ĠbÃ¼y Ã¼me
ĠMod el
Ġn is
Ġkah v
ur ta
Ġdayan Ä±k
ĠyapÄ±l dÄ±ÄŁÄ±nÄ±
r az
Ġnitel iÄŁine
_ i
ĠsÃ¼r en
Ä°n san
Ġr efer
ah met
ĠB e
op lam
h y
Ġtemsil c
ĠyayÄ±m lanan
ĠBil im
Ġdokun ulmaz
Ġn af
ma tion
ĠalÄ±n mÄ±ÅŁtÄ±r
Ġk esi
ĠT ut
ĠÃľ zer
c al
ĠEm niyet
18 7
Ġad Ä±nÄ±
ĠSon ra
c es
âĢĻ deki
Ġmet rek
ĠbaÅŁ kanÄ±
Ġbir ini
ĠyerleÅŁ im
ĠA N
ĠG Ã¶l
18 9
ĠyaptÄ±r Ä±m
an g
Ġfor ex
} }
Ġveril ecek
eb i
Ø ©
ĠKay seri
T R
37 1
Ġhesap lama
Ġolma larÄ±
ĠÄ°ngiliz ce
un g
Ġbar Ä±ÅŁ
Ġincel ey
Ġyer li
ilm ez
ĠgerekÃ§ elere
Ġs arÄ±
ĠduruÅŁ maya
'n Ã¼n
ĠYÄ±l dÄ±rÄ±m
luk la
ĠM ey
ĠÃ¼rÃ¼n lerin
Ġsor unun
Ġmuh tem
h en
Ã¢ yet
ĠK er
H Ã¼kmÃ¼n
Ġs ist
uma ÅŁ
Ġtoplum un
Ġal l
ĠkomÅŁ u
ĠP eki
an ce
ĠF Ä±r
ĠG alatasaray
ĠyaÅŁ lÄ±
tal ama
Ġoyun c
lis h
Ġar an
Ġbul mak
ti b
ĠD osya
Ġser gil
Ġz emin
ĠC anlÄ±
ada str
ĠhazÄ±r lÄ±k
Ġal anÄ±n
ĠiÃ§er ir
dem ir
tik ten
Ġal so
Ġdev ir
Ø§ ÙĨ
ĠT Ã¼r
ear ch
Ġav ukatÄ±
Ġkazan ma
Tar ih
emek tedir
k or
ĠÅŀ ti
ĠalÄ±n Ä±r
Ġd i
Ġak adem
ĠÙ ģ
l d
16 8
ĠAK P
mÄ±ÅŁ lardÄ±r
S omut
ĠgeliÅŁ me
- F
Ġist eme
ĠÃ¶nc esinde
o x
Ġalacak lÄ±
Ġgetir di
Ġak Ä±m
Ġhukuk sal
ĠÃ¶zet le
aÄŁ Ä±nÄ±
ĠÃ¶zg Ã¼
. :
Ġbak iye
s em
d el
Ġyak al
eceÄŁ im
Ġsanat Ã§Ä±
ĠKon s
Ġtes cili
Ġk a
Ġf ac
Ġsah te
ĠG Ã¼nÃ¼
Ġalan larda
Ġtes ti
ĠTar af
Ġ ?
Ġo ther
13 6
** Ċ
ĠJ ap
ĠEs ki
Ġpr atik
Ġticaret i
ĠÃ¼niversit e
lan abilir
iyor lar
Ġv ade
ĠdeÄŁiÅŁ imi
ĠhÃ¼kÃ¼m den
as h
Ġd ip
ĠY ork
. G
r ist
ĠM u
c m
lerimiz in
Ġpazar lama
z im
ĠgÃ¶rÃ¼ÅŁ meler
our nal
Ãĩ ocuk
A ÄŁ
Ġan ket
15 1
d es
ĠgÃ¼nd eme
Ġh Ä±zÄ±
os k
- P
Ġfayd alÄ±
ĠaÄŁÄ±r lÄ±k
ĠD in
S aÄŁ
ĠdÄ±ÅŁ Ä±na
Ġnaz ara
res yon
or y
15 8
ĠhÃ¼kÃ¼m lÃ¼
U Z
ĠsÃ¼reÃ§ te
Ġd oz
ĠÄ° letiÅŁim
ĠK il
Ġk u
L Ä°YE
ĠÃ¼cret ine
Ġyak Ä±ndan
ĠGÃ¶r ev
ĠT ablo
ĠA dÄ±
Ã¢ b
âĢĻn a
15 5
Ġal Ä±cÄ±
Ġdelil ler
Ġkesin lik
Ġen dÃ¼str
ĠÃ§ek me
b ey
lemek tedir
ĠamaÃ§ la
ĠiÅŁ yeri
Ġad liye
Ã¶r Ã¼
Ġbah Ã§
Ã¼ler ek
Ġik ram
ad eniz
of t
ĠÃ¶nem i
ĠsÄ±k Ä
ĠsÄ±kÄ ±
ĠF er
Ġtoplan t
Ġver ilere
3 10
ĠgerektiÄŁ inin
ĠgerekÃ§ esi
TÃľR K
ĠkarÅŁÄ± ya
Ġan Ä±nda
13 8
ĠlÃ¼t fen
Ġkon ak
ta in
ĠEf endi
or i
ĠLis ans
ĠbaÅŁ lÄ±yor
ĠyÃ¶ntem leri
36 6
ĠGeÃ§ ici
ĠdÃ¼ÅŁÃ¼nÃ¼yor um
ĠDairemiz ce
) ;
ĠmÃ¼vekk ili
26 0
ĠFrans Ä±z
ĠgeniÅŁ let
ĠalÄ±n acak
Ġtaraf a
ĠAr kadaÅŁ
ĠD ers
Ġyan gÄ±n
ĠE b
A ÅŁ
a iz
ĠY azÄ±
Ġboz maya
Ġih al
Ġbelirt ilmiÅŁtir
ĠyÃ¼rÃ¼t Ã¼len
Ġbet ween
s atÄ±
las s
Ġh Ã¢k
ĠoluÅŁ ur
13 7
ĠEr kek
ĠÅŁ ub
Ġkonu larda
ĠkÄ± yas
Ġhar ek
ĠÄ° Åŀ
18 5
Ä°S T
} ^{
ĠyapÄ±l masÄ±na
iyat ro
Ġmet re
ĠDÃľZELT Ä°LEREK
15 2
ĠF acebook
ĠÃľ n
emiz in
ĠY erel
Ġdef ter
ĠgÃ¶rÃ¼l dÃ¼ÄŁÃ¼
Ġtescil ine
Ġdemek tir
Ġbilg isi
af er
us uz
ĠZ ir
Ġikti dar
' Ã¼
lik te
Ġhastal Ä±ÄŁÄ±
ĠtartÄ±ÅŁ ma
Ġsev iye
le x
ot el
dav a
Ġm g
as Ä±z
t Ä±n
Ġsak in
l Ä±lÄ±ÄŁÄ±
Ġzinc ir
ĠZ ira
ĠolduÄŁ unda
ma d
Ġpr os
et h
ĠkÄ±sm Ä±nda
Ġkar bon
Ġdayan aÄŁÄ±
O y
Ġilg il
bil eceÄŁi
Ġs os
par ator
ĠgÃ¶ l
ĠÃ¼lkemiz de
ĠkullanÄ±cÄ± larÄ±n
Ġef f
a us
ĠP az
ĠN az
Ġbir ine
Ġa j
ter yal
Ġbil et
is in
ma th
ĠHat ta
el p
de b
ĠY en
iler inden
Ġkon ul
ĠT ab
Ġyum uÅŁ
ĠsÄ±f Ä±r
ĠiÅŁbir liÄŁi
ĠC ad
ut u
>+ </
Ġ Ã¼ncÃ¼
ĠSay fa
ĠiÅŁ gal
ĠÃ¶zellik ler
Ġsil in
ĠsÃ¼r Ã¼cÃ¼
m l
o uld
14 4
ĠdÃ¼ÅŁ man
tu ÄŁ
Ġdem okras
15 7
ĠF ar
ĠN ak
ĠS Ã¼leyman
Ġbek lenen
mey in
ĠiÅŁ leri
ayÄ± cÄ±
ĠD estek
ĠS ÃľR
Ġ' '
ĠH e
o o
h as
Ġy alan
laÅŁ Ä±k
Ġgel miÅŁtir
'n dan
Ġpar alel
Ġsig ara
Ġola sÄ±
Ġp ort
if ic
mÃ¼ÅŁ tÃ¼r
Ġmet in
17 9
Ã§ Ä±lÄ±k
dik lerini
ĠTrabz on
Ġhar cÄ±
ĠÃ§aÄŁ r
Y OR
en de
ans Ä±z
Ġal abilirsiniz
Ġbak an
Ġsebep lerden
Ġan ahtar
ĠKon trol
Ġet ken
Ph one
Ġolun ca
ĠBah is
ĠS ON
ĠgÃ¼n Ã¼mÃ¼zde
ĠyÃ¶n el
Ġr estor
n an
ĠkullanÄ±l mÄ±ÅŁtÄ±r
Ġsay Ä±sÄ±nÄ±n
ĠD ik
ĠGÃ¶r Ã¼n
Ġolma dÄ±ÄŁÄ±nÄ±n
lan da
ĠgÃ¼n Ã¼mÃ¼z
is yen
te ÅŁ
Ġsan a
Ġt Ä±p
Ġesn af
Ġoy unun
celik le
16 5
ĠiÅŁlem e
ĠmÃ¼dafi i
EC E
lat ma
14 9
Ġk adastr
ip lin
k ray
ama m
Ġyap rak
Ġkapsam da
ĠY ok
ĠEt k
Ġr akip
ĠÃĸÄŁr etim
ĠGazet esi
Ġte mas
Ġnokt asÄ±nda
Ġhakk Ä±nÄ±
m inin
> %</
ĠC am
Ġkurum sal
ma dÄ±ÄŁÄ±nÄ±
Ġhus uslar
Ã¼lmÃ¼ÅŁ tÃ¼r
LER Ä°N
EÄŁ er
C EL
13 9
Ä°n cel
ĠgÃ¶rÃ¼l Ã¼r
Ġmem leket
ĠØ ¹
ot al
V icdani
ĠÃ¼st len
ĠN eden
ĠDiy arbakÄ±r
ĠM Ä±sÄ±r
ĠBel ir
Ġyer lerde
ow n
ĠY AP
ĠkiÅŁ iyi
Ġp etrol
- s
ĠYap Ä
ĠYapÄ ±
ĠÃ§Ã¶z Ã¼mÃ¼
Ġs eri
ĠkaldÄ±r Ä±lmasÄ±
Ġhal kÄ±n
4 65
o lat
C H
Ġkazan mak
ĠF enerbahÃ§e
Ġbilg iye
ĠgÃ¼n ey
ĠB Ä°L
Ġsun maktadÄ±r
ĠkiÅŁ ilere
Ġma teryal
ur u
Ġb om
ĠsektÃ¶r Ã¼nde
ed iler
Ġbilirk iÅŁ
Kay nak
ĠSo hbet
Ä±n an
ĠBiz im
Ġed ici
Ġnum ara
Ġsorun lar
ĠAn droid
Ġimk Ã¢n
25 7
Ġev vel
ĠB undan
ĠaÅŁ Ä
ĠÃ¼ret ilen
ĠaÅŁÄ ±
Ġzor luk
Ġifad elerini
ĠP KK
ĠY ah
Ġk g
ĠbakÄ±m dan
o lar
iy iz
z at
Ġal dÄ±ÄŁÄ±nÄ±
ĠK omut
Â° C
Ä±r Ä±m
iz ation
ĠÅŁ Ä±k
ĠTem el
14 6
Ġb Ä
r uk
og raf
y m
ĠMahkem e
r asÄ±
tey iz
Ġver ici
Ġp p
Ġal Ä±nÄ±
Ġv irÃ¼s
Ġal ak
ĠÄ°liÅŁ k
ĠN et
Ġeg z
Ġs up
17 5
landÄ±r ma
ul e
Res im
ĠÄ±s lah
Ġhal i
A SI
Ġh ediye
ĠhÃ¼km ol
Ġist iyoruz
Ġsev er
Ġkal em
ĠÃ§ eÅŁ
c Ã¼k
ĠyÃ¼z Ã¶lÃ§
ĠgÃ¶r Ã¼r
k o
Ġkum ar
ĠG az
Ġkrit er
ĠkesinleÅŁ en
Ġal kol
Ġeksik siz
manÄ±z a
ĠAn a
ĠEur o
Ġbu y
Ġgerektir en
an da
L EN
ĠgÃ¶ster iyor
tr en
laÅŁ masÄ±
lo bal
Ġmuh af
Ġyol cu
Ġgetir mek
Ġ Ì
Ġed ilip
ĠH iÃ§
G K
Ġgir di
alp ha
Ġken ar
Ġver erek
ĠK UR
Ġnum un
en en
Ġkaydet ti
ĠK ent
ĠolduÄŁunu z
iv as
ĠG ar
ĠS Ä±nÄ±f
ĠiÅŁtir ak
Ġusul Ã¼ne
Ġilam Ä
ĠilamÄ ±
ĠalÄ±n dÄ±ÄŁÄ±
Ġl ok
Ġkul ak
Ø§ Ø
ĠElektr ik
8 00
Ġmah kÃ»miyet
>T oplam
ul l
ĠiÅŁver enin
ĠanlaÅŁÄ±l mÄ±ÅŁ
17 4
Ã¼k sek
esi h
Ġbu z
Ġciv arÄ±nda
ĠTop lum
Ġb eb
Ġt ok
ĠsaÄŁla maktadÄ±r
Ð ¾
Ġaks ine
ĠgÃ¶z altÄ±na
eb ilen
Ġar aba
Ġprot okol
T r
ĠSel Ã§uk
ĠF en
ec ts
Ġyol unda
ĠteÅŁ eb
ĠgerektiÄŁ ine
Ġmahkumiyet ine
Ġr is
Ġdok u
ĠO nun
Ġrapor la
Ġat Ä±lan
. m
E y
ĠÄ°s mail
ĠK AL
ĠÅŁey in
ĠHizmet leri
Ġk lasik
Ã¼ldÃ¼ ÄŁÃ¼
Ġver ileri
Ġkon santr
Ġbozul masÄ±na
Ġf elsef
Ġibar esinin
Ġneden lere
ĠK aÃ§
ĠDeÄŁer lendirme
ĠAk deniz
il dikten
ĠG Ã¶n
Ġait tir
Ġy itir
Ã» l
' Ċ
im inin
as al
te ÅŁem
Ġsin ir
Ġkarar larÄ±n
Ġth ey
Ġt Ã¼zel
Ġver meye
Ġkend isinin
ĠKr edi
> L
Ġhal ka
Ġs lot
Äŀ I
Ä±m Ä±nÄ±n
a w
14 8
Ġ ÙĦ
Ġtemin at
ĠbÃ¼t Ã§
ĠDA VA
Ġkans er
Ġzaman Ä±nda
Ġon e
.H ukuk
os yanÄ±n
Ġsit esinde
ĠgÃ¶ster diÄŁi
Ø Į
ol d
ĠTay yip
ĠmÃ¼ hendis
on al
v ir
15 3
48 5
ĠbaÅŁlay arak
Bu gÃ¼n
ĠHak em
16 6
ĠÃľ lk
C AK
ĠÅŁ ampiyon
ĠY aÄŁ
Ġsun duÄŁu
g raf
ili ÄŁini
ĠÃĸl Ã§
Ġhep s
Ġfilm i
Ġkoru mak
Ġver ilerek
Ġd Ã¶
ĠkararÄ± yla
__ __
Ġkar go
ĠbarÄ±n dÄ±r
aÅŁ tÄ±r
Ġamel iyat
is s
am uk
Ġbulunma dÄ±ÄŁÄ±nÄ±
p aÅŁa
li t
d Ã¼z
Ä±b bi
âĢ Ķ
os s
Ġmuv aza
ĠBen im
ĠH ep
meler ini
Ġg Ã¼r
liy at
g Ã¼r
. s
ĠS Ä
Ġuz at
t ed
Ġsan al
Ġsey ir
Ġbab asÄ±
Ġbil iyor
ĠdeÄŁiÅŁ en
i mat
ĠÅŀ u
um artesi
ĠhÃ¼kmÃ¼n Ã¼n
Ġdal g
Ġn in
V I
' la
ĠsÃ¶zleÅŁ menin
Ġdikkat li
os it
Ġrez erv
Ġh Ä±r
c Ä±lÄ±ÄŁÄ±
ĠO tel
M S
lam b
ya fet
m edik
ĠaÃ§Ä±l Ä±ÅŁ
ĠbÄ±rak Ä±lmasÄ±
ĠalÄ±n mÄ±ÅŁ
Ġpar ametr
ĠSÄ ±
ĠR ek
ĠsaÄŁ lÄ±ÄŁÄ±
Ġtedav isi
ĠaÃ§ ma
ĠAs ya
Ġgel diÄŁini
Ġhep si
Ġtan esi
ĠÅŁaÅŁ Ä±r
O k
Ġgel mesi
q quad
ĠoluÅŁtur ulan
ĠÃĩev re
ĠiÅŁlem in
ĠbaÅŁk aca
ĠÃ§iz g
Ġproj esi
Ġreak siyon
ĠbÄ ±
ĠbaÄŁlÄ± dÄ±r
Ġyap Ä±mÄ±
* .
Ġdo landÄ±rÄ±cÄ±lÄ±k
Ġdeste ÄŁ
andar ma
iÄŁ e
Ġs ystem
es ter
T ur
Ġplan Ä
ĠplanÄ ±
17 3
ĠdeÄŁer ler
ĠUl usal
Ġtemyiz i
Ġilg inÃ§
ĠÃ§ Ã¶k
ĠYÄ±l dÄ±z
Ġel inde
or ld
ĠB AÅŀ
ara j
le ft
ĠP eygamber
ĠulaÅŁ mak
ĠÃĩ elik
akk ale
ĠanlaÅŁÄ±l mÄ±ÅŁtÄ±r
Ġyer den
âĢĻn e
akk abÄ±
Ġboy u
âĢĻ l
Ġr et
w o
ĠAmerik an
E Åŀ
uÄŁ la
Ġbul unup
T S
Ġth ese
ĠE R
ek s
al s
Ġmen sup
Ġhaber leri
Ġa cil
ĠdÃ¼zenlen miÅŁ
ĠS ayÄ±
ĠhÃ¼k Ã¼
imiz den
la v
Ġgenel de
Ġdosya da
m r
l Ä±lÄ±ÄŁ
ĠHaber ler
ĠÃ§aÄŁ rÄ±
18 4
ra Ã§
ĠaÃ§Ä±k lamasÄ±
Ġolmaya cak
ĠY al
ĠaÃ§ Ä±lmÄ±ÅŁ
18 3
ĠbÃ¶lÃ¼m Ã¼nÃ¼n
Ġsorum luluÄŁ
diÄŁ im
h od
h o
Ġn ez
ĠS arÄ±
caÄŁ Ä±na
Ġmiras Ã§Ä±
ya cak
âĢĻ yi
Ġli g
rek ans
ĠHay at
ĠHaz Ä±r
at Ã¼r
Ġyap tÄ±ÄŁÄ±nÄ±
15 4
Ġn Ã¶
/ veya
Ä±l Ä±ÅŁ
. E
Ä°L Ä°
Ġger il
Ġkamer a
et ici
Ġsah t
Ġnes n
ĠgeÃ§ tiÄŁimiz
Ġmu ay
Ġhar f
Ġmev sim
ĠoluÅŁtur ur
ler ken
ĠÃĸr gÃ¼t
2 20
Ġsiyas al
Ġbelg esi
ov id
lan tÄ±
ĠyÃ¼z Ã¼nden
Ġs eni
Ġu sed
ĠTr ans
ĠP an
akar ya
ĠarkadaÅŁ larÄ±
Ġkem ik
kÄ±n ma
ĠM el
ĠgÃ¶ster ilmiÅŁtir
ĠbÃ¶l Ã¼n
16 3
Ġev len
Ġincelendi ÄŁinde
lin ik
am u
Ġmiktar Ä±nÄ±n
Ġkurul muÅŁ
ĠÃ§alÄ±ÅŁ manÄ±n
usu f
ĠÄ°st inaf
elik le
ĠGÃ¼n eÅŁ
ac Ä±k
Ġoran Ä±nÄ±n
Ġok si
Ġhak imin
ĠulaÅŁ tÄ±r
Ġbu t
ĠB alÄ±k
Ġmuh ak
ĠEÄŁ it
15 6
Ġar ayan
ĠmÃ¼da f
Ġmak simum
Ġk up
ĠP ay
Ġem sal
ĠbazÄ± larÄ±
is iklet
Ġtemiz lik
Ã» r
Ġyap abilir
ĠT witter
Ġt or
ĠÃĸz eti
Ġalan lar
ĠFark lÄ±
Ġhizmet ler
Ġk Ä±zÄ±
am Ä±ÅŁ
ĠdeÄŁerlendir ilmesinde
Ġkal mak
liy eti
AÃ§Ä±k lanan
ÅŁ ap
Ġi ts
' an
Ġmey ve
ĠÃ§alÄ±ÅŁ Ä±r
- N
ĠK uÅŁ
ĠE c
Ġpro duc
ec tion
ĠL ond
Ġtasar Ä±mÄ±
ĠR um
ĠyapÄ±l maktadÄ±r
. org
y alÄ±
ĠbaÅŁla dÄ±ÄŁÄ±
Ġmah alli
Ã¼k le
c ed
ĠÃĸr nek
Ġp ost
anÄ± p
G UL
ĠyaÅŁad Ä±k
ĠboÅŁ anma
Ġtetkik i
ĠBÃ¶l Ã¼mÃ¼
Ġih ale
ĠkalÄ± p
t es
Ġkaynak larÄ±
ĠL im
Ġar ÅŁiv
ĠÃ§evrim iÃ§i
Ġbas k
Ã ±
Ġeylem in
ĠanlaÅŁ ma
en izi
um p
or s
ĠAr tÄ±k
28 6
ĠcezalandÄ±r Ä±lmasÄ±na
Y ON
ĠaÅŁama da
Ġy Ä±la
b ine
Ġm imar
Ġhus usunda
ĠkÃ¶t Ã¼ye
ĠB ayan
Ġyap masÄ±
Ġy edi
Ġtekn olojik
ĠiÅŁlem inin
Ġmes ai
ĠyÄ±l larÄ±
Ġgerekli dir
alat ya
Ġbulabilir siniz
ĠÅŁeh r
ĠyaÅŁ at
Ġ lan
Ä±la caÄŁÄ±
Ġm ore
30 4
ĠT al
Ġdosy aya
ĠGr ubu
Ġdayan dÄ±r
Ġr an
Ä±l maya
Ġar azi
ĠsÄ±f at
Ġden ir
st ra
Ġstu dy
Ġuy ularak
mos yon
ĠsuÃ§ larÄ±ndan
T M
ĠsÃ¼r ece
ĠÄ°ÅŁ leri
ĠS em
ĠiliÅŁk ileri
Ġbak Ä±ldÄ±ÄŁÄ±nda
ĠBer aat
Ġol masÄ±nÄ±n
Ã¶ p
Ġpsik olojik
ĠalacaÄŁ Ä±n
Ġsek s
ĠSig orta
Ġayn en
Ġyar gÄ±lan
kray na
Ġes k
le v
Ġkalit esi
ĠkonuÅŁ an
Ġum ut
ĠDoÄŁ ru
ĠR apor
ĠmÃ¼ h
ĠYas aya
Ġsistem in
ĠM ek
b as
ĠÂ ·
Ġar sa
ĠD e
ĠR amazan
ate gor
x y
tern ational
ĠiletiÅŁim e
ĠDo Ã§
Ġbe en
Ġbu la
m Ã®
ĠYÃ¶n tem
Ġbul an
y eni
Ġgetir diÄŁi
in s
}{ \
Ġser may
Ġkorun masÄ±
lÄ±ÄŁ Ä±ndan
ÅŁ e
ĠÃ¶den mesi
Ä±n day
o ver
ĠÃ¼st Ã¼
at er
ĠgeÃ§ ersiz
Ġbelir lemek
ĠdaÄŁ Ä±lÄ±m
ĠulaÅŁ abilirsiniz
ili st
Ġ Ä±r
Ġdayan arak
ĠgÃ¶r dÃ¼k
es ef
it er
ĠM ersin
Ġbur aya
ys is
ediÄŁ iniz
ah ut
ĠO da
im den
ĠY eÅŁil
Ġbur adan
ay Ä±m
ĠaraÃ§ larÄ±
t op
ĠF ETÃĸ
ĠkarÅŁÄ±lÄ±ÄŁ Ä±nda
ĠalÄ±ÅŁ kan
Ã¼nÃ¼ yor
AL I
ĠGerek Ã§e
ĠgÃ¼n den
EÄŁ itim
ow er
an n
Ġnes il
anlÄ± ur
eÅŁ me
Ġhukuk en
ĠØ ª
im ini
if e
eceÄŁ imiz
la ck
Ġw ill
ĠK Ã¼t
lerimiz e
Ġkur s
ĠGÃ¶r Ã¼ÅŁ
ĠÃ¼st Ã¼nde
ek er
ÅŁam ba
. )Ċ
' D
Ġitiraz Ä
ĠitirazÄ ±
tik leri
lay Ä±p
ÅŁ ey
Ġdayan ak
malÄ± sÄ±nÄ±z
16 1
Ġkit l
Y Ä±l
ĠS es
ut ma
Ġsek iz
ĠteÅŁeb bÃ¼s
ĠÄ°d ari
Ġo ut
at ive
Ġkit abÄ±
ĠBey az
ĠY Ã¼r
Ġzorun luluÄŁu
29 5
Ġpr ens
u al
Ġkims enin
ul ur
Ġprof il
o ma
7 65
Ä±m Ä±na
ĠMÃ¼ hendis
OÄŀ LU
Ġsak lÄ±
ken t
Ġmevzu at
Ġen dek
Ġhar iÃ§
Ġedildi ÄŁ
16 9
Ã¼ lasyon
Ġem ir
ĠTop lam
Ġv i
Ġmadd eler
o da
Ġadet a
Ġek ibi
ĠbÃ¼y Ã¼
An a
larÄ±nÄ±z Ä±n
atur e
ĠY TL
v ekil
ĠsonuÃ§ landÄ±r
Ġedil emez
> X
Ġdevam Ä
ĠdevamÄ ±
AR I
ot os
ektÃ¶r Ã¼
s oy
ĠÃ§ elik
Ġmen f
Ġk li
dÄ±r ma
Ġistem iyle
ob ot
ĠAn d
Ġh oc
Ġm el
30 2
18 2
Ġkar a
ans al
ĠseÃ§ imi
ĠB i
ĠH Ä±z
Ġoyn an
Ġyiy ecek
C O
ĠoluÅŁtur mak
s ar
j i
? "
ĠM ik
ĠÃ§Ä±k maktadÄ±r
Ġ lay
b ek
Ġsen et
ĠsÃ¼r edir
iÄŁ inin
Ġbu gÃ¼ne
c esi
ĠA j
ik al
Ġko operatif
ĠM en
B et
ĠÃĩ Ã¶z
Ġt ime
Ġs ik
ĠDER ECE
Ġetkil eyen
el d
T Ãľ
ĠOr tak
Ġes nek
ĠdÃ¼zey inde
ĠÃ¶rgÃ¼t Ã¼
zer bay
Ã¼b Ã¼
r ol
Ġon dan
ĠBÃ¶l gesi
3 50
ĠS Ã¼per
Ġmadd elerinde
Ġsavun muÅŁtur
Ġ ðŁ
Ġtop r
15 9
Ġrapor una
Ġger iye
Ġgir diÄŁi
m s
kin g
Ñ ĸ
ans iyon
Ġbozul masÄ±nÄ±
Ġkazan an
ĠÃ¼rÃ¼n Ã¼n
o du
Ġtamam Ä
ĠtamamÄ ±
Ġk umaÅŁ
ĠalacaÄŁ Ä±nÄ±n
Ġmahkem esince
ĠdeÄŁiÅŁiklik ler
un lar
/ B
25 1
ĠgeliÅŁtir me
ĠT R
Ġd Ã¶rdÃ¼ncÃ¼
Ġtab ak
ĠC ami
ĠF ran
ĠÃ§at Ä±ÅŁma
ĠsuÃ§ unu
ĠKar adeniz
Ġhaf talÄ±k
ĠhÃ¼kmed ilmesi
ĠEs kiÅŁehir
4 28
Ġgel ip
ĠT ok
ĠilÃ§ esi
Ġreh ber
4 38
eler ek
A t
Ġserg ilen
Ġhareket e
Ġko ordin
aÄŁ Ä±na
Ġolabilir siniz
Ġkarma ÅŁÄ±k
ĠA Y
ĠGel iÅŁ
Ã¢ s
ĠBun larÄ±n
Ġdosya larÄ±n
. *,
ĠdÃ¼z eyi
uyor uz
Ġbelir lem
Ġanlam Ä
ĠanlamÄ ±
ĠHÃ¢k imi
ĠS iyas
ĠiliÅŁk inin
f ed
ĠmÃ¼ÅŁter ek
Ġk imi
Ãĩ ev
ĠT ip
qu e
ĠkatkÄ± da
Ã¼l Ã¼k
an Ä±z
tr a
ay ol
Ġkam p
e ma
Ġb ez
ĠpiÅŁ ir
ĠÃ§aÄŁ Ä±r
st ri
Ġetk iler
Ġgetir ilen
iyet ini
ĠkalÄ± cÄ±
ĠÃ¼lk elerin
ĠW indows
D Ãľ
Ġsiz ler
Ġhem ÅŁ
Ġinsan lara
d eri
ĠsÄ±r asÄ±yla
âĢĻ s
ĠÄ°Ãĩ Ä°N
A h
Ġhac iz
ĠSavaÅŁ Ä
ĠSavaÅŁÄ ±
ĠB ab
Ä°z mir
ĠsÃ¶y lemek
Ġincelen mesine
ĠBaÅŁ ka
ĠÅŀ ey
ĠkatÄ±lÄ±m cÄ±
ĠE N
Ġgider inin
maktay Ä±z
. b
len ir
dar oÄŁlu
ĠÃ§Ä±k acak
Ġw ww
ĠÃ¶rg Ã¼tÃ¼n
ey im
Ġkaynak lÄ±
ak lÄ±
Ġve fat
ĠiÅŁ leyecek
ĠP ark
ĠDair esince
Ġek lem
ama yan
ĠÃ¶n de
ecek siniz
ĠyÃ¶n lÃ¼
Ġayr Ä±ntÄ±
25 3
ĠyargÄ± lamanÄ±n
Ġvekil leri
Ġdair e
Ġdal ga
Ġedilm elidir
ĠolmasÄ± dÄ±r
Ã¢ let
Av rupa
Ġ( $
Ġn em
O D
Ġen te
Ġman z
ĠKay mak
Ġfaaliyet leri
Ġins anÄ±
Ġemek li
err Ã¼r
tÃ¼r Ã¼
ĠseÃ§en eÄŁi
Ġd ist
17 2
Ġr Ã¼z
ĠÄ°dar esi
Ã¼n ce
ĠO ÄŁ
Ġbulun ul
Ġibar et
Å «
Ġb ilen
B Ã¼yÃ¼k
Ġv ol
ĠN um
B unun
17 1
ĠÃľr etim
rim enkul
Ġorgan ik
Ġv ir
Ġdeney imi
ĠgÃ¼n Ã¼n
ÅŁem be
Ġor ij
ĠBan ka
fer ans
Ä±t ma
Ġihti mal
ĠÃ¶zgÃ¼r lÃ¼k
ĠVak fÄ±
Ġincelen ip
Ġist asyon
o ol
ĠÅŀah in
ĠÎ ¼
Ġvar say
K al
ĠgÃ¶ ÄŁ
16 2
... "
ĠTel efon
ĠkullanÄ±l dÄ±ÄŁÄ±
m p
ĠKullan Ä±cÄ±
Ġnef es
Ã® n
Ġdek or
Ġdurum una
Ġcin siyet
Ġp h
Ġkom ut
Ġil Ã¢m
Ġm it
Ġtr end
t asÄ±
Ġyan Ä±na
ĠSeb ep
ĠÃ§alÄ±ÅŁma larÄ±nÄ±
6 11
ĠyÃ¼kÃ¼m lÃ¼lÃ¼k
Ġkullan abilirsiniz
ĠÃ§ocuk larÄ±
ĠkarÅŁ Ä±mÄ±za
ĠbirleÅŁ en
r ib
ĠbasÄ±n Ã§
Ġmey dan
Ġyum urta
mem iz
luÄŁ un
ĠH ik
ĠMÃ¼ cad
Ġk Ã¢
ĠM ez
lay acak
ĠsÃ¶zleÅŁ meler
ÃľK M
16 4
C E
memek tedir
Ġtal imat
Ġm ini
Ġver mesi
ĠgeliÅŁ en
ĠkÄ± yafet
Ġyetk iye
P ar
ĠK es
20 3
ĠK ut
- KARAR
duÄŁ umuz
Ġfaz l
Ġsilah lÄ±
ĠKoca eli
Pro f
Ġp ah
O sman
Ġin v
ĠÃ§Ä±k masÄ±
ĠgÃ¶rev lendir
Ġtaleb inde
- h
Ġnih ai
ĠK en
c y
Ġbulun muÅŁ
Ġs am
ĠeÄŁlen celi
mak sÄ±zÄ±n
ĠdÃ¼zenlem eler
ĠyaÅŁad Ä±ÄŁ
Ġs ent
F A
, "
ĠP as
larÄ±nÄ±z a
Ġolabil ecek
Ġsebep lerle
Ġkon for
Ġisten ilen
Ã¼z dan
ĠhÃ¼c re
ser v
Ġkarar larÄ±nÄ±n
Ġ Ä
_{ \
ĠH ÃľKM
Ġhat t
Ġyok sul
Ġf ar
Ġdem iÅŁ
a u
zerbay can
Ġma la
Ġalt Ä±ndaki
ĠÃ§ek ir
Ġtelefon u
Ġgetir ilmesi
Ġmark et
Ġkapsam lÄ±
Ġmas a
eceÄŁ inden
BM M
Ġbelirt ildi
17 7
ĠC ih
ĠbaÄŁ Ä±ÅŁ
* Ċ
Ġmol ek
ad de
ĠgÃ¶r Ã¼le
Ã¼m an
mem iÅŁtir
Ġyol da
ĠyapÄ±lma mÄ±ÅŁtÄ±r
z an
Ġp e
onom ik
17 8
Åŀ I
Ġman tÄ±k
ilist in
c Ä±lÄ±ÄŁ
Ġgit ti
k s
ĠHÃľKM ÃľN
Ġz eytin
anlÄ±ur fa
ay arak
ĠkullanÄ±cÄ± lar
pr Ã¼
Ġyer ler
Ġenf eksiyon
Ãĩ E
Ġist edi
re as
Ġyer lerden
U l
Ġincelen meksizin
ER Ä°
diÄŁ inin
Ġstr es
maktadÄ±r lar
Ġma Ã§Ä±
t arÄ±n
ĠyatÄ±r ma
Ġduyg usal
ĠaÅŁama larda
16 7
ĠProgram Ä
ĠProgramÄ ±
ĠaÃ§ Ä±lmasÄ±
c en
an et
oloj isi
ĠÃ¼lk elerde
Ġkal mÄ±ÅŁ
ĠgÃ¶z den
ĠS ok
A A
ĠbaÅŁla mÄ±ÅŁtÄ±r
ayas a
17 6
Ġted arik
Y aÅŁ
alim anÄ±
ĠCumhur baÅŁkan
Ġdo y
ĠÄ°nÅŁ aat
ĠG e
G el
ĠD oÄŁan
Ġkon uk
tan dar
Ãĸ R
Ġhat tÄ±
Ġd Ã¼k
ĠyaÅŁ amak
Ã¢ d
ĠÃ§Ã¶z Ã¼n
ĠÃ§alÄ±ÅŁ mak
Ġkeyif li
Ġhal kÄ±
ĠmÃ¼ te
ĠyÃ¼rÃ¼y Ã¼ÅŁ
- R
ĠfÄ±r satÄ±
Ġem r
Ġmenf aat
ĠP ort
ĠaÃ§ Ä±ldÄ±ÄŁÄ±
ĠV I
Ġyap Ä±n
Ġ ..
Ġtahs is
Ġhesap lanan
Ġdar be
18 1
Ġin anÄ±yor
ĠEn g
den t
dot s
ĠAd alet
Ġf el
ĠAr ab
Ġma tr
in distan
ĠtÃ¼ket ici
Ù ī
ĠS P
Ġmahkem eye
Ġik amet
Ġdiren me
ĠbaÅŁvur usunda
Ã¶yl elikle
Ġverilmek tedir
ĠyÄ±l Ä±na
Ġhayat Ä±n
Ġortam Ä±nda
Ġistatistik sel
Ġpro v
C HP
mek ten
Ä° B
lan acak
29 1
Ġik lim
ĠtÄ±k layÄ±n
Ġl ink
it ed
Ġherk ese
Y az
ĠP erson
tÄ± lar
A pp
as a
Ġsan ay
7 00
ley ip
ĠbaÅŁ lÄ±k
Ġkap an
ĠÌ ģ
Ġalan Ä±na
ĠB ÃĸL
Ġbahis le
Ġp az
Ġun der
Ġil a
ĠgÃ¼n e
Ġanla tan
ĠE ge
Ġc ami
Ġpro cess
av a
Ġusul Ã¼
ĠG elen
ĠmÃ¼ st
ÅŁ ek
ok si
ĠD i
Ġkal Ä±r
el li
ĠtartÄ±ÅŁ Ä±lan
SI N
av an
Ġbilg ilere
ĠgÃ¶rev l
ĠsÃ¼r Ã¼c
ĠOr du
Ġplan a
Ġart Ä±ÅŁÄ±
Ġar asÄ±na
Ġedeb iyat
Ġres p
ĠAbd ullah
Ġc ar
ĠKar ab
Ġp or
T eb
ĠE K
esi gn
ĠApp le
ĠmÃ¼dd eti
al iz
Ġyap manÄ±z
Ġh il
ĠyÃ¼zÃ¶lÃ§ Ã¼m
AR T
T ak
Ġmadde de
ĠgÃ¶ster di
ilmek sizin
ap p
Ġma te
Ġistik rar
Ġoyun lar
ï ¿
ing s
Ġuygulan Ä±r
ĠkÃ¶ pek
ï¿ ½
ĠD is
Ø ¬
ĠÅŀub e
) $$Ċ
> Ãĩ
ĠsÃ¶z lÃ¼
Ġgay ret
Ġg ram
ĠyÃ¶n elt
Ġkat k
al ya
29 2
ĠS oy
Ġkusur lu
S er
T E
Ġkah raman
ĠKo Ã§
dÄ± lar
ĠyaÄŁ Ä±ÅŁ
Ġsor uÅŁtur
Ġs Ã¼b
s lan
ĠÃ¶den en
Ġd Ã¼r
Ġserv isi
ĠÃĩ ift
ĠÃ¶ÄŁrenc ilere
uÅŁ u
Ġserbest lik
Ġ ;
Ġar asÄ±ndan
laÅŁ Ä±m
ĠLis esi
ĠD EÄŀ
30 9
Ġmes le
Ġal Ä±mÄ±
Ġcin s
Ġdin amik
ĠErz urum
Ġkavram Ä
ĠkavramÄ ±
ĠBaÅŁkan lÄ±ÄŁÄ±na
Ġel b
Ġyetk isi
Ġeg emen
Ġta ahh
ĠalÄ±nÄ± p
n u
ĠÃ¶rn eÄŁi
Ġolma yÄ±
am il
A V
Ġol ayÄ±
55 1
Ġyap Ä±lÄ±p
/ h
ĠdÃ¶nem lerde
ĠgÃ¶r Ã¼nÃ¼yor
luÄŁ unda
Ġbilg ilerin
Ã¼rk en
c aya
Ġiddian am
Ġf e
Ġser tif
AB ER
ok ulu
ĠYunan istan
ĠÃ§Ä±k ma
Ġfutbol cu
ĠKomisyon u
ilen in
uyor um
/ k
Ġk ere
Ġkonu lar
eceÄŁ inin
aÅŁ Ä
Ġolmak tan
Ġtabi i
Ġuygulama lar
Ä° st
24 0
ĠkÄ±l Ä±n
Ġu p
ĠhÃ¼kÃ¼m da
ĠD ak
Ġi Phone
ĠEr meni
ec ik
Ġem niyet
ra de
ĠiÃ§er isine
diÄŁ inden
Ġkaz asÄ±
ĠoluÅŁtur maktadÄ±r
ĠF az
S P
o ter
for mation
S osyal
aÅŁÄ ±
Ġyap Ä±labilir
9 00
Ġtesi si
d iy
ĠM HP
ĠK arak
ĠÄ° mam
ĠaÃ§ tÄ±ÄŁÄ±
ĠkanÄ±t lara
Ġanlay Ä±ÅŁÄ±
ĠEt kin
ĠbaÄŁ Ä±r
v eÃ§
Ġok ur
Ġbes lenme
par tial
ug h
ĠG al
Ġf esih
Ġverilm esinde
ĠK ON
ect ed
2 13
ĠÃ§ ey
ĠG Ä±da
Ġhakk Ä±na
ons por
ĠF ik
Ġmak ine
Ġeden den
ĠO R
Ġplan lama
Ġs Ä±z
Ġsonra dan
ĠiÅŁ lediÄŁi
Ġda mar
ĠÄ° span
Ġsavun arak
Ġkar iyer
lar ken
Ġyol larÄ±
ĠyÄ±l dan
h ip
od rum
Ġolmak sÄ±zÄ±n
ĠiliÅŁk ili
LA MA
ĠÃ§ek ti
Ġu st
Ġy anÄ±n
30 5
Ġert elen
Ġfazla s
av Ã¼z
ĠO lay
ĠÃ¶ lÃ¼
ĠÃ¶ tÃ¼rÃ¼
Ġmu af
Ġcon s
Ġne w
ĠoluÅŁ maktadÄ±r
: ...
ĠM edeni
lek s
Ã¼p han
ĠÄ°s lÃ¢m
Ġel bette
ab alÄ±k
Ġt han
Ġal gÄ±
ilm eli
Ġkrit ik
tic al
ĠB eÅŁ
K AN
ĠGenÃ§ lik
ab ilme
D U
Ġalan a
ĠT ec
un cu
am Ä±yor
ĠÃ¶n lenmesi
Ġyak Ä±t
ama dÄ±ÄŁÄ±
it ler
ĠtaÅŁÄ±nmaz a
29 8
Ġst ok
ĠDanÄ±ÅŁ tay
ru c
ÅŁ i
Ġyar Ä±m
ĠÃľy esi
28 0
U Åŀ
ĠÃ§Ä±k tÄ±ÄŁÄ±
Ġkelim e
Ġzar arÄ±n
Ġd eri
Ġolay lar
ĠdavalÄ± larÄ±n
ĠEn erji
Ġg e
LAR IN
Ġart masÄ±
Ä±l malÄ±dÄ±r
Ġist erseniz
Ġhid ro
iÅŁ le
om en
Ġmuh teÅŁem
ĠsatÄ±ÅŁ a
ĠE deb
ĠÃ§ek in
g Ä±nÄ±n
ĠEÄŁit imi
H as
Ġyur td
luÄŁ unun
ĠG Ã¼Ã§
Ġkontrol Ã¼
len di
ĠaÃ§Ä±klama larÄ±
Ġede bil
Ġden eme
s es
ĠgÃ¶r dÃ¼ÄŁÃ¼
Ġp ol
ĠHak larÄ±
ĠyÄ±l Ä±nÄ±n
ĠY usuf
ĠT est
Ġtak sit
st il
Ä±l masÄ±nÄ±n
o lik
eler dir
un Ã§
DÄ° Ä°NE
Ġhayat ta
23 0
Ġhur da
Ġin tik
Son uÃ§
ĠF u
Ġuzak laÅŁ
Ã Ĥ
Ä°N Ä°N
f iye
ĠF utbol
EÄŀ Ä°
} _
] .
Ġpro mosyon
el al
ĠiÅŁÃ§ ilerin
Ġyeter ince
Ġp H
Ġgar anti
ĠsaÄŁ ladÄ±ÄŁÄ±
ĠD ar
6 13
Ġpar anÄ±n
Ġmes leki
B ah
ĠbaÅŁvur usu
LA M
Ġkor ku
ĠÃ§ek im
Ġy e
D el
Ġgetir t
ĠÃ§alÄ±ÅŁan larÄ±n
Ġdon anÄ±m
Ġbor sa
ĠAr t
Ġt ac
Ġris ki
Ġik tis
ĠDav anÄ±n
al esef
ib e
Ġbildir im
ĠAÅŁ aÄŁÄ±
Ġolan aÄŁÄ±
ĠH erk
ĠgÃ¶zetilm emesi
mas Ä±n
Ġokun arak
Ġtay ini
s k
Ġiyi ce
Ġt raf
ĠAs lÄ±nda
S Ä°
Ġin di
Ġdem okratik
Ġs a
C Ä°
ĠTh is
ĠT emiz
Ġf ol
S ev
Ġla bor
Ġay da
ĠÄ°Ã§ er
Ġab on
an Ã§
ĠNit ekim
Ġbirey lerin
yas por
Ġhus um
ĠK HK
Ä°n gil
Ùİ Ùĳ
> â
Ġboyut u
Ġer tel
Ġak r
ĠgÃ¼n ler
dÄ±k Ã§a
ĠM Ä°L
Ġgit mek
Ġne g
29 9
g ah
ĠdaÄŁÄ±t Ä±m
ac t
Ġimz al
as ayfa
ĠuyuÅŁmaz lÄ±ÄŁÄ±n
Ġtur ist
Ġbun lara
mel isiniz
Ġorgan iz
Ġp encer
ĠSat Ä±ÅŁ
um da
Ġkad ros
ĠDevlet i
Ġak si
ĠØ £
ĠyaÄŁ mur
Ġd iler
li g
Ġd iyet
ĠyardÄ±mÄ± yla
- e
Ġkey f
00 1
D eÄŁ
Ġsev gil
ediÄŁ imiz
ĠarkadaÅŁ lar
Ġfesh ed
ul ma
Ã¼ cu
Ġk er
S iz
. ht
Ġr ec
bo ut
ĠTekn oloji
ĠkoÅŁul larÄ±nÄ±n
á¸ ¥
2 10
ĠvÃ¼cu d
et en
Ġk Ã¼l
bal aj
ĠgÃ¶ k
Ġsaht ecilik
Ġ ?Ċ
ĠduruÅŁ malÄ±
l ing
Ġorij inal
m ara
Ġonan masÄ±na
ĠÃ¼ s
Ã¼l Ã¼r
Ġvak a
Ġbir imi
Ġyer inin
Ġfin al
ĠR ad
al og
ĠK AR
ĠÃ¶n Ã¼mÃ¼zdeki
Ġdayan dÄ±klarÄ±
B A
ĠF eder
ĠBaÅŁkan lar
Ġk Ã¢r
ĠÃ§Ä±k mÄ±ÅŁtÄ±r
unuz un
ĠÃ§alÄ±ÅŁma larÄ±nÄ±n
.madd esinin
ĠgÃ¶rev ini
ĠSebep leri
m es
ĠdoÄŁr ul
liÄŁ inden
Ã® r
ĠSil ah
ĠkÄ±sm Ä±nÄ±
Ġtek errÃ¼r
ĠdÃ¼zelt ilerek
ĠdaÄŁ Ä±lÄ±mÄ±
Ġanlam Ä±nda
ĠP ol
Ġof is
- f
Ġpiyas aya
c he
Ã§ isi
Ġbelirlen mesinde
Ġhab eri
I T
an larÄ±n
Ġmey v
ĠdeÄŁiÅŁik liÄŁi
dÃ¼ÄŁ Ã¼nÃ¼
ĠT C
Ġc han
ic iler
ĠÃĸ N
Ġneler dir
Ġn azar
lama lar
ĠgÃ¶r mÃ¼ÅŁ
ĠgÃ¶ster mek
Ġpar lak
ĠÃ¼st Ã¼ne
ĠJo hn
ĠdÃ¼zen leyen
d o
ĠD uy
Ġal b
ĠDeÄŁiÅŁik lik
E H
ĠK uvvet
ĠbaÅŁ Ä
Ġbet on
ĠYar gÄ±lama
Ġtav siy
ĠbaÅŁÄ ±
âĢĻ Ã¼n
ĠhatÄ±r lat
Ġyar Ä±n
ĠAn n
ĠTEV DÄ°Ä°NE
Ġkul Ã¼p
ĠKor uma
ĠdÃ¶nem in
Ġtak Ä±mÄ±
ĠGER EK
es tiv
ĠaÄŁ Ä±z
ĠÃ¶ÄŁren mek
Ġad ayÄ±
uk ur
B as
ĠTurk ey
amp le
i er
ĠÄ° talya
ĠM in
ĠAra Ã§
ĠkayÄ±t larÄ±
Ġmut luluk
Ġdev elop
ĠÃ¶ÄŁrenc ileri
Ġk Ã¼m
Ġzorunda dÄ±r
ĠbileÅŁ en
Ġyed ek
Ġist edik
ĠiÅŁ lerin
ĠS itesi
Ġdenetim li
Al lah
Ġmut fak
Ġ[ ...
Ġd ans
ĠK endi
ĠaÄŁ z
x i
ĠA da
ĠPaz artesi
ĠH D
Ã¼m in
Ġt wo
Ġkil it
Ġfi ili
ma dÄ±ÄŁÄ±ndan
Ġilk esi
20 4
Ġbiz zat
ĠyÃ¼k lenen
ĠMillet i
Ġk Ã¼Ã§
ĠPoli s
ĠTeb liÄŁname
Ä°Y OR
á¸ ³
ĠgeliÅŁtir mek
ou g
. F
47 2
ĠUY AP
Ġbil iÅŁim
im le
meler ine
Ġyar Ä±ÅŁma
Ġvur gul
ĠÃĸzel likleri
res el
d oÄŁ
k un
ey sel
Ġg eb
ĠÃ§ocu ÄŁu
ĠÄ° N
larÄ± dÄ±r
oun d
Ä°ÅŁ te
Ġn as
Ġoda sÄ±
Ã§ ilerin
or u
Ġpla stik
. ;
P S
ĠeÄŁ ilim
Ġiad esi
ĠÃĩar ÅŁamba
S Ã¶z
ĠkÄ± v
Ġbelirlen diÄŁi
Ġmin imum
Ġg elerek
ĠE D
ĠDok tor
ĠbaÅŁar Ä±sÄ±z
ĠarkadaÅŁ lÄ±k
/ m
ĠkaldÄ±r Ä±lmasÄ±na
Ġmec lis
tik Ã§e
ĠT eh
ĠyaÅŁ Ä±yor
ĠÃ§Ä±k mÄ±ÅŁ
ĠS ci
Ġdis iplin
Ġbul ma
Ġol aya
ĠmaÄŁ az
G E
Ġto hum
Ġdiffer ent
AS TAN
Ġan Ä
Ġsine ma
lan t
ĠaÄŁÄ±r lÄ±ÄŁÄ±
Ġbeklen iyor
Ġg Ã¼z
ĠÃ§alÄ±ÅŁma larÄ±n
ĠtanÄ±t Ä±m
ĠanÄ ±
ĠAf rika
Ã§ ilik
Ay nÄ±
av uz
ĠS alÄ±
Ġver diÄŁini
Ġsoru lar
Ã§ u
Ġkazan Ä±lmÄ±ÅŁ
Ġc or
Ġdosy asÄ±nda
l on
en me
ĠbaÅŁlay acak
Ġkaps ayan
Ġat mos
Ġhav uz
ĠDur um
Ġsev g
Ġayr Ä±m
ĠM or
ĠaÃ§ an
H ar
Ġyap tÄ±ÄŁÄ±mÄ±z
Ġgal ib
ost bet
ĠgÃ¶rev e
Ġalt Ä±nÄ±
Ġkal masÄ±
Ġet meyi
ĠarkadaÅŁ Ä
ĠarkadaÅŁÄ ±
Ġg Ã¼mrÃ¼k
. N
Ġd iÄŁ
ur o
Ġharca ma
b Ä
Ġegz ersiz
ĠD ef
67 2
in er
Ġkur mak
ĠJ ournal
ĠGER Ä°
ĠÃĩ EVR
Ġsaat leri
Ġhad is
Ġel ement
> Or
as tik
ĠgÃ¼ v
g Ã¼l
l t
Ø ´
ĠA S
ĠP sik
Ġgerekir se
adÄ±ÄŁ Ä±nÄ±
ĠLi gi
. (
Ġsistem ine
omet re
29 7
Ġay akkabÄ±
ĠMes lek
Äŀ R
men izi
ĠMec lisi
Ã§ inin
ĠT or
Ġdar b
Ġhaber dar
aÄŁ Ä±nda
al Ä±n
ĠtÃ¼r leri
ĠsÃ¼r dÃ¼ÄŁÃ¼
Ġetk isini
Ġbey in
is ar
ĠterÃ¶r ist
ĠTÃľR K
Ġu fak
ĠbÃ¶lg eye
ad en
ĠiÅŁ ten
R us
ĠTasar Ä±m
Ãĸ te
ĠgÃ¶rÃ¼nt Ã¼l
Ġay larÄ±nda
ĠgÃ¶ m
Ġ len
ĠÅŁirket leri
36 0
l ock
Ġdiren Ã§
lamasÄ± yla
Ġfir masÄ±
Ġkat s
ĠÃ¶zellik lerini
ĠK af
unuz a
ĠOy sa
ĠR eh
Ġmuh ab
c on
Ġgur ur
Ġkarar Ä±nÄ±
Ġc hat
Ġhey et
M an
Dev let
ĠProj esi
ĠC omp
Ġeder iz
ĠdeÄŁiÅŁtir ilen
Ġb atÄ±
Ġplatform u
ĠÃ§alÄ±ÅŁma larÄ±na
Ġgel eceÄŁ
ĠhazÄ±r la
Ġan tren
- )
Ġortam Ä
ĠortamÄ ±
Ġyap Ä±p
n ess
Ġfark Ä±n
Ġdevr ed
un masÄ±
ĠyÃ¼kÃ¼m lÃ¼
Ġkay de
Ġneg atif
lamaya caÄŁÄ±
Ġan i
ĠÃ¶n lemek
Ġkaybet ti
ĠbaÅŁla mÄ±ÅŁ
Ġw ork
ros oft
Ġyer in
28 9
s us
Ġg idi
m ik
ĠkÄ±r Ä±k
h id
Ġsaat lerinde
t iÅŁ
Ġdenk lem
Ġyap Ä±lÄ±yor
Ġtec avÃ¼z
ĠdÃ¼zenlen miÅŁtir
Ġo lamaz
Ġolmas a
ĠgerÃ§ekleÅŁ tiÄŁi
ĠY a
Ġy aÄŁÄ±
ilir ken
ĠMad de
ĠYaÅŁ am
Ġtaraf tar
ĠgeliÅŁ imi
Ġsat Ä±ÅŁÄ±
Ġuy ku
ĠiÅŁ bu
st ruc
iy aret
ag at
Ġbelirlen miÅŁ
Ġrahat lÄ±kla
lama larÄ±
Ġi kin
Ġan lamak
ĠS akarya
Ġkay bol
ĠTan rÄ±
Ġyap mayÄ±
ĠÅŁ ark
Ġhay ran
Ġsavunma larÄ±na
az en
M il
ocu ÄŁ
âĢĻ u
Ãľr Ã¼n
Ġharit a
ĠF a
T EB
ĠL ev
Ġbenim s
Ġk oc
ĠU krayna
ya j
- t
k ap
Ġi br
ut in
Ġr Ã¶
Ġfirma lar
ĠÅŀ ampiyon
M ar
Ġprogram larÄ±
/ s
Ġdurum unu
ĠA la
? âĢĿ
Ġs endik
ĠbÃ¶lg esi
daÄŁ Ä
daÄŁÄ ±
ĠA D
ĠN ec
ĠS ivas
hat s
ĠK adastro
ĠvatandaÅŁ lar
ĠSan Ä±ÄŁÄ±n
l ini
ĠbaÅŁ lÄ±ÄŁÄ±
ĠtaÅŁÄ± y
Ġolabil eceÄŁi
ĠsÃ¶z leri
ĠZ or
Ġt Ä±bbi
Ġek lenmesi
Ġb oÄŁ
Ġd ili
ĠYol una
es ir
Ġol gun
ec iler
ĠGÃ¼ncel leme
Ġmahal le
ĠKah raman
Ġc errah
w ork
Ġy ahut
Ġtutar lÄ±
Ġal gor
ĠN er
ĠhÃ¢k im
Ġgar ant
Ġhttp s
duÄŁ unuz
ket bol
ĠaÃ§Ä±klama lar
ĠistediÄŁ ini
ĠkarÅŁ Ä±lay
Ġkolay lÄ±kla
ĠÃ¶ mr
ĠS im
Ġmerkez inde
) }
Ġfab rika
r el
Ġmahall inden
ĠIn stagram
ĠÄ°n dir
Ġmate matik
Ñ Ģ
ĠA p
ch i
A ile
tr o
ama ÅŁ
Ġtat min
3 20
Ġfir st
Ġnak it
v al
Y Ã¶n
. L
ĠÅŁimd ilik
ĠdeÄŁer ini
Ġbelg ede
un us
ĠÃĩan akkale
ĠÅŀ en
Ġkend inizi
K r
Ġikti d
Ġtes li
ĠH ac
ebilir ler
ĠBas Ä±n
23 2
Ġver siyon
ĠK up
ĠÃ¶den mesine
Ã§ Ä±n
> Ä°
. P
Ġmakin esi
Ġaz Ä±ndan
Ġtah liye
s ig
em ediÄŁi
E vet
Ġpar mak
Ġli ter
Ġy ou
Ġsah a
ĠÄ° LE
ce p
ĠP la
Ġvar i
en a
ĠØ ³
Ġal Ä±rken
G ir
Ġtapu ya
Ġh ekim
ĠyÄ±l lardÄ±r
Ġm im
Ġah lak
ĠV ER
ĠÅŁ air
m Ã¼yor
Ġkural larÄ±na
Ġz em
ĠN ev
az e
ĠPar is
ĠgÃ¶rÃ¼ÅŁ me
Ġper iy
Ġd ata
Y as
Ġpan el
un um
dÄ±r Ä±cÄ±
ĠkesinleÅŁ miÅŁ
V er
Ġvar lÄ±ÄŁÄ±nÄ±
Ġyolc uluk
ĠPer ÅŁembe
S t
b ilmektedir
ĠC umartesi
ĠhatÄ±r la
ĠÅŁÃ¼ph eli
ĠdanÄ±ÅŁ man
Ġilam da
ĠolaÄŁan Ã¼stÃ¼
Ġfik r
ĠS ez
ĠdÃ¼z gÃ¼n
iy ye
Ġtarz Ä
ĠtarzÄ ±
Ġkonsantr asyon
Ġev ren
suz luk
ac ter
K ullan
ĠOn line
ĠsektÃ¶r Ã¼
ĠS orum
Ġol manÄ±n
Ġdava lar
ĠBirleÅŁ ik
Ġm l
ĠYÃ¶net mel
ĠF ilistin
Ġsaat i
Ġgrub unda
ÄŁ Ã¼nÃ¼
ĠAd li
K A
Ġalak alÄ±
ĠD es
20 5
ĠbaÅŁ Ä±ndan
Ð ½
ĠÃ¶ldÃ¼r me
ĠedeceÄŁ iz
u es
Ġzarar lÄ±
D air
ĠyumuÅŁ ak
iÅŁtir me
as i
2 25
T T
. BaÅŁ
et le
es por
maya caÄŁÄ±
Ġed enin
ĠgÃ¶rÃ¼yor uz
ĠM e
Ã İ
ĠM alatya
Ġr iv
D Ä°R
Ġdahil inde
ĠK aya
Ġs Ã¼per
M uh
ĠKar ÅŁ
ĠH Ä±r
at lÄ±
ĠSay Ä±sÄ±
Ġkapat Ä±lmasÄ±na
AÄŁ Ä±r
Ġekonom i
Ġuz ay
Ġa bout
ed Ã¼r
Ġal dÄ±m
ĠmÃ¼k elle
Ġk ast
Uy uÅŁmazlÄ±k
SUÃĩ LAR
K Ä°
tÄ±k larÄ±nÄ±
ĠtartÄ±ÅŁ Ä±ldÄ±ÄŁÄ±
Ġzaman la
Ġsev iyesi
Ñ Ĥ
bÄ ±
ĠÃ¶de y
ĠÃ¶ÄŁretmen lerin
ĠsÃ¼r esince
Ġsem bol
Ġc umhur
---- ----
Ġal dÄ±klarÄ±
tan t
ĠÅŁirket ler
IL MASINA
Ġsahip leri
ĠDak ika
Ġ| Ċ
ĠKÄ±s a
Ġsev en
Ġyetk isinin
Ġsev gi
Ä° cra
Ġdepo lama
Ġd edim
er t
Ùİ Ø§
ĠgerekÃ§ elerle
ĠM esel
Ġgetir ir
ĠDÄ±ÅŁ iÅŁleri
Ġg roup
ĠT ap
Ġortak lÄ±k
m Ä±yorum
w ard
ĠboÅŁ luk
ĠsÃ¶z cÃ¼k
ar da
Ä±l dÄ±ÄŁÄ±ndan
Ġkonu larÄ±
F igure
Ġder d
ĠBaÅŁvur anlar
ib le
f f
p ro
Ġat om
ĠKÄ±lÄ±Ã§ daroÄŁlu
Ġbor cu
68 3
ey erek
Ġr o
ler di
D osyanÄ±n
ĠgerekÃ§ eleriyle
Ġtam ir
ĠBun lardan
ĠÃ§evr esinde
Ġek mek
ĠkaÅŁ Ä±ÄŁÄ±
Ġoyn amak
Ġyar alÄ±
ĠR ed
lamb da
ĠyÃ¶net ici
Ġuygulan dÄ±ÄŁÄ±
Ġolma dÄ±
Ġma liyeti
H ukuk
Ġal g
Ġtakdir en
ĠKon ut
Ġekip man
ĠkÄ± yÄ±
An asayfa
laz Ä±ÄŁ
ĠsÃ¼r enin
Al man
LÄ°Äŀ NA
duÄŁ unda
ĠI t
ĠC ep
lu p
Ġolmay Ä±p
abil eceÄŁini
art man
Ġmahall ine
Ġde z
ĠMÃ¼cad ele
kemiz de
Ġvekil lerince
50 6
Ġr Ä±z
ag ement
Ġgidi p
Ġb log
n uv
ĠÃ§oÄŁun lukla
ĠdÃ¼z eni
Ġdav asÄ±nda
Ġo tor
inin g
inc an
Ġkor onavirÃ¼s
ĠÃ¶r neÄŁin
T V
ĠdÃ¼ÄŁ Ã¼n
ĠHukuk u
Ġest etik
ul ts
$ ,
ĠSav unma
Ġcev ab
ĠP C
Ġparsel in
Ġyer leri
it ik
ĠC ol
Ġiz lem
Ġyarar lanma
Ġgid iyor
ĠBayram Ä
ĠBayramÄ ±
ut h
ep t
Ġhak em
iliÄŁ inden
eli f
Mer haba
V e
lay Ä±nÄ±z
ĠS Ä±nav
Ãľ l
ĠÄ° f
th e
( x
ĠÃ§Ä±kar Ä±lan
Ġsend ika
it i
Ġs alÄ±
Ġev den
ĠK AY
Ġisteyen ler
ĠiÅŁÃ§ ilik
R Ã¼yada
Y Ã¼ksek
ce ÄŁini
dem i
Bur ada
ĠmaÄŁ aza
Ġhasta larÄ±n
ĠR ab
ber g
A b
Ġmuh t
B O
ut e
g resi
Ġ Ã¼m
em izi
Ġdurum larÄ±
Y orum
ĠES ASTAN
Ġvak Ä±f
Ġkonusu dur
ĠgÃ¼c Ã¼nÃ¼
ĠU r
Ġpay daÅŁ
Ġkesin t
Ð ¸
Ã¼n c
ĠE vet
on im
ER S
ÃľL DÃľ
ilm emesi
Y Ä°
Ġver ilerin
ĠsÄ±k lÄ±kla
er a
il ler
65 4
ĠHes ap
Ġol masÄ±ndan
Ġhak larÄ±nÄ±
ĠS avc
Ġhusum et
Ġseviye de
L O
ĠS tu
Ġtop luluk
ĠA zerbaycan
Ġkom bin
Ġbun lardan
Ġnaf ak
ĠMahkem esinden
lÄ±k ta
Ġh itap
A ma
ĠyaÅŁ a
Ġar zu
at ing
ĠUz man
ĠkatÄ±l Ä±mÄ±
leÅŁ en
Ġv izyon
ĠtebliÄŁ name
Ġdu a
ĠB M
k ili
Ã¼y Ã¼
Ġbon usu
ĠmeÅŁ ru
Ġn am
ub lic
ĠÙ Ĩ
4 50
TEB LÄ°ÄŀNA
Ġol g
ĠRo ma
ĠyÃ¼kÃ¼m lÃ¼lÃ¼ÄŁ
Ġbes len
ĠsÃ¼r Ã¼m
k im
Ġvur gulan
Ar aÅŁtÄ±rma
Ġtaraf Ä
Ġruh sat
deÄŁ er
ĠtarafÄ ±
Ġp orn
ĠÃ¼zer i
ĠÅŁirket e
ĠÃ§ap Ä±nda
ĠC ilt
iler inde
Ġbilg ilerini
ĠO per
Ġkah ve
^{ -
Ġtaki bi
Ġkonu ya
men ts
Ġduyur du
k as
p os
lÃ¼ÄŁ Ã¼ne
Ġyoksun luk
Ġh Ã¼rriyet
im ine
emey ecek
ĠyÃ¼ksel iÅŁ
ĠKab ul
D em
3 26
25 4
... .Ċ
! !
Ġi yon
Ġinf azÄ±
Ġth ere
Ġbek lem
Ġmah kum
ĠyÄ±l larÄ±nda
ĠU niversit
Ġmal Ä±n
Ġodak lÄ±
ĠdavacÄ± dan
ĠeÄŁ il
ĠDoÄŁ al
Ġstratej ik
Ġiz leyen
caÄŁ Ä±nÄ±n
ĠgÃ¼ven liÄŁini
'n ce
yp e
ĠEur ope
Ġp ir
ĠEkonom ik
Ġmin eral
Ġver dikleri
Ġn iÅŁ
u el
ĠÃĩ eÅŁit
Ġkurum lar
Ġsen edi
Ġcep h
Ġhafta da
ni ÄŁi
ĠyÃ¶n Ã¼ndeki
ĠkÃ¶ ken
Ġp en
Ġin to
ĠS aÃ§
c c
T er
ĠB oÅŁ
Ġle vel
Ġdava larda
ĠiÅŁ g
ĠMÃ¼ÅŁter i
c dot
T IR
ĠgÃ¶ v
ĠhayÄ±r lÄ±
ĠMal z
Ġengel li
Ġsan iye
am ur
Ġp eri
ĠyapÄ± ya
oz it
Ġs c
ĠgÃ¶z Ã¼k
Ġk uy
Ġkon uyu
ĠTr ump
Ġistif a
ĠbÄ± Ã§ak
Ġev inde
2 12
Ġaltyap Ä
ĠaltyapÄ ±
tÄ±k tan
Ġyok tu
ĠkatÄ±lan Ä±n
y ak
ĠÃ Ĥ
ĠDÃ¶n em
ĠBir Ã§ok
ĠMal iye
Ġso me
enc y
Ġtamam Ä±nÄ±n
ap i
d iniz
Ä°S Ä°
Ġtehlik eye
) -
la maktadÄ±r
ĠT ep
ĠÃ§alÄ±ÅŁma larda
Ġyap Ä±nÄ±n
ĠF orm
Ġolan larÄ±n
D V
S M
ĠSÃ¶zleÅŁ mesi
B ey
aseb e
masÄ± dÄ±r
Ġyarar lÄ±
Ġsu ch
Ġkayded ilmesine
Ġharek eti
as on
lama da
Ġder g
Ġeylem inin
Ġproj eler
ET Ä°M
ĠÃ¶ mÃ¼r
Ġbirey in
Ġyorum lar
ĠaraÃ§ lar
ĠÃ§ or
T ER
Ġanlat tÄ±
Ġtaraf Ä±nda
ĠÄ° t
ĠgÃ¶ster g
GÃ¼n cel
Ġkir alama
ĠDeniz li
Ġorta da
ĠniteliÄŁ indeki
ĠolduÄŁ um
BaÅŁ kan
Ġkadastr osu
- m
- SanÄ±k
lÃ¼ÄŁ Ã¼nÃ¼
ĠaraÅŁtÄ±rma lar
Ġyaz Ä±k
u yla
Ġoda s
ĠbiÃ§ imi
Ä «
Ġbilin mektedir
ust ur
> I
ĠM aÄŁ
Ġh Ã¢
Ġ .Ċ
Ġet tim
Ġben ce
Ġih tar
Ð ³
ĠBil imleri
Ġkon ser
ĠgÃ¶rev sizlik
f Ã¶y
Ġbelirlen ir
ebilir im
ĠHay van
Ġisabet siz
ĠbÃ¼y Ã¼t
ĠgÃ¶ster miÅŁtir
h em
ĠÅŁart lar
Ġkoruy ucu
ĠHazine ye
Ġdir ekt
ĠD al
Ġb isiklet
ĠÃ§ an
Ġk Ä±lÄ±
Ġlabor at
Ġmekt up
Ġs ad
p ir
Ġj e
) )
ĠgÃ¼zel lik
di ven
Ġtab let
Ġet meniz
ĠBor Ã§lar
ap h
ĠE mek
ĠkatÄ±l dÄ±ÄŁÄ±
Ġzaman lÄ±
B UL
l iliÄŁini
ĠboÅŁ an
Ġbul du
ĠÅŁeh rin
Ġsev in
67 6
Ġbek let
Ġg raf
E tik
Ġyap ay
Ġmetrek are
ĠTe dav
ĠseÃ§ ilen
Ä±lma mÄ±ÅŁ
ĠcÃ¼m le
ĠOk ulu
Ġzaman a
Ġdurum lar
Ġperforman sÄ±
Ġist in
Ġr obot
ĠF estiv
ĠiÃ§in den
Ġakadem ik
ĠK u
Åŀ imdi
.madd esinde
Ġzaman lar
AT I
Ġsay Ä±lÄ±r
Ġs atÄ±
Ġah ÅŁap
Ġalan larÄ±nda
ĠA dam
ĠiÅŁlet menin
Ġkol tuk
Ġbu lama
Ġev in
ĠÃĩEVR Ä°LMESÄ°NE
ĠkÃ¶ p
ĠaraÅŁtÄ±rma da
Ġan lar
Ġpar ayÄ±
ĠiÅŁlem lerinin
ĠÄ°m parator
ĠÅŁirket lerin
M al
sir le
Ä° kinci
Ġmet hod
ay olu
id in
ĠL a
Ã¢h il
Ä°L K
ĠC or
ĠsÃ¶y ler
ilm eden
ĠKr al
. âĢĻ
Ġsist eme
Ġses siz
Ġden em
Ġv ide
27 0
ĠÅŁar j
ĠA DI
ist al
ĠKaz an
Ä±n ma
az Ä±r
Ġet mez
ilm eye
Ġbenimsen miÅŁ
Y ak
Ø £
Ã¼l k
Ġann esi
ĠS ol
pr iz
Ġkonus undaki
ĠY AR
SaÄŁ lÄ±k
ĠgeÃ§ tiÄŁi
ĠGÃ¶ ster
á ¹
Ġk afa
ĠbÃ¶lg enin
HÃľKÃľM LER
ĠkaydÄ± yla
Ã» n
Ġal abilir
Ġad il
u x
ĠÃ§ek mek
6 35
ĠAr dÄ±ndan
Ġben de
ĠÅŁikayet Ã§i
ĠÄ±ÅŁ Ä±ÄŁÄ±nda
Ġves ayet
t y
Ä±l lÄ±
Ġfir manÄ±n
Ġir tib
Ġsan ki
ĠÄ°ÅŁlet me
luÄŁ a
ĠdÃ¼zen lediÄŁi
Ġoran la
Ġc Ã¼zdan
E m
ĠgeÃ§ir ilen
ĠÅŁ ok
Ġma vi
ĠCad desi
r osu
ma larÄ±n
Ġfab rik
i an
ĠY at
Ġs Ã¶
Ã¼kle er
kar ÅŁÄ±
or gan
Ġh igh
Ġr ul
Ġmahall inde
Ġp ik
Ġyap Ä±yoruz
ĠihtiyaÃ§ larÄ±nÄ±
_ n
ÄŁ day
ĠH DP
ĠUy uÅŁmazlÄ±k
Ġdevr eye
Ġgrup lar
ĠartÄ±r mak
20 6
Ġmuhak emesi
Ġt iyatro
ĠAh med
ĠBilg isayar
met ik
ĠEn gel
Ã¢ nÄ±
ĠÃĸz gÃ¼r
ĠP lay
ĠT o
Ġp eyn
ĠmÃ¼t esel
u anÄ±
Ġara larÄ±ndaki
lerin ize
Ġg ayet
tÄ± larak
Ġhaber ler
ĠÃ¶d et
ĠSig ort
Ġh usu
amaya cak
ĠZ aten
Ġtat ili
Ġkullan Ä±yor
Ġsat Ä±m
Ġoyuncu lar
ĠÃ§ Ã¶p
Ġtehlik eli
ĠD et
Ġobj ektif
Ġf rekans
ĠT BMM
l osu
Ġc ap
ec h
Ġmez ar
ĠHav alimanÄ±
ĠV ali
Ġbelg elerin
ĠÃĸ te
Ġgereksin im
dir ne
lan dÄ±ÄŁÄ±nÄ±
Ġkazan dÄ±
ĠsÄ±r t
ĠdayandÄ±r Ä±ldÄ±ÄŁÄ±
ĠsÃ¼r Ã¼yor
Ġder nek
ĠdoÄŁ u
ĠHan gi
Ġhesab Ä±na
ĠHak an
Ġyaz Ä±sÄ±
s ilen
ĠdeÄŁ ildi
ĠhÃ¼kmol unan
g Ã¶z
c uluk
Ġkapsam Ä±ndaki
Ġeder ler
Ġbenimsen en
ĠdÃ¼z el
Ġo ver
Ġedilm esine
Ġtahsil ini
Ġgrup larÄ±
Ġre g
ĠÅŁ ef
Ġv atan
ĠM c
ĠMet in
Ġbulunma masÄ±
ĠÃ§ ak
ĠÃ¶rnek leri
Ãĩ ek
S Y
Ã¼r t
it Ã¶r
TEBLÄ°ÄŀNA ME
Ġsorum luluÄŁu
em iyor
Ġtaahh Ã¼t
Ġkullan Ä±r
den ts
Ġkurum un
c Ä±sÄ±nÄ±n
Ġmuhaf aza
ĠHar eket
Ġh orm
ĠiÅŁlet melerin
ĠbaÅŁlat Ä±lan
Teb liÄŁname
ĠMed ya
ĠÃĩ ak
Ġsaptan mÄ±ÅŁtÄ±r
ĠkÄ±s aca
w n
Ġf os
Ġail esi
Ġkayb eden
ĠdÃ¼ÅŁÃ¼n Ã¼r
ig Ã¼r
ĠdavranÄ±ÅŁ larÄ±
s Ã¼
Ġgibi dir
Ġayr Ä±lan
ĠbaÅŁvur ma
ĠK ork
ĠKay Ä±t
Ġsahib inin
ĠZir aat
Ġsit eler
Ġat tÄ±
j inal
Ġkur ma
ĠkalÄ± yor
ĠbÃ¶lÃ¼m Ã¼ne
Ġdip lo
- y
ro ugh
meli ÄŁi
ĠP ap
ĠÃĩ ay
r ic
NA K
Ġsistem ini
Ġfer agat
Ä±s Ä±ndaki
Ġoyn ama
ĠC O
Ġkarar laÅŁtÄ±r
ec tive
20 7
K AR
ĠT av
ik ayet
ĠBon usu
Ġrad yo
ĠkeÅŁ fet
Ġbulun mak
Ġr engi
ĠS ak
ĠP ek
ĠsÃ¶ylen ebilir
ebil eceÄŁini
ĠM otor
Ġhak larÄ±nÄ±n
7 50
ĠG ÃľN
Ġtek li
av uÅŁ
v in
en n
len miÅŁtir
ĠÄ°l Ã§esi
Ä°N Ä°
Ġpolitik asÄ±
Ġfir mamÄ±z
Ġgel diÄŁinde
ĠGÃĸRÃľÅŀ Ãľ
G B
Ġeylem i
Ġda ima
ĠÅŁart larÄ±na
luÄŁ unu
MA K
ĠsÄ±nÄ±r landÄ±r
ew s
Ġli deri
Ġdakik ada
Ġko du
ĠdavacÄ± larÄ±n
ĠKons eyi
Ġtar la
ĠsÄ±r alan
umuz un
ĺ Ĳ
ĠsÄ±fatÄ± yla
ĠkÄ±s mi
d il
Ġsavunma larÄ±n
Ġist eÄŁin
ĠÃ§ek iyor
ĠStr atej
ĠEm re
K Ä±r
Ġkad em
las man
'n i
Ġil i
Ġmu hat
ĠBak Ä±r
Ñ ģ
Ġh oca
ĠsÃ¼rec inin
unc tion
ĠkamulaÅŁtÄ±r masÄ±z
ĠoluÅŁtur ma
Ġb kz
Ġim por
Ġverildi ÄŁini
am es
mad de
Ã¼ v
Ġih raÃ§
la st
ĠÃ§Ä±kar Ä±lmasÄ±
Ġ Ú©
Ġrefer ans
ĠL ist
ĠdoÄŁ a
IN DA
Ġsuy un
K adÄ±n
Ġilg ilendir
ĠS af
Ġkit le
y di
Ġson suz
ĠR oman
enc es
C eza
EL Ä°
ĠTeÅŁ kil
Ġzir v
Ġprot est
Ġberaber inde
Ġtut mak
Ġin kar
ĠyÃ¶net melik
Ġk el
ĠUS D
g et
> p
Ġc az
47 3
ĠUniversit y
Ġihl ali
ĠbÃ¶lÃ¼m Ã¼n
2 16
Cumhur baÅŁkanÄ±
da a
ĠÄ°ncel eme
âĢĻ yÄ±
M es
Ġv ah
Ġhar ic
Î ±
lar i
ER K
ĠP ost
gÄ± Ã§
ĠV ideo
id d
tÄ±ÄŁ Ä±nda
un lu
Ġvas f
lÄ± lar
ĠbaÅŁ lÄ±ca
ma mak
ĠHaz in
Ġpah alÄ±
Ġkam yon
u tion
ĠD on
Ġsistem inde
Ġboyut lu
ĠÅŀ anlÄ±urfa
Ġerkek ler
Ġbelirlen erek
Ġr ev
ĠyÃ¶ntem ler
ĠÄ±s rar
ĠÃ§alÄ±ÅŁma larÄ±nda
c us
p s
ĠÅŁ eye
Ġboz mayÄ±
ÅŁ ak
ĠO larak
tÄ±k Ã§a
Ġih mal
Ġima lat
n ow
ĠtarÄ±m sal
ĠanlaÅŁÄ±l dÄ±
- L
Ġith al
Ġhareket li
Ä° NA
Ġev ine
ĠY ÃĸN
} )
ĠH acÄ±
ĠKul Ã¼bÃ¼
Ġdur ak
Ġrahat sÄ±zlÄ±k
ĠhÄ±z landÄ±r
Ġyap acaÄŁÄ±
tic aret
ĠB Ã¼l
mar aÅŁ
acak sÄ±nÄ±z
Ġfirma larÄ±n
ĠKit ab
. a
ĠH indistan
olu tion
c in
ĠMey dan
ĠyÃ¼z lerce
et te
ac aat
Ġetraf Ä±nda
lama yÄ±
Ġmak ul
ĠgeliÅŁtir ilen
cÄ± larÄ±n
Ġfonksiyon u
Ġtaleb in
D en
Ã¶r f
ĠsÃ¼rdÃ¼r Ã¼lebilir
ĠkaldÄ±r Ä±larak
S por
ĠÙ Ĭ
ev eyn
ukarÄ± daki
Ã¼l Ã¼ÄŁ
Ġtemsil cisi
ĠfaktÃ¶r ler
ĠdayanÄ±k lÄ±
Ġmolek Ã¼l
Ġettik lerini
ĠT ezi
Ġpros edÃ¼r
ĠB odrum
22 1
Ġvek Ã¢let
Ġar Ä±yor
tiÄŁ inde
ĠgÃ¶rev leri
Ġkamu oy
T O
ĠM ir
an larÄ±
ĠtebliÄŁnam edeki
Ġorgan ize
Ġenerj isi
Ġsorun larÄ±n
ĠdeÄŁil se
ĠeÄŁlen ce
ĠaÅŁ kÄ±n
u a
Top lam
H ak
et y
Ġy oÄŁ
ĠÃ§Ä±k arak
ĠM imar
f eri
ĠiÅŁveren e
ĠH emen
2 15
v iÃ§
Ġonan masÄ±
ĠÃ§ atÄ±
ĠHat ay
la mÄ±ÅŁtÄ±r
Ġuz laÅŁma
ĠaÃ§ Ä±ldÄ±
Ġev i
ĠDair eye
Ġtalep lerinin
Ġbor dro
Ġolay larÄ±
ĠN a
ĠvatandaÅŁ larÄ±n
3 53
ĠiÅŁlem lerini
ĠK art
Ġan tik
Ġspor cu
Ġbend in
tur al
ĠG EL
ĠB EL
. Bu
tim es
D K
ĠMar mara
w ay
D EM
Ä±la v
Ġs kor
Ġik isi
Ġkayb ed
Ġses li
al ity
ĠbÃ¼t Ã§e
Ġsiz leri
Ġsp ektr
Ġdav ayÄ±
ĠeÅŁ lik
T CK
ĠgeÃ§ erek
ĠtaÅŁÄ± maktadÄ±r
Ġgir miÅŁ
Ġadam Ä
ĠadamÄ ±
H z
ĠeÄŁ r
Ġbildir di
y aman
ĠS Ä±nÄ±r
ĠD E
B it
Ġmek Ã¢n
C l
ĠÃ¼lk eye
ir mi
T el
ĠÃ¶ len
ĠgerekÃ§ esinde
p hi
ĠS up
Ġkon tr
Ġmer ci
Ã¼min yum
ĠmÃ¼kelle f
Ã¼r lÃ¼k
Ġhik Ã¢y
37 5
ĠA ir
ĠÃ§iz gi
Ġstr uc
Ġmerkez li
ĠseÃ§ in
Ġkal b
ĠKomut an
ĠÃľzer ine
ĠaÃ§Ä±k tÄ±r
ĠbÃ¼y Ã¼y
ĠiÅŁ bÃ¶lÃ¼mÃ¼
Ġlist esi
Ġolan Ä
ĠolanÄ ±
Ġoda larÄ±
Ġver gisi
ĠY ur
ĠaÃ§ mak
ĠB kz
ĠY azar
la Ã§
ĠÄ±r k
> a
ĠyÃ¶n den
ĠS un
ĠÄ° r
Ġilam Ä±na
ĠkarÄ±ÅŁ Ä±k
K at
tu ÄŁu
Ġyar atÄ±cÄ±
otos iklet
ad iÅŁ
ĠW e
iÄŁ ini
abil ity
Â Ń
ĠfotoÄŁraf larÄ±
AT O
Ġsay Ä±sÄ±nÄ±
L EM
p Ä±nar
22 2
ĠÃ¶z gÃ¼n
ĠÃ§ ekil
Ġsit enin
Ġd an
ĠBaÅŁsavc Ä±lÄ±ÄŁÄ±
tis iz
D S
ĠK O
S u
Ġfizik i
AS LÄ°YE
tÄ±ÄŁ Ä±nÄ±z
Ġt Ã¼p
- E
ĠmaÄŁdur un
ĠgÃ¶r me
ĠF otoÄŁraf
2 11
Ġmo tiv
Ġek s
ĠkamulaÅŁtÄ±r Ä±lan
Ġmik tarÄ±n
- TL
/ >
Ġh ediy
Ġger ide
Ġ lÃ¼k
endi ÄŁi
bir liÄŁi
br ek
Ġdolar lÄ±k
Ã¢ z
elendir me
Ġdey iÅŁle
Ġle v
Ġon ur
Ä±ÄŁ Ä±nÄ±n
Ġf ot
n at
ĠD el
' ,
Ġerk eÄŁin
ĠY IL
Ġbe dava
2 19
ĠOr han
s y
ley ebilirsiniz
Ġs atÄ±r
Gerek Ã§e
Ø ²
Ġkullan Ä±lacak
ĠyetiÅŁ kin
ĠSek ret
ĠA il
Ġtah r
Ġilg isi
ĠÃ§Ã¶zÃ¼m ler
Ġharit asÄ±
ir in
ĠmÃ¼k err
ĠBakan lÄ±k
r id
Ġet tiler
ĠsÄ±nÄ±f landÄ±r
Ġr eÃ§
ĠÃ§ocuk lara
Ġsorun suz
ĠÃ¶rg Ã¼
ĠhÃ¼kmed ilen
Ġplan da
Ġli se
ĠfÄ±kr asÄ±na
Ã¼ ce
ĠK ore
ĠetmiÅŁ lerdir
Ġith alat
end im
Ġzorunlu dur
larÄ±mÄ±z la
Ġo lama
Ġsun um
Ġfark Ä±nda
/ d
Ġs Ä±ÄŁ
Ġol manÄ±z
ak ende
ir t
Ġdava dan
Ġimzalan an
B ay
Ġziy ade
ĠÙ Ĥ
ĠyargÄ±lama yÄ±
ala xy
ta Ã§
Ġyolc uluÄŁ
Ġac tiv
Ġm y
Ġli f
ĠM Ãľ
Ġmerkez ine
ef ore
Â ·
ĠGÃ¼n lÃ¼k
22 6
Ġgel eceÄŁi
D eniz
Ġran dev
Ġunsur larÄ±
ĠT im
Ġbeyan larÄ±
Ġkend ileri
Ġhal lerde
day Ä±z
imiz le
am ini
it a
bet a
lu b
ĠiÅŁ ley
ĠdeÄŁerlendir ilerek
Ġsey r
ĠyaÅŁam Ä±nÄ±
Ġbozuk luk
Ġmemnun iyet
2 17
Ġmedya da
ĠdeÄŁerlendir ildiÄŁinde
b ilen
" .
} Ċ
ĠsÃ¶zleÅŁ mesinden
ĠgÃ¶r dÃ¼
Ġl ak
Ġetmek te
Ġl ek
ĠÅŁey leri
ĠgÃ¶ster gesi
diÄŁ ine
. Ãľ
3 14
Ġgider leri
Ġs Ã¼n
Ġbak Ä±mÄ±
20 8
Ġs Ã¶n
Ġban yo
t Ã¼k
ĠiÅŁ ini
ak eti
Ġkay gÄ±
Ġifad esi
eb ilm
Ġfesh in
Ġmez unu
Ġv icdan
Ġal et
ĠHal il
36 9
ĠyÃ¶n etmen
Ġyer inden
ĠBar Ä±ÅŁ
ĠTak Ä±m
ĠkarÅŁÄ± laÅŁtÄ±rma
> Ãĩizelge
Ġhan Ä±m
ĠÃ§Ä±kar mak
ĠU ÄŁur
ĠteÅŁekkÃ¼r ler
S el
ir im
d inde
Ġh ek
y aya
Ġc ok
Ġtarih e
Åŀ u
Ġm ost
ĠdÃ¼ÅŁÃ¼nÃ¼l mektedir
ĠgeÃ§ir mek
A MA
7 24
ĠaÄŁÄ±r lÄ±klÄ±
ĠgÃ¶z e
U B
ĠÃ¶ÄŁren ildi
Ġa mir
Ġd ed
A F
ĠY abancÄ±
ĠTop rak
m ine
Ġon ly
ĠH Ã¼km
Ä±l masÄ±nda
28 8
Ġmu am
on lar
Ġd Ã¢hil
Ä° P
ĠN or
Ġadr esine
ĠHak im
ĠG Ã¼mÃ¼ÅŁ
Ä° ki
Ġsar s
eff af
ĠHas talÄ±k
as s
Ġs ir
ĠR enk
ĠÃ¼y elerinin
Ġev et
Ġsaptan dÄ±ÄŁÄ±
ĠadÄ± yla
c ih
ac tion
p o
il ecektir
ĠyukarÄ± daki
Ġfiyat lar
Ġyar atÄ±
j e
Ġibr az
Ġy uvar
23 7
ĠÅŁÃ¼ph el
Ġazal ma
Ġyap maktadÄ±r
Ġhast anÄ±n
ĠgÃ¶ster ilmesi
Ġtutuk lu
Ġkonu yla
ĠkoÅŁul lar
Ġt Ã¼c
Ġunut mayÄ±n
ĠAnal izi
ĠSonuÃ§ larÄ±
Ġbiz lere
ĠdoÄŁrul tu
ebil eceÄŁiniz
ĠâĢ Ŀ
iniz den
ma ÄŁ
ib il
Ġbuy ur
Ġk ef
Ġmec bur
ĠDA Ä°R
ĠDen ey
Ġhayat Ä±na
ev Ã®
Ġolur ken
ĠJ andarma
ometr ik
S en
o Ã§
oz isyon
Ġuy ul
iy eli
K end
ĠTer Ã¶r
o jen
± y
65 7
ong ul
b at
o lan
Ġdav asÄ±na
Cumhur iyet
Es ki
ĠvasÄ± t
bur g
. net
Ġbildir ildi
Ġiz ni
ĠÃ§ im
Ġot op
ĠG iz
Ġr ahmet
Ġpiyas asÄ±nda
Ġs ep
lu yor
ĠA P
ĠKal ite
r ut
Ġsit esinin
Ġfor ma
ĠT EK
Ġk aÄŁÄ±
ĠÅŁ un
Ġistem iÅŁ
ĠâĢ ¢
ĠgÃ¶ÄŁ Ã¼s
ongul dak
B azÄ±
ĠS Ä±k
t eb
Ġkal dÄ±ÄŁÄ±nÄ±
Ġy av
ĠT AR
iz min
en lerin
ek te
larÄ±mÄ±z da
ĠÃľcret siz
ĠiÃ§er mektedir
UL U
dir im
tor s
ĠgÃ¼n leri
ĠÄ°L K
ĠÃ¶nem ini
Ġform u
ĠG Ã¼mrÃ¼k
ra da
ĠD alÄ±
Ġmahsub u
Ġvar y
ĠÃ¶rgÃ¼t Ã¼ne
Ġs tandar
ĠDur umu
Ä±n dÄ±k
Ġyaz Ä±lan
Ġiz leme
âĢĻ li
Ġin ti
ĠT Ãľ
. f
Ã¶l y
laÅŁ mÄ±ÅŁ
ĠaÃ§ tÄ±
Ġbirey ler
ley ic
Ġedilm ediÄŁi
un t
Ġkap lama
ĠaÃ§ mÄ±ÅŁtÄ±r
IÅŀ MA
ĠTem sil
ber t
25 6
Ġpiyas ada
ĠGEREK ÃĩE
h ak
ĠKÄ±z Ä±l
ĠtanÄ±m lanan
ed d
Ġol dum
Ġdost u
ĠbaÄŁlan tÄ±lÄ±
20 9
ĠN ot
Ġsoru larÄ±
. U
Ġmalz emeleri
. O
Ġfi ilen
Ġor der
ĠbÃ¶lg esel
Ġvel ayet
Ġbelg eleri
Ġhaz ine
Ġu se
a a
ĠF il
2 14
Ä° d
Ä ±y
u str
sor p
len mesine
tÃ¼ ÄŁÃ¼
Ġeksik lik
ĠsalÄ± ver
S Ã¼r
ĠgeÃ§ mek
en ize
Ġtazminat a
ĠmÃ¼r acaat
k usuz
ĠMan isa
3 11
ĠTurk ish
Ø µ
Ġsaat te
Ġmon taj
Osman lÄ±
men ize
Ġayr Ä±l
l usu
Ġkonak lama
b ik
duk larÄ±nÄ±
om i
Ġt otal
Ġbil eÅŁik
Ġtaz e
Ġs Ä±ÄŁÄ±n
Ġz ehir
Ġcan landÄ±r
p en
ĠaÅŁama dan
ĠY emek
ĠaÃ§Ä±klan dÄ±
ĠÄ° S
Ġfazl aya
H AL
Ġedecek tir
lar Ä±mÄ±
aki stan
ĠD iz
Ġbul ur
AÅŁ aÄŁÄ±
Ġkuvvet li
Ġc er
Ġsor gu
Ġs akat
aus e
ĠaÃ§Ä±klama larda
Ġc ir
Ġihtiyac Ä±nÄ±z
Ãľ Ã§
Ġbizim le
Ġc har
ĠhazÄ±r lanmÄ±ÅŁ
er in
ĠdÃ¶n Ã¼k
Ġolabil eceÄŁini
ĠgÃ¶rÃ¼n en
th eta
ĠHas ta
- g
ĠgerÃ§ eÄŁi
ĠsÃ¼r priz
ĠetkileÅŁ im
Ġuzak laÅŁtÄ±r
Ġn ik
yet ik
ĠMÄ°L L
Ä±lÄ±r ken
el in
Ġtut arÄ±
Ġma z
Ġgay rimenkul
Ġet meleri
. Ãĸ
l Ä±nÄ±n
ĠÃľst elik
ĠkarÅŁÄ± lamak
ĠIn ternational
23 5
Ġuy ulan
tÄ±ÄŁÄ±mÄ±z da
Ġfaiz iyle
ĠT rafik
C U
Ġh alÄ±
ĠyapÄ±l madÄ±ÄŁÄ±
Ġf it
Ġnak il
Ġsun mak
i da
ĠI ÅŁÄ±k
Ġtop lama
Ġth em
ĠkÃ¶y Ã¼
M ET
ĠseÃ§enek ler
Ġmobil ya
K Ä±s
ĠHan Ä±m
Ġhan g
Û ģ
Ġtah rik
Ġma alesef
Ġt ey
ĠeÅŁ liÄŁinde
ĠL ab
ĠbÃ¶lg elerde
Ġincelem eye
ĠÃ§ab uk
Gen Ã§
ĠgeÃ§erli dir
Ä±n caya
Ġbelirt ilerek
S amsun
ilm ediÄŁi
id eki
Ġbak ter
l ediÄŁini
Ġhesap lan
ĠA V
ĠT H
ĠU Ã§
Ġhav ale
ac Ä±n
Ġbek leyen
ĠAr aÅŁtÄ±r
ĠFeder asyonu
Ġref orm
Ġmuhtem el
Ġr Ã¼ya
tar af
M ak
' lÄ±
ĠGel ir
ĠYÃ¶net melik
El ektr
l al
Ġus ing
ek om
Ġedilm eli
m ec
U Y
Ġark asÄ±nda
ĠKurul uÅŁ
ĠÃ§aÄŁ daÅŁ
ĠtaÅŁÄ±nmaz lar
Ġgazet ec
ĠP RO
Ġmillet vekil
Ġsah ne
d oÄŁu
Ġbor u
Ġban t
Ġdevlet i
Ġkal abalÄ±k
Ġden ilen
y olu
Ġo cak
Ã§ ileri
âĢĻ tan
ĠA Åŀ
y aÅŁ
Ä±l malÄ±
Ġderec esi
Ġtaki bin
lem ent
Ġah l
b eri
eden iyet
24 5
Ġkullan maya
ĠgeliÅŁtir ilmesi
23 4
Ġuygula masÄ±na
Ġal gÄ±lan
ĠBak Ä±m
ĠaÃ§ Ä±sÄ±
ĠU lu
Ġli man
Ġmalzem eler
ĠÃ¶ÄŁrenc inin
ĠÄ° K
ĠM ag
h im
Ġcev abÄ±
Ġpiyas asÄ±
} (
g Ä±nÄ±
G S
EN Ä°
ur r
Ãĸzel likle
Ø§ Ø±
vir on
ĠÃĩ izelge
Ġvekil lerinin
Ġet mey
ĠDÃ¶n Ã¼ÅŁ
um un
Ġyaz dÄ±ÄŁÄ±
Ġkut u
Ġhayat Ä±nda
Ġkol eksiyon
Y E
Ġduy ulan
ĠUy gun
ĠT a
Ġtek niÄŁi
ĠbaÅŁ tan
ĠgerÃ§ekleÅŁtir mek
ĠÅŁiddet li
ĠN ATO
Ġortal amasÄ±
Ġayak ta
F T
p ut
Ġaray Ä±ÅŁ
Ġsit eye
Ġam balaj
Ġeksik likleri
edi a
Ġbedel in
Ġ[... ]Ċ
Ġk linik
Ġuyan dÄ±r
ĠE mir
Ġyer lere
amÄ±z da
2 27
Ġih til
ec tr
ĠgeÃ§ iyor
ĠAnal iz
ĠY alnÄ±z
. R
Ġuzak tan
Ġek stra
Ġdiz isi
ĠeÅŁ siz
tal yan
â Ī
math b
Ġbunun la
oli tik
ĠsaÄŁ lanan
Ġtoplant Ä±sÄ±nda
ĠTabi i
Ġhastan eye
ĠiÅŁlet im
ĠH otel
ĠamaÃ§ layan
ĠP latform
ĠHak kÄ±
ulu ÄŁu
Ġd edik
Ġal dÄ±k
P G
iliÄŁ in
Ġb ran
ĠgÃ¶z Ã¶n
ta g
Ġteknoloj isi
- ticaret
Ġyol lamasÄ±yla
ĠM aÃ§
Ġort asÄ±nda
ay acak
Ġtek er
ÙĪ ÙĦ
r d
ĠyoÄŁun luk
ĠA Ãĩ
- Y
ĠÃ¶lÃ§ Ã¼t
an Ä±zÄ±
ĠYÃ¼k sel
Ġintik al
Ġmev du
ma larÄ±nÄ±
O l
Ġfes tiv
savc Ä±lÄ±ÄŁ
I C
Ġonun la
ĠB iy
ĠgÃ¶nÃ¼l lÃ¼
23 8
22 8
k eri
ĠdeÄŁer lerinin
Ġtut ulmasÄ±
Ġkend iliÄŁinden
ĠkanÄ±t larla
ĠdiÄŁ eri
ĠAk si
S ur
k es
Bur sa
Ġduy duÄŁu
Ġ )</
Ġredd et
Ġa g
Ġilam Ä±nÄ±n
inc isi
Ġkon umu
' lu
eh r
ĠpiÅŁ manlÄ±k
Ġkend isinden
Ø ®
Ġc al
Ġseviy esine
ĠalÄ±n dÄ±ÄŁÄ±ndan
ĠR ef
g Ä±lÄ±
Ġtaraf lara
y az
ĠL o
ĠM ostbet
ĠBaÅŁ ar
EV AP
t ah
Ġtekli fi
tiÄŁ iniz
Ġv a
4 27
> n
Ġkurul muÅŁtur
Ġuz laÅŁtÄ±rma
ĠO b
Ġitiraz Ä±nÄ±n
am Ä±nÄ±
ĠfarklÄ±lÄ±k lar
s ch
ĠBul gar
Ã¼zel t
ĠihtiyaÃ§ larÄ±
Ġdosya larÄ±
2 18
olog ical
Ġdev re
Ġperson eli
Ġistin aden
Ġoksi jen
Ġetik et
ĠMÃ¼z ik
Ġkar anlÄ±k
Ġberaat ine
ĠYÃ¶net meliÄŁi
ĠyapÄ±la caÄŁÄ±
Ġger ilim
Ä±ÅŁ masÄ±
Ġgelecek te
Ġmis iniz
Ä°Y LE
Ġsit esine
sig ma
Ġetk isiyle
Ġtem lik
g le
Ġdevr im
Ġhesab Ä±ndan
en f
dÃ¼ stri
ac iÄŁer
ĠgÃ¶Ã§ men
/ son
ĠhÃ¼kÃ¼ Ã¼m
ĠiÃ§ ecek
Ġdel alet
Ġhakk Ä±n
Ġseviy esinde
ĠL Ã¼t
ar yo
Ġincelem esinde
v il
Ġyaz Ä±lmasÄ±
ĠEkonom i
bah ar
ĠKiÅŁ isel
ĠD iv
ers iniz
ark a
ĠMÃ¼z esi
ĠkuruluÅŁ larÄ±
K im
la tion
TAN BUL
ĠB es
ĠSÄ± cak
iÃ§ in
Ġhareket le
ĠMad d
ĠMod ern
Ġyaz Ä±lmasÄ±na
ĠGÃ¼n Ã¼mÃ¼zde
di es
b ran
Ġinsan a
la sÄ±
ĠD iÅŁ
Ġaley he
ĠdÃ¼r Ã¼st
Ġk asÄ±
ĠÃ¶ÄŁren im
ĠKon u
Ġgerektir ecek
Ġmesaf e
ĠÅŀ er
ĠOr talama
mat es
A f
ĠÄ°s k
Ġon arÄ±m
d Ã¶n
ĠTop lu
ĠsektÃ¶r de
Ä±ÅŁÄ±k lÄ±k
Ġkur ban
ĠKAL DIR
Ġ lar
ĠA NA
ĠH AK
Ġef san
ĠkÃ¼ltÃ¼r Ã¼
ad oÄŁu
ĠtaÅŁ Ä±yor
Ġfir malarÄ±
Ġc il
ĠÃ§eÅŁit leri
ĠY olu
k aya
oli z
luÄŁ una
Ġn on
ar ÅŁ
v es
ĠC in
ĠAk adem
ĠÅŀirket i
il emez
k ay
Ġuygulan ma
Ã¶z el
elik li
ĠyapÄ±l Ä±rken
adiÅŁ ah
enc ere
ĠDen etim
ĠyoÄŁun luÄŁu
g ut
ĠR uh
Ġkil ometre
ÅŁ et
Ġkav uÅŁtur
Ġc lass
M od
ĠgÃ¼nd Ã¼z
Ġkul Ã¼b
ĠHÃ¼kÃ¼m lÃ¼lÃ¼k
Ġiz lemek
ĠØ Ń
Ġ ur
ĠÄ° p
ĠsÄ±k Ä±n
2 24
" ></
Ġbelirt mek
Ġtav Ä±r
Ġtut un
ala mak
ĠkÄ±sm Ä±na
ĠB aba
Ġu ÄŁ
Ġk Ã¼f
ĠyapÄ±lan dÄ±r
ĠmaÃ§ Ä±nda
S EK
3 16
ĠOn lar
ĠD NA
Ġbayan lar
Ġbilg iyi
ĠkesinleÅŁ tiÄŁi
Ġes eri
ot ek
Ĥ º
3 30
ĠÃ¶lÃ§ek li
ine er
Ġsab Ä±r
Ġmillet vekili
Ġbor s
ĠkoÅŁ ulu
n it
ĠkardeÅŁ i
Ä±z da
ĠF on
Ġuygun dur
Ġuz manÄ±
ĠE min
ĠdÃ¼zenlen mesi
Ġkon ferans
Ġnokta larÄ±
Ġh ist
E ÅŁ
at al
ĠY ou
' le
Ġdet er
Ġar tar
Ġn cÄ±
ĠDeÄŁer lendir
Ġder hal
Ġc oÅŁ
} ^
ĠProj e
26 5
uc usu
6 21
Ġincelen meyen
Ġc oun
25 5
ĠtanÄ± ma
Ġkol on
k ale
eng iz
ĠTrabz onspor
ĠÃĸn emli
Ġiddi asÄ±
omo tiv
ĠmaÃ§ ta
y sa
Ġimk ansÄ±z
ĠSok ak
23 3
Ä±lma dÄ±ÄŁÄ±
Ġdeney imli
g azi
ĠO lan
ĠÅŁik Ã¢yet
Ġyol unu
A mer
Ġz ik
Ġs atÄ±cÄ±
Ġkan at
K amu
Ġb ilmek
r al
Ġkayd Ä±na
ĠborÃ§ lunun
T icaret
ĠB oÄŁaz
tak Ä±m
Ä°n ternet
Ġgerekti ÄŁinde
c eki
Ġister im
ĠadlandÄ±r Ä±lan
Ġkr ok
ĠdeÄŁerlendir meler
7 20
ĠgÃ¶rÃ¼l dÃ¼
ĠF i
inc eye
Ġstratej i
ec k
Ġac c
Ġyor gun
n el
Ġproblem i
ĠÃĸ yle
ĠServ is
ĠsaÄŁlay acaktÄ±r
Ġetkin liÄŁi
ĠY avuz
Ġce ma
ĠtaÅŁ Ä±r
Ġaks es
cr ip
ĠayÄ±r t
ul larÄ±
Ġbil iyoruz
ĠBÃĸL ÃľM
Ġeh liyet
Ä±lma masÄ±
il eceÄŁi
h ib
an o
ĠgÃ¶rev ine
ĠP o
Ġyarat tÄ±ÄŁÄ±
ĠZ ar
Ġg as
N Ä°
Ġcin ayet
ĠÃ¶nemli si
ĠulaÅŁ tÄ±
ĠÅŁey den
Ġgid iÅŁ
ĠmÃ¼s ader
ĠÃĸn celikle
ĠÃ§alÄ±ÅŁ Ä±yoruz
ĠÃ¼y eler
d Ä±nÄ±z
ĠrÃ¼z gar
ĠH ABER
ĠGenel likle
ĠkaÃ§Ä±n Ä±lmaz
ok sit
ĠlÃ¼k s
6 09
ĠJap onya
iyor sunuz
it asyon
Ġima j
Ġkesin tisiz
y urt
K ARA
Ġfol low
ĠÅŁ ansÄ±
ama dÄ±
ĠG B
ĠMah mut
An ayasa
ĠDair emize
Ġbirbir lerine
ĠÅŁeh ri
Ġiddi asÄ±yla
ĠÃ§Ã¶z elt
ĠteÅŁkil at
Ġverilm elidir
Ġmahkem eler
Ġtakdir i
ĠaÃ§Ä±klama ya
I LI
Ġmo da
ĠtanÄ±n an
.BaÅŁ savcÄ±lÄ±ÄŁ
Ġmas aj
Ġgiy im
ĠeÅŁ yanÄ±n
Ġtit r
n ey
Ġyol la
E G
Ġgazet e
Ġwh o
Ġfik ri
Ġnazar an
umuz u
Ġun d
Ġist edikleri
Ġtr av
Ġb acak
E t
Ġalgor it
Ġtah akk
eb ir
Ġhastan e
ĠKal kÄ±nma
Ġp ot
Ger Ã§ek
ĠDÃľÅŀ ÃľN
Ġmekan ik
Ġgrub un
Ġel inden
amaÅŁ Ä±r
Ġbulun arak
Ġtarih sel
Ġth rough
ĠvasÄ±t asÄ±yla
ĠD ayan
Ġsahip liÄŁi
U P
Ġdokunulmaz lÄ±ÄŁÄ±nÄ±
ÙĲ ÙĬ
p oz
v ed
Er kek
ĠÅŁer h
ĠR ep
uÅŁ ma
it ab
Ġiler lem
ĠÃ§alÄ±ÅŁan lar
lan masÄ±na
- Dosyadaki
ĠÅŀ art
ĠÅŁ unu
der e
Ġzar arÄ±
t um
C h
ĠdÃ¼ny asÄ±nda
par ta
> b
26 4
li dir
ĠK em
ĠoluÅŁtur ulmasÄ±
Ġdemokras i
ĠOk u
Ġdo lara
im et
Ġal dÄ±ÄŁÄ±nÄ±z
ĠBas kÄ±
S Ä°Z
Ġv icdani
ĠH ow
An talya
Ġkent sel
Ġfil tr
Â »
ĠS GK
ov e
Ġmet ab
ĠCami i
Ok ul
T Ä°R
K adastro
Ġyap tÄ±m
ĠÅŁ Ã¼k
oli s
Ġmuhtem elen
I P
Ä°ÅŁ let
s ey
Ġf alan
ĠÄ° lan
ĠdeÄŁiÅŁtir me
Ã¢ de
ĠsÃ¼r Ã¼l
ord ing
ah ya
Ġmus unuz
Ġdon dur
Ġpara graf
ĠÄ°ÅŁ bÃ¶lÃ¼mÃ¼
Ġkat lÄ±
Ġrezerv asyon
lÄ±yor uz
Ġhusu sta
Ġmak yaj
Ġs esi
Ġnak liye
ĠS ektÃ¶r
ĠP ress
ad ere
Ġak d
ĠdÃ¶n Ã¼m
ĠAj ansÄ±
ĠÃ§alÄ±ÅŁan larÄ±
Ġanla tÄ±yor
ĠÅŀeh it
ĠB y
Kan una
ĠdÃ¼ÅŁÃ¼n dÃ¼ÄŁ
Ġkend imi
ĠdÃ¼zenlem enin
ĠbaÄŁÄ±m lÄ±
Ġmuh tar
Ġgelir i
r ah
Etik etler
Ã¼s Ã¼nÃ¼n
Ġhalk Ä±nÄ±n
Ġyaz ma
ĠKer im
'n Ä
Ġkalit esini
ĠAvukat lÄ±k
acaÄŁ Ä±mÄ±z
Y ine
Ġs ef
if i
'nÄ ±
ĠG EN
ĠolmuÅŁ tu
ĠAy r
Ġrek or
Ġbulun duklarÄ±
Ġbu ton
ĠdÃ¶n eme
.g ov
Ġar dÄ±
Ġoyuncu larÄ±n
Ġgetir iyor
ĠSilah lÄ±
Ġisten ilmiÅŁtir
Ġoku mak
ĠettiÄŁ iniz
om er
ĠHey et
Ġrol Ã¼
ĠF ab
ĠbÃ¶lg edeki
ĠÃ¼lk eleri
ĠsektÃ¶r Ã¼nÃ¼n
ĠsÃ¼r eleri
Ġmev ki
Ġtehlik e
ĠbaÄŁlan mÄ±ÅŁ
Uz un
Ã¼ cel
Ġeksik liÄŁi
Ġsaat lik
Y er
Ġsel am
len erek
Ġe ach
Ġsig n
G Ã¶z
ĠÅŁun lardÄ±r
ĠmÃ¼dah il
ĠE g
Ġaray Ã¼z
Ġproj enin
Ġisteyen den
Ġe qu
Ġolay larÄ±n
ĠG eri
ĠY urt
Ġhukuk u
ĠeleÅŁtir i
j istik
Ã ¨
Ġbul uÅŁtur
Ġc is
Ġop t
ĠMÃ¼dÃ¼rlÃ¼ÄŁ Ã¼nÃ¼n
iz ed
Ġsh ould
Ã§ Ä±sÄ±
ĠkayÄ±t larÄ±nÄ±n
Ġgrup ta
K or
ak er
ĠLond ra
.D r
Ġg ev
ĠD ek
ĠW ar
K iÅŁ
Ġkes me
Ä±m Ä±nÄ±
ede fi
Ġgel mek
ĠBel ki
Ġit tifak
Ġsunu cu
k Ã¢r
ur a
Ġsiz lerle
25 2
Ã§Ä± lar
m od
Ġkoy u
Ġed em
Ġal mayÄ±
ĠKan al
36 5
ediÄŁ im
Ġkarar Ä±ndaki
h ay
Ġak la
ĠkiÅŁ ileri
22 9
ĠM ali
M illi
Kar arÄ±
Ġkal acak
Ä±ÅŁ lÄ±
Ġt uÅŁ
it s
ĠkarÅŁÄ± laÅŁma
ĠdiÄŁer leri
S B
Ġoper atÃ¶r
Ġuygu lamanÄ±n
ĠÃĸÄŁr enci
el asyon
ĠH edef
ĠgeÃ§ mesi
Ġotur um
ĠkÃ¶ mÃ¼r
' ler
/ b
Ġmesaj Ä
ĠmesajÄ ±
ĠettiÄŁ imiz
Ġatmos fer
Ġst il
Taraf larÄ±n
ĠS tandart
A C
Ġzar ara
Ġet m
onom i
O lay
Ġr af
ĠbilinÃ§ li
28 2
Ġyap tÄ±rma
at in
ĠdÃ¼ny ayÄ±
dav alÄ±
' m
Ġsev gili
Ġso f
D Ä°NE
z aman
Ġtaki be
leÅŁtir ilmiÅŁ
: </
as ur
ĠE lazÄ±ÄŁ
lÄ±k tan
as in
at ay
Ġkr izi
ĠÃ¶ f
ĠÄ°span ya
Ġnez dinde
26 7
ĠKil is
liyor uz
5 25
Ġkab lo
ĠÃ§alÄ±ÅŁ Ä±rken
lanma mÄ±ÅŁ
Ġ( ...
be gin
ĠgÃ¶rÃ¼n Ã¼ÅŁ
Ġiler leyen
ĠN ih
Ġyaz Ä±lmÄ±ÅŁ
Ġbak Ä±r
Ã§ in
ĠÃĸz tÃ¼rk
Ġzek a
L Ãľ
ĠYÃ¶n etic
Ġu sta
Ġy uv
Ġihti mali
Ġnokt aya
muÅŁ tu
ĠPerson el
ĠØ ±
Ġkr istal
Ġn orm
ĠS elim
EZ Ä°
Ġtoplan tÄ±sÄ±
Ġtakv im
A li
Ġrapor da
Ġsit ede
rim is
ĠÅŁif r
Ġamac Ä±na
is afir
Del ta
Ġpar asal
Ġar d
Ġsar f
Ã¼f us
ĠB UL
ĠbaÅŁ a
F F
ĠgÃ¼n ah
Ġt Ã¼y
ĠYar gÄ±
ĠG re
Ġhusus un
ĠÄ°k ili
l il
Ġmiktar Ä±nÄ±
Ġg emi
ĠSor u
ĠV en
Ġnak liyat
Ġtarih indeki
Ġtab anlÄ±
hend isi
ĠbugÃ¼n kÃ¼
ast am
ĠdÃ¶n dÃ¼
Ġport fÃ¶y
Ġsah il
eb ze
Ġolmaz sa
ĠYeni den
s Ã¼r
ĠBaÅŁsavcÄ±lÄ±ÄŁ Ä±nÄ±n
Ġkon ulan
ĠMahkem enin
s ever
ĠsÃ¶z ler
Ġhizmet e
ES T
Ġokuy ucu
ij yen
Ġma cer
tr op
az z
Ġyap Ä±sal
B B
in ed
Ġyurtd Ä±ÅŁ
ĠTeh dit
ĠyÃ¼klet ilen
lan gÄ±Ã§
por taj
Ġs s
Ġuygulan arak
Ġp omp
Ġzam anÄ±n
Ġkon ulmasÄ±
alÄ± yor
28 3
ĠÃ¶zellik lere
... '
ĠadÄ±m lar
ĠdaÄŁ Ä
ĠdaÄŁÄ ±
ĠbÃ¶lg eler
abil im
ce v
onom ic
Ø °
Ġres ults
lik ten
Ġgide cek
Ġmadd elerine
ĠÃ¶ v
Ġonay lÄ±
Ġmet od
Ä°ncel enen
27 5
la men
Ġsebeb iyet
lay abilirsiniz
Ġp ul
24 1
ĠÄ±ÅŁ Ä±n
ĠhÃ¼kÃ¼m lere
ĠFiyat larÄ±
Ġkap ak
ous e
Ġr aki
cÄ± larÄ±
a e
Ġbin anÄ±n
Ġuy du
ĠB ebek
fa ce
eb ilme
ĠRek lam
Ġbelirt ilmiÅŁ
ĠyapÄ±la bilmesi
ĠÄ° tiraz
oug h
ĠÃĩ iÃ§ek
am Ä±n
ĠJ e
Ġbelir tir
ĠBilg iler
am anÄ±n
ĠMic rosoft
ĠAs gari
3 12
Ġsoy ut
Ġtarih ini
Ġek sen
Ġunsur u
ĠFin ans
Ġbil eti
ĠÃľ ret
c iÄŁer
B aÄŁ
ĠM uÄŁla
Ġkap ital
ĠK a
A Äŀ
Ġr eng
ĠyÃ¼rÃ¼t Ã¼l
Ġn eÅŁ
Ġet meyen
B ar
ĠYas asÄ±nÄ±n
Ġtab ir
R AM
ĠÅŁ of
ĠG alaxy
ĠZ iyaret
ĠBoz ma
B or
ĠÃ¶zellik lerine
Ä°s lam
ten t
Ãĸ K
Ġey alet
ing ton
ons or
ov yet
Ġsor ul
ĠUy gu
Ġilk e
ĠD ig
ĠeÄŁitim e
ĠÃ¼ret en
ĠÃ¶ncelik li
a x
ĠÃ¼n it
Ã¼ÄŁ Ã¼n
ĠÅŀub esi
Ġsam imi
ĠÄ ±
ĠD EVR
ek sel
Ġger gin
Ġrad y
ĠAr slan
Ġbilin c
Ġdo la
. c
Ġhal iyle
Ã¼s Ã¼nÃ¼
ĠSamsun g
/ L
ĠL ir
Ġd esign
los uz
Ġyetk ileri
Ġg i
Ġuygulan acak
ĠN ok
ĠÃ¶rnek ler
Ġceza ev
Ġl oc
esi dir
ĠB Ã¶ylelikle
Ġgerektir diÄŁi
ĠdÃ¼k kan
ĠkarÅŁ Ä±sÄ±na
ĠE dirne
Ġvit amin
ĠyapÄ±l malÄ±dÄ±r
ESÄ° NE
Ġzor lu
ĠHÄ±z lÄ±
ĠiliÅŁk isinin
Ġwh en
Ġgir mek
Ġkon unun
Ġle he
ĠB Ã¼r
Ã¢n Ã®
ĠbÃ¼yÃ¼k lÃ¼k
ĠTÃ¼k etici
W eb
ey se
Ġhizmet lerin
og rafik
Ġistis na
Ġmak tu
Ä±l madan
ĠK oÅŁ
ĠK AP
Ġgel dik
ĠiÅŁ it
Ġd ie
Ġeden ler
Ġoyn ayan
ĠÅŁah it
op le
Ġzar f
Ġn adir
Ä° k
ĠgÃ¶rÃ¼ÅŁ Ã¼
A NA
/ P
Ġbu har
24 9
ĠHukuk i
ĠsÃ¼rec ine
Ġbulunma dÄ±ÄŁÄ±na
Ġik na
S al
Ġuygula masÄ±nÄ±n
Ġyaralan dÄ±
Ġikram iye
ĠbiÃ§im inde
Ġd om
Ġver ebilir
ĠTEV DÄ°NE
24 6
for masyon
Ġidar enin
laÅŁ an
24 2
Ġtalep leri
ĠkoÅŁul lu
ĠmÃ¼s ab
30 3
Ġbul ut
ĠK oc
ĠyÃ¼zÃ¶lÃ§Ã¼m Ã¼ndeki
ĠÃ¼lkemiz in
c uk
ĠKALDIR ILMASINA
ĠMillet ler
Ġm Ä±s
7 18
Ġm ide
ĠBah Ã§eli
ĠyÃ¼r Ã¼m
ĠVal isi
Ġvurgul ayan
Rus ya
Ġtit iz
ĠHol landa
Ġmilyon larca
ist e
iyet e
ĠÃĸn ce
ĠgÃ¶rÃ¼ÅŁ leri
ĠK el
len iyor
Ġcon trol
y c
Ġiyil eÅŁ
Ġs ch
Ġma il
ĠSeÃ§ im
ĠgÃ¶r dÃ¼m
ĠServ isi
ĠBil imler
ayol larÄ±
umuz da
ĠÃĩ AL
ÄŁ in
Y ÃľK
ĠmÃ¼ sa
ĠYak Ä±n
tÄ±ÄŁ Ä±m
K Ä±z
Ġkred isi
Ġendek s
ĠT ed
ĠÃ§alÄ±ÅŁma lara
Ġf ed
ĠsaÄŁlan Ä±r
ĠSar ay
ĠgÃ¶rÃ¼n Ã¼r
Ġbak Ä±n
Ġbah ar
Ġd isk
af ta
ĠdÃ¼zenlen diÄŁi
Ġyar Ä±sÄ±
ist i
ĠyÃ¼ksek tir
Ġilam Ä±yla
Ġo muz
ĠTap u
ĠADI NA
w in
Ġg lobal
ĠC har
Ġolab ilmektedir
ĠV atandaÅŁ
C AR
Ġis yan
ĠÃ¶ÄŁretmen ler
TA L
al ign
C R
ĠDik kat
Ġnokt asÄ±na
g ur
Ġk Ã¶r
Ġhareket leri
Ġisim ler
ĠA teÅŁ
Ġuz an
ĠG Ãľ
Ġmet ot
Ġar Ä±z
Ã¼s Ã¼nde
Ġbank acÄ±lÄ±k
ĠOÄŁ uz
i o
ĠKullan Ä±lan
es un
Ġkural lar
ĠÃ§oÄŁun luÄŁu
- karÅŁÄ±
for d
ĠV ad
ĠsÄ±cak lÄ±ÄŁÄ±
ĠgerÃ§ekleÅŁtir diÄŁi
leriniz in
Ã¼z yon
3 19
Ġneden ine
tih adÄ±
Ġdikkat i
Ġvade de
ĠHay Ä±r
Ġavukat lÄ±k
Ä°M Ä°
ĠÃ§Ä±kar ma
di an
uv alet
Ġuy mayan
ÅŁ un
Ġtamam la
ĠiÅŁ lenen
Ġhus usu
ĠgÃ¶rÃ¼l mesi
ĠMesel a
ĠÃ¶det ilmesine
57 2
69 6
Ġsit emiz
ĠF orum
ĠVak Ä±f
ĠgeliÅŁ meleri
ĠYas asÄ±
ĠgeÃ§ir diÄŁi
Ġkonum unda
ĠCev ap
ĠiÅŁlem iÅŁ
ĠyÃ¶n Ã¼
Ġla f
28 1
ĠSaÄŁ lÄ±ÄŁÄ±
Ġul us
ĠK esin
Ġhizmet lerinin
ĠaraÃ§ larÄ±n
ĠkiÅŁi den
Ġyet in
Ġif las
Ġok ula
ĠG ez
Ġyaz Ä±n
Ġf et
on t
Ġdetay larÄ±
Ġden ge
Ñ ĥ
Ã¢ f
ĠdoÄŁrultu da
O NANMASINA
Ġkan alÄ±
ĠF izik
dan Ä±n
Ġgir er
Ġinan Ä±lmaz
ĠaÃ§ ar
Ġgir erek
Ä±yor du
Ġolas Ä±lÄ±k
Ġdes en
Ġusul sÃ¼z
Ġol say
ĠS EB
Ġkut sal
dav acÄ±
ĠL ib
23 6
Ġuy duÄŁu
Ġoyn a
ĠK um
Ã¼p he
Ġpersonel in
Ġgid eri
Ð »
ĠPro t
ĠH oca
Ġdevr ine
ĠDo lar
ek ler
ma mÄ±ÅŁtÄ±r
24 3
Ġmuay ene
Ġh edefi
at h
Ġkullan Ä±ma
Ġkonu larÄ±nda
Ġma in
o ya
U n
r asÄ±nda
Ġan y
l op
ĠaÃ§ Ä±lacak
ĠÃ§Ä±k Ä±p
te gr
Ġbekliyor uz
Ä±yor lar
Ġf ant
Ġtem err
ĠB ol
Ġa ilenin
ĠyÄ±k ama
Ä±r t
leÅŁ miÅŁ
Ġgerektir miÅŁtir
w are
Ġelektrik li
Ġik iye
ah il
Ġdep lasman
24 8
l edikleri
GUL AR
ĠsonuÃ§ larÄ±nÄ±
ĠS S
Ġisim leri
ĠAÄŁ a
Ġf iz
ĠF et
âĪ Ĵ
B Ã¼tÃ¼n
sil on
ĠaÄŁr Ä±sÄ±
n ot
36 2
ĠhÄ±r sÄ±z
ĠS ec
iÅŁ li
ĠdÃ¶n dÃ¼r
ĠzamanaÅŁ Ä±mÄ±nÄ±n
Ġtad Ä±nÄ±
Ġtoplam da
Ġd ediÄŁi
ĠKadÄ±n lar
ĠSÃ¼r esi
y ken
ĠeÄŁitim in
Ġbom b
Ġodak lan
Ġso ya
Ġd elik
Ġkim in
ĠD an
ĠO K
Ġes ir
Ġcih azÄ±
Ġces aret
ĠE T
ĠUy gulan
ĠY Ä±lÄ±
Ġuygulama da
ĠPer forman
ĠG u
Ġtaleb ine
Ġd uv
mektedir ler
Ġas li
ĠS c
ta ge
ĠmÃ¼tesel silen
d Ã¼n
Ġmark asÄ±
MA Z
ĠgÃ¶rÃ¼l Ã¼yor
ÄŁr Ä
ÄŁrÄ ±
ĠMet al
Ġtaraf lÄ±
Ġedilm esini
Ġdil im
maktay dÄ±
ĠÃ§ eki
ĠH il
Ġvit amini
ĠnÃ¶ bet
ĠyaÅŁ Ä
ĠsÄ±nÄ±r Ä±nÄ±n
ĠyaÅŁÄ ±
Ġnum ber
en tal
d f
ĠaÃ§Ä±klan dÄ±ÄŁÄ±
6 50
ley ebilir
Ġbu ÄŁday
S p
Ġtan Ä±mÄ±
Ġmadd Ã®
ĠT ez
Ġver meden
Ġat Ä±f
23 9
Ġc et
Ã¶n Ã¼
Ġy elp
ilm emiÅŁ
29 0
Ġsigort asÄ±
Ġkad Ä±na
Ġkurum larÄ±n
Ġav ans
Ġente gre
y im
F ir
ĠBoz mayÄ±
3 24
ĠdeÄŁil im
ĠbÃ¶lÃ¼m Ã¼nÃ¼
iz mi
Ġstratej isi
K as
ĠSal ih
Ġz ira
ĠSer best
Ġfaaliyet lerini
ĠÃĸÄŁrenc ilerin
Ġp Ã¼r
ĠAÅŁ k
'n deki
ĠaraÅŁtÄ±r maya
Ġtahakk uk
> x
Ġverildi ÄŁ
Ġyap Ä±ÅŁtÄ±r
Ġbank anÄ±n
ĠÃ¼l kem
og r
Ġkoy un
a larÄ±n
S E
ĠsÃ¼r eyle
ĠÄ°l Ã§
G ÃľN
ĠsÄ±nÄ±r sÄ±z
Ġalb Ã¼m
Ġkarar lÄ±
ĠsÃ¶ylem iÅŁ
Ġev li
st en
nam esi
ĠkuruluÅŁ u
d ola
. k
Ġistem lerinin
Ġbu lacak
Ġgrub unun
ĠHer hangi
Ġan lÄ±k
Ġy alÄ±
ĠÃĸn er
LA Åŀ
Ġhes aba
Ġolur lar
ĠbaÄŁ lanan
Ġi mam
ĠsaÄŁlay Ä±cÄ±
ĠgÃ¼nÃ¼mÃ¼z e
Ġveril ebilir
ĠÄ° mar
ĠÃ§ if
Ġem ri
ĠkarÄ±ÅŁ Ä±m
ĠgÃ¶r mez
ĠÃĩ el
leri dir
Ġhasta larda
Ġproj eleri
ic es
Ġkat man
Ġiddia larÄ±
Ġdoktor a
Ġstu dents
ol on
Ġas kÄ±
ĠMÄ°LL ETÄ°
muÅŁ lardÄ±r
ĠMark et
Ġbir takÄ±m
G Ã¼ven
Ġkurum u
Ġs ter
ĠbaÅŁlan dÄ±
K ab
ĠKan unda
ĠyÃ¶netic ileri
Ġtur nuv
G Ã¶n
cel l
ĠÃĸrgÃ¼t Ã¼
Ġkadro ya
ĠC EVAP
D anÄ±ÅŁ
Ġduyar lÄ±
ĠÄ°st ik
ĠkÃ¶ prÃ¼
M I
ĠharÃ§ tan
Ul uslararasÄ±
ĠKaymak am
N o
Ġdevam lÄ±
Ġbelirt miÅŁtir
ĠkullanÄ±m Ä±na
Ġdenetim ini
pt om
ĠsÃ¼rdÃ¼r Ã¼yor
Ġay Ä±p
ĠkullanÄ±cÄ± larÄ±
ĠMeh med
Ġolanak lÄ±
Ã¢ li
Ġpil ot
k y
ĠyapÄ± da
ĠKurul unca
Ġliter atÃ¼r
Ġt etik
larÄ±mÄ±z dan
pa gan
Ġetk isinin
ĠGen iÅŁ
. J
Ġteb rik
Ġkur am
Ġkullan Ä±n
K onu
ĠalÄ±n malÄ±dÄ±r
Ġyap mÄ±ÅŁtÄ±r
ĠgerÃ§ekleÅŁtir ildi
ĠS EO
Ġ )Ċ
26 3
Ä°R Ä°Åŀ
ĠK Ä±ÅŁ
ĠB lack
Ġuy dur
Ġplak alÄ±
ĠiÅŁÃ§ iler
ĠHÃ¼km Ã¼nde
ĠFestiv ali
ĠÅŁ effaf
Ġi ÄŁ
Ġsor usuna
len ebilir
G Ä°
al u
Ġp osta
ĠAbd Ã¼l
30 8
ĠÃ§erÃ§ev ede
ĠyaklaÅŁ Ä±mÄ±
Ġdava larÄ±n
ĠB us
T an
Ġar Ä±za
ez il
ĠEn d
Ġporn o
ĠarasÄ±nda dÄ±r
Y AL
Ġtar ayÄ±cÄ±
ement s
ĠE L
Ġoyn anan
Ġsavun masÄ±
iÅŁ ik
lik asyon
ĠmÃ¼dÃ¼r Ã¼
AN S
ĠyatÄ±rÄ±m cÄ±lar
ay n
Ġfazlas Ä±nÄ±
Ġkok u
TA K
e e
Ġmadd elerin
Ġbelir leyen
Ġede bilecek
n af
Ġz ul
ub uk
Yas aya
30 1
Ġis mini
ĠsÄ±nÄ±f Ä
ĠsÄ±nÄ±fÄ ±
ĠM Ã¼n
ĠtakÄ±m Ä±n
ion s
his ar
may Ä±p
Ġm isyon
Ġyorum larÄ±
Ġanal ysis
ĠiÅŁlem ini
ĠgerÃ§ekleÅŁ ti
Ġsigortal Ä±lÄ±k
Ġv ize
Ġkapas itesi
R e
Ġla stik
âĢĻ ten
it eli
Ġprotest o
Ġgel ebilir
Ġgetir erek
l s
Ġort aÄŁÄ±
ĠÃ§ev resel
Ġyap madan
Ġdir ek
Ġac aba
'in ci
ĠKup asÄ±
Ġib adet
Ġm otosiklet
med im
ĠÃ¼ret ici
ÃĸÄŁr enc
amaya caÄŁÄ±
Ġir tifak
ĠHar ek
ĠkeÅŁ fed
K ah
ĠS ite
me ce
ĠsÄ±k Ã§a
Ġanla tÄ±r
Ġaf ter
ĠmÃ¼ÅŁter ilerine
http s
Ġtamam Ä±nÄ±
ĠT ev
Ġkesi t
ĠÃĩÃ¶z Ã¼m
24 7
. p
26 6
Ġb iber
ĠÃ§Ä±k mak
Ġemek lilik
Ġapp ro
ĠÃ¶z Ã¼r
24 4
ĠÃ¼cret li
lan maz
Ġbend inin
Ġbu dur
ÙĦ Ùĩ
umuz a
Ġtip ine
ĠaÅŁ an
ĠBor sa
Ġtazminat Ä±nÄ±n
ĠDaÄŁ Ä±lÄ±mÄ±
ĠgeliÅŁ mesi
/ A
mas Ä±ndaki
ĠEx p
ĠMak in
b aÄŁ
Ġmahkem elerinin
26 1
ĠsÃ¼r ek
astam onu
M EN
Ġs emin
m il
TA B
Ê ¿
Ġanlam Ä±yla
Ġhat asÄ±
Ġsan tral
qu ir
Ġmahsub una
ir daÄŁ
ĠAn ne
ĠgeÃ§ tikten
ĠN ormal
liy le
3 15
ĠtÃ¼ketim i
ĠÃ§er ez
Ġmim ari
ĠÄ°lk Ã¶ÄŁretim
ĠW orld
ĠBalÄ±k esir
ĠmÃ¼s adere
Ã¼l leri
Ġ Ċ
ĠF e
ĠMar din
ĠÃ¶ÄŁrenc ilerinin
f in
t iz
ĠA T
Ġsergilen diÄŁi
ĠM i
Ġder ken
ĠPiyas asÄ±
- V
ĠsÃ¼rdÃ¼r Ã¼lÃ¼p
ĠP op
IN I
Ġfinans man
Ġeb eveyn
ĠG ay
ĠgÃ¼ncel lem
Ġtaki b
caÄŁ Ä±z
Ġilgili dir
Ġp oker
49 2
Ġyaz arÄ±
Ã ª
ĠdÃ¶nem ine
viÃ§ re
SIN IN
Ġfa ce
eh met
ĠP in
ĠbaÅŁla dÄ±ÄŁÄ±nÄ±
Ġvurgu ladÄ±
30 6
Ġuzman lÄ±k
Dav anÄ±n
ĠparÃ§a larÄ±
ĠBal kan
Ġ: )
ĠÃĩ ocuÄŁ
Ġtas fiye
Tr abz
** </
c Ä±n
Ġet mem
s aÄŁ
ĠhÃ¼kÃ¼m eti
âĢĻn den
Ġbilin ir
Ġat ama
Ġkend inize
ĠgÃ¼z erg
Ġel ine
Ġmas k
lamaya cak
Ġgir mesi
\ n
ĠboÅŁ alt
Ġitibar i
ĠdÃ¼zenlen ecek
Ġkahv altÄ±
ĠgÃ¼ven ce
malÄ± yÄ±z
ĠÃ¶d emek
ĠAs lan
G ER
ĠvazgeÃ§ ilmez
Ġtedbir leri
Ġzih insel
Oy un
Ä±nÄ±z dan
Ġyat ay
gel e
Ġelb is
len mektedir
ĠyaÅŁan dÄ±
Ġkusur suz
Ġolun ur
Ġr om
ĠkatÄ±l mak
b y
Ä° h
ĠaydÄ±n lat
ĠDÃ¼n yanÄ±n
ĠSin an
ep silon
ĠÃ¶dem esi
okras i
P eki
ĠbÄ±rak Ä±lan
ran d
25 8
ĠÅŀ eri
ĠÃ¶dem eler
Ġgel mez
ĠdanÄ±ÅŁ manlÄ±k
ĠiÅŁlen diÄŁinin
gu lar
endi ÄŁ
An adolu
\ \
Ġtasarruf u
ĠM it
Ġhizmet lerini
Ġmalik i
36 4
n ed
.. ...
Ġdur an
ĠOrt adoÄŁu
Ġizley ic
ĠV AR
S ab
DavacÄ± lar
Ġmadde ye
Ġboy un
Haber ler
Ġlo w
ĠsaÄŁlay arak
S EL
ken ti
Ġkal eme
ĠsÃ¶yley erek
ĠT uz
Ġw ould
ĠsonuÃ§landÄ±r Ä±lmak
' lerin
ĠkullanÄ±cÄ± lara
ĠP a
Ġf igÃ¼r
ĠbaÅŁla mak
Ġmet r
Ġkad Ä±nÄ±
duÄŁ um
Ġir ade
ĠO F
Ã¼n tÃ¼
avan taj
ĠkÃ¼t Ã¼phan
ÄŁ a
ĠBÃ¼l ent
Ġtaraf ta
iniz le
Ġkur uma
Ġf uar
5 21
ans Ã¶r
bilir siniz
ĠEdeb iyat
so ci
Ġaj ans
Ġec rimis
ĠSÃľR EÃĩ
ĠKanun larda
Ġkurum larÄ±
eceÄŁ inizi
ad Ä±m
B una
Ġkol luk
ĠKon gresi
Ġaral Ä±ÄŁÄ±nda
Ġrandev u
Ġhak larÄ±na
Ġnedeni dir
Ġyol dan
ĠE th
Ġusul e
ĠC ez
at ta
re ad
c Ã¼sÃ¼
ĠA lacak
Ġgen etik
Ġsebep lerinin
C ev
ĠMes aj
Ã§ asÄ±
Ġyar atan
f on
Ä±k Ã¶y
( t
Ä±lÄ±yor um
ĠÃ¼cret leri
ĠY etk
Ġbiy olojik
ÃĩalÄ±ÅŁ ma
Ġel deki
Ġbar daÄŁÄ±
ĠÄ°Ã§ iÅŁleri
ĠAn t
Ġsu lama
ĠÃ§ekir dek
Ġbo th
Ġal dÄ±ÄŁÄ±mÄ±z
Ġolur sak
Ġhan gisi
ĠBaÅŁvur u
ĠÄ° talyan
ĠÃ¶nlem ler
Ġriv ayet
ĠolacaÄŁ Ä±na
ic ation
oÄŁ uk
O C
Ġbulun masÄ±na
) ,Ċ
ĠElektr onik
Ġbenz ersiz
Ġbir inde
Ġhay li
d elen
m o
ĠdeÄŁerlendir mek
edd Ã¼t
Ġbas amak
of f
ĠP uan
Ġdenetim i
lÃ¼ÄŁ Ã¼nÃ¼n
duk Ã§a
Ġfa il
Ġgrub a
Ä±ÄŁ Ä±na
28 5
ĠkÄ±r sal
ĠaÃ§ Ä±ÄŁa
Ġkadros una
39 8
ĠdÃ¼zey leri
ĠgÃ¶revli si
ĠÃ§ek tir
Ġdur uyor
ĠV eri
Ġifad eleri
ĠB azen
ĠgeÃ§ir en
Ġcerrah i
Ġk Ä±lma
Ġbilg inin
Ġyeterli dir
Ġham il
Alman ya
Ä±m sÄ±z
ĠdÃ¼zenlem eye
ĠdÃ¼ÅŁÃ¼r Ã¼cÃ¼
ak tif
out ube
Ġkr em
ĠH ur
ĠTur an
ĠAl Ä±ÅŁ
_ k
Ġb est
bil iyor
Ġko z
Ben im
ĠdÃ¼zenlen di
Ġimpor tant
G A
Ä±m dan
el la
Ġbenim le
ĠkÄ±yas la
Ġk rom
Ġisten miÅŁ
Ġi man
Ġmak s
ĠiÅŁ lenmesi
P er
ĠN ik
ĠgÃ¼Ã§ lÃ¼k
ĠKahraman maraÅŁ
Ġhac im
o in
ĠV i
dÃ¼ s
tiÄŁ im
ĠoluÅŁ umu
Ġih t
ĠgÃ¶z ler
ÃĸÄŁr etmen
ĠgÃ¶ster erek
ĠduruÅŁma da
ent o
Al t
af e
d Ã®
ĠKur tul
at lar
Ġbelirlen di
abilecek leri
Ġkarar larÄ±na
Ġprogram Ä±nda
Kar arÄ±n
ĠiÃ§ e
ĠA M
ĠyÃ¶netim inin
Ġtak tir
Ã¼mÃ¼z e
55 6
fa iye
ĠTes ti
Ġdok uz
ĠAf yon
o ok
ĠhÃ¼kÃ¼met de
ĠÅŁ Ã¼phe
O H
Ġbak tÄ±ÄŁÄ±mÄ±zda
ĠTeb ligat
un e
Ġol muyor
Ġkar Ä±n
Ġs Ã¶k
iÄŁ inde
Ġma t
Ġincelem esinin
5 62
ĠEl de
lan Ä±p
z ed
Ġkarar la
Ġmemur u
ĠS tor
ĠsÃ¶ mÃ¼r
ĠsÃ¼r esine
. V
ĠUz manÄ±
ĠyÃ¼ksel di
ĠyÄ±l larÄ±n
ĠsÃ¼r esini
Ġg ib
ĠQ u
ĠGeÃ§ en
ĠAf gan
Ġgerek siz
Ġavukat Ä±nca
ĠS ize
Ġaz a
Ġart tÄ±
Ġsunul maktadÄ±r
ilmek te
Ġ: )Ċ
iÅŁ e
Ġders i
} \
Ä±ÄŁ Ä±nÄ±
y olojik
Ġalan Ä±nÄ±n
Ġet mediÄŁi
Ġbak alÄ±m
Ġle ar
ĠP et
ur k
ĠSEB EP
m us
Ġhac mi
ĠDair enin
ĠRes mÃ®
gu age
ĠÄ°st atistik
CEL EN
ĠtÄ±k layÄ±nÄ±z
ter s
Ġgir iÅŁi
ĠbaÅŁla dÄ±m
Ġsertif ik
ĠdÃ¶n er
Ġs us
> &
Ġb araj
Ãľ S
ĠHar Ã§lar
ed isi
D er
Ġp uanÄ±
Ġg Ã¼mÃ¼ÅŁ
ĠsÃ¼rec indeki
Ġsu ya
ildiÄŁ inin
ord s
Ġsahip lerinin
Ġuzun luÄŁu
± lama
Ä ±lama
ĠÃ§at Ä±ÅŁ
ÅŁ ir
Ġdol aylÄ±
Ġfor mat
R E
S AN
Ġver dik
Ġser isi
ĠB olu
ay dÄ±
Ġmuvaza alÄ±
Ġhastan ede
Ä° yi
Ġis m
Ġp amuk
ĠpaylaÅŁ tÄ±
os ition
Ġdava larÄ±
Ġbir imleri
ĠulaÅŁ Ä±lan
ĠyÃ¼ksel en
ĠyaptÄ±ÄŁ Ä±nÄ±z
Ġsunuyor uz
H em
a larda
ĠBir leÅŁtirme
Ġperi od
. d
Ġsen s
iyet le
Ġetkin likleri
Ġhusus larÄ±n
Ġalan larÄ±n
Ġkomp leks
ĠbaÅŁarÄ± yla
Ġsen ed
f an
Ġnitelendir ildiÄŁi
ĠiliÅŁk ilerin
ĠhÃ¼kÃ¼met in
ĠBaÅŁ ak
Ġail esinin
Ġal madan
Ġyelp az
ĠtÄ±p kÄ±
/ l
G azi
Ġilam Ä±n
Ġbiz ler
lem iÅŁ
ĠÅŀey h
ĠE DEN
ĠN es
ĠDAVA SININ
S ig
Ġrel ations
Ġsit elerinde
ĠsÃ¶zleÅŁ mesinde
Ġgider lerinin
ĠsÃ¼rec in
Ãĸn celikle
ĠArab istan
Ãĩ in
ĠKar aman
ĠbaÄŁlan tÄ±sÄ±
ĠK DV
ĠSab ah
Ġkayde den
Ã¶yl edir
Ġm edeniyet
ĠmÄ± dÄ±r
Ġrad ikal
ĠiÅŁlen diÄŁi
uk i
Ġban d
es ti
ĠdÃ¼ÅŁÃ¼nc esi
ĠgÃ¶rev inin
Ä±k lÄ±k
Ġayr Ä±lmÄ±ÅŁ
25 9
ustr alya
ĠbÃ¶ brek
ĠÃ§ ik
ĠyapÄ± lar
S eÃ§
isi on
C T
Ġtasar lanmÄ±ÅŁ
tey di
Ġlo g
ir se
g eler
iler iyle
Ġkur ucu
Ġver in
ĠK eÅŁ
Ġbey anÄ±
Ġdil iyorum
ĠyapÄ±l mamÄ±ÅŁ
ĠmÃ¼ j
ĠsektÃ¶r Ã¼n
Ġn Ã¼kleer
27 2
Ġolur sunuz
ĠHol ding
Ġerkek lerin
ĠC ey
ĠhastalÄ±k larÄ±
ĠgÃ¶r Ã¼lebilir
26 8
P r
Ġtaleb ini
ĠmÃ¼ÅŁ tek
ĠS m
Ġhisset tir
at ma
Ġkr al
Ġkurul um
ĠS Ã¼t
ĠYaÅŁ ar
Ġzaman dÄ±r
ĠgÃ¶rÃ¼l mediÄŁi
iyan et
z in
ĠkasÄ± t
ay eti
Ġkaynak lar
ĠPolitik asÄ±
ET K
ran Ä±ÅŁ
26 9
ti es
C D
ĠmÃ¼ÅŁter ilerin
Ġgetir ilmiÅŁtir
Ġbulunma mÄ±ÅŁtÄ±r
Ġuz anan
ĠÃ§ek ilen
Ġ(% )</
y r
Ġtop ar
Ġhip er
Ġtemsilc ileri
ustur ya
Ä±r nak
Ġhayat i
ĠEy lem
ĠiÅŁÃ§ isi
Ġtamam lanmasÄ±
Ġtamam ladÄ±
Ġk anÄ±
ĠgerÃ§ekleÅŁ mesi
Ġal Ä±na
Ġwh ere
ĠdÃ¶k Ã¼mÃ¼
ĠM P
Ġhaber ine
) <
ĠdeÄŁiÅŁtir mek
Ġyem eÄŁi
ĠR as
Ġderd est
ĠF ah
di g
Ġgir mektedir
Ġbas kÄ±n
ĠS tar
ĠÄ°nsan lar
ĠS atÄ±n
ĠMem ur
ĠAn abilim
tr y
ĠoluÅŁtu ÄŁ
Ġih rac
iv er
Ã¼l tÃ¼
Ġbanka lar
Ġde c
ĠAk Ä±n
.. '
Y Ã¼z
Ġmillet in
Ġyap Ä±sÄ±nÄ±
ĠF ed
K AY
Ġetk ilerini
- n
ĠS ub
mayacak tÄ±r
ĠyÃ¼k lÃ¼
ĠÃ¶y kÃ¼
ĠÃ¶ÄŁrenc isi
Ġprogram Ä±na
Ġkazan Ä±r
f o
Ġdetay lar
Ġben den
Ã§ Ã¼
ĠS endik
Ä±m lar
Ġl in
29 6
H AN
ĠgÃ¶rÃ¼nt Ã¼lÃ¼
oz a
Ġprens ip
ĠsÄ±ra dan
Ä±m lÄ±
ĠDav ut
Î ¼
Ġist ism
Ġgetir miÅŁtir
ĠK atÄ±lan
Ġo d
ĠÃľÃ§ Ã¼ncÃ¼
Ġkonus unu
Ġs Ã¼z
ĠDoÄŁ um
ĠT esis
Ġbah Ã§e
ĠsÃ¶z lerine
ĠsaÄŁ lamasÄ±
ĠgÃ¶r ebilirsiniz
Ġy Ä±p
ĠÅŁekil lendir
Ġtut k
l inde
ĠgÃ¶nder diÄŁi
Ġek im
ĠteÅŁ his
ĠB U
Ġkon ulu
Ġsor gulama
ĠE bu
D Ã¼z
c ilerin
ĠdÃ¼nya daki
lÃ¼ÄŁ Ã¼nde
Ġkr onik
Ġy irmi
la tÄ±
ĠGÃ¶l Ã¼
ad d
ĠtecrÃ¼b e
laÅŁtÄ±r Ä±lmasÄ±
ĠBon us
Ġbilgilendir me
Ġper akende
ĠgÃ¶r emez
ĠalÄ±n dÄ±ÄŁÄ±nÄ±
ĠgenÃ§ ler
ĠyÃ¼zyÄ±l Ä±n
Ġn un
Ã¶r ler
ĠulaÅŁ an
Ġyap Ä±sÄ±na
M ev
Ġbak ar
ĠSEBEP LERÄ°
Ġver iyoruz
- (
ĠfÄ±kra larÄ±
ĠKat Ä±lÄ±m
n av
em eye
ĠÃ§ Ã¼r
ĠPro blem
ĠHÃ¼kÃ¼m et
em ber
y ayÄ±
27 7
len in
Ġkav ga
ĠAz iz
Ġsan Ä±rÄ±m
Ġfilm in
ĠsÃ¼r Ã¼
ĠiÅŁ lerini
iÄŁ it
Ġteknik leri
Ġtav uk
Ġkeyf ini
Ã¼ h
Ġilk Ã¶ÄŁretim
ĠR isk
ĠyÃ¼k leme
Ġmevdu at
ĠGÃ¶n der
apor t
Ġma lÄ±
Ġd k
Ġinc reas
Ġhar fi
Ġyak Ä±ÅŁ
ĠolacaÄŁ Ä±z
z ir
ĠA A
ÙĪ ÙĨ
ĠÃ¶l Ã¼mÃ¼
ĠuyuÅŁmaz lÄ±ÄŁa
Ġverir ken
26 2
ĠP arkÄ±
ĠI Åŀ
Ġmil liyet
ĠtaÅŁÄ± dÄ±ÄŁÄ±
ĠAl p
Er doÄŁan
Ġtan zim
Ġbil iyorum
36 3
Ãĸ Y
Ġter eddÃ¼t
Ġil ham
ĠBil iÅŁim
ĠIn ter
Ġyetkil ileri
ĠfarklÄ± dÄ±r
Ã¼l Ã¼yor
ĠEurope an
ĠdoÄŁ umlu
Ġpas if
Ġy ear
Ġtr en
ĠgerekÃ§ eyle
ĠtÄ±k an
il et
Ġt ra
'n ca
Ġgi ven
ĠÃ§Ä±kar dÄ±
Ġfestiv al
in ler
Ġdev ri
Ġm d
ĠÅŁirket inin
GÃ¼n Ã¼mÃ¼zde
ĠO Y
c uz
ak al
ĠanlaÅŁÄ±l Ä±r
Ġantren man
ĠI P
ĠHiÃ§ bir
ĠEb Ã»
siy um
ĠW hats
Ġtarif i
ĠT as
ine ma
ĠÃ¼y el
Ġpeyn ir
ĠS ovyet
Ġc em
iÅŁ sel
Ġkan unda
Ġf unction
ĠkÄ±ymet li
eÅŁ im
Ġpro pagan
Ġmodel ler
Ø ·
Ġetkinlik ler
Ġsan dal
Ġat Ä±ÅŁ
ĠsÃ¶yley ebiliriz
Ä±mÄ±z dan
Ġyol un
ĠKor unmasÄ±
ĠHey eti
ĠyaÅŁadÄ±k larÄ±
30 7
os una
ĠkullanÄ±l mÄ±ÅŁ
ĠSelÃ§uk lu
ĠÅŁer ef
ĠKar tal
B Ã¶yle
ĠT akip
ĠÃľniversit e
Ã¼ÄŁ Ã¼
- </
ĠTekn oloj
Ġal dat
Ġver dim
Ġincel emek
ic an
Ġv aki
ĠREDD Ä°YLE
c han
27 8
at ch
Ġilan larÄ±
ĠÃ§eliÅŁ meyen
Ġhizmet in
Ġp ers
ĠN O
ĠÃ¶z leri
ĠK ey
Ġtoplum da
Ġi OS
ĠÃ¶zel liÄŁini
ĠyaÅŁ lÄ±lÄ±k
ĠPazar lama
ĠYal Ã§Ä±n
ĠKo operatif
ĠsaÄŁ lÄ±ÄŁÄ±nÄ±
Ġen j
ĠdÃ¼ÅŁÃ¼n en
tic s
ĠA cil
ĠØ ¬
y l
Ġr Ã¼cu
os a
33 3
ek onomik
ĠyapÄ± larÄ±n
Ġan ayas
Ġf re
Ġn ic
Ġy emin
Ġkatk Ä±sÄ±
âĢĻn dan
Ġp ap
Ġkims eye
Ġst ate
Ġin formation
ĠgÃ¶ster mesi
Ġyakalan dÄ±
Ġat tÄ±ÄŁÄ±
ĠÃĩ er
Ġsahip lerine
as Ä±n
ma tr
ki f
ĠP ren
ĠEs er
Ġsistem lerinin
ĠÃĩ avuÅŁ
ĠC D
Ġal k
DÃ¼n yanÄ±n
ĠyÃ¼zyÄ±l da
ĠoluÅŁ acak
ĠBakan lar
r anÄ±
Ãľ st
Ġc ul
Ġcons ider
leÅŁtir ilmesi
adÄ±ÄŁ Ä±nÄ±z
ĠiÅŁ leyen
ĠH a
ak lar
ul muÅŁtur
ib r
ĠsonuÃ§ lara
ula tion
ĠyapÄ± larÄ±
e or
ĠgÃ¶rÃ¼n ce
G oogle
B K
Ġart tÄ±ÄŁÄ±
ĠS iyah
ĠyaÄŁ ma
ĠoluÅŁ masÄ±
ĠyÃ¼z Ã¼
Ġedilm emiÅŁtir
ĠU p
Ġma lu
An laÅŁ
ĠKullan Ä±m
ĠÃ§Ä±karÄ± larak
Ġp eygamber
ĠuÄŁ ra
Ġder t
Ġbas tÄ±r
m is
Ä°ST EM
ĠB ana
D EK
Ġavantaj lÄ±
Ġgir ip
Ġsizin le
tur es
Ġoran Ä±na
Ġchar acter
Ġkat ma
ĠRapor u
ĠÄ°k tis
Ã¼nÃ¼z Ã¼
28 7
Ġar Ä±yorum
Ġ q
il emeyeceÄŁi
Ġharic inde
l edim
ĠsÄ±k Ä±ÅŁ
Ġor adan
ĠÅŀ ikayet
Ġtaki bine
Ġval ues
Ġsistem de
ik li
Ġdon at
Ġoran Ä±nÄ±
ĠpaylaÅŁ mak
5 50
Ä±la bilecek
Ġsorun larÄ±nÄ±
ĠiÅŁ sizlik
Ġmahkem esinin
ĠÃ§alÄ±ÅŁ dÄ±ÄŁÄ±nÄ±
iliÄŁ e
Ġbulun makta
lÄ±k larÄ±n
Ġsal gÄ±n
Ġal ama
ĠBakÄ±r kÃ¶y
Ay dÄ±n
D iy
b eÅŁ
ĠtekerrÃ¼r e
Ġoyn adÄ±ÄŁÄ±
Dav acÄ±nÄ±n
Ġkonu daki
du lar
Ġmiktar larÄ±
Ġmah iyet
Ġbab asÄ±nÄ±n
Ġpar aya
ĠÄ°h tiy
Ġsistem ler
Ġdestek leyen
ĠyÃ¼k Ã¼
Ġu ÄŁur
Ġmark anÄ±n
B AÅŀ
ada sÄ±
Ġner eye
ĠsuÃ§ lar
Ġist edim
ĠBor Ã§
r aÄŁÄ±
ĠÃ¼rÃ¼n lerinin
ĠÃĸz demir
Ġceza i
Ġbilm iyorum
ĠAma Ã§
Ġtutan aÄŁÄ±
DA V
Ġkur ut
Ġsol unum
Ġs eg
Ġpoli mer
ir iz
27 3
ĠU s
Ġa fet
âĢĻ Ã¼
ĠC r
ĠKuvvet leri
Ġsen aryo
Ġrestor an
Ġsev ilen
Ġsay Ä±sÄ±na
ce pt
ĠyÃ¼z e
Ġzor la
- in
Ġolmas Ä±n
osk op
or f
Ġtoplu ma
Ġsiz lerin
B an
ĠM ate
Ġel den
ÄŁ e
Ġoyun cak
Ġkazan dÄ±ÄŁÄ±
ar ya
Ġy our
Ġileri de
US U
ĠyÃ¼z Ã¼ne
ÙĪ Ø±
Ġyas aÄŁÄ±
la j
iÅŁ imi
Ġdur ing
ĠdÃ¼ÅŁ me
Ġsp ec
Ġkir al
3 18
Ġf as
Ġkal kÄ±n
ĠÃ§ocuÄŁ a
ĠbÃ¼yÃ¼k lÃ¼ÄŁÃ¼
Ä°N DE
bar at
Ġsem t
ĠCumhurbaÅŁkan lÄ±ÄŁÄ±
Ġmak tul
ĠbaÄŁlan masÄ±
ĠÃ§evr esi
Ġt Ã¼f
ĠkazandÄ±r Ä±cÄ±
Ġtemyiz in
Ġbay rak
S it
dek si
Ġkat li
ĠÄ±s Ä±t
caÄŁ Ä±ndan
op ter
ahat tin
Ġon larca
am Ä±zÄ±
ĠkullanÄ±m Ä±nÄ±n
Ġhayat Ä±nÄ±n
Ġsok aÄŁa
Ġlezzet li
ĠendiÅŁ e
ĠW il
ĠT TK
Ġkaz Ä
ĠT ES
ĠkazÄ ±
ĠF ay
ĠTÃ¼rk men
ĠmÃ¼daf inin
ist ler
iz in
ĠY ER
E sas
T ube
Bak an
Ãľ niversit
Ġson landÄ±r
Ä±lacak tÄ±r
Ġm ul
ĠÃľ s
Ġdosy ayÄ±
Ġgir ecek
ĠOn a
Ġsiz den
ĠKo ordin
ĠgerekÃ§ eler
ĠfÄ±r Ä±n
ĠeÅŁit lik
b Ã¼r
ar lÄ±
Ġet meden
len diÄŁi
l ilerin
Ġproblem leri
Ġcihaz lar
ĠBay rak
Ġtaraf larca
27 1
ĠB Ã¼y
ist iyan
as es
we et
ĠÃ§ iÄŁ
ĠkatÄ±lan lar
Ġs ame
Ġkur duÄŁu
asyon un
as us
ĠÃľn lÃ¼
ĠbeÅŁ inci
> s
Ġyoksul luk
Ġmu c
ĠKav ram
Ġdalg alan
Ġyetk isiz
Y ayÄ±n
ĠÂ «
ĠKur t
ĠS ap
ĠD ijital
ĠuyarÄ± cÄ±
er on
ĠtoplantÄ± da
Ġh ijyen
il ar
ĠyaÅŁ Ä±nÄ±
.ht ml
ot t
Ġgetir ildi
ĠGÃ¶rÃ¼n t
Ġbah s
DoÄŁ ru
ip er
Ġstratej ileri
iz ce
Ġst art
C on
Ġner eden
Ġolur du
ĠkanÄ±t lar
ĠÃ§ey rek
Ġsev erler
Ġbiz leri
i dir
. <
ĠS AY
ĠK K
ĠsÄ±ra larÄ±nda
ĠD aÄŁÄ±
Ġdu dak
ĠGerÃ§ek ten
T h
ĠSistem leri
Ġbilg isay
Ġazalt mak
ĠalanÄ±n daki
Ġpla j
Ġinc lu
d Ã¼ÅŁ
Ġtut ulan
. Ä°
ĠyoÄŁun laÅŁ
ĠaraÅŁtÄ±r Ä±lmasÄ±
ĠbaÅŁar Ä±sÄ±
ĠN elerdir
ĠÃ¶den diÄŁini
ĠZ onguldak
ark lÄ±
Ġin Ã§
Ġbaz Ä±nda
Ġdep resyon
Ġso cial
t esi
Ġcon dition
K Ã¶
ĠC hat
Y azar
ĠÃ§alÄ±ÅŁ tÄ±ÄŁÄ±nÄ±
ĠkoÅŁul larda
LA CAK
Ġkonum da
nam enin
gu e
al th
Ġkar aciÄŁer
d alÄ±k
ĠW h
Ä±lav uz
iyor sanÄ±z
Ġyaz dÄ±
Ġevren sel
Ġmiktar Ä±na
ĠÃľ ye
g ir
Ġon larla
Ġham ur
ĠdeÄŁer ine
Ġsah ada
Ġist eÄŁinde
ess es
Ġf av
Ġistem ez
ĠÃ¶nlem leri
âĢĻ Ċ
Ġsev iyorum
ĠPlan Ä
ĠPlanÄ ±
ya ÄŁÄ±
AR K
ĠgerÃ§ekleÅŁtir di
ĠRes earch
ĠP al
ĠS n
eniz in
v anÄ±
F rans
ĠÃ¶zgÃ¼r lÃ¼ÄŁÃ¼
ĠFor eks
Ġak lÄ±
uk lu
ĠiÅŁlev sel
s Ã¶z
ver en
ĠoluÅŁ a
ĠÃĩev rim
um uÅŁ
Ġden en
Ġsat Ä±lan
Ġd iv
DAN IÅŀ
ĠmÃ¼h Ã¼r
Ġsent ez
ĠMev cut
ob i
p az
m iye
Ġad Ä±mÄ±
. *
Ġar tÄ±yor
Ġinti har
Ġist an
Ãĸr nek
Ġrapor unun
s av
ĠyaÅŁan dÄ±ÄŁÄ±
Ġver ip
Ġkav g
Ġborc un
Ġc ild
Ãľ T
Ġbulundur ma
ĠbaÄŁlan t
Ġsay Ä±sal
ilm esiyle
Ġyap acaÄŁÄ±z
ir et
ĠtaÅŁÄ±nmaz Ä
ĠtaÅŁÄ±nmazÄ ±
ĠaydÄ±n latma
ĠM ini
ĠS ystem
OL O
29 3
ĠYak laÅŁÄ±k
ĠZ eyn
Ġk ep
ĠMahkem eleri
Ġko ca
' N
Ġver ilerine
Ġmut f
ĠÃ¶rgÃ¼t sel
oli t
53 1
ĠSÃ¼r ekli
l ut
ilm eyen
Ùİ ÙĦ
ĠdeÄŁiÅŁtir ilmesi
âĢĻ lik
lim p
em be
Ġmal larÄ±n
Ġmemnun iyeti
5 30
ĠHerk es
] ,
Ġelektr on
Ġpro g
Ġg o
Ġtaraf Ã§a
Ġiler iye
ĠBir lik
. ),
Y K
ĠdÃ¼ÅŁÃ¼nc eler
ĠmeÅŁ hur
Ġedil em
Ã¶r en
Ġkolay dÄ±r
Ġet menin
ĠÅŁimdi den
y sanÄ±z
is on
ĠÃ§Ä±kar tÄ±larak
op h
ĠÃ¶de diÄŁi
ĠKomutan lÄ±ÄŁÄ±
Ġnih ayet
ĠM U
Ġer dir
Åŀ irket
ĠÃ§alÄ±ÅŁ masÄ±nda
ĠsÄ± Ã§
id es
Ġistem ek
Ġtarih lerinde
Ġaley h
Ġdestek ler
Ġus Ã»l
ĠKanunun a
Ġbelg enin
Ġhakk an
Ġede ceÄŁini
Ġist eÄŁine
ĠÃ¼rÃ¼n lerini
Ġun van
Ã¼l lÃ¼
iyat i
Ġsahib ine
ĠyaÅŁam Ä±n
ĠdeÄŁiÅŁ ir
ĠTÃ¼rk ler
ĠyatÄ±rÄ±mcÄ± larÄ±n
ĠaÃ§Ä±kla masÄ±nda
Ġtoplum u
Ġsonuc unu
ĠkullanÄ±l mak
tir af
ĠsuÃ§ lu
Ġyorum u
Tek n
f il
Ġi v
ĠI N
ĠgerektiÄŁ inden
ĠyaÅŁam Ä
ĠyaÅŁamÄ ±
4 34
K Ã¼Ã§Ã¼k
Ġincelen miÅŁtir
ĠaÃ§ Ä±lmÄ±ÅŁtÄ±r
k Ã¶
Ġinsan larla
ĠÃľrÃ¼n leri
Ġtesli mat
ĠdeÄŁerlendir ilip
M adde
Ġpart ner
ĠKol ay
Ġan t
y umu
el eme
Ġhak lar
ĠbaÅŁarÄ± lar
p on
c usu
ĠDÃ¼z ce
ĠÃ§Ä±k Ä±ÅŁÄ±
Gir iÅŁ
ĠTec hn
ĠHaf ta
Ġbilg ilerinin
Ļ Ĥ
ec tiv
Ġyap Ä±ÅŁ
Ġgen er
Ġkoy mak
ĠyaptÄ±k larÄ±nÄ±
ĠparÃ§ alan
Ġkal mÄ±ÅŁtÄ±r
Ġgir miÅŁtir
Ġbelir leme
ĠB os
mel iyiz
ĠyayÄ±n landÄ±
27 6
ĠkÃ¶y lÃ¼
Ġn or
Ġpar amet
Ġayr Ä±lÄ±r
Ä±n maz
Ġetkiley ici
o ther
Ġok ulu
Ġak Ä±ÅŁÄ±
ĠbaÅŁ kenti
Ġilg isini
Ġart maktadÄ±r
Ġmi dir
ĠtecrÃ¼b eli
iyet in
ĠDevlet leri
ur al
Ġet mesini
Ġo ur
Ġhey kel
ĠSiz in
Ġgetir ilmiÅŁ
og en
l Ã¢
ĠyaÅŁ Ä±ndan
Ġolma mak
Ġhaft anÄ±n
3 25
ĠO ne
ĠS te
ilm esinden
Ġdem o
37 3
Ġyeten eÄŁi
ĠrÃ¶ portaj
per im
ĠhemÅŁ ir
Ġavantaj Ä
ĠavantajÄ ±
yor uz
ĠKar deÅŁ
eb e
Ġiddianam ede
ĠD u
Ġyararlan mak
Ġseb ze
Ġotur an
ĠBÃ¼yÃ¼k el
Ġhiss ede
bul ans
M P
ĠKarar Ä±nÄ±n
H iÃ§
ĠinÅŁ allah
b re
ĠÅŀ eker
Ġfaaliyet ler
iy onu
ĠalÄ±n ma
ĠendÃ¼str iyel
A z
Ä°Y ET
ĠgÃ¼v eni
OP LAM
c ap
men tal
ĠÃ§eÅŁ idi
Z aman
Ġesas lar
Ġbar dak
Ġseviy eye
ev e
il iÅŁ
ĠiÅŁyer inin
ĠDair eleri
D Ã¼ÅŁ
Ġotur ma
ĠD ub
Ġyol lar
ĠBil dir
os unun
ĠS ad
Ġgrub una
Ġeden lerin
ĠMan agement
Ġinsan lÄ±k
ey t
D F
ash ington
o te
Ġm eb
asyon el
ĠbÃ¶lÃ¼m lerinin
Ġakses uar
ĠgÃ¶zÃ¶n Ã¼nde
ĠsÃ¼rdÃ¼r en
Ñ ķ
Ø ¶
ĠÃ§an ta
ĠEr dem
Ġbiz den
ĠÃ¶l dÃ¼
Ä±m larÄ±
Ġdam la
bak anÄ±
ĠbaÅŁlama dan
> f
Ġat ma
r aki
. y
Ġbr oker
-K ur
ĠBelediy espor
ĠÃĩev r
m esin
ĠE p
Ġsayf asÄ±nda
Ġh aÅŁ
ĠÙģ ÙĬ
ĠsÃ¶yl ediÄŁi
ĠaÃ§ Ä±lÄ±r
ĠkullanÄ±cÄ± larÄ±na
Ġtrans feri
ĠMah kÃ»miyet
ĠmÃ¼dd et
Ä°T Ä°M
ĠaÃ§Ä±k lÄ±k
Ġk in
ĠÃ¼y elerine
Ġediyor lar
ĠgeleceÄŁ e
Ġw ell
ĠÃ¼retim inde
Ġhastal Ä±ÄŁÄ±n
ĠdÃ¶n en
ĠE Äŀ
Ġid daa
ĠK iÅŁi
Ġsay Ä±n
ĠhÃ¼km Ã¼nde
Ġfazla dÄ±r
Ġ\\ Ċ
ĠS Ã¼n
Ġyar a
Ġbur un
ar r
ĠKad Ä±kÃ¶y
el ler
Ġver y
ĠK Ã¶rf
Ġbulgu lar
Ġdekor asyon
ĠT MK
ad ing
ĠLond on
: ASLÄ°YE
I NA
Ġinan dÄ±rÄ±cÄ±
erg y
ĠfotoÄŁraf Ä
Ġal dÄ±r
ĠfotoÄŁrafÄ ±
ĠbÄ±rak Ä±n
Ġgecik me
ĠE st
ĠC engiz
35 2
ĠÃ¶z eti
Ġkural lara
siyon u
Ġmesaf ede
ĠyÃ¼rÃ¼rlÃ¼k ten
Ġpres ent
b le
Ġof f
ĠyanÄ±l gÄ±
luÄŁ undan
ĠTak Ä±mÄ±
Ġsav cÄ±sÄ±nÄ±n
M Ã¼ÅŁter
ĠJap on
Ġay Ä±nÄ±n
Ġpolitik alarÄ±
Ġoy una
Ġart tÄ±kÃ§a
00 2
Ġindir imi
Ġbur adaki
Ġyenilik Ã§i
Ġbilin meyen
ĠbaÅŁk asÄ±na
ĠBil in
Ġz afer
ĠKÄ±r mÄ±zÄ±
ey ecek
EC EK
ĠyÃ¶n Ã¼yle
Ġk Ä±lan
Ġ( *
Ġevrak Ä
ĠevrakÄ ±
Ã¼s Ã¼ne
AL T
Ġre al
an ik
Ġdo landÄ±r
Ġfel aket
Ġistan bul
Ġcon tr
ĠiÅŁ siz
Ġref ah
om ent
ĠartÄ±r Ä±lmasÄ±
Ġyaz an
Ġedilm emiÅŁ
ÅŁ en
Ġokul da
Ġkir alan
ĠtÄ±k layarak
Ġcen net
ĠGeÃ§ miÅŁ
S tr
ĠÄ°ÅŁlem leri
di a
larÄ±nÄ±z da
Ġbelirt tiÄŁi
ĠÙ ĥ
Ġnef ret
ĠilaÃ§ lar
K az
± cÄ±sÄ±
av v
Ä ±cÄ±sÄ±
Ġe uro
ĠG id
Ġolacak sÄ±nÄ±z
27 4
ĠÄ°n ce
Ġtemiz liÄŁi
D Ä±ÅŁ
D ok
ĠsÄ±r al
il ebilecek
od ik
ĠGel iÅŁtirme
Ã¼l mesine
Ġsat an
iv es
ĠAl Ä±n
T EMYÄ°Z
ĠmÃ¼vekkil ine
ĠE V
Ġl es
ĠsavaÅŁ Ä
ĠsavaÅŁÄ ±
Ġper de
ograf i
Ġor anÄ±n
Ġil im
Ġal Ã¼minyum
Ġteor ik
matr ix
ĠMÃ¼ st
f ect
ĠiÅŁlem lerinde
Ġhey eti
Ġnis p
ĠÃ§alÄ±ÅŁ tÄ±
Ġev lat
ĠsÃ¶z lerini
ĠdeÄŁerlendir ilen
KAR ÅŀI
r Ã®
Ä±p lak
ĠO s
F orex
ĠbaÅŁla masÄ±
Ġsos yo
ĠM ekt
ĠgenÃ§ lerin
Ġmalz emesi
Ġsor usu
Ġkur tu
Ġu tan
Ġedil emeyeceÄŁi
ĠTÃ¼rk Ã§
OB Ä°
Ġkent in
Ġb eh
ĠmÃ¼ f
ĠsÃ¼r dÃ¼
Ġbank aya
ab Ä±n
M Ã¼
Ġteb liÄŁi
Ġor aya
ĠyatÄ±rÄ±m lar
ĠTel ekom
ĠsaÄŁ ladÄ±
Ġbilgiler le
Ġil av
ĠsuÃ§ larÄ±n
Ġb itim
ĠB AK
Biz im
Ġdokunulmaz lÄ±ÄŁÄ±nÄ±n
ĠaÃ§ abilir
s anÄ±n
ĠSer maye
t le
Ġay et
ĠKur al
Ġedin me
al le
ĠEl bette
ĠG ol
Ġkes kin
S or
ĠTaÅŁ Ä±ma
Ġfor um
ĠAdÄ± yaman
evi ew
ul duÄŁu
al anÄ±
ab ey
ĠÄ°Ã§ tihadÄ±
s Ã¼n
Ġtazminat Ä±na
Ġeylem lerin
ĠsÃ¶z cÃ¼
Ġrisk ini
ĠRes im
Ġplan lanan
Ġedeb ilmek
Ġ @
Ġter im
per yal
Ġgit tiÄŁi
Ġot uz
al ma
$ )
Ġb oÄŁaz
Ġem anet
ĠÃĩ etin
ĠdÃ¼zenlem esi
eÄŁ iyle
ĠNit elendirme
ĠÃ§ocuk larÄ±nÄ±n
Ġbul unu
kon usu
T aÅŁ
ch er
lay abilir
ĠdeÄŁer in
H an
Ġrisk li
Ġtev di
Ġsub j
45 6
Ġ !
Ġver mey
Ġyaz Ä±lÄ±mÄ±
Ġsign ific
t Ã¼m
ediÄŁ inden
Ġkar n
ĠAl l
Ġoper asyonu
Ä±l mayan
Ġden ize
Ġyarat mak
Ġter min
âĢ ²
osk ova
ber al
ĠÃ¼lk elere
ĠyaÅŁ amaya
ĠGÃ¼n dem
Ġtesi sat
Ġbit coin
ĠÃ¶t esinde
Ġmak ale
Ġgetir me
Ġform Ã¼l
ĠhiÃ§bir isine
Ġdeney sel
Ġherk esi
il em
ĠÃ§Ä±k tÄ±ÄŁÄ±nÄ±
ĠN Ã¼fus
ĠU N
Ġcema at
ĠinanÄ±yor um
Ġheps ini
ĠdÃ¼z lem
Ġmotiv asyon
ĠG ece
mek tir
ch en
ĠdÃ¼ny asÄ±nÄ±n
ola ta
ĠanlaÅŁÄ±l dÄ±ÄŁÄ±
ĠaÃ§Ä±k lanmasÄ±
laÅŁ manÄ±n
m g
ĠgeÃ§miÅŁ te
ĠalÄ±ÅŁkan lÄ±k
ĠÅŁehir de
ĠD ost
Ġduyg usu
K UR
ĠÄ°s veÃ§
larÄ±n ca
c Ã¼m
leÅŁ mesi
Ġdestek li
ĠÅŁart larÄ±nÄ±n
ĠgÃ¶zlen miÅŁtir
Ġp lay
ist ics
Ġdenetim e
Ġw ay
ĠkÄ±sm Ä±n
ĠVer ilen
Ġp et
Ġen zim
ĠAs keri
e matik
ĠKan ada
Ġkur t
ĠBer lin
ĠgerÃ§ekleÅŁtir en
Ġtel af
ac asÄ±
S adece
il at
ĠÃ¶ p
ĠgÃ¶rÃ¼n Ã¼mÃ¼
ĠÄ° Z
ĠMÃ¼hendis liÄŁi
** **
M ed
Ġtar ama
ĠB eh
ĠgerÃ§ek Ã§i
Ġtah k
H az
Ä°ngil tere
ĠÃ¶n cÃ¼
Ġsuret le
iy enin
mÄ±ÅŁ lar
ĠBek ir
- I
Ã® m
B ul
Ġt uvalet
ĊĊ Ċ
Ġniyet li
ya ÄŁ
ĠÄ°sk ender
Ġay Ä±n
ĠT her
Ġalan larÄ±nÄ±n
Ġuygulan abilir
v iv
ĠcoÄŁraf i
ĠiÃ§ me
Ġuygul ay
Ãľ n
Ġres earch
ĠbaÅŁlat tÄ±
Ġbirbir leriyle
ĠyÃ¼r ek
Ġihtiyac Ä±nÄ±
ĠÃĸd eme
Ġbildir ilen
ah isar
Ġb ro
Ġil ama
liliÄŁ ine
o ley
Ġtop la
Ġbelirlen ecek
Bil g
ĠÃ§ Ä±l
ĠHik ay
ĠC ap
Ġmer diven
ĠÅŁ ebek
tÃ¼ el
ĠK UL
ĠUz ak
Ġal ev
ĠKad ir
ody um
Ġres men
dÄ±ÄŁÄ±nÄ±z da
em inin
ey z
Ġengel lemek
ĠbaÅŁlangÄ± c
Ġpar asÄ±
ĠiÅŁ lerde
ĠSu udi
_ j
Ġp oss
Ġyar arÄ±
ĠkaldÄ±r mak
- r
ĠE lem
biy otik
Ä±l dÄ±ktan
ĠC ity
ĠD am
ep ar
ĠhÃ¼rriyet inden
Ġat Ã¶ly
ĠmÃ¼t ev
ur s
ĠEtk isi
ĠdeÄŁerlendir meye
Ġn r
Ġsey ret
Ġotop ark
ĠZ eytin
art Ä±n
ĠÃ§ek erek
ĠaÄŁ Ä
Ġtedav isinde
Ġs Ã¼l
ĠÅŁart larda
ĠaÄŁÄ ±
Ġar Ä±n
ol os
ĠFa aliyet
lan maya
r Ã¼
ĠgÃ¶ster ilerek
ĠAlan ya
Ġverilm esinin
Ġsek si
Ġhesab Ä±nÄ±za
sar ay
ĠfazlasÄ± yla
ĠkuruluÅŁ lar
Ġmas ke
Ġgeb elik
ĠdÃ¼ÅŁtÃ¼ ÄŁÃ¼
Ġmadd elerinin
res ent
Ġtoplam Ä
ĠtoplamÄ ±
Ġmuay en
Ã¼ cut
Ġd iyorum
Ġ* Ċ
ĠyÄ±k an
ĠyerleÅŁ ik
eler indeki
ĠbaÅŁ lÄ±
ĠaraÅŁtÄ±r masÄ±
ĠetmiÅŁ ti
Ġuygulan makta
ĠC EO
ĠDÃ¶n emi
Ġbir ÅŁey
Ġm eme
ĠK aÅŁ
Ġal makta
A c
K Ä
ĠTip i
Ġen g
ĠC al
Ġlik e
Ġfi ilin
Ġic in
ĠadÄ±m larÄ±
Ġuygula masÄ±nÄ±
ĠGÃ¼ven ilir
ilm eleri
ĠA ta
Ġhasta lar
ĠÃ¶ldÃ¼r meye
Ġhoc am
Ġk Ä±t
ĠSci ence
T Ã¼k
ĠiliÅŁk iye
40 7
Ġy atan
ĠK A
ĠSON UÃĩ
Ġay lÄ±ÄŁÄ±
ĠÃ¶ te
Ġdez avantaj
3 37
Ġa ge
Ġt ir
ĠsaldÄ±r gan
u li
44 4
ĠiÃ§ ten
! "
Ġkans eri
c alÄ±k
ĠFÄ±r at
Ġs ade
Ġbirik im
Ġt Ã¢
Ġolas Ä±lÄ±ÄŁÄ±
ĠyaptÄ±k tan
ĠdÃ¼ny asÄ±
ĠK omp
ĠyaÄŁ lÄ±
GeÃ§ tiÄŁimiz
Ġa lar
> Åŀ
Ġifad esini
Ġdev ret
Ġsem ptom
28 4
ĠkuruluÅŁ larÄ±nÄ±n
Uy gulama
ĠmÃ¼ÅŁterek en
etr ik
ĠMeydan Ä
ĠMeydanÄ ±
Ġtedbir i
et iyle
ĠFaz la
Ġes asÄ±
ĠgÃ¼c Ã¼nÃ¼n
KÄ ±
Ġkaynak lanmaktadÄ±r
Ġbu laÅŁ
Ã¼le cek
b iye
ĠO ran
ĠÄ°z mit
ĠO la
ĠK oz
ĠH ÃľKÃľM
illi am
Ġcep he
iz li
Ġkitap larÄ±
Ġil etim
Ġak ciÄŁer
Ġh ow
lÄ±lÄ±ÄŁ Ä±nÄ±
ĠhÃ¼kÃ¼m de
ros s
b ers
ĠKarÅŁ Ä±lÄ±k
b ed
pan ya
Ġl Ã¼z
ĠOto bÃ¼s
M B
Ø§ Ùħ
H erk
ĠK Ã¶k
ĠÃ§Ã¶z mek
ad is
ĠAl bay
ĠâĢ Ķ
Ġte ach
{ align
ĠAy ÅŁe
} ,
Ġkor elasyon
Ġis minin
ĠÃĩel ebi
Al tÄ±n
ĠalÄ±n mak
Ġdo mates
gi on
ĠÃĩeÅŁit li
Ġr ot
ĠAd ay
ĠH y
or at
ik ler
ĠyÃ¼klen ici
ĠÃ¼st e
ĠyÃ¶ntem lerle
ĠgÃ¼n dÃ¼r
EN T
ĠÃĸ dem
Ġkur uÅŁ
X X
yon u
ĠY unus
ĠgÃ¼zerg ah
ĠdÃ¼ÅŁ er
Ġmuh asebe
il ding
ĠÄ°liÅŁk iler
kÃ¼ ler
ÄŁr ul
Ġay a
Ġters ine
ĠIs parta
Ġal aÅŁ
M EK
ĠdÃ¼ÅŁ mesi
Ġbelir ley
arÄ±n daki
:** Ċ
Ġtutuk landÄ±
ĠalÄ±n madan
Ġat mak
Ġver imi
Ġvak ti
Ġzor dur
Ġadam Ä±n
Ġsh ow
ĠH is
in da
ARA F
ĠÃĸ y
M R
Ġh a
M et
ĠÃĩ orum
ĠkoÅŁul larÄ±nda
Ġkim liÄŁi
35 5
Ġkab a
3 23
ĠoluÅŁtur uyor
Ġf ut
.C eza
ĠAn ket
Ġdurum dan
qu es
ĠC ovid
ĠÃĩ oÄŁu
ĠBat man
Ġsak Ä±n
Ġimk Ã¢nÄ±
ĠKap Ä
ĠKapÄ ±
Ġyap acaÄŁÄ±nÄ±z
âĢĻ an
ĠbaÅŁlangÄ± cÄ±
ĠV it
ĠEr ol
Ġn ar
aÃ§ Ä±k
Ġkamer alÄ±
ĠhazÄ±r lanmasÄ±
Ġcet vel
ch it
Ġres ult
r t
Ĩ Ĵ
Ġgider ken
> Î
j ik
G alatasaray
Ġoyunc usu
Ġortak lÄ±ÄŁÄ±n
ĠG ec
ĠR ize
Ã¢ v
ĠMa x
ĠhazÄ±r ladÄ±ÄŁÄ±
DavalÄ± lar
Ġbulun abilir
B S
ĠB ed
g erek
Ġhorm on
iyor sa
Ġlider lik
Ġekonom isi
ĠÄ° sa
Ġil ah
Ġbulunma dÄ±ÄŁÄ±nÄ±n
ĠamaÃ§ larÄ±
lerimiz de
Ġpotansiy eli
Ġedil ecektir
ma in
f alt
Ä±ÅŁ Ä±n
ĠniteliÄŁinde dir
ĠarÅŁiv inde
Or ta
Ġavantaj larÄ±
Ġoyuncu larÄ±
ĠÅŁ an
bir leÅŁme
Ġtat bik
ĠamaÃ§ lar
Ġd ul
................................ ................
ĠCh em
ĠEr men
ĠBas Ä±m
DANIÅŀ TAY
ula bilir
Ġkayded ildi
ub at
Ġedilm esinin
ĠDav acÄ±nÄ±n
ĠsÃ¶zleÅŁ meye
ĠdeÄŁiÅŁiklik leri
s ev
âĢĻ la
Ġfor masyon
ĠB lu
ler imi
ĠGÃĸR EV
Ġ á¸
P SS
Ġma m
ĠkaldÄ±r Ä±ldÄ±
-- -
Ġilgilendir en
Ġkurtar ma
Ġunut ulmaz
atÃ¶r Ã¼
Ġb a
Ġalacak larÄ±
Ġakr aba
ĠÃ§ il
pan y
Ġpe ople
Ġal gÄ±lama
Ġpuan larÄ±
Ġkop yal
at ih
ĠTarif i
ĠyaÅŁ adÄ±
ĠM ERK
M erkez
Ġmet odu
ĠI M
ab Ä±nÄ±n
Ġsay gÄ±n
4 32
ĠF re
Ġharc Ä±ndan
Ġcom mun
ĠU m
ĠsÃ¶zleÅŁ mesine
Ġh y
ul us
A dana
g Ä±sÄ±
Ġtut arak
Ġaktiv ite
ĠÃľl kemizde
Ġteknoloj ileri
Ġokuy an
ĠÅŁimd iye
ĠB Ã¼t
iÅŁ meli
Ġgetir mektedir
ĠC a
Ġy el
Ġt v
3 13
LE Åŀ
K ol
he p
Ġy ama
ri ed
Ġprogram lar
o ta
ĠBen zer
Ġecrimis il
M Ä°Åŀ
ĠW al
ĠÃ§evr eye
li ed
Ġli mon
ĠYap Ä±lmasÄ±na
Y an
ĠMat ba
Ġkaynak larÄ±n
- ...
ĠdeÄŁer lerin
ĠH oÅŁ
Ġmaliyet leri
la masÄ±na
Ġtemel inde
Ġkal kÄ±nma
ĠÃ§alÄ±ÅŁ maktadÄ±r
ĠOL AY
Ġnis pi
Ġuygu lamak
af t
Ġkats ayÄ±sÄ±
ĠfaktÃ¶r Ã¼
ĠT Ä°
ĠP etrol
ĠgÃ¶zet ilmesi
ĠyaÅŁam Ä±ÅŁ
ĠYap Ä±lÄ±r
Ġted iye
Ġihtil af
ĠhÃ¢l Ã¢
ĠBur ak
Ġistism arÄ±
ĠS am
ĠdeÄŁer inde
ĠSal onu
ĠkullanÄ±m Ä±nÄ±
ĠE tik
Ġgetir ecek
ĠÃ§alÄ±ÅŁ mayÄ±
Ã§ ilere
Ġm Ã¼lt
4 20
ĠgeÃ§ ecek
Ġbulundur ul
Ġtav an
Ġwith in
ĠKÃ¶ pr
ĠÄ°ÅŁ Ã§i
Ġlay Ä±k
Ġolsay dÄ±
Ä°T ESÄ°
/h Ã¼kÃ¼m
ĠP en
BaÅŁ bakan
ĠM ol
ceÄŁ iz
Ġoran tÄ±lÄ±
ĠOn ur
eh ri
ĠOy unlarÄ±
ĠÃĩ ukur
ĠÃ§ amaÅŁÄ±r
ĠoluÅŁ uyor
Ġettir en
ĠparÃ§a lar
TA Åŀ
Ġbirbir ini
ĠÅŁ eri
ĠsoÄŁ ut
Ġip uÃ§
Ġbulundur ularak
ĠgeÃ§ in
ĠgÃ¼Ã§ leri
Ġtamamlan Ä±ncaya
ĠDevlet in
ĠyazÄ± da
ĠcoÄŁraf ya
ĠkadÄ±n lara
Ġf rag
Ġuygulama yÄ±
Ġyol larÄ±nÄ±
y Ã¶n
Ġlaborat uvar
mas ya
ak s
Ã§ek mece
n es
ĠkarÅŁÄ±laÅŁtÄ±r Ä±ldÄ±ÄŁÄ±nda
Ġp aketi
ĠÄ° YÄ°
ĠB eni
Ġk ek
ant in
Ġbildir ilmiÅŁtir
ress ion
Ġeylem leri
ĠH Ã¼kmÃ¼n
ĠgÃ¶rÃ¼ntÃ¼ ler
Ġver diÄŁimiz
Ġdiy ebiliriz
bil eceÄŁini
ÄŁ Ã¼nde
leÅŁtir mek
Ġem lak
B Ä°L
ĠÃ§alÄ±ÅŁ acak
Ġkur alÄ±
ĠfÄ±rsat larÄ±
ĠE li
ĠgÃ¶rÃ¼ntÃ¼ leri
Ġuygun luk
Ġolan larÄ±
Ä±cÄ± lar
Ġtop u
Ġyet mez
Ġ lam
ĠÅŁ Ã¶
3 31
ĠtanÄ±n mÄ±ÅŁ
ĠdÃ¼ÅŁÃ¼n me
ĠÄ°s viÃ§re
ĠAr asÄ±ndaki
Ġhal ini
Ġu su
ĠM aliyet
D o
Ġruh sal
S h
ĠS os
K urum
alÄ± lar
em eler
Ġaktar an
ĠP e
ik e
ĠIÅŀ Ä°D
lam Ä±yor
T EM
ĠbÃ¶lg elerinde
fet tiÅŁ
/ a
ĠKit abÄ±
ret tin
th iÅŁ
ĠÃ§alÄ±ÅŁ masÄ±nÄ±n
Ġid rar
ĠZ iya
c unun
Ġon ar
ĠK i
Ġsoru ya
ĠS OR
Ġolduk tan
ÅŁ a
Ġbenzer lik
ĠDEÄŀ ER
ĠT EM
Ġbitk isel
ĠÃ§Ä±kar an
ĠFar uk
Ġey leme
ĠAd nan
ĠS end
ĠHow ever
ĠYÃ¼z yÄ±l
ak t
Ġtedbir inin
F or
Ġmerkez leri
ep e
ĠtÃ¼m Ã¼
ĠKÃ¼r esel
om b
M ut
duc tion
ĠKur u
Ġek ledi
ĠÃ§ adÄ±r
Ġedilir ken
Ġolmayacak tÄ±r
k r
Ġk ula
Ġkli ma
34 1
T H
ĠH ab
Ġp ower
Ġbas ketbol
Ġdir ektÃ¶r
Ġmer a
Ġtapu da
ĠY AZ
Ġme asur
ĠAlan Ä
ĠAlanÄ ±
ĠKur uma
Ġbanka larÄ±n
Ġmahkem esinden
eÄŁ en
ĠaÅŁ Ä±k
Ġtan Ä±r
il k
P ay
iy eler
ĠK astamonu
ĠH Ã¼rriyet
ĠEk rem
ĠArap Ã§a
ĠÃĸÄŁrenc iler
d unuz
ĠdÄ±ÅŁarÄ± dan
Ġkazan mÄ±ÅŁ
ĠY eri
38 0
ĠsÄ±r alama
ĠdeÄŁer lerini
Ġkullan Ä±lÄ±yor
. t
del ta
ĠÃ¶n der
Ġhis si
_ t
Äŀ Ä°
yap Ä
yapÄ ±
Ġmo tif
ĠyÃ¶netic isi
Ġincelem esine
ĠYÄ±l lÄ±k
ĠD EV
Ġar tÄ±
ĠbaÅŁlay Ä±p
ĠI ÅŁ
ĠÄ° laÃ§
ĠC el
Ġhar ici
la ÄŁ
Ġpo int
Ġsaptan masÄ±
ĠÃ¶zellik lerinin
ĠgÃ¶zet ildiÄŁinde
- Ä°
Ġsit elerinin
Ġver mez
ĠÃ§eliÅŁ k
.f Ä±k
ĠRab b
Ġtal ima
ĠÃ¶ner iler
Ġbo t
Ġsal onu
/ g
ĠbÃ¶lg esine
Ġar anan
Ġmuv af
ĠHizmet ler
Ġcen az
ĠkuÅŁ ku
p le
de di
Ġkal maz
ĠmÃ¼ÅŁ teki
gam ma
3 29
ĠMuh ar
ĠsaÄŁlay abilirsiniz
dek s
ĠÃ§ Ä±r
Ġfaaliyet i
ĠbaÄŁÄ±r sak
ĠM y
y aka
o larak
Ġk lor
ĠGER EÄŀÄ°
ĠKap alÄ±
f ir
ĠyÃ¶ntem ine
el isiniz
F acebook
ĠgerÃ§ek te
ĠG roup
al aÅŁ
Ġistem in
at her
Ġmuk av
Ġak tÃ¶r
Ġbal kon
Ã ¡
os unu
ĠMil yon
G Ã¶
ak e
ĠÃ§ok lu
ĠdÃ¼zen lemek
r ho
da ha
ĠT rade
ĠE z
Ġkullan dÄ±klarÄ±
ĠdavranÄ±ÅŁ lar
Ġanla tÄ±
b Ä±rak
Ġma teri
Ġp ur
Ġet mesine
Ġsu da
ĠBur adan
lo y
GÃ¼ncel leme
ĠSanÄ±k lar
ĠsÃ¶zleÅŁ mede
Ġbedel ini
Pro gram
Ġdosy asÄ±na
ĠuÄŁr adÄ±ÄŁÄ±
Ġbec eri
Ġm enkul
ĠaÃ§ mÄ±ÅŁ
Ġkad er
Ġmakin eleri
ĠF eth
> Z
Ġcon c
ĠP amuk
V EK
Ġs ex
ĠbaÅŁla dÄ±k
Ġgen eral
ĠsonuÃ§ larÄ±nÄ±n
lÄ±yor um
ĠtÃ¼r Ã¼ne
>F igure
Ġal manÄ±z
Ġtek stil
am m
ĠT anÄ±t
E x
ĠoluÅŁ madÄ±ÄŁÄ±
ĠyÃ¶ntem le
tik lerini
ĠK amp
ĠT Ä±k
ĠdeÄŁiÅŁ mektedir
Ġeser leri
ĠK AN
ĠyapÄ±lacak tÄ±r
N ot
L e
ĠY AÅŀ
ĠG it
Ġb ilerek
35 9
T P
Ġtedbir ler
Ġcez ayÄ±
Ä±lÄ±ÄŁÄ±n ca
Ã¼ d
Ġcomp ar
Ġkim dir
ĠbÄ±rak tÄ±
liliÄŁ in
Ġfaaliyet lerinin
ĠsonuÃ§ larÄ±n
Ġob tain
ĠgÃ¶rÃ¼ÅŁ lerini
ĠC emal
Ġlir aya
en tial
ĠarkadaÅŁ Ä±m
ĠÃľ z
Ġz ev
ĠAn ti
leÅŁ menin
K onya
Ġdavran Ä±ÅŁÄ±
Ġkurul duÄŁu
Ä±lmÄ±ÅŁ tÄ±
Ġyuvar lak
ĠtÄ±k la
Ãľ cret
lo ad
ĠkÃ¶ken li
D ep
K atÄ±lan
ĠÙħ ÙĨ
Ġvary ans
ĠgÃ¼n lerinde
Ġbahis leri
Ġne ed
Ġbom ba
ĠDair ece
ĠÄ°st ih
dir ler
Ġilk eler
iz de
Ġedil eceÄŁi
Ġbek lemek
6 18
maz on
ĠkarÅŁÄ±laÅŁtÄ±r Ä±lmasÄ±
Ġtab aka
34 4
Ġgazet eci
Ġpro per
ĠalÄ±n abilir
Ġoran larÄ±nÄ±n
al eti
ĠFat ma
38 8
ĠUn ut
ĠgeÃ§ im
gel en
Ġrapor larÄ±
man n
ey di
duÄŁ una
ĠgerÃ§ekleÅŁtir ilecek
ĠdeÄŁiÅŁtir ilmeksizin
ĠÅŁah sÄ±n
iir t
ĠAn tik
H ep
ĠyÃ¶netic iler
Ġno ter
ĠKaÃ§ ak
K O
ĠgÃ¶ st
ĠK elim
ĠgerÃ§ekleÅŁ ir
g usu
Ġolma mÄ±ÅŁtÄ±r
F in
Ġver eceÄŁi
Ġbak mak
iy en
k az
Ġkon t
Ġkategor isinde
ĠyatÄ±r Ä±mÄ±
Ġf ound
ĠTok at
ĠSey ahat
Ġv iz
ĠÅŁek liyle
ĠkaÄŁÄ± dÄ±
Ġsayf asÄ±
Ġem ti
or a
Ġadres e
Ġkats ayÄ±
um e
Ġon lardan
n da
dÄ±r an
Ġs tor
Ġbozuk luÄŁu
ok op
ĠA ÄŁrÄ±
Ġkarar lara
ĠCih az
ĠN as
ĠIn ternet
Ġv il
Ġsit emizde
Hay Ä±r
tim um
ab inde
ĠW ord
Ġsal t
Ġi tiraf
Ġplan larÄ±
ĠSigort asÄ±
DA Åŀ
Ġtarih in
Ġte ma
f az
Ġverim lilik
ĠbÃ¼yÃ¼y en
amÄ±z Ä±n
D ER
Ġres en
r ok
ĠDÃľÅŀÃľN ÃľLDÃľ
Ġfiyat lÄ±
ĠdÃ¼ÅŁÃ¼n mek
ver engi
el a
Ġzih n
kÃ¼ dar
'n ci
Ġkork ut
ĠBulgar istan
> Kar
p e
ĠOr anÄ±
Ġko yan
Ġtut ularak
C C
Ġmotor u
ĠbÃ¶lÃ¼m leri
Ġkab losuz
bo x
ĠYap Ä±lmasÄ±
ĠyapÄ±l madan
ed din
Ġsorumlu dur
mas a
Ġotor it
ĠMahkem esinde
Ġb ag
ĠNur i
Ġval ue
Ġaral Ä±ÄŁÄ±
v is
ĠdoÄŁal gaz
Ġpp m
ĠdoÄŁr usu
Ãĩ Ã¼nkÃ¼
Ġkur ucusu
Ġdurum dur
ĠÃĩocuk lar
B eÅŁiktaÅŁ
F enerbahÃ§e
ĠL ider
Ġbec ause
ĠNaz illi
Ġqu es
At atÃ¼rk
Ġyaz mak
Ã§ ika
el ektr
Ar kadaÅŁ
ĠiÅŁ ine
ĠP lus
ĠY Ä±k
cÄ± oÄŁlu
D Y
aÄŁ an
g t
Ġif tar
V ERS
ĠgÃ¶r mesi
ub lish
Ġel ini
GeÃ§ en
iy o
ĠAr da
ik asyon
ĠeÅŁ inin
ĠÃ ©
Ġgerektir meyen
Ġsertif ika
ĠAv rup
ĠD aÄŁÄ±t
in ess
Ġgec esi
Ġtut ma
Ġsorun lara
ĠaraÅŁtÄ±r manÄ±n
ĠgÃ¶rÃ¼nt Ã¼len
Ġhesap lanmasÄ±
Ġente gr
kin lik
Ġmuhal if
ĠMÃ¼dÃ¼rlÃ¼ÄŁ Ã¼ne
ti ma
66 4
Ġimz alÄ±
ĠA lev
Ġdiy abet
Ġv arÄ±
im ÅŁek
Ġmalzem elerin
R I
Ġst abil
Ġhikay e
Ġaz Ä±n
ĠkÄ±sÄ±t lama
at larÄ±
ĠyÃ¶netim inde
ĠK AD
ĠP or
Ġs Ã¼p
ĠkÃ¶k lÃ¼
ĠyÃ¼ksek liÄŁi
av ir
ĠgeÃ§ir di
ĠIn c
ĠÄ°mparator luÄŁu
55 2
ĠkaldÄ±r aÃ§
Ġek leyin
Ġmalu liyet
ĠT un
re ase
Ġt im
' inin
Ã¼mÃ¼z Ã¼n
tar ih
ers ek
ĠB ut
em em
Ġsay Ä±sÄ±nda
ĠKon uÅŁ
Ġl ine
ĠM eÅŁ
Ã§ Ä±nÄ±n
ĠDir ektÃ¶rÃ¼
ĠgÃ¼c Ã¼ne
Ġaday lar
ĠsÃ¶zleÅŁ meleri
ĠA g
Ġ âĢĻ
Ġkullan Ä±rken
r ey
ĠD UR
ac i
EF A
ĠAra ma
eg en
.ht m
ĠÃ§Ã¶z Ã¼l
Ġmuht ev
ĠLir asÄ±
ĠÃĩ am
E E
ĠkatÄ±lÄ±mÄ± yla
34 5
Ġkullan Ä±ÅŁlÄ±
ĠFak tÃ¶r
48 0
ĠÃ§iz el
k op
Ġasker lik
Ġbelirt miÅŁlerdir
ly mp
ĠEng lish
Hal k
Ġkap Ä±sÄ±
alim an
ĠTes pit
Ġver meyecek
Ġyap Ä±sÄ±nÄ±n
ĠKuÅŁ adasÄ±
ĠiliÅŁk iyi
ĠØ ´
oksi dan
Ġtalima tÄ±
ĠC oun
Ġfiyat a
ĠS icil
- O
ĠL in
t Ä±na
Ġstruc ture
UN U
ĠGir esun
ĠR ec
Ġadr esini
ĠHÄ±r istiyan
EL Ä°K
Ġeser ler
Ġc ase
Ġmuh taÃ§
ender es
ĠsonuÃ§ ta
Ġtopr aÄŁa
ĠNak liyat
ĠN E
Ġkaz anÄ±n
Ġden li
Ġnitelik teki
LI ÄŀI
Ġtaraf larÄ±
dev let
T ez
ĠmÃ¼cadel esi
lem eler
Ġprogram Ä±nÄ±n
V ar
ĠduruÅŁ masÄ±
ĠgÃ¼ncel leme
Ä°M Ä°Z
im dik
ĠdÄ±ÅŁ Ä±ndan
Ġrej imi
ĠkoÅŁul larÄ±n
Ar tÄ±k
ĠÃ§ ant
B Ä°R
Ġt l
ĠKay n
Ġf Ä±ndÄ±k
Ġr en
Ġcevab Ä±nÄ±
San Ä±ÄŁa
N O
Ġet i
Ġgalib iyet
ĠY ÃľK
Ġk Ã¼p
ĠGerek li
ĠkiÅŁiler den
ĠÄ° ht
Ġda im
Ġkampan yasÄ±
ĠyatÄ±r Ä±lan
Ġh iyer
ĠYÃ¶netmel iÄŁin
ĠkÃ¶ÅŁ e
Ġedilm emesi
ĠN il
Ġet miyor
ĠAv ustralya
ĠEk ip
oz gat
ĠAn Ä±lan
Ġer di
Ġders leri
ĠbiÃ§im ine
Ġdikkat ini
Ġet nik
ĠGir iÅŁim
Ä° Ãĩ
Ġk now
af et
ĠkoÅŁul larÄ±na
Ġbirlik t
ĠT ARAF
ĠR a
3 35
Ġkolay lÄ±k
ĠD EN
ĠE UR
Ġc ell
ĠV eli
Ġal dÄ±ktan
ĠbÄ±rak an
ĠÃĸ ÄŀR
D r
Ġpan demi
ĠÃĩ or
ĠayrÄ± calÄ±k
ĠOn u
Ä±z Ä±n
Ġbran ÅŁ
ĠÅŀ Ã¼k
ĠgÃ¶v de
ok im
lediÄŁ imiz
lan tÄ±sÄ±
3 28
Ġtan k
Ġsebep lerine
ĠbaÅŁar dÄ±
ĠkÄ±lÄ±n mÄ±ÅŁ
Ġoy unda
o de
h u
li ma
Ġak Ä±n
ĠsaÄŁlay abilir
adÄ±k larÄ±
Ġkur ÅŁun
ĠBel li
TA S
ĠanlaÅŁ Ä±lacaÄŁÄ±
ĠAn lam
Ġkoy duÄŁu
Ġfes hi
ĠkasÄ±t lÄ±
ĠgÃ¶rÃ¼nt Ã¼sÃ¼
Ġ eli
Ġpat lama
ĠarttÄ±r mak
ĠDev am
B ilin
S ah
lin k
f ul
ĠkÃ¼t l
ĠBaÅŁ bakanÄ±
d is
ĠÃ§ek er
lat ed
58 4
ĠTedav i
ĠÃ¼lk eyi
Ġdiy alog
Ġd ediler
ĠK ategor
ĠI l
Ġd r
Ġedil dikten
Ġsayf ada
Ġmesel a
Ġk eÃ§
ĠGÃ¶ Ã§
Ġbelirt ilmektedir
Ġokul larda
Ġdist rib
^ *
ĠyardÄ±m cÄ±sÄ±
N eden
Ġhak lardan
ĠMark a
ĠborÃ§ lanma
B al
ĠYok sa
ĠanlatÄ±m la
Ġyoksunluk larÄ±na
Ãľ P
ĠBil gisi
ĠAn laÅŁ
Ġsend rom
ĠÃ§arp Ä±cÄ±
3 36
Ġyap abilecek
il y
ĠÅŁÃ¼ph esiz
duÄŁ undan
ĠHastalÄ±k larÄ±
Ġsar ay
Ġyav ru
Ġkayd Ä±nda
Ġifad eler
Ġr azÄ±
Ä° letiÅŁim
d Ä±zÄ±
ta u
ĠÄ±ÅŁ Ä±ÄŁÄ±
Ġceza larÄ±
ezil ya
ĠbaÅŁvuru da
ĠTur gut
ma h
ĠÅŁekil lerde
Ġayr Ä±ldÄ±
/ Ċ
Ġyaz Ä±mÄ±zda
F otoÄŁraf
ah it
ing le
ĠÄ° AD
ĠZ am
ĠN ef
Ġv an
Ġkar e
y azÄ±
Ġkup on
Ġgel eceÄŁini
ĠS i
ĠpÃ¼r Ã¼z
ĠÃ§alÄ±ÅŁ Ä±lmÄ±ÅŁtÄ±r
Ġyap abilmek
ĠyanlÄ±ÅŁ lÄ±k
ĠVal iliÄŁi
er y
Ġr ead
Ġmen Ã¼
Ġfak ir
ĠS Ã¶k
Ġhesap larÄ±
Ġa min
ut er
Ġkov uÅŁtur
M ehmet
Ġp encere
Ġb Ã¶yl
ĠseÃ§ men
as et
ĠÃ¶y k
Ġcid d
Ġem eÄŁi
Ġyenil eme
Ġcaz ip
Ġadam larÄ±
Ġil tih
Ġvas fÄ±
Y ukarÄ±daki
Ġcez asÄ±nÄ±
D ur
ĠVer gisi
ĠBit k
L AY
Ġyok luÄŁunda
OLO J
ĠAv usturya
ĠB ec
ĠS Ä±f
ĠZ afer
K Ã¼r
Ã¼s k
ĠB a
ĠÃ¶zel liÄŁine
ĠÅŁof Ã¶r
ĠDav id
ĠBul ut
Ġbenz et
ĠH id
Ġface book
Ġelem anÄ±
od ay
ĠGel ecek
Ġkaynak larÄ±nÄ±n
ĠÃ§alÄ±ÅŁ masÄ±nÄ±
3 27
ĠYAR GI
Ġyak Ä±nda
yor um
ak larÄ±
n em
Ġbelirt ileri
Ġman tar
Ġre quir
ĠBur cu
ĠilÃ§ esine
oc h
ĠEs naf
Ġbas ed
Ġer it
ga in
ĠEf end
Y O
ĠS eri
la dÄ±ÄŁÄ±nÄ±
eler deki
ĠhÃ¢l de
t it
CAR ET
ĠKurul una
eÄŁ inden
Ġbil diÄŁi
ĠyaÅŁ ar
l inin
Ġbeklen tiler
Ġortalama larÄ±
ĠÃ§Ã¶zÃ¼m e
ĠTe or
ĠTop lantÄ±
ĠiÃ§erik leri
ĠZ ek
ĠÄ°nÅŁ allah
O to
may arak
Tur k
Ġd inin
ĠAs ker
ci ety
Ġbelir ler
Ãľ lk
Ġvar an
ĠseÃ§ ilmiÅŁ
ĠKar s
Ġter kin
Ġtez gah
Y D
Ġkabul de
' lar
ĠyatÄ±rÄ±m larÄ±
ĠS omut
ĠC errah
Ġi mal
b uki
Ġsilah la
Ġkil ometr
ĠÃ§ amur
ĠiÅŁaret i
asyon a
ĠKÄ±r k
Ġsan dÄ±k
Ġhak larÄ±n
ĠgÃ¶ster ecek
Ø «
Ġaray arak
k urt
Ġsp onsor
Ġsoru larÄ±n
Ä°N CÄ°
ĠharÃ§ larÄ±nÄ±n
ĠW ashington
ĠHak aret
ĠyÄ±l lara
Ġkonus una
ic o
le ar
ĠyaÅŁ ta
ĠÙ ĩ
ĠartÄ±r Ä±r
Ġbelir leyici
âĢĻ ni
Ġmah sup
tu al
ĠÅŁ Ã¶yledir
Ġgel diÄŁ
eti ce
ak Ä±t
ur lar
c ik
Ġhusus larÄ±
ĠiÅŁ ken
Ġm um
Ġkur an
âĢĿ .
ĠG lobal
ĠÃ¶zen le
34 6
ĠE din
ro und
ĠgÃ¶rÃ¼ÅŁ Ã¼nÃ¼
Ã¼n t
Ġyak alama
ĠyÃ¶netic ilerin
Ġiht iyati
Ġdevelop ment
Ġverilmek le
Ġy aban
Ġmen fi
âĢĻ dir
Ġbelirt ilmesi
ĠÃĸz can
ĠgeÃ§ it
lo gan
Ġordu s
? ?
ĠC han
ma larÄ±na
Ġtak s
ĠM Ã¼lk
Ġdevam Ä±na
Ġuygulan acaÄŁÄ±
Ġelb ise
Ġinsan i
H izmet
ĠdÃ¶nem lerinde
Ġduy ul
ĠD ec
ĠtaÅŁ Ä±t
± h
ĠM avi
ĠÅŀ ekli
ĠMil liyet
S D
ĠaÃ§ arak
ĠbaÄŁ Ä±ÅŁÄ±klÄ±k
Ä ±h
meler inin
ĠÃ¶ÄŁret meni
ĠT UR
ink o
ih a
c ir
c os
ĠÃĸÄŁr en
ĠÄ°ST EM
Ġteknoloj inin
Ġn iye
Ġistedik lerini
Ġy al
Ġiddian ame
âĢĻ si
ĠÄ°l han
ĠmaÄŁ lup
50 1
esi fik
ĠD Ã¶v
ĠS ER
K am
Ġkusur u
Ġfark Ä±na
ep yeni
Ġapp lic
Ġdeng eli
ma x
ĠbaÄŁlan mÄ±ÅŁtÄ±r
ĠmÃ¼ hendisi
Ġilgil iye
Ġmetrek ar
ĠH el
Ġat arak
ĠgÃ¶revl ileri
Ġmor al
ĠKar go
ĠaykÄ±rÄ± dÄ±r
al isyon
Ġdeter min
Ġth ree
Ġves ile
ĠiÃ§er diÄŁi
Ġn a
Ġkey fi
S iyas
Ġsev dik
Ġolmay abilir
ĠÅŁirket lerinin
Ġolumsuz luk
Ġiz ah
ĠYou Tube
Ġsit esinden
Ġzaman dan
Ġdayan Ä±ÅŁma
Ġseb z
d Ã¶rt
Ġdair esine
ĠtÃ¼m Ã¶r
ĠÅŁ amp
g ed
Ġar acÄ±nÄ±n
Ġertel eme
ĠBoy ut
ing Ã¶l
ĠKUR ULU
ĠM oskova
struc tion
Ġam bulans
L ET
ĠY arÄ±
im met
ĠV ekili
Ġpara lar
Ġunsur larÄ±nÄ±n
Ġab one
Ġolay lara
Ġinceley ebilirsiniz
Ġ Ï
aÄŁ Ä±ndan
Ġku cak
LEN DÄ°R
ĠB ize
ĠsÄ±nÄ±r lama
Ġredded ilen
ĠY oÄŁun
Ġtakdir e
ste in
em iyorum
gi es
Ġkir eÃ§
ĠkaldÄ±r ma
nav ut
ĠÃĸZ EL
ĠKad ar
ĠuÄŁr ayan
Ġtemiz leme
ĠbaÅŁkan lÄ±k
ĠiÅŁle vi
onal d
ĠN is
Ġm Ä±sÄ±r
Ġif a
ĠbÄ±rak mak
Ġmut luluÄŁ
ĠTek irdaÄŁ
ĠbÃ¶ cek
Ġver ilip
Ġr esi
Ġd id
ĠÄ°h racat
' yu
T Ä°K
Ġbuz dola
Ġv en
vi du
ĠkullanÄ± cÄ±nÄ±n
ĠÄ°n an
Ġedilm eyen
ĠBiz ans
mathb f
Ġh aiz
Ä±l ayan
Ġkavram Ä±nÄ±n
Ġeff ect
ĠiliÅŁk ilendir
ĠDeÄŁ iÅŁim
Ġsec ond
ĠsÃ¼b utu
ĠÄ°AD ESÄ°NE
z en
ĠModel leri
Ġfaaliyet e
ĠbaÅŁarÄ± ya
? </
RA F
/ p
Ġes asÄ±nÄ±n
Ġfiyat larla
ĠKÃ¼t ahya
Ġc ari
Ġsoru lara
ĠD Ã¶rt
Ġs ulh
ĠaÃ§Ä±klan mÄ±ÅŁtÄ±r
ĠP ir
unuz da
ĠSor un
R ek
ĠMÃ¼s lÃ¼m
Ġbit ti
fi ce
ĠTer cih
ĠGEN EL
ĠgÃ¶r eceksiniz
Hay at
Ġnaf aka
Ġk ot
H akk
ÅŁ ar
ĠvatandaÅŁ Ä
ĠvatandaÅŁÄ ±
ĠB eden
ĠSit eleri
ĠDÃ¼ÅŁ Ã¼k
ur ity
K oca
ĠProf esyonel
'n daki
B r
amil y
dÃ¼k ten
ĠÃ§oÄŁ al
ĠTat lÄ±
. I
h aber
Ġfayda larÄ±
ĠGÃ¶k han
ank aya
ad ar
Ġf ull
Ġtop tan
Ġyol unun
33 2
ĠseÃ§ mek
ĠoluÅŁ u
ĠAfgan istan
y id
Ġal erj
Ø¯ Ùĩ
ay Ä±r
Ġem p
ĠÃĸd Ã¼lÃ¼
ĠMod eli
ĠaraÅŁtÄ±r Ä±larak
, âĢĿ
ĠI r
ĠtÃ¼c car
ĠmeÅŁ gul
ĠTeb liÄŁ
Ġyurt taÅŁ
cen tr
ĠyaÅŁ Ä±na
ĠÃ¼lk eden
G Ã¼zel
Ġbr Ã¼t
Ġmanz ara
Ã¼r i
Ð º
oley bol
ĠihtiyaÃ§ larÄ±na
- yÄ±
ĠÃ§ap raz
ft y
34 2
B in
ĠF lor
ĠOn ama
Ġkab uk
Ġfak Ã¼lt
ĠA it
ĠalÄ±n masÄ±nÄ±
ĠTR T
Ġgar ip
os un
ome ga
us a
ir men
Ġyer yÃ¼z
Ġkitab Ä±n
- Ä°ÅŁ
ĠnÃ¼f usu
dÃ¼k leri
Ġhak imi
an dum
ĠM ari
Ġok ut
lerimiz den
ĠKanunun da
N it
ĠU Ã§ak
ĠM S
Ä±lÄ±r sa
C an
Ġdeste ÄŁini
c is
Ġilk okul
ĠBaÅŁsavc Ä±lÄ±ÄŁÄ±nca
m ark
Ġfaaliyet lerine
iÄŁ de
ĠsuÃ§ larÄ±
ĠdÃ¶k Ã¼m
Ġdinlen me
ĠvÃ¼cu dun
Ġn Ä±n
ĠuyuÅŁmaz lÄ±ÄŁÄ±nÄ±n
ro v
f li
Ġim parator
g ing
ĠTeÅŁkil atÄ±
T am
in fty
tin a
ĠoluÅŁ ma
ĠgeliÅŁ mekte
Ġbir ebir
Ġkon usunun
w ood
Ġyap manÄ±n
m Ã¼
iss ion
ĠkarÄ±ÅŁ Ä±mÄ±
ur es
ĠLÃ¼t fen
Ġs oÄŁan
Ġtef him
Ãľ ye
iÃ§ eÄŁi
Ġkas ab
Ġhaft asÄ±nda
Ġmuhab bet
us un
ĠsuÃ§ lardan
az lÄ±
ĠmÃ¼z aker
ĠsÃ¼r Ã¼ÅŁ
EM E
Ġad Ä±nÄ±n
ĠT rak
ĠyaÅŁ Ä±nday
Ġyaz Ä±m
Ġkil is
Ġkelim esi
Ġm ic
Ġr em
Ġkitap lar
ĠA dÄ±m
laÅŁ maya
Ñ ĭ
Ġsun arak
elik opter
Ġre el
ĠMus a
Ġyap makta
Ġv aat
ED Ä°
Ġob serv
Ġbak arak
Ġbozul malÄ±dÄ±r
ĠaÃ§ Ä±la
Ġduy an
ĠsÄ±nÄ±r lar
Ġrul et
ĠkeÅŁ f
- Åŀ
Ġbon uslar
tÄ±ÄŁ Ä±nÄ±n
35 6
Ġazal tÄ±r
ĠaraÅŁtÄ±rma cÄ±
Ġsignific ant
ÛĮ ÙĨ
Ġama ca
Ġdo larÄ±
3 39
ĠYÃ¶n elik
Ġkonfor lu
Ġmem bran
ĠC er
Ġhassas iyet
Ġprogram Ä±n
Ġendek si
Ä±l Ä±ÅŁÄ±
Ġkir let
u lasyon
ĠkÄ±r k
ĠMahkem elerinin
o bet
Ġtaktir de
lik e
Ġiler leme
D OÄŀ
Ã¢r Ã®
ĠsaÄŁ lamaya
Ġhak ikat
Ġolgu lar
EC Ä°
Ã¼mÃ¼z Ã¼
ĠOyun cu
Ġail eler
am da
ĠHÃľKÃľM LERÄ°N
Ġfi dan
ĠgerÃ§ekleÅŁ ecek
Ġsez onu
y at
ar dÄ±
T UR
ĠhazÄ±r lamak
ten s
Ġth en
am Ä±yorum
lan a
limp iyat
tar row
Ġgrup larÄ±n
Ġalan lara
As lÄ±nda
o th
8 50
40 4
Ġla zer
ĠDÃ¼z ey
$ '
r anÄ±n
ĠuÄŁr at
Ġolan lara
ad Ä±ÅŁÄ±
lan masÄ±nÄ±
ĠoluÅŁum una
Ġyer lerin
ĠdeÄŁer lerine
ĠÃ¼ret mek
Ãĸr neÄŁin
Ġp adiÅŁah
34 3
Ġlist e
af ak
ester ol
ĠFir ma
T able
G azet
ĠsÃ¶n dÃ¼r
ĠDev elop
ĠÃ§ Ä±ÄŁ
ĠmantÄ±k lÄ±
P O
Ġbiz de
ĠKARAR IN
Ġkarar larÄ±nda
ĠD a
ah an
Ġkelim eler
ĠSah ip
ĠiliÅŁk ilerini
Ġproblem ler
ĠA F
Ġa cel
Ġsok ma
N asÄ±l
ĠgeÃ§ tiÄŁini
ĠR Ä±za
âĢĻn Ã¼n
Ġolabil iyor
ĠC u
tern al
ĠR ektÃ¶r
Ġ( \
ĠaraÃ§ larÄ±nÄ±n
Ġyap Ä±yorum
ĠÃ§Ä±k abilir
Ġsev diÄŁi
Ġetk isiz
Ġkol tuÄŁ
Ġkons ept
ĠKaynak larÄ±
ĠseÃ§im leri
Ġkal Ä±ntÄ±
ĠyapÄ±l masÄ±nÄ±n
ĠkÄ±lÄ± cÄ±
ĠOn larÄ±n
ĠÃ¼Ã§ te
ha el
z Ä
uz un
tr on
ĠtÄ±r nak
Y ol
over n
S ay
pek tif
ĠkarÅŁ Ä±t
Ġappro ach
ĠgÃ¼ven c
Ġaz ot
ĠA RA
Ġo v
ĠsÃ¼reÃ§ leri
ĠÃĩalÄ±ÅŁ an
Ġk ed
4 33
ĠdeÄŁerlendir mesi
Ġen z
ĠÃľ NÄ°
idd eti
3 34
Ġbirbir iyle
ĠbÃ¼r o
Ùİ ÙĨ
ĠMes leki
} $$Ċ
ĠkonuÅŁ mada
Ġhav ada
ĠÃ¶n eme
Ġh ev
Ġaz dÄ±r
Ġkap sa
Ġstandar d
tur k
tan e
tiv a
P R
Ġkon gr
Ġc el
Ġevvel ce
ĠA lex
Ġtac iz
Ä°s rail
Ġvek tÃ¶r
ĠgÃ¶z Ã¼
k ullan
v esi
ĠyazÄ± lar
ĠS ep
Ġd ediÄŁimiz
ĠvasÄ± f
oz yon
ĠcezalandÄ±r Ä±lmasÄ±
Ġengel ler
Ġkaps ar
Ġh uk
liy esi
an ak
Ġco uld
ĠanlaÅŁ maz
ĠÅŀ iir
.madd esine
lamen to
ĠK OBÄ°
Ãľ YÃľK
Ġkad rosu
ĠKom itesi
Ah met
ĠSoy lu
ĠgenÃ§ lik
Ä° F
ĠT OP
P A
ĠhastalÄ±k lar
ĠÃ§al Ä±n
edik lerini
OL U
Ġgazet esi
ĠKu dÃ¼s
ĠÃ¶ teki
Ġfilm leri
Ġa gre
ĠEv ren
Ġsal gÄ±nÄ±
ĠhazÄ±rlan Ä±yor
kar ar
ĠzamanaÅŁ Ä±mÄ±na
ĠBul un
ĠTel evizyon
/k g
Ġistis mar
ĠS lot
ĠbaÄŁ lÄ±lÄ±k
ĠÄ° D
ĠÃ¼lk elerinde
Ġdair enin
ĠK lasik
ĠbaÅŁvuru larÄ±nÄ±n
ĠÃ¶d Ã¼n
Ġakadem isyen
Ġkabil iyeti
zÄ ±
_ s
Ġtan rÄ±
Ġsever lerin
Ġl ong
u du
uyor lar
Ġbecer ileri
Ġkam usal
il yon
ĠdÃ¼ÅŁÃ¼nÃ¼yor uz
ĠyaptÄ±rma mak
ĠsÄ±nÄ±r dan
ĠYÃ¶n Ã¼nden
it urk
Ġoyunc unun
ĠBelir t
ĠAk Ä±llÄ±
Ġyer siz
Ã¼l ler
I s
53 9
Ġazal masÄ±
ĠKo du
Ġak tarÄ±
Ġart arak
ĠsÄ±r ala
Ġser um
ĠBun larÄ±
ĠkeÅŁ ide
Ġvi ews
M obil
Ġvar mÄ±ÅŁ
lem i
ĠyÃ¶ntem iyle
ĠbaÅŁ lÄ±ÄŁÄ±nda
>G rup
ÅŁ k
Ġdestek lemek
ĠP il
ĠmaÃ§ Ä±n
Ġhizmet ine
Ġdava larÄ±nda
Ġneden e
ĠYayÄ±n cÄ±lÄ±k
Ġhedef leri
Ġh or
Ġhep imiz
Ã¼k emmel
> c
ĠÃ§eliÅŁ ki
ĠÃ¼cret e
ĠKÄ± y
I YOR
Ġkarakter istik
ĠÃ§Ä±kar dÄ±ÄŁÄ±
âĢĻ âĢĻ
ist ic
ĠÃľ mit
Ġhareket ler
ĠyÃ¼rÃ¼t Ã¼lmesi
Ġel at
ĠGelen eksel
led ge
Ġsah asÄ±nda
har d
ĠeÄŁil imi
D il
v eti
ĠrÃ¼z g
ĠsaÄŁlan maktadÄ±r
ĠM Ã¼ÅŁ
o tip
Ġmas al
Ãĸ l
- Z
Ġdava lara
ĠSA NA
tÄ±ÄŁ Ä±nÄ±zda
Ġadr esinde
Ġnitelik leri
ĠÄ°slam i
urr ent
Ġan dan
Ġar tÄ±rma
M ustafa
ĠKurum sal
T MK
ĠY eter
Ġtab losu
ĠBir az
Ġtaraf sÄ±z
Ġkanun la
Ġsiz de
ĠpeÅŁ inde
ĠmÃ¼cadel ede
ek iz
ob ik
ledik lerini
Ġfonksiyon el
os unda
ĠÃ§Ã¶z me
ĠdÃ¼ÅŁ mÃ¼ÅŁ
C Ä°L
Ġed emez
ĠB log
ĠgÃ¶ster miÅŁ
ĠÃĸ lÃ¼m
VEK Ä°LÄ°
ler arasÄ±
Ġkurtul mak
Ġayr Ä±lÄ±k
ĠgÃ¼r Ã¼ltÃ¼
Ġgel eni
Ġiktis adi
ĠgerÃ§ekleÅŁtir ilmesi
ĠØ ®
ĠÅŁartÄ± yla
Ġres ep
Ã¼k me
Ġer gen
ĠMate matik
Ġser amik
Ġpar tic
Ġr Ã¼y
ĠtÃ¼k en
Ġail esine
Ġist ekli
Ġkay a
ob an
G Ã¶k
ĠbaÄŁ layÄ±cÄ±
Ġyaz Ä±sÄ±nda
Äģ n
Ġtah ta
Dem ir
ĠEm lak
T ah
T U
Ġham ile
ĠkaldÄ±r Ä±lmasÄ±nÄ±
row th
Ġis nat
> t
ĠOl uÅŁ
ĠT E
Ġinan c
Ġfa ilin
Ġbilm eyen
pat i
Ġdep r
n o
34 7
ELER Ä°
s ine
d r
ĠSekret eri
Ġhan d
ĠKaymak amÄ±
ĠÄ°t tifak
ĠC oÅŁ
ĠgerÃ§ eÄŁe
ĠBel g
Ġada p
Ġdah ili
ama men
ĠsaÄŁla mÄ±ÅŁtÄ±r
l Ã¢n
IM IZ
Ġp ant
omo jen
Ġa ut
Ġsunul muÅŁtur
ĠBirleÅŁ miÅŁ
ĠÃ¶dem eleri
Ĺ ı
ĠÃ§alÄ±ÅŁ arak
ĠT ol
ĠÃ§ek tiÄŁi
ĠtaÅŁÄ±y Ä±cÄ±
ama masÄ±
Ġis kel
Ġkanal larÄ±
G Ã¼l
ĠkuruluÅŁ larÄ±n
Ġkend imizi
ĠCh rist
ĠbeÄŁ eni
ĠÃľNÄ° VERS
os en
Ġz ed
ĠDavut oÄŁlu
± c
N et
ĠT AN
ĠÄ°ST Ä°NA
Ġay dÄ±r
ĠHUKUK Ãİ
on es
ĠBaÅŁ arÄ±
ĠhazÄ±r lanmÄ±ÅŁtÄ±r
az in
Ġiy isi
iz ma
Ä ±c
Ġbekliyor um
r arÄ±
Ġistek leri
49 4
Ġdayan Ä±r
Ġb ack
ĠRad yo
: ||
ti ce
Ġortam larda
ĠmÃ¼te akip
abÄ± ta
5 40
I D
Ġokul un
' Ã¼ncÃ¼
ĠÃ§alÄ±ÅŁ anÄ±
Ġ {
Ġfeshed ildiÄŁini
ĠÄ°Ã§er ik
EK Ä°L
ti d
Ġma j
Ġseviy eleri
ĠsÃ¼rÃ¼c Ã¼sÃ¼
Ġkarakter i
Ġt Ã¼n
Ġkonu lara
Ã¼r ler
Ġbeb eÄŁin
ĠÄ°STÄ°NA F
Ġincel eyen
Ġmuam el
Ġalan larÄ±na
ĠÃ¶mr Ã¼
Ġart masÄ±na
Ġv is
Ġg ran
Ġuzun luk
P N
Ġman y
Ġkullan masÄ±
Ġkaynak lardan
Ġil de
, b
B Ä°
Ġan Ä±m
c im
Ġlist esinde
Ġy i
Ġ(... )
Ġv illa
Ġunsur lar
ĠedildiÄŁ ine
Ġma x
ĠSÃ¶z leÅŁme
ĠaÃ§Ä±k layan
Ġmesel esi
ĠmÃ¼h im
Ġc rit
Ġderin lik
Ġnet work
ĠbasÄ±n cÄ±
ĠbÄ±rak ma
ĠEs en
Ġkir alÄ±k
ĠÅŁart larÄ±nÄ±
ĠgiriÅŁ imi
Ġanaliz leri
ĠAd et
leriniz de
Ġz an
iliÄŁ inin
j ack
br id
Tar Ä±m
t as
Ġen viron
Ġsat mak
ĠgerÃ§ekleÅŁ miÅŁ
Ã» d
Ġiz lenme
Ġad sorp
ĠKaf kas
ĠL id
Ġs olu
Ġed elim
ĠyapÄ± lama
G EN
ĠgÃ¶ster ilip
ĠEv i
S in
Top lum
Ġuygulan masÄ±nda
Ġt Ã¼tÃ¼n
ĠÃ¶ngÃ¶r Ã¼lmÃ¼ÅŁtÃ¼r
Ġmur is
Ġuygula masÄ±nda
Ġf iÅŁ
Ġdil ediÄŁiniz
ĠteÅŁ h
ĠBO Z
mas i
Ġep ey
. [
Ġat Ä±n
M as
Ġdayan Ä±lan
Ġ& =
Ġtasar lanmÄ±ÅŁtÄ±r
Ġgetirt ilerek
Ġhikay esi
ĠP aket
l Ä±lÄ±ÄŁÄ±n
Ã ¾
Ġs ark
ĠÃľ nal
ĠSar ayÄ±
Ġolma mÄ±ÅŁ
Ġbin asÄ±
ary akÄ±t
Ġdevlet e
39 0
ĠR et
Ġgid ilmesi
ĠMik ro
sy ch
ĠD iyanet
4 10
ĠkÄ±sÄ±t lÄ±
Ġtem per
Ġarac a
ĠHar it
Ġhuzur lu
ĠYaz Ä±lÄ±m
K Ã¼ltÃ¼r
ĠbaÅŁ larÄ±nda
caÄŁ Ä±nÄ±z
ĠÅŁah si
Ġ inde
ĠF igure
ĠÃ¼z Ã¼m
ĠÃ§oÄŁun luk
Ġzor lan
Ġzarar Ä±nÄ±n
Ġtamam landÄ±
Ġkur maya
sik lop
ĠT iyatro
t est
Ġkonu larÄ±n
Er z
ÅŁ u
ĠyaptÄ±ÄŁ Ä±m
ĠYah udi
Ġken ti
m eme
Ġrenk ler
ĠB erk
Ġr it
is por
dir me
ĠgÃ¶rÃ¼ÅŁ Ã¼ne
ĠnÃ¼fus un
ĠSal dÄ±r
Ġperformans Ä±nÄ±
ĠiÅŁ gÃ¶r
lerimiz le
abilm eleri
ĠÃ§evr esindeki
w s
Ġetkiley ecek
ĠÃ¶ÄŁ le
ĠSonuÃ§ ta
ĠyÃ¶netim in
Ġay dan
ĠyÄ±p ran
Ã¢ ye
Â ®
ĠgeliÅŁim ini
c ileri
Ġilk esine
ĠtÃ¼r b
Ġbirisi dir
Ġbul duÄŁu
Ġme an
ro ma
Ġdevam Ä±nda
Ġkim e
ĠmÃ¼ thiÅŁ
ĠkuÅŁ kusuz
4 30
ĠfotoÄŁraf lar
Ġtak lit
3 38
Ġrej im
Ġbulun acak
ĠbaÅŁk asÄ±nÄ±n
ĠiÅŁlem ine
Ġhak larÄ±nda
ildiÄŁ inden
Ġkayb Ä±na
i um
kar ahisar
ĠEv de
ĠðŁ ĻĤ
Ġmak ro
ĠÃ¶zellik lerinden
7 13
Ġu cu
40 5
ĠgÃ¼ven le
Ä±k lÄ±
Ġgen e
ĠÃ¶rnek lerinin
ĠhÃ¼cr eleri
Ġcen aze
Ġzarf Ä±nda
ĠtÄ±r man
ak lÄ±k
Ġw ater
ĠarkadaÅŁ larÄ±nÄ±n
ĠG am
ĠÃ§at lak
ĠAÅŁaÄŁÄ± daki
ĠgeliÅŁtir ilmiÅŁ
ĠF ull
6 45
ĠBin omo
US D
ĠaÃ§ Ä±n
Ġkurul du
D ik
Ġsad akat
ĠaÄŁ acÄ±
et on
ĠFin ansal
Ġilk eleri
... ,
ĠKal dÄ±r
ĠbaÅŁlangÄ±Ã§ ta
IN G
ĠkuÅŁ ak
Ġkend ilerinin
Ġsaat ler
ĠKarab Ã¼k
n en
Ġpat ates
Ġkend ime
Ġyar atÄ±r
36 1
Ġver meyi
ED EN
ĠB rit
ĠH or
Ġhayvan larÄ±n
B ilim
ĠÃĩ ap
Ġgit tikÃ§e
Ġr ole
ist ir
ĠsuÃ§ una
ĠÃ§aÄŁr Ä±sÄ±
35 1
Ġli fe
ĠgÃ¶remez lik
ĠC H
Ġtamam layan
Ġhizmet ini
uc unun
ĠÅŀ ef
liliÄŁ inin
igh tarrow
te fik
Ġuygulan mamasÄ±
ĠbÄ±rak Ä±p
Ä°ncel eme
et li
) ^
acaÄŁ Ä±ndan
ĠEn f
ĠBor s
Ġtescil li
Ġvideo larÄ±
Ġak abinde
Ġeleman larÄ±
Ġvak Ä
ĠvakÄ ±
ĠW illiam
Ġpay Ä±nÄ±n
ĠgÃ¶z le
ĠS w
Ġtakip Ã§i
Ġilet ken
Ã¼m s
lar sa
Ġhem de
ĠkÃ¶ pr
Ġw orld
Ġmet n
Ġy ev
ĠG ider
! âĢĿ
ĠgÃ¶z etim
ĠÃ§alÄ±ÅŁan larÄ±nÄ±n
35 4
Ġgir iyor
Ä±sÄ±r a
es li
ĠtaÅŁÄ±nmaz da
ĠDav ranÄ±ÅŁ
LAR AK
igh ts
Ġse ans
Ġ }
ĠHik met
Ġanlat mak
ĠgÃ¼ ler
{ b
Ġmanz ar
M M
ĠyÃ¼r Ã¼
eniz de
Ġprov ide
ĠBir bir
Ġhedef ler
ĠsÃ¼n net
ĠFu arÄ±
Ø§ Øª
Ġmu st
ĠbaÄŁlam Ä±nda
ĠÃ§Ä±k maya
Ġk Ä±lavuz
ma maktadÄ±r
Ġibaret tir
ĠÄ±s Ä±tma
ud ret
ad ay
Ġzir aat
r ef
a gram
Ġortal a
ĠDÃľÅŀ MESÄ°NE
Ġen ter
Ġtelefon la
Ġsap ta
Ġhaf Ä±z
ĠD ili
Ġistik amet
ĠBah Ã§
ic inin
Ġtah lil
Ġla st
ĠbaÅŁ rol
ĠKurum un
S oru
Ġgel ecektir
Ġkur tarÄ±
ĠiÃ§ sel
ĠG Ã¼ler
ĠÅŁart larÄ±n
ĠL an
ĠkarÅŁÄ± lama
oy un
ĠoluÅŁtur ulmuÅŁ
Ġalan daki
Ġkal kan
ĠtÃ¼r ev
ĠtÃ¼r den
Ġyer lerine
Ġel ectr
> *</
Ġas Ä±r
eter iner
f ic
Ġvaz if
Ġblok e
lem esine
ĠY rd
Ġr ate
ĠpaylaÅŁ Ä±mÄ±
BO ZULMASINA
Ġincelem enin
Ġuygulan mÄ±ÅŁtÄ±r
ĠsÃ¼r ecek
ĠÃ§ et
Ġet ap
B er
ĠiÅŁley iÅŁ
38 4
ĠsÄ±nÄ±f ta
Ġj andarma
Ġolun masÄ±
Ġbirik tir
Ġlan guage
g y
Ã¼l in
iz me
ĠÃĸz kan
Ġibar esi
ĠbÃ¶lg esindeki
ir d
Ġit faiye
Ġnumara larÄ±
F E
Ġtec hn
Ġfot okop
F ilm
ĠÃĩ IK
P an
Ġgetir miÅŁ
Ġyap malarÄ±
Ġolma masÄ±na
b olu
Ġbelirlen mesine
Ġkomp ozisyon
ĠDosya daki
dÄ±ÄŁ Ä±n
Ġw hat
Ġuzak lÄ±k
Ġyer lerinde
Ġsebep ler
Ġas s
ĠÃľ R
34 9
ĠkiÅŁ iliÄŁi
has sa
Ã¼n me
ĠkullanÄ±l dÄ±
GÃ¶n der
hid rat
Ġem isyon
Ġat f
ĠB K
Ã¼p hane
ĠÃ¶ner ileri
Ġdelalet iyle
ĠGel in
Ġtip ik
ĠKomut anÄ±
ÅŁ an
Ġden ildi
ediÄŁ ine
ĠaÅŁ Ä±n
Ġtak si
Ġil anÄ±
Ġdiz ayn
Ġboyut larÄ±
} _{
Ġtah mini
ĠÃ§eÅŁ id
>S ayÄ±
Ġmes ele
ĠAma cÄ±
paz arÄ±
ĠE TK
Ġdakik alÄ±k
Ġd uÅŁ
Ġsev iÅŁ
Ġn evi
Ġzincir leme
ĠN i
ĠB ro
ĠkÄ±sÄ±m da
> An
ez erv
ĠMut lu
Ġorta ma
ĠbarÄ±ndÄ±r an
ĠtaÅŁÄ±ma cÄ±lÄ±k
ĠEn gin
Ã¼m de
al Ä±ÄŁÄ±
Ġkoy du
Ġal dÄ±ÄŁÄ±m
ĠyÃ¼kÃ¼mlÃ¼lÃ¼ÄŁ Ã¼
ĠtartÄ±ÅŁ Ä±lÄ±p
u de
ĠgÃ¶zet ilmeksizin
Ġkurum larÄ±nÄ±n
ĠR ic
Ġhil eli
ĠkÄ±z lar
Ġv arken
D D
Ġf Ä
ĠalacaÄŁ Ä±nÄ±
ĠÅŁif re
Ġpla z
ĠÃ§alÄ±ÅŁ masÄ±na
ilm em
lamaya caÄŁÄ±nÄ±
Ġr ica
ĠkÃ¶y Ã¼nde
ac an
we i
ĠgÃ¶rÃ¼ntÃ¼l eme
Ġed erse
DanÄ±ÅŁ tay
C Ãľ
lem in
Ġr ay
Ġkes tir
Ġveril iyor
ĠfÄ ±
ĠgeÃ§ir ildi
ĠdÃ¼ÅŁ mesine
Ġgiz lilik
Ġolanak larÄ±
Ġgr ev
acak larÄ±
Ġc adde
Ġarab ulu
Ġtas arÄ±
ey h
ĠM enderes
ĠdÃ¼ÅŁÃ¼n erek
ĠdÃ¼zen ine
M ark
Ġhal lerden
ĠSes li
S ar
Ġs taj
ĠÃĸÄŁr enme
ĠÄ° P
Ġs logan
Ġp re
ant s
ĠØ ¥
at Ä±na
ek lerin
Ä° m
ĠBaÅŁ k
Ġpart inin
T ok
ÅŁ er
7 16
Ġyan Ä±sÄ±ra
ĠmÃ¼kerr er
ĠniteliÄŁ ini
eri a
ĠÃ§Ã¶zÃ¼m leri
end s
inc ip
Ġalan Ä±nÄ±
ĠÄ°stik lal
C AN
it or
Ġkes en
s ah
ĠK e
ĠR el
Ġf Ã¼z
Bir inci
00 3
Ġak siyon
B alÄ±k
ĠLab orat
Ġgereken ler
Ġg u
Ġman yetik
D in
tu ÄŁrul
Ġmuhaf az
ĠKullan Ä±mÄ±
M U
ĠgÃ¶r meye
ĠKo le
Ġkullan dÄ±ÄŁÄ±nÄ±
ĠEk ran
y asÄ±nÄ±n
ĠT AK
Ġbelirt mektedir
ĠGel iÅŁtir
5 65
ĠhÃ¼kÃ¼m lÄ±
ĠgÃ¶r Ã¼p
Ã§ elik
Ä°N CELEN
w h
36 7
ĠPlatform u
ĠgÃ¶nder ildi
Ġtar ayÄ±
ĠZeyn ep
Ġmah rum
Ġuygulama larÄ±n
ĠÅŀehir cilik
AK P
as por
os is
k ut
ĠdeÄŁerlendirme de
Ġas falt
ĠolduÄŁ unca
Ġser in
ĠDÃ¼n yasÄ±
- Dava
lan mak
ĠT O
S ey
ĠfaktÃ¶r leri
Ġc ost
ĠoluÅŁ muÅŁ
ĠiÅŁ lerinde
ĠÅŀ ar
Ġil ki
) :Ċ
T e
Ġbilg isini
ĠR eg
tÄ±ÄŁ Ä±na
Ġvar ol
Ġay Ä±na
S ayÄ±n
Ġseviy esinin
ĠKur an
ĠÄ°Ã§ inde
Ġuygulan masÄ±nÄ±n
0 21
ĠkazanÃ§ lar
Ġisabet li
Ġkullan abilir
ĠbÃ¶lÃ¼m Ã¼nden
Tel efon
ĠyÃ¼rÃ¼t en
ĠKas ten
ĠyoÄŁ urt
Ġsal Ä±n
6 34
ĠbaÅŁvur ulmasÄ±
Ġcevap lar
Ġkalma dÄ±
ĠA mir
Ġsilin dir
Ġfiyat larÄ±nÄ±
ĠhÃ¼kmÃ¼n Ã¼
Ġbelg esinin
ĠE duc
Ġek me
ĠdÃ¼ÅŁÃ¼n Ã¼n
ĠÃĩak Ä±r
ĠulaÅŁ tÄ±ÄŁÄ±
'n u
Ġh ol
Ġal Ä±yoruz
Ãĩ an
Ġalt Ä±ndan
Cev ap
ĠKitab evi
Ġy eme
ĠDev r
ĠdoÄŁru ya
Ġter m
ĠfarkÄ±n dalÄ±k
en ti
Ġhus usunun
Ġb erek
ĠgeÃ§ir ilmesi
Ġlo jistik
ma ma
ĠPa ul
Ġusul den
ĠB AY
Ġgraf iÄŁi
ĠR ob
Ġsun ulmasÄ±
Ãľl kemizde
uh af
ĠilÃ¢m Ä±nda
Ġmalzem enin
ĠdÄ±ÅŁarÄ± da
ĠÃ§ Ä±plak
dÃ¼ ler
ĠaÃ§ Ä±p
iy al
ra w
ik an
ĠR em
ĠsavaÅŁ Ä±n
ta lar
Gazi antep
ĠÃ§erÃ§ev e
ed iyesi
Ġbe ing
ĠK od
ĠÃ¶ÄŁr endik
ĠgÃ¶nder ilmekle
Ġisten meyen
uy du
Ġtes ad
Ġsigortal Ä±nÄ±n
ĠØ¹ ÙĦ
Ġih tiva
ĠgeÃ§ersiz liÄŁine
elen en
ĠdÃ¼zey ine
ĠÃ§ocuk larda
ĠR ah
A m
ĠE lec
Ġindir mek
larÄ±nÄ±z la
Ġed uc
Ġistikrar lÄ±
Kan un
c alÄ±
Ġyap Ä±t
ĠsaÃ§ ma
Ì ĩ
Ġkent inde
Ġfiyat larÄ±nÄ±n
C anlÄ±
ĠÃ¼ret tiÄŁi
ĠÃ¶dem elerin
Ġuy u
77 2
Ġfiyat Ä±nÄ±n
Bir Ã§ok
ĠHakk Ä±ndaki
caÄŁ Ä±m
T EK
Ġetkil emektedir
Ġip otek
t am
Ġsan atÄ±
Ġoyn ar
ĠiÅŁlen diÄŁini
Ġk uz
ĠKarar name
Ġg ri
ĠØ§ÙĦ Ùħ
ĠbaÅŁlan mÄ±ÅŁtÄ±r
Ġbil iÅŁsel
Ġekip ler
ĠBaÅŁkan Ä±mÄ±z
Ġrast lanma
Ġtem eli
Mahkem enin
Ġimkan larÄ±
Ä±n Ã§
Ġkan dÄ±r
ĠS Ã¶y
34 8
Ġnokta lar
ĠÎ¼ m
ĠkÄ±z ar
Ġd est
Ġsemin er
ĠsÃ¼b ut
Ġgit miÅŁ
lediÄŁ iniz
alÄ± p
Ġap artman
Ġh el
Ã§ alÄ±ÅŁ
Ġiz n
Ġp lat
ĠyÃ¼z d
ĠdÃ¼ny asÄ±na
ĠmirasÃ§Ä± larÄ±
ĠbÄ±rak Ä±ldÄ±
Ġinternet ten
Ġuy madÄ±ÄŁÄ±ndan
ĠtanÄ± yan
45 4
ĠgÃ¶ster ge
Ġtemerr Ã¼t
Ġyar Ä±sÄ±nda
ĠC oÄŁraf
ĠkiÅŁiler le
hal de
ĠYah ud
Ġkap atÄ±
ĠÃ ł
ĠGÃ¼ven liÄŁi
ĠÃ¶ner ilen
Ġdayan maktadÄ±r
Ġbuton una
Ġter ap
Ġon ayÄ±
Ġma de
Ä°NCELEN EN
ĠÄ° pek
ab e
Ãĸn ceki
ĠÃ¶den meyen
ada m
Ġat a
baÅŁ ka
Ä° ran
ĠSA Äŀ
Ġdost luk
ĠdavranÄ±ÅŁ larÄ±nÄ±
Ġrehber lik
TÃ¼rk Ã§e
Ġfaaliyet te
ĠOt omobil
Ã§ iliÄŁi
Ġbelirt iliyor
Ġmiras bÄ±rak
ĠÃ§ek mektedir
ĠAÃĩ IK
37 2
ĠsoÄŁ utma
Ġsavun man
' er
ĠW i
ĠD OÄŀ
Ġcins inden
F iyat
am Ä±za
akk ak
ĠY Ã¶r
ĠÅŀampiyon asÄ±
la tÄ±cÄ±
Ġyap abil
ah tarÄ±
Ġen str
Ġstat Ã¼
' Ã¢n
ĠgÃ¶ster ildiÄŁi
Ġbelir lediÄŁi
Ġzinc iri
ĠulaÅŁ masÄ±
Ġsah asÄ±
Ġdosya lar
le vi
GÃ¼n ey
ĠyazÄ± larÄ±
Ġbeklent ileri
ĠKÄ±r Ä±k
ĠNer ede
ĠBur adaki
Ġtop luluÄŁ
Ġm uz
Ġkamu oyu
ul um
Ġkapas ite
kÄ±r Ä
kÄ±rÄ ±
las h
Ġplan la
Ã¢l Ã¢
k ak
d on
ĠGÃĸRÃľÅŀ ÃľLDÃľ
Ġders ler
S H
eÃ§ h
la stik
ĠOR TA
ĠÄ°f las
Ġg et
ĠO lymp
ĠÅŁampiyon luk
b istan
47 8
K ent
Ġk las
Ġede ceÄŁi
Ġteh di
ã ģ
ama mÄ±ÅŁtÄ±r
Ġred de
il ebilmesi
Ġli tre
ĠdÃ¶ ÅŁ
ĠKur ban
Ġm oment
s q
bil im
ĠD ay
ĠyatÄ±r ana
v at
ĠD id
ĠistediÄŁ im
ĠgerekÃ§ eleri
r m
Ġfaaliyet lerin
Ġdevam Ä±nÄ±
ĠAmerik alÄ±
acak lar
asyon larÄ±
ĠÃ¶n Ã¼ndeki
ĠkadÄ±n larÄ±
ĠtÃ¶r eni
ĠSur iyeli
Ġsor du
Ġ ................................
Ġh uman
ĠdÃ¶nem inin
ĠDer nek
ĠsÃ¶zleÅŁ mesini
abilm eniz
em edi
ĠsÃ¶z konusu
ĠV atan
Ġkavram larÄ±
ĠR ol
ĠPlan lama
b aba
. |
Ġmil it
I F
ĠAl Ä±nan
Ġif tir
ĠsÄ±nÄ±r larÄ±nÄ±
L C
Ġoy nam
O p
Ġkes ilen
Ġkullanmak tan
Ġu f
) .ĊĊ
Ġmin ik
ĠTek stil
ĠkonuÅŁ masÄ±nda
Ġkop ar
Ġgrup larÄ±nÄ±n
ĠÃ¶ÄŁ elerinin
Ġifade yle
39 9
ĠÄ°mam oÄŁlu
Ġyol larla
ĠedildiÄŁ inden
Ġc re
ĠiÅŁg Ã¼cÃ¼
Ġkur ulacak
chit ec
H MK
Ġb aÄŁÄ±
ĠGe or
das yon
lÄ±ÄŁ Ä±mÄ±z
v Ä
Ġar ter
ĠTop lantÄ±sÄ±
ĠtanÄ±m lama
Ġp oÅŁ
ilmiÅŁ ti
I ST
Ġsay Ä±sÄ±z
Ġoyun larÄ±nÄ±
ĠSaÄŁ lÄ±klÄ±
ĠvatandaÅŁ lara
ĠkesinleÅŁ mesi
ĠsÃ¶z de
ĠdeÄŁer lere
iniz deki
GÃ¼n eÅŁ
EN D
Ġver ecektir
ĠeÄŁlen c
Ġet meyin
Ġmal larÄ±
ii i
Ġa gain
O t
Ġlay ih
H av
35 7
in ter
Ġth er
OK Ä°
ĠT ef
Ġark ada
Ġvaz iyet
os man
o lasyon
Ġberaber lik
Z ER
ĠalacaÄŁ Ä±na
ĠE h
ĠyÃ¼kÃ¼mlÃ¼ dÃ¼r
Ġdiren ci
Ġlok al
ĠKon ak
Ġpr imi
Ġediyor du
Ġy aya
R AK
ĠÅŁehr inde
Ġbonus larÄ±
ĠgÃ¶rdÃ¼ÄŁ Ã¼nÃ¼
ĠT v
Ġsaat lerde
Ġist ir
- W
Ġyaz mÄ±ÅŁ
ay lar
ĠMo da
Ġokul lar
Ġr ah
Ġhayvan lar
Ġi P
ĠilÃ¢m Ä±nÄ±n
mediÄŁ inin
Ġle h
ĠaraÃ§ ta
GER EÄŀÄ°
Ġetkilen en
Yar gÄ±lama
ĠbÃ¶lg eleri
Ġmuhat ap
Ġirtib at
Ġka larak
Ġ umu
ĠH AY
Ġn ec
ĠÄ°s met
U V
Ã§ aÄŁ
Ġtest leri
ĠÃ¢ yet
Ġch ild
ĠJ ames
ĠWhats App
vÄ ±
Ġo cc
Ġbitk iler
Ġmesaj larÄ±
ĠÃ¶nem ine
ĠS ivil
Ġdurumda dÄ±r
Ġmahkem esinde
Ġfilm ler
Ġuygulan masÄ±nÄ±
San at
ger Ã§ek
ĠZ ey
du stri
Ġkaz ada
en z
ĠHam il
Ġs iv
ĠgÃ¶ster ebilir
v ec
ĠÃ¶de v
Ġadres inden
ĠdÃ¼z eye
Ġas ansÃ¶r
p as
ĠsÃ¼r at
Ġkoy ma
Ġhiyer arÅŁ
ĠbuluÅŁ tu
iliÄŁ ine
ĠÃ¶zel leÅŁtir
Ġn ev
Ġbil anÃ§
47 0
eler imiz
Ġak ar
ĠYayÄ±n evi
Ġhip ot
Ġhesap lanmÄ±ÅŁtÄ±r
ĠP S
Ġar Ä
ĠY Ã¼cel
Ġkalit ede
ic ilik
Ġiy ilik
P ress
ĠÃĩ iz
ĠÅŁ iddeti
ĠTÃ¼rk lerin
ĠBel gesi
Ġhay v
Ġk uv
ĠÃ¶n cel
ĠÃ§ev iri
ĠarÄ ±
Ġsup port
ĠBÄ°L G
ĠdÃ¼zen siz
ĠÃ¶nc esine
su e
Ġs eti
eÄŁ li
ĠkÄ±z Ä±n
ĠPay laÅŁ
ĠP utin
ĠP AR
ĠP olat
ĠBaÅŁ langÄ±Ã§
á¹ £
c iliÄŁi
ĠdavalÄ± lara
ĠdoÄŁ du
g on
Ġel ma
Ġaday larÄ±
ĠMÃ¼dÃ¼rlÃ¼ÄŁ Ã¼nden
ver t
Ġin hib
ruk lu
ĠV ir
Ġprogram da
Ġeklen di
ĠsÄ±nÄ±r Ä±na
Ġpas aport
Ġuygulan maya
Ġet men
ĠB oÄŁ
. nÄ±n
Ġli beral
bil eceÄŁiniz
ĠgÃ¶rev lerini
ĠseÃ§ me
ĠMas ter
Ġsit esini
Ġrel ated
ĠDeÄŁiÅŁ ken
Ġel iyle
Ġmuhab ir
k ab
ĠÃ§ocuk luk
Ġok sit
Ġtah t
ĠsÃ¼rdÃ¼r dÃ¼
Ġve da
Ġtem ini
Ġal mayan
ens ion
ĠrÄ±z asÄ±
ĠSon rasÄ±nda
Ġrast lan
ĠS O
g s
ĠsÃ¼r eler
ĠiÃ§erik li
in san
ÙĪ Ø§
ĠÃ§evr ilmesi
Ġyap arlar
Ġn Ã¶r
Ġbur s
± cak
Ä ±cak
ĠR ev
ĠBo ya
± d
Ġkullan mayÄ±
ĠSer dar
ĠD ÃĸN
ĠaralÄ±k larla
Ġkal maya
ĠS MS
ĠyÃ¼z Ã¼nÃ¼
ĠBas ketbol
ĠoluÅŁturul muÅŁtur
ez ya
ĠD EM
Ġtaraf Ä±na
ĠkÄ±s alt
ĠtaÅŁÄ± mak
ĠUn ited
em an
ici ent
ĠD P
ĠÃ§ey r
art ma
K om
fli x
Ġeden lere
li p
, s
ĠY ed
Ġsav cÄ±sÄ±
d ol
amp les
Ġkabil iyet
Ġel le
ay dÄ±n
ap ter
ĠKUL LAN
ĠeÄŁitim ini
Ġdava larÄ±nÄ±n
0 53
ĠAd resi
ĠartÄ±r Ä±m
ĠSon rasÄ±
Ġetmek le
ĠyÃ¶n elen
ĠYÃ¶ntem i
meler de
ĠyÃ¶n deki
Åŀ eh
Ġproduc tion
ĠO LARAK
ÙĲ ÙĨ
Ġ% </
tr ies
ĠÃ¶ÄŁ Ã¼t
H Ã¼km
ĠDen eme
Ä ±d
EH Ä°R
Ġr utin
Ġzam mÄ±
ĠMad desi
Ġger eÃ§
Ġbul uyor
ĠkullanÄ± lamaz
Ġgit tim
K itap
Ġex ist
38 2
os istem
ĠmÃ¼n aseb
Ä°l gili
Ġedin mek
ĠKon gre
ÄŁ Ä±t
ĠKK TC
Y eÅŁil
ĠÅŁar ap
ĠfÄ±kr asÄ±ndan
ĠbaÅŁlat tÄ±ÄŁÄ±
B un
Ġder gi
Ġkal siyum
c Ã¼l
ĠÃ¶den diÄŁi
ĠKal p
ak in
ĠBAÅŀ KAN
Ġmak b
ĠLev ent
Ġsaptan an
Ġhidro jen
Ġbelir sizlik
Ġkumar han
len mesini
ĠSt at
ĠalÄ±n acaktÄ±r
ĠOL MA
d om
ĠmÃ¼hendis lik
r or
ĠF OR
Ã» s
mal l
ÙĬ ÙĨ
b az
ĠUy uÅŁturucu
c inin
Ġkork unÃ§
Ġverim liliÄŁi
Ġay larda
Ġcondition s
36 8
ĠPerforman s
ĠÃ§Ä±r p
ĠKar tÄ±
av ul
Ġy epyeni
Ġt ype
ĠÃ§alÄ±ÅŁ mÄ±ÅŁ
Ġs ince
S o
Ġproj eye
ĠÃ¼lk elerden
ĠdÃ¼ÅŁÃ¼nc elerini
ro z
Ġgerek ebilir
ĠverilmiÅŁ ti
Ġuzman lar
Ġbeb eÄŁ
ĠEr ken
Ġsigortal Ä±sÄ±
Ġmevzu ata
R AN
ĠÃ¶dÃ¼l lendir
tr ic
ĠPar Ã§a
ĠsÃ¼r er
ĠG Ä°RÄ°Åŀ
V an
Ġbak anlÄ±k
sik a
ere um
Ġtemel ini
ĠAk ÅŁam
duÄŁ unun
Ġmo di
ĠÃ¼m it
Ġiddi asÄ±na
:... ,
Sur iye
ĠkayÄ±t larÄ±na
ĠiÅŁÃ§ iye
Ġizin siz
Ġkontrol lÃ¼
Ġiddi alÄ±
Ġtalep lerini
ĠKal iteli
4 60
Ġnitelendir ilmesine
ĠÅŁ ube
Ġdol gu
ĠgÃ¶rÃ¼ÅŁ ler
TAB LO
ic ileri
ĠgeniÅŁ liÄŁi
Ġmez b
Ġhareket in
IN IN
ĠOla ÄŁan
ĠKurtul uÅŁ
Ġdiren iÅŁ
ĠÄ°nsan larÄ±n
ĠT om
Ġb am
ub le
ĠkazandÄ±r an
tÄ± p
ik ar
ĠBÄ°L Ä°M
Ä±lmasÄ± yla
Ġail elerin
ĠDoktor a
ĠG em
ĠgeÃ§miÅŁ i
Ġhesab Ä±nda
ĠSiyas i
Ġceza lar
Ġkonu ma
Ġdefa larca
he im
P ara
Ġor uÃ§
Ġolma makla
ĠH ot
ĠÃľNÄ°VERS Ä°TESÄ°
58 0
Ġan ayasa
99 9
f one
ĠsaÄŁlan mÄ±ÅŁtÄ±r
ĠAV M
ĠP Ä±nar
Ġedil ebilmesi
ĠyaÅŁ ant
ĠiÅŁlen miÅŁ
ĠMÃ¼st eÅŁ
Ġtutar Ä±nda
Ġgel ebilecek
ĠÃ§ el
Ġkas a
Ġnok san
R P
ĠbaÄŁ daÅŁ
Ġprog rama
iÅŁ kin
ĠdÃ¼ÅŁÃ¼n Ã¼len
Ġvak t
var epsilon
di v
ĠD Ä°Z
ĠGel iÅŁim
t Ä±nÄ±z
Ġmit ing
Ġesas lÄ±
ĠG rafik
ĠMad rid
Ġkend inden
ĠaÅŁaÄŁÄ± ya
ĠyayÄ±n ladÄ±
n s
ĠOl du
H Ä±z
Ġoran lar
Ġseg ment
b id
lÄ±ÄŁÄ± yla
k ov
Ġyar al
Ã¶ m
ĠF elsef
AÅŁaÄŁÄ± da
Ġlev ha
Ġtak dim
ESÄ° N
ĠKabul Ã¼
S AL
Ġdevlet lerin
in cil
Ġdis p
ĠhazÄ±r lama
ĠbaÅŁka larÄ±nÄ±n
ĠdÄ±ÅŁ a
oc am
Ġakd inin
raf t
ad o
ch ain
Ġsar Ä±m
ĠZ eki
ĠyÄ±l larca
Ãĩ aÄŁ
S Ã¼per
ĠM isafir
Ġul tr
38 3
Ġistek lerinin
en Ã§
ad emi
ĠBilg ileri
Ä°LER Ä°
S UN
- v
sas por
ers en
ĠT esi
ĠI SO
Ä±lmak sÄ±zÄ±n
Ġekran a
' lÄ±k
' ini
Ġmer mer
us e
Ġor g
Ġindi c
Ġmen sub
Ä°L Ä°R
ĠyÃ¼k lem
ĠC insel
ĠB araj
Ġyaz arak
si a
ĠÄ° y
ti g
Ġtaraf lardan
Ġkal maktadÄ±r
ĠUS B
Ġnik ah
Ġter ms
Ġbey ler
Ġyetkil iler
ĠÃ¶d Ã¼lÃ¼
ĠSem poz
Ġrenk leri
ĠgeÃ§miÅŁ e
ĠS oÄŁuk
ĠÅŁey lerin
Ġtasar lanan
Ġyok luÄŁu
Ġbilin iyor
Ġbu Ã§uk
ĠiÅŁ lediÄŁ
Ġs he
ĠÃ¶nem s
ĠÃ§Ä±k masÄ±na
5 20
Ġp ublic
ĠEÅŁ ya
dÃ¼z Ã¼
Ġs ilik
ur un
Ġmeslek taÅŁ
ĠBaÅŁak ÅŁehir
ĠTÃ¼k etic
Ġinternet te
ĠDÃ¼zen leme
Ġkims eyi
al lÄ±
ĠateÅŁ li
Ġyetkisiz lik
ĠBas it
ĠdÃ¼zen ledi
âĢĻ ,
Ġmuvaza a
ĠDep rem
ĠErmeni stan
-G e
Ġdair esi
ĠÄ±s Ä±n
ĠDev amÄ±
Ġaday larÄ±n
ĠNit elikli
ĠgÃ¼n Ã¼ne
â Ĥº
Ġed itÃ¶r
ĠDÃ¼nya da
Ġe ar
ĠÃ¼y eliÄŁi
ĠDemir taÅŁ
ua wei
Ġim m
k uÅŁ
m ran
Ġbask Ä±sÄ±
Ġkalk Ä±ÅŁ
ler se
Ġeklen erek
oz om
Ġistis n
ĠkarÅŁÄ± tÄ±
ĠA LI
er ik
Ġare a
Ġkoordin asyon
ĠÅŁeklinde dir
Ġo z
ĠkullanÄ±m Ä±nda
iz asyonu
Ben zer
ĠÄ°h san
35 8
4 11
k oÅŁ
ĠSendik asÄ±
ĠAr ÅŁiv
Ã¼l ten
oo th
Ġtoplan masÄ±
ĠkÃ¼f Ã¼r
Ġis p
Ã¼z Ã¼n
ĠsÃ¶z lÃ¼k
ĠTemiz lik
Ġdola p
ĠG EÃĩ
ĠgerÃ§ekleÅŁtir ilmiÅŁtir
ĠkatÄ±lan a
ĠÄ° H
Ġpol y
Ġetk iye
ĠyÃ¼z eyi
ĠÃ¼cret lerinin
Ġduyur u
er o
Ġordu su
ĠtÃ¢ bi
Ġar ayÄ±n
ĠÃ¼retim inin
ekk e
ĠÅŁekl ine
Ġsoru larÄ±nÄ±
ĠMuhar rem
ĠolduÄŁ umu
Ġisten ildiÄŁinde
ĠSer t
Ġem peryal
ĠÃ¶rgÃ¼ te
n is
il eÅŁ
ĠÃ¶n eri
M Ã¼z
st at
S at
Ä°Z M
Ġeski den
Ġvur du
Ġkazan mÄ±ÅŁtÄ±r
s ki
ar larÄ±
Ġa di
Ġb ron
Ġesn ada
ĠAlÄ±ÅŁ veriÅŁ
air e
ĠAs Ä±l
Ġg azÄ±
la tan
F i
Ã¼ldÃ¼ ÄŁÃ¼nÃ¼
ĠMuh al
o h
Ġt rak
Ġma c
37 8
KiÅŁ isel
ĠKÃ¼t Ã¼phan
ĠSeÃ§ enek
op ar
Ġh ile
n de
ĠBoÅŁ anma
Ġikin cisi
Ġnamaz Ä
ĠnamazÄ ±
Ġcihaz larÄ±
Ġad dition
Ð ´
eÄŁ er
Ġbir Ã§
ĠDek or
ur i
Ġolmak ta
4 25
ĠStor e
ĠK Ã¢
bil eceÄŁine
maz lar
ĠÃĸz er
Ġbak teri
Ġkur arak
Ġam p
ĠSavc Ä±sÄ±nÄ±n
ĠA masya
Ġedilm ez
ĠK AT
ĠAÃ§Ä±k lanan
Ġde g
ĠL Ä°ST
ĠÃ§ik olata
k oz
LÄ°Äŀ Ä°
Ġf ree
ĠRe al
ĠanlaÅŁ masÄ±
ĠdeÄŁiÅŁ imler
ĠUl us
maz sa
^{ \
ĠM ET
Ġrast gele
Ã® d
G Ä°LÄ°
Ġdosya larda
g Ã¶l
ĠÃ§ ubuk
ĠÅŁart tÄ±r
Ġayr Ä±lma
Ġkat Ä±lacak
ĠgÃ¶rev den
iy y
Ġanlat Ä±lan
ĠÃ¶z erk
oda fone
Ġceza larÄ±n
ĠHaz ret
Ġcon tin
Ġen dÃ¼stri
Ġtah vil
uth or
asyon lar
ĠP ers
ĠyaptÄ±rÄ±m larÄ±n
ĠC as
ĠÅŁ e
ĠtaÅŁÄ±n Ä±r
ĠO rada
ĠF iyatÄ±
Ġgid ilir
Ġb unda
ĠpiÅŁ man
ĠDemir el
ĠGen eral
ĠG ebze
inde dir
Ġprogram Ä±nÄ±
ĠsÄ±k Ä±ÅŁtÄ±r
Ġves il
kur may
Ġt ansiyon
ĠmÃ¼s lÃ¼man
ĠalÄ±n maktadÄ±r
Ġist endi
Ġiyi dir
Ġmah kÃ»m
S il
ĠÃ¼stÃ¼n lÃ¼k
ĠG Ã¼
Ä±l masÄ±ndan
ĠSan al
ĠSorum luluk
imdik i
ĠAl tÄ±
ĠgÃ¼n Ã¼nden
IL DI
Ùħ Ø§
ĠD uvar
Ġelat manÄ±n
ĠdÃ¼ÅŁ Ã¼yor
ĠkullanÄ±l maya
Ġgroup s
. Ãĩ
Ġkoruy an
Ä°N Ä°Z
si de
Ġmam ul
P azar
Ġhav alandÄ±r
Ġgelecek teki
ĠÃľl kemiz
Ġyarar lanarak
ĠÃ§alÄ±ÅŁ Ä±lan
ĠS iirt
ĠfÄ±rsat lar
Ġham l
ĠyaÅŁ Ä±yoruz
ĠDaÄŁÄ±t Ä±m
ĠN ov
Ġmarka larÄ±n
M HP
ĠE ve
Ġetmek ten
Ġkal madan
ev ler
ĠsÄ±nav Ä
ĠsÄ±navÄ ±
row n
Ġb l
ĠkarÅŁÄ±laÅŁ Ä±lan
ĠA ut
ĠAn gel
ĠB UR
al is
ĠTh ese
38 5
Ø º
Ġaktar dÄ±
ĠÅŁer it
Tem el
Ġs ulu
me ga
ĠiÃ§in dir
emey eceÄŁini
Ġh elikopter
Ġj el
ĠÃ§Ä±kart Ä±lmasÄ±
ĠÃľlk e
h ni
Ġtamam lanmÄ±ÅŁ
AnlaÅŁ Ä±ldÄ±ÄŁÄ±ndan
;Ċ Ċ
Ġstr ate
Bah is
ĠAk ar
40 6
tÃ¼ d
K S
a lara
sq rt
ab ildiÄŁi
ĠL ok
Ġb Ã¶ylelikle
- Ar
ib ar
Ġsoy u
ĠkonuÅŁ mak
Bunun la
ĠAmer ican
Ġgarant isi
Ġmiktar larda
ĠalÄ±n malÄ±
ĠKar ayollarÄ±
> d
ĠbaÅŁlay abilirsiniz
ĠOL GULAR
ĠÃ¼lk esi
4 01
Ġn Ã¼s
ĠU cuz
ary ans
On line
ĠbaÅŁ Ä±nÄ±
ĠsÄ±kÄ±ntÄ± lar
op a
Ġbilin mesi
Ġmet ro
ĠG Ã¼len
ĠH ist
ĠgÃ¶nder me
erk an
ildiÄŁ ince
Ġkar lÄ±
ĠD Ä°
ĠO tur
B at
Ä±r sa
Ġev alu
AS YON
Ġopt imiz
ĠayÄ±r an
Ġoluyor uz
Ġm iz
Ĥ ¬
Ġy uk
Ġkay da
in ts
, k
ĠyÃ¶netim ine
us undan
ĠV el
Ġkart larÄ±
8 18
Ġoran larda
Ġyakal ay
z t
ĠÅŀ Ã¶yle
Ġmec li
Ġlayih alar
ĠparÃ§ acÄ±k
00 5
Ġtarih lerde
lu lar
* '
ĠÃ§ap lÄ±
ildiÄŁ ine
ĠbilirkiÅŁ iler
Ġma gn
ĠmÃ¼ÅŁter ilere
Ġbaz lÄ±
Ġyapmak tan
Ġseviy esini
ĠniÅŁ an
G AZ
Ġc all
Ġanti oksidan
Ġziyaret i
ĠYol larÄ±
Ġetmek tir
IM I
Ġkend iniz
Ġek str
ĠoluÅŁtur acak
Ġabon elik
Ġyeten ekli
Ġobtain ed
Ġek lemek
ĠÃ¶ngÃ¶r Ã¼l
em de
ĠÄ°span yol
Ġunut ma
iz am
ĠBah ar
ey eceÄŁi
Ã¼ el
Ġpiyasa larda
Ġlen f
_ p
B U
ta larÄ±
ĠK Ã¼l
Ġex perim
Ġyap abileceÄŁiniz
ĠgÃ¶nder ildiÄŁi
la dÄ±m
Ġhizmet lerinden
Ġrep resent
-S en
amaz sÄ±nÄ±z
Ġpro b
id or
ecek ler
ĠbaÄŁ layan
ĠYal ova
Ġart mÄ±ÅŁ
ĠH A
ĠmÃ¼kerr ir
- DavacÄ±
ĠÄ° ma
Ġhukuk Ã®
40 9
ĠSÃ¶k e
Ġeylem ine
ĠBakan lÄ±ÄŁÄ±nÄ±n
M a
Ġrapor a
Ġvar lÄ±ÄŁÄ±nÄ±n
ap ur
/ C
ĠT amam
Ġser gi
ÙĦ Ø§
59 4
ĠA tÄ±k
] </
Ġkab ar
ĠyansÄ± yan
Ã¼r Ã¼k
Ġlisans lÄ±
ĠÄ° leri
Ù ¡
Ġmodel in
ĠgÃ¶n l
37 7
Ġhesab Ä±nÄ±z
Ġdu e
ĠH ekim
k g
ĠiÅŁveren ce
38 1
ĠDoÄŁ a
Ġkok usu
m ud
ĠulaÅŁ ma
ĠÃ¶dem enin
D DE
Ġyaz dÄ±r
L a
Ġpay larÄ±
ĠTeÅŁ ekkÃ¼r
Ġser vet
avv uf
Ġyay la
á¹ Ń
Ġgel dim
Ġdavran Ä±lmasÄ±
Ã¢ ne
ĠsÃ¼r t
5 10
Ġbilm iyor
Ġcon centr
ĠUygu lamasÄ±
ĠbulunduÄŁ unun
ĠyapÄ±l dÄ±ktan
Ġwh ile
ĠAr k
ĠØ µ
ĠEr en
A Ã§
ĠOy unu
fer ansÄ±
Ġidar eye
Ġbey n
Ġsunu lacak
Ġdur ul
Ġpr epar
Ġop timum
ĠGÃ¶rÃ¼n tÃ¼
ilendir me
Ġhukuk un
ĠbaÄŁÄ±m sÄ±zlÄ±k
Ġolab ilmesi
ĠmÃ¼sader esine
Ġf ren
Ġken ara
I A
ĠÃĩ at
Ġhat alarÄ±
ĠdeÄŁiÅŁiklik lerin
ĠÃĸ ÄŁ
Ġtey it
ĠAnal ysis
Ġlir alÄ±k
ĠT K
V EN
h ol
chan ge
ĠDÃ¶nÃ¼ÅŁ Ã¼m
DAV ALI
ĠYÃ¼z de
Ġsev inÃ§
Ġsim g
Ġchan ge
Ġ Ä±n
Ġhazine ye
Ġi den
Ġhukuk una
Ê »
r iye
Ġkaz anÄ±yor
ĠØ¯ ÛĮ
âĢĻ le
Ġrapor lar
mey eceÄŁi
Ġkem er
Ġek st
ĠgeÃ§ tikÃ§e
ĠMERK EZÄ°
ĠÅŀ am
Ġert esi
Ġsor ulan
GÃ¼n dem
ĠkÄ±r Ä±lma
ĠAd em
ĠGeÃ§ tiÄŁimiz
Ġgel miÅŁti
G O
39 5
ĠÃ§Ä±l gÄ±n
38 9
Ã§ ay
Ġres imleri
Ã¼b nan
ĠOl uÅŁtur
Ġkaynak landÄ±ÄŁÄ±
b urt
ĠÅŁ ap
Ġet sin
Ġindi vidu
ĠT ekli
Ġal Ã§ak
ĠÅŀ if
Ġyan g
g Ã¼cÃ¼
± cÄ±nÄ±n
Ä ±cÄ±nÄ±n
Ġexp eri
ĠÃ¶ngÃ¶r Ã¼lmÃ¼ÅŁ
Ġeser in
Ġfollow ing
Ġyear s
ĠdoÄŁr usal
Ġal masÄ±nÄ±
ĠT en
Ġdon an
39 1
ĠgeliÅŁtir ilmiÅŁtir
for ma
Ġs i
Ġdez enf
ĠgeÃ§ ebilirsiniz
ĠSin op
Ġhaber e
Ġkan ama
ĠiÅŁlem ek
Ġoyuncu lara
den ce
> âĢĶ
Ġmut ab
ÃľN YA
ĠMuh tar
Ġaf f
ĠL ey
Ġp al
ĠAr asÄ±
D ir
abiliyor sunuz
sur e
ĠH rist
ĠEtk ileri
J ournal
ĠdeÄŁin en
Ġcan Ä±m
Ġd eli
ĠdoÄŁr ulan
uy ucu
Î ½
Ġed ine
Ġmet ni
44 5
eler ce
ĠiÃ§erik ler
Ġistem iyorum
it lik
Ġyum urt
ĠyayÄ±n lan
Ä±lÄ±ÄŁ Ä±nÄ±n
Ġbel lek
ĠseÃ§ erek
ĠTek in
Ġak Ä
Ġmaks adÄ±
ĠakÄ ±
um i
Ġgel sin
Ġplan lÄ±
ĠT uÄŁ
ĠdeÄŁiÅŁ ebilir
ĠB B
ĠRo bert
ĠAb dur
ĠyÃ¶n e
k Ã¢n
Ġnafak asÄ±
ĠÃ§ek ilmiÅŁ
ĠgeÃ§ meden
ĠseÃ§im inde
Ã§ am
Kar ÅŁÄ±
ĠyapÄ±la bilecek
ĠT art
ĠTÃľRK Ä°YE
ĠGar anti
Ġbozul muÅŁ
Ġmukav em
z ar
Ġbozul muÅŁtur
ĠA u
Ġstu dies
ĠiÃ§eriÄŁ ini
Ġkamu ya
D O
ĠÄ° Ã§i
5 43
at o
........ ....
39 7
M ic
d Ã¼l
Ġkatli am
ĠU ni
ĠFran k
Ġuyg ar
ineer ing
on i
ĠÃ¼retim ine
ĠK PSS
Ġverilm emesi
ĠH P
err y
Ġsorum lusu
ĠCo in
ĠV il
ĠuÄŁr adÄ±ÄŁÄ±nÄ±
c id
Ġd alÄ±
u ÄŁu
ĠtÃ¼rÃ¼ dÃ¼r
ĠÃ¶rgÃ¼tÃ¼n Ã¼n
Ġo mur
Ġver meyen
mam Ä±zÄ±
Ġaraz isi
Ġd iyoruz
ĠG R
Ġs ag
ib ir
ĠF aiz
Ġkaz anÄ±
Ġtas dik
Ġ !Ċ
Ġsp esifik
A lan
ĠA DA
4 39
ĠvatandaÅŁ Ä±n
ĠU sta
ĠL ED
ĠbÄ±rak tÄ±ÄŁÄ±
Ã °
ap hy
rah man
Ġm edi
ĠB uz
ĠM EB
Ġh ain
Ġdin lem
Ġbir isine
6 30
Ġyenilen mesi
Ġyaralan an
ĠyakÄ±n Ä±nda
ĠgÃ¶nder di
ĠÃ§eÅŁit lilik
Ġhaber leÅŁme
46 2
mak am
Ġolabilir ler
Ġekonom inin
it r
Ġhat alar
K endi
Ġb lack
Ġkut up
Ġanlam Ä±nÄ±
ĠbaÄŁ lama
ĠdeÄŁiÅŁik liÄŁe
ĠÃ¼retim in
ĠÅŁek eri
ĠG o
Ġde h
ĠLib ya
4 12
C M
Ġsahiptir ler
ĠyanÄ±n daki
ĠToplum sal
Ġsist ematik
4 21
op y
Ġkat Ä±larak
ĠTarif esi
Y ok
ĠgÃ¶ster diÄŁini
Ġge ometrik
HÃ¼kÃ¼m den
ĠD O
ĠTrans fer
I X
s if
ĠgÃ¶z altÄ±
Ġkazan Ä±m
Ġp ist
Bit coin
Ġp iyan
Ġazalt Ä±lmasÄ±
± dÄ±r
Ä ±dÄ±r
Ãľn lÃ¼
Tarih i
> U
Ġtah dit
ĠsÄ±kÄ±n tÄ±sÄ±
Ġtur istik
ĠgÃ¶rdÃ¼ÄŁ Ã¼nÃ¼z
ĠdeÄŁil iz
Ġkap anÄ±ÅŁ
ĠE M
ĠÃĩ OK
ĠBir kaÃ§
ĠÃ¶ÄŁretmen in
Ar aÅŁtÄ±r
ĠMut fak
âĢĻ nÄ±
Ġedildi ÄŁinde
Ġmah sus
Ġeylem lerinin
ĠsÄ±r asÄ±
Ġbelirlen diÄŁini
ĠF ur
IL AN
ĠEÄŀ Ä°TÄ°M
ĠMak ine
on y
Ġs eh
Ġkol u
ĠEt kil
ĠArt vin
Ġth ose
- mail
ĠBey rut
Ġh omojen
Y en
ĠbaÄŁÄ±m lÄ±lÄ±k
x x
ir kin
Ġbah Ã§esi
ĠdÃ¼ÄŁ Ã¼m
ĠBiz ler
ĠGaz ze
T abi
Ġmekaniz ma
Ġetk ilerinin
Ġter mal
ĠÃĸn der
ĠAd res
ĠyÄ±k Ä±m
ĠÃĩocuÄŁ un
> W
ĠOrgan ize
Ġhaz in
ĠRek abet
ĠTr end
ĠAk tif
Ġhal leri
Ġgid in
ĠkarÅŁÄ±lan masÄ±
ĠV II
F arklÄ±
Ġkaybet tiÄŁi
Ġf eth
Ġkazan maya
Kay seri
P op
Ġheyec anlÄ±
ĠAy han
ĠsÃ¶z Ã¼nÃ¼
Ġp ast
atur al
Ġusu li
ĠiÃ§eriÄŁ inde
Ġdin lenen
ĠU mut
ĠS k
Ġsaf h
ĠâĢĺ âĢĻ
ĠgeÃ§ ilmiÅŁ
Ġkir acÄ±
k iÅŁi
Ġal dÄ±klarÄ±nÄ±
ĠmÃ¼dÃ¼r lÃ¼k
ri ce
ĠKÄ±r Ä±m
Ġistem eyen
Ġkah verengi
Ġad Ä±nda
Ġsavun an
en li
ĠA mazon
ĠAk saray
Ġkap lÄ±
Ġyap Ä±sÄ±nda
S aÃ§
um ent
m y
Ġkur gu
Ġmik ros
ro id
Ãĩek iÅŁmeli
Ġel indeki
Or gan
O tel
Y ani
Ä±r h
Ġolab ilmek
Ġn eye
Ġqu e
Ġmemnun iyetini
- U
ĠÃ¼y elerin
ĠaÃ§Ä±k lay
ĠbÃ¶lg elere
ĠeÅŁya larÄ±n
Ġsystem s
Ġkor ur
ĠOrgan izasyon
ĠaltÄ±n cÄ±
Ġhesap lanÄ±r
Bel ediye
j an
Ġvekil ine
ĠedildiÄŁ inin
len mek
ĠyapÄ±lmak sÄ±zÄ±n
ĠÅŀ imÅŁek
D Ã¼zelt
ĠilÃ§ ede
Ġters i
Ġmas um
ama y
ĠfaktÃ¶r lerin
Ġs tep
ĠKarar Ä±nda
ĠM ul
Ġ Ä±z
. W
Ġayr Ä±lmasÄ±
Ġbirbir i
ĠAr navut
ĠgerÃ§ekleÅŁ miÅŁtir
Ġrisk leri
ĠsaÄŁlamak tÄ±r
ĠdeÄŁerlendir en
ĠAbd ul
ĠaralÄ±k sÄ±z
ĠyapÄ±l mamasÄ±
g Ã¶
lÃ¼ÄŁ Ã¼nden
$$ \
Ġmekaniz masÄ±
ĠKam er
ĠNev ÅŁehir
Ġacc ording
as yum
ĠÃ§alÄ±ÅŁma mÄ±z
Ġis eniz
mar is
ig her
ĠBel Ã§ika
Ġkut lama
ĠkadÄ±n larda
ĠsÃ¶y lenen
ĠÃ¼lk edeki
Boz ma
57 5
Ġkoru maya
4 15
' inde
39 6
sor b
ĠAÅŁaÄŁÄ± da
il a
ĠeÅŁya larÄ±
Ġstratej iler
Ġmer haba
. v
Ġterc Ã¼me
37 4
Ġvar lÄ±ÄŁÄ±na
ĠbaÅŁvuru larÄ±
Ġgel meye
37 9
meler e
ĠiÅŁÃ§ ileri
Ġiz ler
ĠmÃ¼ fettiÅŁ
Ġtalep te
BÃ¶l g
Ġyurtd Ä±ÅŁÄ±
ĠOp siyon
Y a
Ġuygulama larÄ±nÄ±n
Ġduygu larÄ±
00 4
Ġtop lamak
ĠyaÅŁadÄ±ÄŁ Ä±mÄ±z
ĠÄ°S TANBUL
Ġdiz isinin
Ġkur ula
ledik ten
ĠaÃ§Ä±k lamak
ĠErz incan
Ġsen etleri
ĠGÃ¼ney doÄŁu
ĠÃ¶f k
ĠMac ar
Ġoldu lar
Ġboyut ta
ĠkarÅŁÄ±lay acak
Ġmas aya
ĠA st
Ġk edi
Ġdik ey
Ġce b
ĠÅŁeh re
Bil gi
Ġkesi ci
ĠÃľs kÃ¼dar
49 0
Ġzih niyet
Frans a
ĠAk ÅŁ
ĠBir ey
viv or
ĠgeliÅŁ melerin
Ġkes imi
Ä°L EN
ay iÅŁ
Ġborc unu
Ġuygu ladÄ±ÄŁÄ±
s is
mey le
Ġkoy maktadÄ±r
Ġp Ã¼sk
ĠGÃ¼Ã§ lÃ¼
co unt
ĠmÃ¼ c
o mas
Ġyapmak la
ĠH AL
Ġgez i
ĠGÃĸREV SÄ°Z
ĠAt ak
Diy arbakÄ±r
ĠtanÄ±m lan
ĠgÃ¶rÃ¼ÅŁ tÃ¼
ĠdesteÄŁ iyle
ĠyaptÄ±r mak
ebil ecektir
ĠSekret er
ĠhatÄ±rla tan
f Ã¼m
ĠBr ezilya
M em
Ġahl aki
ĠTÃ¼r Ã¼
AL ARI
Ġbirlikt elik
ĠÃ¼retic isi
Ġv on
ĠdoÄŁru lama
ĠÃ§alÄ±ÅŁ tÄ±k
lÃ¼ÄŁ Ã¼n
Ġh ic
Ġalar m
4 35
ĠEr soy
Ġyakalan an
ĠDen izi
ĠkullanÄ±cÄ± larÄ±nÄ±n
ĠmÃ¼sab ak
ĠtanÄ±m lanmÄ±ÅŁtÄ±r
Ġf ah
VI D
ak il
Ġkat Ä±na
Ġboy n
S e
Ġokul larÄ±n
MA L
m iyorum
Ġsor uyu
ur du
Ġpart isi
Ġmerak lÄ±
Ġnisp eten
g usal
Ã¼l me
ĠA kif
Ġiz i
bÃ¶l Ã¼m
Ġuygul anÄ±p
Ġgider mek
ĠÅŀ Ã¼ph
ĠAn lat
ĠgeÃ§ ip
ĠiliÅŁk isini
Ġan est
ĠP ower
ĠgÃ¶rdÃ¼ÄŁ Ã¼mÃ¼z
ex ample
ĠmÃ¼ÅŁter inin
Ġsay Ä±lmasÄ±na
ĠmÃ¼ÅŁter ileri
Ġkur du
Ġi ta
Ġalacak larÄ±n
ti j
ez ik
Ġart mÄ±ÅŁtÄ±r
ĠÃĩaÄŁ rÄ±
s ol
ĠmÄ±s Ä±nÄ±z
Ġat anan
ĠsÄ±r f
Ġbelirt iyor
Ġbelirt miÅŁ
ĠkaldÄ±r Ä±lmÄ±ÅŁ
ĠT icari
Ġpat ent
/ K
Ġproblem s
Ġk lav
Ġtarz da
as p
Ġdeney in
imiz deki
ĠyÃ¼z me
lendir ici
ĠMic hael
Ġs ul
ĠsektÃ¶r e
ĠkoÅŁul larÄ±nÄ±
Ġbit iÅŁ
ĠD ede
ĠÃ§ ukur
es te
Ä±l makta
eh an
Ùİ Ùħ
ĠyÃ¼rÃ¼t tÃ¼ÄŁÃ¼
38 7
Ġdo es
ĠHaf tasÄ±
as u
Ġyetkil isi
ĠM ES
: Ä°cra
laÅŁtÄ±r Ä±lmÄ±ÅŁ
ĠdeÄŁiÅŁ mesi
Ä°K A
4 14
Ä°S TANBUL
Ġkim ler
ĠÃ¶z deÅŁ
ĠdeÄŁiÅŁ ti
g ara
Ġark asÄ±ndan
Ġdevlet ler
iyet li
ĠDem okrasi
ĠgÃ¶ster meye
Ġpek iÅŁtir
ON OM
ĠList esi
Ġeff ects
gen eral
Ð ²
ceÄŁ im
ĠÃ¼lkem ize
ĠÅŁ en
ĠseÃ§im lerinde
ĠTek rar
47 5
Ġmesaj lar
ĠbaÅŁ kent
Ġzilyet liÄŁi
{b matrix
ag o
ed u
ĠdÃ¼zelt ilmiÅŁ
Ġev inin
ĠÃ¼rÃ¼n lere
37 6
liliÄŁ e
n esi
T D
as an
ĠtÃ¼m Ã¼yle
ĠÃ¼ret ilmiÅŁ
gun luk
/ S
ĠSÃľR ECÄ°
Ã¶l ye
ĠdÃ¼ÅŁÃ¼k tÃ¼r
Ġalkol lÃ¼
Ġrelations hip
Ġcez asÄ±ndan
B unu
Ġs yn
ĠEr kan
ĠK os
ĠdÃ¼ÅŁÃ¼n dÃ¼r
Ġorganiz asyonu
M in
ĠAd ayÄ±
ĠP O
ĠhÄ±zlÄ± ca
ĠdoÄŁ muÅŁ
g g
- son
ĠÄ°h ale
ĠDeÄŁ il
len meye
ĠÅŀ ev
Ġbu ilding
Ġsorun larÄ±na
y em
Ġiyil eÅŁme
Ġhat aya
ĠaÃ§ lÄ±k
tr ik
la masÄ±nÄ±
len ecek
Ġso ur
ĠgÃ¶l g
ĠB Ã¶
in dan
ĠyurtdÄ±ÅŁ Ä±nda
4 29
Ġettik ten
H azÄ±r
Ġop tik
ĠKr ipto
mar Ä±m
ĠakÅŁam Ä
ĠakÅŁamÄ ±
ĠUY GUL
ĠH Ã¼c
ĠaltÄ±nda dÄ±r
ĠMil lÃ®
ĠtÃ¼ketic ilerin
Ġroman tik
Ġir delen
tan siyon
G M
Ġpoli tical
Ġvur uÅŁ
Ġmetab oliz
Ð ¼
ĠPr emi
40 3
Ġas liye
ĠÃ¶den memesi
ĠmÃ¼t tefik
yan i
ĠAnayas anÄ±n
Ġhafif let
ĠtaÅŁÄ±n masÄ±
Ġfay dasÄ±
Ġak aryakÄ±t
9 50
ĠHÃ¼kÃ¼m eti
ĠdÃ¶n g
Ġparsel lerin
ĠÃĩek ici
ĠDEÄŀER LENDÄ°R
Ã Ĺ
ĠY Ã¼ce
ĠEr tuÄŁrul
ĠbÃ¶lÃ¼m ler
Ġkoy arak
Ġdiy agram
D ol
ĠLÄ°ST ESÄ°
Ġbur asÄ±
ĠgÃ¶rÃ¼ÅŁ e
S Ä±r
' larÄ±n
ĠS efer
67 7
Ġd or
Ġredded ilmiÅŁ
. /
Ġg ood
ag es
Ġhedef leyen
Ġyaz Ä±nÄ±n
Ġmak e
44 8
39 2
Ġbilg isine
ĠK OR
abil itasyon
Ġko alisyon
larÄ±m la
Ġsur eti
Ġet mediÄŁini
ti Ã§i
oun t
Ġengel leyen
Ġverilir ken
ĠyapÄ±l malÄ±
ĠanlaÅŁ maya
ĠbaÅŁladÄ± lar
Ġpar asÄ±nÄ±
Ġuzman larÄ±
ma ÄŁan
oz an
it enin
ĠS ili
ĠE dition
ĠoluÅŁtur arak
ĠÃ§Ã¶zÃ¼n Ã¼rlÃ¼k
Ô ģ
Ġdiz inin
M Ã¼s
ĠSal on
et tin
ĠyÄ±l lardan
Ġken arÄ±nda
ĠÅŁekilde dir
eceÄŁ in
ĠA dasÄ±
ĠT AP
A ra
ĠJ ack
ward s
b is
ĠyÃ¶n lendirme
ĠsÃ¶y leÅŁ
b iz
Ġyapan lar
c asÄ±
N ew
ĠdÃ¶n Ã¼yor
Ġb ini
ĠyÄ±l dÄ±zÄ±
Ġvekil le
d eme
.BaÅŁsavcÄ±lÄ±ÄŁ Ä±na
ĠbÃ¼yÃ¼m esi
Ġolmaya caÄŁÄ±
ĠÃ§Ä±k arken
l eden
ĠY ozgat
Ġistih barat
Ġkork usu
ĠT oto
Ġhalk Ä±na
lÄ± sÄ±nÄ±z
ĠAl ma
ĠSÃ¶z cÃ¼sÃ¼
Ġbedel li
5 12
46 6
at t
es Ã¶r
Ãĩev re
C B
Ġversiyon u
Ġbenz in
ĠsÃ¼r eden
ede cek
ĠsektÃ¶r Ã¼ne
Ġtak sim
. **,
Ġkut luyor
ĠsÃ¼r gÃ¼n
Ġalk Ä±ÅŁ
ĠC elal
ĠB A
Ġz Ä±t
Ġbulun muyor
Ġbozul ma
r if
str y
at om
emey iz
ĠÄ° kin
Ġboy unda
of ya
Ġdoy ur
lock chain
ĠAv cÄ±
ĠCem iyeti
Ġinter est
0 13
m ission
Ġheps inin
G Ãľ
ĠgÃ¼ br
Ġmahall esi
ĠÃ¼retim ini
ĠsÄ±nÄ±r lÄ±dÄ±r
ĠÃ¶l dÃ¼ÄŁÃ¼
ĠÃ§ocuk larÄ±na
tal i
Ġihtiyac Ä±mÄ±z
Ġt yp
Ġmodel inin
ĠkÃ¼t le
ĠD Ã¼ÄŁÃ¼n
n eden
Ġmuh akkak
ĠOda larÄ±
Ġsu c
Ġbelirlen irken
om on
Ġp is
ĠÄ°n Ã¶nÃ¼
Ġr adi
Ġec onomic
Ġcev iz
ĠkiÅŁiler de
ĠTh ey
M ay
Ġd ediÄŁ
Ġposs ible
ĠvatandaÅŁ larÄ±
us h
ĠyaptÄ± lar
BaÅŁ ka
Ġet ek
ess ion
l ilere
NAK LAR
ĠmÃ¼z iÄŁi
Ġla ik
ĠSt ok
Ġbelg esel
ĠC ur
ĠDem okrat
ĠbÄ±rak arak
Ġtamam Ä±na
ĠSiyas et
Ġdeplasman da
Ġak Ä±mÄ±
Ġoyun unu
Ġhep imizin
Ġvermek te
Ġsun maya
Ġsun uluyor
ĠiliÅŁk ilerinin
iÅŁ ehir
Ġdok usu
ĠG etir
Ġkal dÄ±m
Ġ$ (
Ġgerek ecektir
Ġedil ebilecek
Ġgel diler
ĠtanÄ±k larÄ±n
ĠÃ¶rt Ã¼sÃ¼
ĠL ise
Ġazal Ä±r
Ġkar an
Ġmuh aseb
Åŀ K
Ġâ Ĥº
ĠkonuÅŁ uldu
ĠsaldÄ±rÄ± ya
ĠDen et
ĠS et
acak larÄ±nÄ±
- \
Ġderec eye
ĠadlandÄ±r Ä±lÄ±r
Ġmark alar
Ġko Ã§
ĠsÄ±nÄ±r Ä±nÄ±
ĠMÃ¼hendis lik
ĠEv lilik
ĠL aw
|| -
Ġiz ole
ĠgÃ¶rev ler
Ø³ Øª
ĠDep o
ec tor
ĠReh ber
Ġyap malÄ±
ĠettiÄŁ im
Ġkurtar mak
ĠDevelop ment
Ġet melisiniz
ĠÄ°z le
ĠÄ° ster
ada ÄŁ
ĠkÃ¢ ÄŁÄ±t
ĠgÃ¶nder ilir
Ġfikir leri
Tak sirle
38 6
Ġara dan
ĠiÅŁlem lerde
39 4
ĠarttÄ±r Ä±lmasÄ±
ĠFab rik
Ġkitab Ä±nda
>âĢĶ </
ĠOk tay
ĠÅŀ em
ĠsÃ¼t Ã¼
Ġisten ilmektedir
ĠgÃ¶nder mek
ĠY outube
âĢĻ ler
ĠKen an
Ã¢ tÄ±
40 2
c istan
ĠMic ro
Ġb Ã¼k
ĠEn dÃ¼str
day dÄ±
Ġk uyu
ĠCin siyet
Ġidar esi
ĠbaÅŁlay Ä±n
Ġot omotiv
luÄŁu yla
ĠsÄ±ra larda
Ġfonksiyon larÄ±
ĠY um
ĠE lif
Ġinan an
Ġk ub
ĠKim lik
Ġdiyor lar
Ġindir me
Ġay aÄŁa
Ġgrub undaki
ĠÅŁaÅŁÄ±r tÄ±cÄ±
Ġs adÄ±k
M ik
Ġkesin ti
ĠyazÄ± yÄ±
ĠY atÄ±r
Ġkampan y
Ġgel mesini
ĠDÃ¼ÅŁ Ã¼n
ĠTrak ya
Ġbeyan lar
App le
Ġtab los
Ġpolitik alar
ĠseÃ§en eÄŁini
Ġist erse
Ġtesis leri
ĠU ÅŁak
ĠY ukarÄ±daki
Ġtes ir
ĠseÃ§ ildi
ĠsoruÅŁtur masÄ±
Mil let
az min
Ġt oday
ĠkullanÄ±l dÄ±ÄŁÄ±nÄ±
Ġgez in
Ġal malarÄ±
Ġmesle ÄŁ
Ġbeyan da
Ġmer teb
Ġsorun larÄ±nÄ±n
ĠbÃ¼yÃ¼k tÃ¼r
Ġfilm de
Åŀ ehir
ĠU laÅŁ
ĠaÅŁ aÄŁ
ĠkardeÅŁ im
Ġduyar lÄ±lÄ±k
ĠTemsil cisi
@ example
ĠL og
Ġanaliz ler
ĠsÃ¼r Ã¼mÃ¼
Ġgetir mesi
Ġbilgiler inizi
Ġtercih i
Ġa u
Ġveril ecektir
ĠÅŀ iddet
ĠÃ¼retim e
ĠP akistan
ĠKullanÄ±cÄ± lar
Ġses leri
ĠPol onya
tem iz
acaÄŁ Ä±nÄ±n
Ġh elal
ĠgerÃ§ek lik
ab les
Ġoyn amaya
ilm i
Ġul uslar
Ġf lor
uyor du
>â ĺĲ
H am
la dÄ±k
il asyon
al in
= =
4 17
p ress
ĠK ing
la masÄ±nda
Ġd ib
Ġkavram lar
Ġd Ã¼
Ġcal cu
SY M
K ategor
ĠAkadem isi
et tepe
Ġdir enc
Ġproj esinin
SanÄ±k lar
Ġister iz
ĠgÃ¶rÃ¼l mekle
P U
Ġbelir lemesi
ĠS ipariÅŁ
Ġzeytin yaÄŁÄ±
edik al
D ÃľR
tiÄŁ ine
Ġyetersiz liÄŁi
Ġf low
Ġbildir diÄŁi
Ġtahr ip
Ġpoli Ã§
ĠkarÅŁ Ä±nÄ±za
Ġb ine
Ġisim lendir
Ġhast asÄ±
Ġbilg ilerine
lik dÃ¼zÃ¼
> "
Ġesk ort
ĠtÃ¼c c
ĠY em
ĠOsman iye
Ġh ost
la dÄ±klarÄ±
Ġkay y
Ġ.... ..
f te
ĠF o
ĠgeÃ§ mektedir
Ġhesab Ä±nÄ±
Ġc aiz
Ġatf Ä±yla
ĠseÃ§im lerde
ĠyÃ¶netic ilerinin
Ġdeneyim ini
af f
g Ã¢h
Ġsens Ã¶r
ĠDer in
ĠdÃ¼zey inin
ĠâĢ º
ĠbÃ¶lg esinin
Ġo wn
Ġac ent
ĠgeliÅŁim ine
Ġh om
ĠdÃ¼ÅŁÃ¼nc eleri
ley se
ĠB artÄ±n
ĠO v
Ġpaz arÄ±
c alan
da j
Ġec z
Ġn iÃ§in
Ġani masyon
Ġilet iÅŁimi
ĠKah v
ĠtoplantÄ± ya
Ġbecer ilerini
ĠtÃ¼r lerine
ĠbaÅŁla mÄ±ÅŁtÄ±
F akat
ĠÃ§alÄ±ÅŁ Ä±yorum
ĠgeliÅŁtir diÄŁi
ĠM uk
Ġmahkem eleri
Ã¶r ek
ĠÃ§ap Ä
ĠÃ§apÄ ±
Ġmod Ã¼l
Ġmed res
Ġin tegr
ĠulaÅŁ abilir
Ġn ice
Ġmar if
ÙĨ Ø§
L ock
ĠI mp
j et
ĠL ink
ĠeriÅŁ imi
Ġp ank
Ġt adÄ±
Ġd ig
ĠÃ§ are
ĠR estor
ĠkÃ¶t Ã¼lÃ¼k
ĠgÃ¼r Ã¼lt
Ġzih in
Ġgelir leri
g iler
ĠÃľy elik
la caÄŁÄ±
Ġyan lÄ±
M ersin
Ġt elif
b asÄ±
4 16
Ġs esini
M ur
AÅŀ TIR
Ġtak tik
Ġsam im
Ġbek ley
EK Ä°
p si
ÃľS Ãľ
da d
) (
s oyu
azz am
ĠÅŀ Ä±rnak
ĠsÃ¼r elerinin
Ġkolay lÄ±ÄŁÄ±
40 8
Ġkaynak lan
Ġres imler
Ġden gel
Ġperforman ce
ĠdeÄŁer e
ĠÅŁah s
ĠgÃ¶z leri
Ġyaz arÄ±n
Ġdev i
Ġet memesi
ing er
el ti
Ġolay dan
oz u
Kullan Ä±cÄ±
Ġf ib
ĠeÄŁitim de
Ġmo tive
Koca eli
ĠReh beri
dek iler
Ġsp eci
AL AR
Ġ ine
ĠyaÅŁ anÄ±yor
ĠFik ir
g it
Ġkurtul uÅŁ
> II
li b
Ġy ut
Ġsendik al
Ã¶r neÄŁin
ĠoÄŁ lum
ĠbiÃ§ ilmesinde
S arÄ±
ĠAr acÄ±
Ġst op
ĠgeÃ§ miÅŁtir
ĠgÃ¶k yÃ¼z
ĠhoÅŁ gÃ¶r
ĠmÃ¼ÅŁteriler imize
Ġiddi asÄ±nÄ±
iÅŁ ler
Ġdestek lem
ĠSup er
ĠÃ¶den mediÄŁini
Ġadres te
Ġyay Ä±lan
ĠS inema
K Ã¶y
ĠoÄŁ l
Ġotel de
4 26
ĠOL DU
Ġoyun larÄ±n
Tek nik
Ġn eyi
ad y
_ m
Ġpers pektif
ĠÃĩAL IÅŀMA
ĠdaÄŁ Ä±n
Ġtoz u
Ġek osistem
ĠhastalÄ±k larÄ±n
van ter
Ġyarat ma
Ġlear ning
dÃ¶rt gen
ĠkaÃ§ an
A dÄ±
Ġz ahmet
Ġat lat
az er
49 9
Ġmerkez e
ĠBus iness
ĠdeÄŁiÅŁ imleri
ĠTeknoloj ileri
ĠTaraf lar
Ġkom ik
ĠaynÄ± dÄ±r
ĠV Ã¼cut
ĠyÃ¶net mel
Ġbedel lerinin
ĠgÃ¶ster ilmektedir
ĠNih at
ĠbaÅŁkan larÄ±
Ġedilm eden
iz on
ĠF as
elen mesi
Ġamel iyatÄ±
reat ment
ĠsaÄŁlan malÄ±dÄ±r
if or
la dÄ±ÄŁÄ±mÄ±z
39 3
Ġperiy ot
Ġh Ã¼r
ac Ä±sÄ±
Ġduygu larÄ±nÄ±
cÄ±lÄ±ÄŁ a
ĠÃ¶ÄŁrenc iye
Ġheyec anÄ±
bul un
) ;Ċ
Ġpart iler
Ġkom bi
abil ecektir
-------- --------
Ġnes ne
ĠaÃ§ Ä±lma
Ġborc unun
ĠkÄ±v r
ĠÃ¶lÃ¼m Ã¼ne
Es kiÅŁehir
Ġd iÅŁi
ĠF it
ĠTer im
B ank
Ġat ak
ĠiÃ§ tihat
Ä±nÄ± yor
ĠDev rim
ĠP R
ĠR is
Ġac id
p m
Ġdam ga
ĠY el
Ġc uma
Ġn m
ĠÃ§alÄ±ÅŁ makta
Ġpat i
Ġat ar
Ġan kara
iz ler
ĠBaÄŁ Ä±msÄ±z
ĠistediÄŁ imiz
ĠEdeb iyatÄ±
Ġoku maya
la b
ĠÃ§ar pan
ĠdoÄŁ duÄŁu
Ġal abilecek
Ġkoy ar
h amet
Ġbeyan Ä±nda
Ġgel miyor
p ot
ĠgerÃ§ekleÅŁtir ilir
ĠB ingÃ¶l
Ġâ ĨĴ
Ġsokak ta
ĠaÅŁ kÄ±
oc us
ĠulaÅŁ mÄ±ÅŁ
Ġekonom isine
ĠgÃ¶st eri
h it
stan t
Ġam ong
l l
ĠEd ilen
ar s
ĠI stanbul
Ġadres imi
Ġger ilme
ĠEr iÅŁim
Amer ika
tr ans
un k
B oÅŁ
ĠV ekil
ĠTak sirle
ĠMes ut
i dat
ir m
ĠBaÄŁ dat
ĠÎ ±
ĠHizmet i
ĠoluÅŁtur maya
Ġmethod s
bar ek
Ġesir g
ĠKÃ¶rf ez
ĠÃ¶r tÃ¼
Y aÄŁ
Ġal abilmek
Ġfer ah
ĠyÄ±l dÃ¶n
Ġactiv ities
ĠhÄ±z Ä±nÄ±
k Ä±s
ĠyÃ¶ntem inin
Ġyaz Ä±yor
ĠAn onim
Ġs olution
ĠCom mun
D IN
ro me
Ġplak a
Ġkorun ma
Ġmahkem ede
Ek onomi
ĠKÄ±z Ä±lay
Ġkurul masÄ±na
45 5
Mod ern
ĠÃ¶ÄŁren ebilirsiniz
ĠAv an
c ent
Ġhas at
ĠpaylaÅŁ an
Ġart tÄ±ÄŁÄ±nÄ±
Ġkor san
D Ã¶n
Ù ĭ
Bey az
ĠÄ° b
Ġsab Ä±k
- z
ĠY ENÄ°
Ġbir incisi
Ġtoplan maktadÄ±r
Ġpir inÃ§
ĠsÄ±nav a
DEK Ä°LER
Ġgiy s
ĠyÄ±l Ä±nÄ±
0 11
Ġher ÅŁey
Ãĸ ÄŀR
Bilin diÄŁi
ĠT Ã¶r
Ġmis in
ĠTAR Ä°HÄ°
mam Ä±za
ĠEm ine
Ġin stagram
ĠÃ§Ä±k maz
ĠD esign
ĠVar lÄ±k
Ä±k lar
Ġziyaret Ã§i
ab lish
ĠgeÃ§ erken
ĠAL T
V II
Ġgetir i
Ġtan Ä±ÅŁma
Ġtam iri
Ġalt soyu
ĠÃ§alÄ±ÅŁ Ä±n
53 5
ĠdemiÅŁ ti
5 22
Ġnokta dan
Ġdo wn
Ġp Ä±r
or king
Ġh elp
Ġtur u
Ġetkili dir
Ġin tr
oloj inin
Y et
ĠdoÄŁru dur
Ġsavun masÄ±nda
oter api
eÅŁ in
Ġara mak
Ġark e
Ġolab ildiÄŁince
ĠmahkÃ»miyet ine
Ġyar g
ĠbÃ¶lÃ¼m den
.BaÅŁsavcÄ±lÄ±ÄŁ Ä±ndan
ĠoluÅŁ masÄ±na
ĠMalz eme
Ġf ur
> =
Ġz anlÄ±
ĠÃ§ok tan
( s
ĠBakan lÄ±ÄŁÄ±na
M ec
ĠSavc Ä±sÄ±
ĠyayÄ±n ladÄ±ÄŁÄ±
ÅŁ ah
ĠaÅŁa masÄ±
Ġdestek ten
s eli
ĠBat Ä±lÄ±
ĠyÄ±ldÄ±z lÄ±
ĠI f
Ġtr ilyon
ĠsÄ± h
ĠhÃ¼cr eler
Ġengel lem
Ġfil tre
Ġyar Ä±sÄ±na
ĠipuÃ§ larÄ±
Ġbit en
es ap
Ġtr ib
ĠMobil ya
v ers
ĠkÃ¼ltÃ¼r Ã¼nÃ¼n
Ġsen esinde
la masÄ±nÄ±n
Ġtas vir
ĠalÄ±n acaÄŁÄ±
dur ma
5 49
Ġtemsil ciler
49 1
ĠtanÄ±m lanÄ±r
ĠEk sik
Ġel imizden
Ġdil de
ĠDeÄŁerlendir ilmesi
ĠAy ak
Ġann esinin
e ed
ĠdÃ¼zenlem eleri
ĠilÃ§ elerinde
ĠÃ§ab asÄ±
Äŀ ER
k end
Ġgit tiÄŁini
ĠÃ§ar esiz
Ġad lÃ®
Ġaleyh inde
Y azÄ±
k esi
Ġadr esinin
stan ce
ĠIn stit
ĠB TC
Ã§ iye
TÃ¼k etici
Î ¿
Ġgel medi
Ġan ahtarÄ±
Ġw rit
ĠÃ¼st esinden
ĠoluÅŁ muÅŁtur
Ġf u
ĠYorum larÄ±
Ä±lÄ±ÄŁ a
Ġpla ce
ĠH ip
ĠH int
Ġsap ma
Ùİ ÙĬ
6 40
As Ä±l
Ġuygulama larÄ±nda
Ġbak Ä±yor
ĠÄ°ÅŁ birliÄŁi
KÃ¼r esel
Ġbirbir lerini
Ġtesad Ã¼f
Ġsalon unda
Ã® l
il ebileceÄŁi
Ġs iber
ĠdeÄŁiÅŁ ime
Ġ lamb
Ġp embe
Ġz ann
Ġiddi asÄ±nÄ±n
ey a
KÄ±s a
Ġma Ã§a
Ġdol ay
y nam
ĠÃ¼Ã§ lÃ¼
ĠsaÄŁla mÄ±ÅŁ
Ġis lam
V ideo
ĠÅŁ i
Ġay Ä±ndan
Ä±mÄ±z la
Ġcin si
Ġbul muÅŁ
Ġifad esinde
ĠkullanÄ± cÄ±sÄ±
4 13
Ã¼nÃ¼z e
cad em
Ġmasraf larÄ±
la ment
Ġpat ron
ĠD osyanÄ±n
GÃ¼n lÃ¼k
ĠOto matik
Y Ã¼k
ĠS E
Ġmuht elif
Ġtak Ä
Ġvi ew
ĠtakÄ ±
landÄ±r Ä±lmasÄ±
6 60
Ġil inde
ĠÃ¼lk elerinin
Ġsorun unu
ĠBaÄŁ lÄ±
Ġfos for
Ġyeter lilik
Ġo dun
ĠU EFA
Ġa im
leÅŁ ik
ĠiÅŁ lere
ya f
ĠdÃ¶n Ã¼p
Ġinsan lÄ±ÄŁÄ±n
ĠTurk cell
ĠdeÄŁer leme
j uv
ĠS ir
ĠgÃ¶rev inden
ĠdÃ¼zen leyici
B e
ĠgÃ¶rev lis
ĠT unÃ§
ĠseÃ§ kin
ĠD eri
ĠLim ited
ĠKAR ÅŀI
im arka
ey ip
Ġinv esti
/ w
ĠÄ±s lak
B undan
Ġzor laÅŁtÄ±r
M ac
Ġt enk
0 10
ar lÄ±ÄŁÄ±
âĢ ĭ
Ġel it
R EDD
. edu
lÄ±ÄŁ Ä±ndaki
Ġevr esine
eyz aj
ia omi
Ġkal a
F ETÃĸ
Ġtutuk lama
ĠPla stik
Ġkir li
Ġgetir meye
ĠmÃ¼l ga
Ġsuret te
ĠÅŀart larÄ±
Ġtak Ä±ma
ĠÅŁekl ini
ĠÃĩavuÅŁ oÄŁlu
ĠÃĸzel likler
ĠcÃ¼ml esi
G elen
r ig
Ġs Ã¼k
ĠSan Ä±ÄŁa
. h
ĠTat il
Ġr Ã¼ÅŁ
Ġsevin dir
Ġses lendir
K ara
Ġyak Ä±nÄ±n
ĠyakÄ±n larÄ±
ĠBEL Ä°R
Ġbo yan
l ileri
ĠolmasÄ± yla
Sab ah
Ä°n ÅŁ
ĠbaÅŁlat Ä±ldÄ±
Ġd im
ĠPiyas a
Ġkay dÄ±r
ĠgÃ¶rÃ¼yor um
ĠbÃ¼yÃ¼k lÃ¼ÄŁÃ¼nde
da h
ĠPren s
ĠAr if
Ġodas Ä±nda
Ġham madde
ĠkarÅŁÄ±lÄ±ÄŁ Ä±nÄ±n
I Y
Ġkur utma
ĠHay dar
ĠG old
in es
Ġhay ali
ĠmaÄŁdur enin
6 05
omet ri
Ġbak Ä±ma
ĠBaÅŁar Ä±lÄ±
ĠHak lar
ĠForm u
Son ra
ĠgÃ¶r mektedir
Ġdosya larÄ±nÄ±n
ĠsaÄŁ lÄ±ÄŁÄ±na
ac y
sel f
Ġbulun ulmasÄ±
Ġr est
ek in
w ell
Ġolay la
Ġda imi
ĠEy Ã¼p
ibil ity
Ġpiyasa larÄ±nda
ĠtÃ¼r lerinin
ĠmÃ¼l akat
ĠDEVR Ä°NE
ĠKÃ¼r distan
Ġkent te
4 36
is as
ak siyon
Ġev leri
Ban ka
Ġar Ä±tma
Ġbul up
Ä°Z MET
Ġsev diÄŁim
ic le
Ġen ergy
ĠC N
Ġhedef liyor
Ġcihaz Ä±n
ĠboÅŁ a
Ġder e
an cial
Ġaz ami
o di
ĠÃ¶rt Ã¼ÅŁ
ĠmÃ¼ esses
s ion
Ġkapsa maktadÄ±r
it metik
Ġeylem ler
ĠkarÅŁ Ä±sÄ±ndaki
Ġhayvan cÄ±lÄ±k
Ä°s lÃ¢m
v ing
ĠeÄŁitim leri
Ġsoru larak
Ġtas f
ĠoluÅŁtuÄŁ unu
ĠSer tif
zi mat
ĠP oker
Ġse en
ĠÅŀeri f
Ġdam g
Ġzar if
>T OPLAM
ĠL u
Ġsah aya
ĠÃ§oÄŁ alt
ĠalacaÄŁ Ä±nÄ±z
ĠyapÄ±yor lar
ĠÃĩaÄŁ daÅŁ
t iniz
Ø§ Ø¨
Ùİ Ø±
AS A
Y unan
ver age
Ġsun du
Ġiktid arÄ±n
Ã¶ mer
Ġhat larÄ±
ĠKim ya
6 36
Ġkonu lardan
49 5
Ġdin Ã®
Ġverilm ediÄŁi
ĠY OK
ĠBir eysel
Ġyas alar
Ġgay ri
ĠProt okol
Ġdir eksiyon
ĠgeliÅŁtir meye
is er
ĠAy lÄ±k
ĠN iÄŁde
ĠyaygÄ±n laÅŁ
ĠpaylaÅŁ tÄ±ÄŁÄ±
em edim
ĠSend ika
D R
' lerde
ĠdoÄŁ uÅŁ
Ġperiy odik
Ġf laÅŁ
ĠÃ¶ÄŁr enin
Ġhizmet lerine
ĠÃ¶zellik lerin
5 68
Ġsit elerine
ĠU V
ĠiÅŁlem lerinizi
Ġanal y
ĠB ÃľYÃľK
ĠamaÃ§ larla
ĠHat ip
tiÄŁ inden
Ġp ut
Ġiktid ara
DoÄŁ al
ĠÃ¶ÄŁretmen leri
ĠMÃ¼dÃ¼r lÃ¼k
ĠkullanÄ±la bilecek
lan Ä±n
ĠA mel
{ x
ĠDig iturk
Ġmesle ÄŁi
our ce
Ġkaz asÄ±nda
Ġinceley erek
Ġproj ede
Ġisabetsiz dir
taÅŁ Ä
taÅŁÄ ±
avi or
ĠtanÄ±m lanabilir
Ġkazan abilirsiniz
h ih
ĠMÃ¼slÃ¼m anlar
tan ce
ĠseÃ§im ler
Ġmotor lu
b ih
ĠÃĩocuk larÄ±n
Ġb etim
at r
ĠOt t
Ġbet a
Ġqu ality
Ã§ Ä±lÄ±ÄŁÄ±
ĠeÄŁitim ler
k ul
44 7
ĠKÄ±s aca
ĠkalÄ±n lÄ±ÄŁÄ±
medik lerini
ĠAnayas asÄ±
Ġbak iy
Ġkonsantr asyonu
Ġinc rease
Ġpiyas anÄ±n
ĠmaaÅŁ Ä
ĠmaaÅŁÄ ±
ev en
Ġhar am
ĠyayÄ±n larÄ±
siz liÄŁi
ĠgÃ¶rev liler
Ġuyar Ä±sÄ±
ĠZ e
Ġsistem lerin
ĠÃĸn cesi
okim yasal
ĠC eb
Ġgem isi
ĠettiÄŁ inin
Ġtac ir
ic ilerin
REDD Ä°NE
ĠA LAN
Ġail eleri
Ġs ingle
ac tor
onom y
ĠdÃ¶nÃ¼ÅŁ Ã¼mÃ¼
Ġpr ac
ĠSor unlarÄ±
Ġa id
ĠiÅŁ tah
Ġolan a
ĠT anÄ±
Ġpant olon
Ġtep e
ĠyalÄ± tÄ±m
Ġkitap ta
Ġmark asÄ±nÄ±n
Ġanti biyotik
Ä°d dian
eb et
Ġkol esterol
ur an
Ġkazan masÄ±
ific ation
Ġkut usu
ĠMimar lÄ±k
Ġmuam ele
ĠyapÄ±m Ä±nda
Ġ ~
ama dÄ±m
Ġg reat
Ã¼n ist
ĠGr ub
Ġtespit inde
Ġpiyas asÄ±nÄ±n
Ġyap masÄ±nÄ±
j Ä
Ġay ni
Ġtepk iler
Ġverilm emiÅŁtir
ĠtaÅŁÄ±nmaz lara
Ġsezon un
Ġruh u
ĠayrÄ±ntÄ± larÄ±
ĠAR AÅŀTIR
Ġet melidir
Ġkend isiyle
Ġa ir
ĠbaÅŁkan lÄ±ÄŁÄ±nda
Ġsistem lerinde
ĠG Ã¼cÃ¼
ĠG SM
ecek leri
Ġinf lu
Ġmal lar
ĠgÃ¶rÃ¼le cek
ĠbÃ¶lÃ¼m e
ĠmÃ¼te ahh
ĠUz ay
atur es
Ġt erek
Ġan onim
ĠettiÄŁ ine
et tÃ¼r
I G
if er
Ġsebeb ine
ĠP TT
ĠbÄ±rak Ä±r
Ġalan larÄ±nÄ±
Ã¼ldÃ¼ ÄŁ
ĠsÄ±k lÄ±ÄŁÄ±
Ġkavram Ä±nÄ±
b ack
Ġver eceÄŁiz
el iÄŁine
ĠDiv an
ĠsÄ±r aya
c am
ĠHeyet ince
ĠalÄ±n tÄ±
Ã¤ n
ĠSempoz yumu
ĠÃĩ im
ĠuÄŁr una
ĠP i
Y abancÄ±
' T
Ãľcret siz
ist s
uv al
as Ã¶z
Pro je
Ġf an
lar eli
ĠÃ¼z Ã¼ntÃ¼
Ã ³
Ġdey ip
j a
Ä±n t
ĠbÃ¶lÃ¼m lerin
Ġmodel ini
ĠB lok
D et
Ø± ÛĮ
ĠtÃ¼r Ã¼nÃ¼n
til de
ĠBakan lÄ±ÄŁÄ±n
M aÄŁ
ĠYÃ¼r Ã¼rlÃ¼k
Bas it
et s
Ġs oÄŁu
Ä±l gan
ĠgeliÅŁmeler e
ĠDÄ°Z Ä°NÄ°
ĠarÄ±n dÄ±r
4 19
Ġifad esinin
Ġmaj or
Ġcih etle
yan t
ĠBey oÄŁlu
ĠR Ã¼yada
ĠeÅŁ deÄŁer
>Or talama
_ c
Ġe mail
Ġgerek liliÄŁi
Ġceza larÄ±nÄ±n
ĠÃ§eÅŁit liliÄŁi
ni a
ĠK uv
6 25
d alÄ±
ĠgÃ¶r meyen
ĠSab it
ĠiÃ§ ki
at s
Ġlist esini
ĠÃ§alÄ±ÅŁ tÄ±klarÄ±
dÃ¼r Ã¼lebilir
Ġad Ä±ndan
Ġkuv veti
Ġfac tor
ans a
> Ar
. n
is li
Ġli p
ĠÅŁart Ä±nÄ±n
oz of
acÄ± lar
Ġc ur
ĠverildiÄŁ ine
ĠdeÄŁin ilen
ĠHay atÄ±
ĠdeÄŁiÅŁ iyor
Ġtak Ä±lan
jÄ ±
tic le
Ġb asÄ±
Dair emizin
Ek im
Ġcumhur iyet
ĠSay f
ĠK eÃ§
ĠDem okratik
ĠÅŁiddet le
ĠaÃ§ Ä±yor
Ġak di
Ġtelefon lar
Ġdiler im
ĠÄ°st eminin
P ost
Ġy Ä±ÄŁ
Trabz on
ĠMad en
Ġkol larÄ±
Samsun g
ĠY ayla
Ġm ov
Ġsap t
4 23
Ġsunul du
Ġmikro organ
ĠF onu
Ġbek ler
Ġpan ik
ĠÅŁekil leri
ĠT Ã¼z
ĠKul Ã¼p
ac her
ĠsatÄ±ÅŁ larÄ±
Ġdelil leri
ĠaskÄ± ya
ĠgeÃ§ meyen
ĠgerÃ§ekleÅŁtir ebilirsiniz
ĠÃ§or ba
Ġbek lediÄŁi
Ġyas ada
ĠKarÅŁÄ± yaka
E d
Ġbir liÄŁinin
ĠÃ§ek ildi
ĠDoÄŁ r
ĠSt ate
ĠB Ä±rak
Ġsor gulan
Bilg isayar
ih azÄ±r
ĠbÃ¼r Ã¼n
ĠdeÄŁerlendir ilmiÅŁtir
48 2
Ġm iyim
l Ðµ
ed in
ĠgÃ¶rÃ¼ÅŁ mek
Ġnumun e
* )
ĠbaÄŁ lar
ĠtÃ¼rk Ã§e
ĠC EZ
ĠIn tel
Ġhuzur unda
ĠYÃ¶ntem leri
ĠTat ar
Ġip lik
ĠAn siklop
.fÄ±k rasÄ±
5 41
ĠÃĩ al
Ġekib imiz
ĠFizik sel
ĠyÃ¶ntem lerini
4 22
Ä±la bilmesi
Ġkad arÄ±yla
ĠmÃ¼ÅŁter ilerinin
B unlar
sa ge
ĠAÄŁ aÃ§
Ġan iden
ĠÃ¶ner iriz
ĠkÄ±sm Ä±ndan
ĠÄ° th
z ade
Ġtemel de
ĠyerleÅŁ miÅŁ
ĠSo cial
it lerin
Ġdin leme
as tÄ±r
es tern
Ġfirma lara
len mesinde
Ġtemper ature
z ersiz
Ġdep ozit
Ġtar h
ĠMah alle
>- ,
45 7
c ilere
Ġkont eyn
Ġalacak lar
Ġvar Ä±lmÄ±ÅŁtÄ±r
Ġbab anÄ±n
ĠBoÄŁaz iÃ§i
Ġbitk ilerin
Ġmetrekar elik
ĠkÄ±sÄ±m larÄ±
ĠA lÄ±
" .Ċ
ul y
ĠkÄ±s kan
rak siyon
ĠÃ¶rgÃ¼t leri
ĠREDD Ä°
ĠmÃ¼sab aka
Ġactiv ity
ĠÃ§Ä±kar Ä±r
ĠyÃ¶n Ã¼ne
B ek
Ġoynan acak
b esi
ĠtaÅŁ eron
il le
eti ÄŁi
Ġtab anÄ±
4 18
T EN
ĠYap Ä±sÄ±
Ġgir meden
ĠVad isi
Ġdenetim ine
la tif
ĠdÃ¶nÃ¼ÅŁ tÃ¼
ĠilaÃ§ larÄ±n
ĠÄ° LÄ°
Ġboya ma
Ġyol larÄ±na
ĠsaÄŁ lanmÄ±ÅŁ
V C
Ġek ranÄ±
ĠH ES
od es
ĠhÃ¼kÃ¼m lÃ¼lÃ¼ÄŁ
ĠL ik
Ġbildir en
ĠgÃ¶z lenen
H ava
Ġama tÃ¶r
O ÄŁ
ĠD ah
ĠOl ur
ĠsavaÅŁ a
ĠiÅŁyer ine
D oÄŁu
amÄ±z dan
ĠgÃ¼ven cesi
... âĢĿ
h Ã¼kmÃ¼n
ĠÄ°k lim
Ġte masÄ±
Ġar o
ĠG ran
Ġat Ä±yor
Ã§Ä± larÄ±
Ġbab am
6 48
Ġbahsed ilen
Ġavantaj lar
M on
rom b
Ġdep artman
Ġyan Ä±ndan
Ġolay larda
ĠÃ¼stlen diÄŁi
OS YAL
Ġt om
Ġtrak tÃ¶r
ĠDeÄŁer leri
ic iliÄŁi
ĠdÃ¶nem ler
ĠA MA
ĠÃ¶lÃ§ Ã¼mÃ¼
ĠdÃ¶n mek
Ġher halde
Ġhaf Ä±za
g ini
Ġetmektedir ler
/ c
ĠR an
ĠA ND
ĠdÃ¼zenlem elere
Î µ
Ġlist esine
ĠgÃ¼nd elik
F atih
Ġkamuoy una
n ur
ĠiÅŁlem lerine
Ġh i
ĠM ore
Ġpazar da
Ek onomik
Ġenj eksiyon
AN LI
ĠL it
Ġiz mir
ĠeÄŁitim ine
Ġdeng esiz
Ġbak Ä±lmaksÄ±zÄ±n
Ġmini bÃ¼s
ĠaraÅŁtÄ±rma cÄ±lar
c Ä±mÄ±z
Ø¯ ÛĮ
ĠEduc ation
Ġuygulan maz
Ġex tr
ĠÃ§Ã¶zÃ¼n Ã¼r
Ġkullan abileceÄŁiniz
ĠGenÃ§ ler
ĠSÃ¼r eci
ĠMer t
SÄ° AD
ĠiyileÅŁtir me
Ġdinlen ildikten
ĠÃ¶ÄŁrenc ilerine
um cu
Ã¼ fer
ay nÄ±
Kay Ä±t
on da
ĠH it
ĠZ el
ĠE dit
g Ä±z
ĠM AL
Ġyol undaki
A MAN
Ġl Ã¢
ĠK R
Ġmo du
ĠÄ°htiy aÃ§
al esi
LÄ°Äŀ Ä°NE
ĠU R
o int
ĠG ezi
B ER
ĠgerÃ§ekleÅŁtir ildiÄŁinin
Ġkriter leri
ĠBir likte
Ġmark alarÄ±
Ġfikir ler
Ġtaki ben
Ġhav aliman
biy o
Ġpro te
or du
ced es
Ġyap acaÄŁÄ±nÄ±
aman Ä±z
Ġmerkez inin
em m
Ġyap alÄ±m
ĠeÅŁya lar
ĠdavacÄ± lara
Ġver diler
iy se
x bet
Ġbeden sel
Ġkay ma
ĠgÃ¶rmek teyiz
ĠgeÃ§ iÅŁi
Ġal Ä±k
Ġcez aya
Ġbank asÄ±
Ġrapor un
** .
Ġanlat maya
Ġrahat Ã§a
____ ____
> En
Ġedilm esinde
Ãĩ ift
t ok
Ġel li
S ch
Res mi
ĠN iÅŁ
Ġy etim
at aÅŁ
ĠÃ§arp Ä±ÅŁ
, ...
ĠUygulama larÄ±
Ä±k lÄ±ÄŁÄ±
Ġek leyerek
Ġkonum una
kÄ±r Ä±lÄ±k
ĠBaÅŁbakan lÄ±k
Ġkayd ol
ĠboÅŁ al
Ġf al
ĠP M
fer ence
Ġuygulan maktadÄ±r
re am
Ġf oto
ogr aph
an ol
Ġkon v
Ġar g
Ġkumar hane
ĠÅŀ ark
ĠYap Ä±lacak
ĠK AB
ĠÅŁans lÄ±
- ekonomik
ĠS SK
ĠL et
ĠhÃ¼kÃ¼m d
Ġfelsef e
el iÄŁin
ĠgÃ¼ven de
ĠuyuÅŁmazlÄ±k ta
Y atÄ±rÄ±m
Ġokuy un
Ġh igher
Ġsch ool
ĠAlbay rak
Ġsp ek
ĠKal dÄ±
Ã¶ ÄŁ
Ã¼y Ã¼ÅŁ
Ġistih kak
H O
ĠÃ¶nem siz
Ġim ha
An ne
Uz man
y oloji
Ġgir in
ĠW est
Ġgiy en
Ġisteyen lerin
ĠmaÄŁdur iyet
Ġbun larla
Ï ĥ
ĠyanÄ± tÄ±
/ D
amaya caÄŁÄ±nÄ±
abilir im
ediÄŁ inin
ul uÅŁ
ĠhÃ¼kÃ¼m sÃ¼z
Ġfir maya
Ġkapat ma
ĠkÄ±z Ä±l
ĠÃĸn emi
ĠS Ã¼m
Ġgelir in
og a
Ä±nÄ±z daki
ĠgÃ¶rÃ¼ÅŁ meleri
as ta
Ġgelir ler
ĠolduÄŁunu zu
eb ildiÄŁi
ĠFed eral
Ġsit elerin
ĠYÃľK SEK
Ġopt imize
Ġw ar
Ġfir masÄ±nÄ±n
Ġsezon unda
Ġcon f
Ġsay Ä±labilir
Ġamin o
ĠV ah
Ġark asÄ±na
ĠiÅŁlem lere
ĠulaÅŁ mÄ±ÅŁtÄ±r
ĠsÃ¶zleÅŁ meli
K ir
Ġman evÃ®
ĠvatandaÅŁ larÄ±mÄ±zÄ±n
Ġex ample
ĠS Ä°STEM
Ġtitiz likle
Ġrej imine
Trabz onspor
Han gi
Ġmensup larÄ±
ĠO x
ĠNum arasÄ±
Ġkal or
Ġper d
44 1
ĠÃ¶ner ilir
Ġver miyor
ĠKon ferans
Ad alet
Ġrenk te
ĠDayan Ä±ÅŁma
ĠÃĸn c
ar ch
Ġorta okul
Ġr Ã¼t
ĠN ez
da larÄ±
Ġes p
ĠGÃĸRÃľÅŀ ÃľL
uÅŁmaz lÄ±ÄŁÄ±n
ĠCev abÄ±nÄ±n
ĠiÅŁlem inde
Ġbur cu
Ã§Ä± larÄ±n
Ġev ler
A DA
Ġindir imli
Ġser p
Ġoyn uyor
r ad
y ok
ĠdÃ¶n mesi
t adÄ±r
ĠÅŁart larÄ±nda
T witter
Ġvermek ten
Ġeklen t
ĠEmek li
J ap
un der
ĠcoÅŁ k
Ġamac Ä±nÄ±
Ġbon o
Ġbur Ã§
ĠT SK
Ġkur su
ĠAr ka
ĠbÃ¶lg eyi
4 37
ĠHakk ari
OR TA
ĠÃ¶nc Ã¼lÃ¼ÄŁ
Ġtebligat Ä±n
Ä°Y AT
49 3
it li
c Ä±lÄ±ÄŁÄ±n
ĠBur han
ĠdeÄŁiÅŁken ler
Ġik isinin
Ġm eg
Ġuy arak
ĠtaÅŁ Ä±m
ĠÃ¶lÃ§ eÄŁi
Ġay na
ĠiP ad
ĠfÄ±kr asÄ±ndaki
ĠZ engin
ĠÅŀampiyon lar
o j
.Åŀ ti
Ġvak f
b Ã®
OR UM
Ġbah si
ildiÄŁ iniz
C ar
ĠÃ¼Ã§ gen
Ġter ey
ĠÃ§Ä±k arÄ±n
Ġistey ebilir
ama mÄ±ÅŁ
ĠÃ¶n Ã¼nÃ¼
ac tions
ĠEr eÄŁli
ĠEth ereum
Ġavukat larÄ±
ĠFu at
6 47
ĠN ational
ĠR eview
4 24
Ġl ot
Ġunder stan
ĠiÅŁlet mec
ĠTr av
ĠD ini
Ġpay Ä±na
Ġkay yÄ±m
ĠK ovid
Ä±nÄ±z la
ÃľÃ§ Ã¼ncÃ¼
n Ã¼
Ġimz asÄ±
Ġdis cus
ĠG AZ
ĠGÃ¶n Ã¼l
Ġmev s
ĠdÃ¼ÅŁÃ¼nc esine
Ġbulunu la
Ġf amily
ĠJ an
Ġkullan dÄ±ÄŁÄ±mÄ±z
Ġistif ade
Ġs kan
Ãĩ Ä°
Ġedil emeyen
ĠCoÅŁ kun
ĠyetiÅŁ en
55 5
Ġs per
ilm emiÅŁtir
ĠyÃ¶ntem dir
Ġs tand
ok u
ĠtartÄ±ÅŁ malar
BÄ° TAK
7 03
ASI L
ĠyÃ¼z lÃ¼
Ġadres leri
Ġl ess
ĠoluÅŁtur ulacak
Ġann enin
math rm
ĠÅŁart lara
ĠseÃ§ ip
à ¸
Ġama cÄ±nÄ±n
Ġgiy in
Ġrefer andum
ĠÃ¢ lem
ĠM im
Ġcis im
ĠfarklÄ±lÄ±k larÄ±
) =
Ġ( -
ĠBir den
D ar
Ġharc an
Ġsal gÄ±nÄ±n
' -
N I
maya caÄŁÄ±nÄ±
ĠTeÅŁkil at
Ġs odyum
Ġn ehir
6 06
Ġsav cÄ±
ĠÃ¶ngÃ¶r en
ĠarÄ±yor sanÄ±z
ta ur
- up
ikat Ã¼r
ĠkaÃ§Ä±r ma
Ġemin im
say Ä±lÄ±
ĠSanat lar
ĠdÃ¼zelt ilmesine
Ġiptal ini
Ġsel f
/ M
Ġd uman
Ġfiyat larÄ±n
ĠÃ§alÄ±ÅŁan lara
4 31
ys ical
Ġiz olasyon
Ġsuy unu
Ġkoy up
ĠdÃ¼zey ini
ĠvÃ¼cu da
ĠEr can
Ġques tion
Ġprogram larÄ±nÄ±n
ĠsorumluluÄŁ unun
it leri
ĠÅŁu an
Ä±m Ä±nda
ĠL am
as ed
Ġsin dir
ĠD onald
ĠD emek
Ġmerak la
W indows
ti mal
Ġkad eme
ĠAÃ§ Ä±sÄ±ndan
Ġkelim eleri
ĠU SA
ĠEr c
Ġkas aba
Ġacel e
Ġdur ur
ĠKap sam
G ar
ĠbulunduÄŁ una
Ġhalk la
ĠHas tal
ĠÃĩevrim siz
Ġas t
Ġhav aya
B oy
ĠðŁ ĺ
Ġbelirlen meli
ĠÃ§iz im
Ġvideo lar
45 9
liÄŁ indeki
ĠÃľzer inde
4 68
Ġs log
Ġver ebilirsiniz
ĠsuÃ§ lara
ĠGÃĸRÃľÅŀÃľL ÃľP
r iz
eng th
ĠbaÅŁvur muÅŁtur
ĠU laÅŁÄ±m
Ġotur duÄŁu
ĠaÃ§ acak
ĠAj ans
ap Ä
art ment
ĠBul uÅŁ
Ġgrup larÄ±na
44 3
Ġparametr eleri
ĠkayÄ±t lar
ĠZor unlu
apÄ ±
ĠT aban
evi ous
T eÅŁ
Ġnitelik tedir
ĠJ os
Ġkaynak larÄ±nÄ±
Ġsit elerinden
ĠAlt un
Ġsayf asÄ±na
ĠolduÄŁumuz u
ĠEtkin lik
ĠS ina
ĠDil ek
Ġkat il
ĠT unc
Ġkal ori
ĠdÃ¼ÅŁÃ¼nc eye
Ġfre qu
ĠN ar
ĠO lum
ĠBur dur
ĠAy kÄ±rÄ±lÄ±k
/ cm
ĠCen ter
TI ON
50 5
ĠyÃ¶ntem ince
Ġfaydalan mak
maktay Ä±m
Ġyol lardan
Ã¢ c
6 20
Ġmen z
Ġtas hih
( a
Ġmak ar
T B
ĠSÃ¼r eÃ§
ĠDo landÄ±rÄ±cÄ±lÄ±k
Ġc r
ĠBOZ MA
53 4
n ers
th ough
** :
ĠA cÄ±
Ġed ersiniz
ist en
Ġpaz ara
Ġad liy
ĠDAÄ°R E
Ġita at
ĠÃ¼st elik
Ġkurum lara
\ text
Ġekip lerinin
Ġlevel s
ĠbirleÅŁtir ilen
ĠalÄ±r lar
dÄ± ma
Ġyev miye
elektr ik
& #
Ġkan unu
Ġob ez
ĠÃ¶den ecek
G EL
g ay
B ab
Ġincelem eler
Ġbak ma
Ġazal tÄ±cÄ±
Ġal mÄ±ÅŁtÄ±
adÄ±ÄŁ Ä±mÄ±z
ĠayÄ±r ma
Ġtutul ur
ĠÂ» Ċ
ĠL ar
ĠkarÅŁÄ±lÄ±ÄŁ Ä±nÄ±
ĠT ex
ĠyÃ¼rÃ¼t me
Ġsonuc unun
ĠK aza
ĠBak Ä±ÅŁ
/ ml
p ing
ĠyÃ¶ntem in
ĠB ig
D e
leÅŁ meye
ĠÃĩalÄ±ÅŁ malarÄ±
ĠiÅŁyer lerinde
G F
ĠsÃ¼r eye
Ġden ilmektedir
Pro j
ĠKur s
ĠgÃ¶ster ilir
ĠKim yasal
day Ä±m
ĠyapÄ±lma dÄ±ÄŁÄ±nÄ±
iler imiz
Ġtak as
Ä°Åŀ Ä°M
>Or ta
ĠK AZ
Ġg overn
la manÄ±z
Ġbeklent isi
ĠmÃ¼ÅŁter iye
ĠDo larÄ±
Ġhedef e
tÃ¼d yo
Ġp usu
ĠMuhal efet
r ep
Ġfiz yolojik
H ol
mini str
Ġc los
ĠÄ°ttifak Ä
ĠÄ°ttifakÄ ±
Ġkoy muÅŁtur
Ġr eli
Ġplatform da
ĠÅŁ ur
Ġolur uz
rat ik
at on
Ġhav ayolu
Ġisp atÄ±
\ u
ĠgÃ¼n kÃ¼
Ġek olojik
DAVA CI
Ġbahis ler
ĠH atÄ±r
Ġbal on
ĠMÃ¼slÃ¼man larÄ±n
Ġtah kim
ĠØ§ÙĦ ÙĦÙĩ
Ġproj elerin
Ġsanat sal
Yak laÅŁÄ±k
Ġbildir ildiÄŁi
ĠA C
ĠdÄ±ÅŁarÄ± ya
ĠI Ã§in
Ġide olojik
Rek lam
ĠØ§ ÛĮ
G rafik
ĠW ith
ĠB re
ĠFon ksiyon
ĠAy v
5 18
mathb b
AN K
Ġsp ace
ĠÄ±s Ä±l
Ġkan lÄ±
Ġuygulama larÄ±na
Ġt uhaf
ĠkonuÅŁ ulan
ĠÎ ²
ÃĸZ ET
ĠgÃ¼n Ã¼nÃ¼
ĠO SB
sel en
ĠdeÄŁiÅŁtir en
Ġbul dum
ĠL Ã¼bnan
Ġsembol Ã¼
ĠAd il
Ġtan Ä±sÄ±
Ġsu lar
In stagram
Ver gi
ĠAn laÅŁmasÄ±
la d
Ġkelim esinin
lama dan
ĠoluÅŁ up
Ġtip leri
Ã¢ me
M ad
ĠF uar
âĢĻ lÄ±
Ġev lerinde
ĠY emen
Ġla v
Ġt encer
Ġsefer ber
Ġgerek mez
ĠL Ä°S
57 1
n y
6 27
ĠbaÅŁvur ul
Ġver iyorum
ĠmÃ¼ÅŁtek inin
B R
Ġmec han
ĠK ARA
57 3
lacak tÄ±r
ĠL ef
Ġkaybet miÅŁ
D uy
Y P
Ġad larÄ±na
Ġvir Ã¼sÃ¼
Ġil Ã¢n
Ġmak sat
Ġver diÄŁiniz
ĠgÃ¶z yaÅŁ
>Y Ã¼z
45 2
s ayÄ±
ĠbÃ¼yÃ¼k ÅŁehir
ĠÃĸlÃ§ eÄŁi
Ġtamam lanan
ĠiÅŁÃ§ ilere
K ul
Ġvar lÄ±ÄŁÄ±n
Ġobserv ed
ĠÄ°ÅŁ ler
s uÃ§
Ġkon f
Ġmev cu
G R
Ġsistem indeki
46 3
Ġkat Ä±nda
Ġilgilen en
Ġat Ä±ldÄ±
ĠyakÄ±n larÄ±nda
Ġv at
Ġve f
ant um
Ġann em
Ġs w
ĠkonuÅŁ masÄ±
Ġsekiz inci
Ġhal indeki
Ġkalit esinin
ĠmÃ¼z e
M en
> k
Ġidar ece
F er
ĠZ n
Ġb ilmesi
ĠÃ§ irkin
OC UK
Ġcoun tries
Ġj ener
ĠÃĩ iÄŁ
Ġtehlik esi
ĠkÃ¶y de
Ġf lu
Ġi dam
H ABER
Ġuy umsuz
Ġgit mesi
Ã¼l eme
d ine
ĠyatÄ±rÄ±m larÄ±n
et ine
Ġkarbon hidrat
ĠO N
ĠÃ¼r Ã¼ne
Ġhik met
ĠyÃ¶n Ã¼nÃ¼
Ġedilm eye
Ġdil in
Ġpart ilerin
LA H
Ġortak lÄ±ÄŁÄ±
ĠØ¨ ÙĨ
ĠoluÅŁ abilecek
brid ge
ĠSan ay
E f
ĠY anÄ±t
Ġbulun ulmuÅŁ
ĠYazÄ± cÄ±
53 3
ĠÃĩukur ova
ĠA Ä°H
ĠÃ§iz en
ĠkarÅŁ Ä±layan
ĠKon feransÄ±
Ġekran da
ĠÃ§oÄŁ unun
Ġdin lemek
ĠÃ§alÄ±ÅŁan larÄ±na
Ġolur sanÄ±z
may alÄ±m
ĠCem il
ĠÃ§eliÅŁ kili
7 30
ĠMuh asebe
Ġan lamaya
Ġgelir ken
ep h
Ġteach ers
Ä°H A
Ġbildir ilmesi
ĠAs s
Ġr as
ĠR ul
ĠÃ¶ÄŁ Ã¼n
Ġs ih
ĠulaÅŁ Ä±r
ĠeÄŁit men
Î ¹
el eyen
de x
Ġtespit inin
N ET
has Ä±r
Ġolma dÄ±klarÄ±
ĠbaÅŁar Ä±sÄ±nÄ±
50 2
H emen
Ġm art
5 17
Ġoran larÄ±nÄ±
ĠdÃ¼ÅŁ ecek
ĠC lub
ĠgÃ¼ndem de
ĠkapÄ± larÄ±nÄ±
Ġd ub
ĠDanÄ±ÅŁ man
ĠtaÅŁÄ± masÄ±
C ESÄ°
ag n
en ni
Ġhav anÄ±n
Ġiktid arÄ±
ĠAD LÄ°YE
T es
ĠiÄŁ ne
ĠÅŁaÅŁ kÄ±n
Ġkarar Ä±ndan
Ġkir aya
Ġmu azzam
Ġrekabet Ã§i
ĠK op
ĠiÃ§er mesi
SuÃ§ a
Ġveril eceÄŁi
M O
ĠBu gÃ¼ne
ĠYar Ä±ÅŁ
ĠmÃ¼sa ade
eceÄŁ imizi
ĠFeth iye
m Ä±yoruz
ĠSiz ler
ĠM uÅŁ
Ġsun acak
Ġbelgeler den
ĠGenel kurmay
ĠÃ§evr enin
ĠÅŁ ov
ĠkarÅŁÄ±lÄ±k sÄ±z
Ġde b
ĠkatÄ±lan larÄ±n
ĠgeÃ§ir me
ĠM elik
Ġver mem
Ġspektr um
Ġher ÅŁ
ĠilaÃ§ lama
ĠKim dir
Ġkal Ã§a
ĠÃ§ek ilmesi
Ġdikkat le
S av
ĠN us
acaÄŁ Ä±nÄ±zÄ±
G EÃĩ
Y AN
ladÄ± lar
ĠÃ§ocuk larÄ±nÄ±
j antin
b Ã¼l
ĠF ree
Ġnec ess
ĠDur sun
Ġertelen mesi
or es
Ġmon te
Ġpoli sin
M AR
ĠsÄ±kÄ±n t
ĠSor unu
ĠAc c
. |Ċ
ĠMÃ¼ ft
ĠMatba asÄ±
Y S
ĠÃ§Ä±kar Ä±ldÄ±ÄŁÄ±
ĠyaÅŁan tÄ±
ĠMak ed
ĠtanÄ± mak
Ġhesap lar
ĠÅŀ imd
Ä°L MESÄ°
ĠG ram
Ġziy net
68 0
Ġkarar lÄ±lÄ±k
BaÅŁ vur
Dosya da
taraf Ä±ndan
ĠgeliÅŁ mesine
ĠuÄŁr amÄ±ÅŁ
Ġistemek tedir
ĠyÃ¶net mek
Ġc ay
a it
lak a
ĠÃ¶lÃ§ Ã¼len
s w
57 0
ĠKilis esi
4 53
lanma dÄ±ÄŁÄ±
ĠeÅŁit liÄŁi
ĠdoÄŁr uluÄŁ
atur a
ĠEn erj
57 6
ĠYan lÄ±ÅŁ
ĠD iyet
Ġbul maya
Ġk udret
Ġg lik
45 1
ĠNet work
ĠI sÄ±
Ġtut u
var phi
iyat rosu
Ġk Ä±lmak
ĠO S
ĠoluÅŁum unu
LERÄ°N Ä°N
Ġr Ã¼yada
Ġy Ä±lan
Ġbenz eyen
ĠL eg
ĠÃ§Ä±karÄ± yor
Ġuygulan mÄ±ÅŁ
Ġt aÃ§
ĠD enk
ĠÃ§ Ä
Ġkombin asyon
ĠHur da
Ġekonom isinin
Ġoyunun da
Ġitiraz a
v ri
ĠsÃ¼p Ã¼r
Ġin gil
ama dÄ±ÄŁÄ±nÄ±
Ġef end
ĠG as
ĠZam anÄ±
Ġtelefon un
Ġhak sÄ±zlÄ±k
Ġbirik imi
ĠÃ§Ä±kar Ä±lmÄ±ÅŁtÄ±r
ĠÅŁey dir
Ġsermay enin
ĠiÃ§ ers
ĠyetiÅŁtir me
> m
Ġgit tik
Ġb efore
d ini
crip t
Ø§Ø ¦
ĠH ad
ĠÃ¶rnek lem
Ġmad alya
Ġlist elen
Ġede bileceÄŁi
ĠÅŁirket lere
44 9
ĠH alÄ±
Ġem red
ĠÃ§Ä ±
ĠVol kan
Ġrej iminin
ĠBe dava
G rup
d unun
Ġla ter
Ġtutar Ä±nÄ±n
/P DY
Ġh iz
may Ä±nÄ±z
59 9
ĠdÃ¼zenlem elerin
ĠBir incisi
y Ã¼r
Ġmaliyet li
- u
ĠgÃ¼Ã§ lerinin
Ġkoz metik
mran iye
BÃ¶l Ã¼m
ĠmaksadÄ± yla
larÄ±nÄ±z dan
Ġbir inc
ĠR od
ĠAvrup alÄ±
ĠE den
Ġwith out
ĠKÃ¶pr Ã¼sÃ¼
7 25
ĠaÅŁ Ä±nma
ĠBoy utu
ĠdÃ¼ÅŁÃ¼n mÃ¼yor
Ġlist ede
Ġz Ä±m
Ġkor ona
Ġistem iyor
ĠÅŁaÅŁÄ±r t
O VA
Ġindir gen
ĠGeor ge
Ġoda da
Ġ ÛĮ
ĠDÃ¶v iz
Ġstandart larÄ±
Ġoyn at
ĠS ing
ĠbaÅŁka larÄ±na
ĠgenÃ§ lere
ma c
Ġsol uk
Ġtec hni
Ġdavet iye
Ġal maz
ĠyapÄ± yÄ±
ĠtasarÄ±m larÄ±
T al
Ġpazar Ä±nda
50 7
ĠT ART
ĠBes lenme
ĠÃ¶mÃ¼r lÃ¼
ĠTÄ° CARET
ĠB ina
5 46
ĠÃ§alÄ±ÅŁ tÄ±m
ĠY AK
Ġces ur
Ġde formasyon
Ġodas Ä±na
ĠuÃ§ aÄŁÄ±
ĠÃ¼cret ler
ama t
ĠK ep
ĠP res
Ġinsan lardan
n own
ĠS enin
ol uk
ĠÄ°liÅŁk ileri
ĠÅŁahÄ±s lar
Ġtakv iye
ĠGÃ¼ven li
Ġuz laÅŁ
wit ch
Ġyer lerini
Ġuz ant
ĠP lat
Ġnokt asÄ±ndan
vi ce
e ign
ĠB iÃ§
ĠMek an
Ġpas ta
Ã® f
Ġyaz maya
ak ere
ĠE U
Ġdo larÄ±n
ĠgÃ¼l dÃ¼r
Ġy in
ĠKar aca
U CU
ĠyÃ¼ksek lik
Ġyat kÄ±n
abilir sin
T rafik
Åŀ ah
r ightarrow
op at
Ã§ er
str Ã¼k
Ġbeklent ilerini
ĠfÄ±r tÄ±na
Ġal ay
ĠÃ§alÄ±ÅŁ acaÄŁÄ±z
cel ona
Ġbu g
Ġmez hep
Ġbina larÄ±n
ĠtanÄ±t Ä±mÄ±
Ã¼ de
ĠyapÄ±l dÄ±ÄŁÄ±nda
46 1
ĠM K
MA LAR
ĠK imi
ĠbaÅŁvur an
Ġn eyin
ati o
ĠiÅŁit me
ĠDanÄ±ÅŁ manlÄ±k
ĠÄ° lim
ĠkatÄ±lÄ±mcÄ± larÄ±n
Ġplan lÄ±yor
ĠP ot
ĠsÃ¶zleÅŁ meyi
Ġme ans
ĠAl per
Ġsur face
ko Ã§
Ġkullan manÄ±z
Ġbulundur an
ĠB izi
B AK
ĠAkÅŁ ener
Ġsit u
Ġbilm eniz
ĠS ÃĸZ
Ġal em
lek si
Y emek
p ay
:Ċ Ċ
Ä±nÄ± fa
Ã¼s yon
Ġmensup larÄ±nÄ±n
ĠdÃ¶nem deki
ĠKap lan
Ã¼yor uz
Yap Ä
YapÄ ±
Ġt Ã¼z
ĠyapÄ±lan dÄ±rma
Ġkat Ä±lmasÄ±
nam ede
ĠgÃ¶z lÃ¼k
ĠN eÅŁ
65 5
ĠBel irli
Ġn etice
ĠkoÅŁ u
Ùĩ Ø§
ĠÅŀirket in
SI Z
Ġyarat tÄ±
Ġsandal y
lo v
ĠÃ§alÄ±ÅŁ Ä±p
Ġf ram
ĠTechn ology
dÄ±ÄŁ Ä±nÄ±zÄ±
ĠgÃ¶ster dikleri
Ġiz lenen
ĠVer im
Ø ¥
9 78
dÄ±r lar
Ġel lerinde
ĠBÃ¼t Ã§e
kap Ä
kapÄ ±
ĠAbdÃ¼l ham
ĠdilekÃ§ esindeki
Ġkullan mÄ±ÅŁ
Ġyaz Ä±p
ag en
ĠHrist iyan
Sev gili
bur nu
Ġyetenek leri
ĠAl b
C om
ĠiÅŁ lerinin
ĠSch ool
{ R
ĠYak laÅŁÄ±m
Ġzilyet lik
Ġol anÄ±n
T his
Ġek leme
P at
Ġslog anÄ±
ĠartÄ±ÅŁ la
Ġproper ties
-b ey
Ġuy umu
Ġidar esindeki
ĠÃ¶lÃ¼m Ã¼nden
ĠÄ°ht isas
ĠAr aba
ĠN ehri
edir gin
ĠKat ar
ĠsÄ±k Ä±ntÄ±lÄ±
Ġgrup lara
ĠÃ§eki p
Ġkadem eli
ĠH en
ĠM I
Ġbil hassa
ĠÅŁikayet e
ĠHayvan cÄ±lÄ±k
S ayfa
ĠkayÄ±t sÄ±z
Ġd eki
ib rit
ĠÃ¶den miÅŁ
V AN
sek iz
ĠO ut
ĠsaÄŁ lÄ±ÄŁ
Ġh eter
ĠR ahat
Ġw omen
â ĸ
ĠÃ§alÄ±ÅŁma larla
ĠkÃ¼ltÃ¼r Ã¼n
ĠÃ§Ä±k masÄ±nÄ±
Ġarac Ä±lÄ±k
ĠÅŁark Ä±cÄ±
y ay
Ġfer t
Ġdav asÄ±nÄ±
ĠÅŁirket te
ev et
ĠBilim sel
Ġr ey
uy an
Ġf iber
ĠkonuÅŁ uyor
Ġih anet
ĠIM F
Ġuy ruklu
ÃľR ÃľL
K I
Ġden gesi
Ġbek leme
YÃ¶n etim
00 6
ĠSor ular
Ġeduc ation
Ġay aÄŁÄ±
ĠÃ§Ä±kar Ä±ldÄ±
ĠTC Y
dustri al
ĠbuluÅŁ ma
ĠiÃ§eriÄŁ inden
ĠÃ¶l Ã¼me
ĠÃ§ inko
Ġten is
ĠdeÄŁiÅŁ imin
Ġkonum unu
lan dÄ±ÄŁÄ±nda
ĠEn deksi
ĠÃľrÃ¼n ler
ĠkarÅŁÄ±laÅŁtÄ±r masÄ±
Ġortam Ä±n
Ġnak led
ĠdilekÃ§ elerinde
Ġdevr inin
Ġbelirlen melidir
) âĢĻ
ĠGenel de
Ġfiyat Ä±nÄ±
Ġrep ort
Ġest ablish
ĠMart in
Ġihrac atÄ±
way s
ab at
ĠFransÄ±z ca
ĠMahkem esiyle
ĠÃ¶lÃ§ me
Ġan larÄ±
Ġsak Ä±nca
u tr
ĠdÃ¼zen ini
erv is
Ġde cisi
Ġet memek
00 7
Ġetkil ediÄŁi
Ġg or
tif y
ĠX X
Kr edi
ĠZ inc
ĠY erli
47 6
ĠiÅŁlem ci
ĠÃ¶ÄŁren en
H DP
ĠMas a
ĠEr g
Ġifad elerine
ĠTemyiz en
ĠiÅŁ inin
ĠdÃ¼ÅŁÃ¼r Ã¼l
Ġmin net
Ġv r
ED E
ĠÃ¶ÄŁren meye
dik Ã§e
Ġsim ilar
Ġak sak
aÅŁ ehir
ĠP ublish
tek in
ĠYap Ä±m
Ġdar p
Ġkar ayolu
ĠD S
Ġayr Ä±mÄ±
Ġsub ay
em emiÅŁ
an dan
ot u
ĠtanÄ± y
ah u
ĠKÄ±r ÅŁehir
P olis
Ġkend ilerinden
ir en
Ġkor idor
B kz
T ÃĸR
b ilmek
Ġyan ma
Ġtamam lamak
ĠiÅŁletmeler de
Ġders e
enk ron
ĠbaÅŁkan lÄ±ÄŁÄ±
ĠedilmiÅŁ ti
ĠYardÄ±m cÄ±
ĠTed bir
Ġgider ler
Ġf em
ĠÃĸd Ã¼l
Ġlimit i
Ġab art
ĠartÄ±ÅŁ Ä±n
gen el
Ġnas ip
Ġi tem
ĠØ ¢
ĠKole ji
Ġil Ã¢
Ġedilmek te
Ġet menizi
ĠKal esi
Ä° bn
Ġpozisyon u
ĠgÃ¼ bre
Ġn emli
M el
Ġkonum landÄ±r
la tÄ±r
ÅŁek linde
Ġmeb laÄŁ
Ġtest ler
Ġdurum larÄ±nÄ±n
ĠOl dukÃ§a
ĠcÃ¼ml eler
: )
Ġdar al
Ter Ã¶r
ĠÃ§evir me
iy es
ĠÃ¶z lem
Ġbelediy enin
Ġin iti
it in
co un
ĠS AN
ĠaÃ§Ä±k lar
ST RA
Ġred uc
ĠT able
ĠN am
Ġeleman larÄ±nÄ±n
ĠBank acÄ±lÄ±k
em enin
ut ed
KÄ± brÄ±s
ĠAÃ§Ä±k lama
Ġpartic ip
BaÅŁ ar
V ak
ĠmÃ¼cadel enin
. madde
Ġs ulan
Ġcol lec
ĠÃĩAL IÅŀ
ĠyaÅŁadÄ±ÄŁ Ä±nÄ±
Ġsik iÅŁ
ĠO ri
ĠW ork
t anÄ±n
Ġkazan acak
Ġsek ret
anÄ±z Ä±n
ĠiÅŁken ce
6 44
C am
ĠdeÄŁiÅŁken lik
ĠarttÄ±r Ä±r
6 29
Ġsan tr
50 8
ĠÃ¶ÄŁretmen lerinin
Ġoto masyon
TA LÄ°
Ġat mÄ±ÅŁ
ĠkonuÅŁ masÄ±nÄ±
ĠsÃ¶yl edik
Ev de
Ġpres tij
Ġá¸ «
uh an
ĠS emin
li z
SP OR
re en
Ġgetir ildiÄŁi
ĠÅŁikayet in
Ġse e
GeÃ§ miÅŁ
ĠÃ§ ayÄ±
ĠaraÃ§ larÄ±nÄ±
Ġedilm em
Ġkal dÄ±k
50 4
Ġhar man
Ġay lar
ĠdÃ¼ÅŁ Ã¼lerek
Ġgecik tir
ĠR efer
Ġyak alamak
Ġk us
MÃ¼ÅŁter i
ĠBek taÅŁ
ot on
il eÅŁtir
ĠBÃ¶lg esel
4 67
Ġth esis
ĠL atin
Ġhast aya
ĠtanÄ±m lar
Ġver ilerini
ĠyÄ±l Ä±ndaki
Ġuygulan mak
ĠAb bas
Ġmuhak eme
ĠS iv
t ara
ĠaÅŁa masÄ±na
os p
Ãľr etim
ĠBit ki
ĠKÃ¶ tÃ¼
ĠÃĸ R
Ġdenet len
ĠMek sika
ĠpaylaÅŁ Ä±lan
ĠOf is
K uzey
ĠR Ã¼z
av ar
Ġresp ons
Ġkas tÄ±
lendir mek
ad s
C en
ĠR AM
( b
Ġuygul ayan
ĠD ip
7 07
DOÄŀ AN
Ãĩ ocuÄŁ
ĠayrÄ± larak
Ġay gÄ±t
ĠLid eri
ĠD C
af tasÄ±
ĠM Ã¼m
ĠG i
ĠkullanÄ±cÄ± ya
ĠkullanÄ±l masÄ±na
Ġspor tif
Ġpoli Ã§e
Ð° n
Ġadalet li
ĠH AR
Ġem zir
ĠP orn
ĠÃĸÄŁretmen lerin
h Ã¼kÃ¼m
Ġspec ific
B on
T rans
Ġyetk isini
ĠaklÄ± ma
Ġiy isini
Ġkayy Ã¼m
ST Ä°T
Ġbeyan larÄ±na
Ġyemek leri
ĠÃ§ am
Ġoyn adÄ±
Ä°R K
ĠF ord
eÅŁit li
Ġmekt ub
50 3
Ġazal dÄ±ÄŁÄ±
44 6
ol y
Ġmerkez de
ĠP ER
Ġziyaret Ã§iler
ĠTop luluÄŁu
ĠEf f
Ġpay Ä±nÄ±
ĠP ak
ĠSÄ±nav Ä
ĠSÄ±navÄ ±
ĠtartÄ±ÅŁ Ä±lmasÄ±
Ġbir incil
ĠSh ow
Ġn eyse
ĠSer ver
Ġbahs ede
5 11
ĠMuh af
Ġeylem iyle
ĠTEK N
ĠStr e
ĠB iden
Ġhap se
46 4
Ġtut uyor
Ġm iy
v est
ĠEn dÃ¼stri
Ġotur up
Ġtespit ini
Ġanal itik
m esindeki
Ġma zer
ĠgÃ¶revl ilerinin
iy ana
ĠSm ith
. Asliye
Ã¼l oz
Ġeser lerin
Ġahl Ã¢k
Ġizley ebilirsiniz
[...]
