Ä ±
n Ġ
e Ġ
l a
e r
Å Ł
Ã ¼
i Ġ
a Ġ
i r
i l
Ä Ł
i n
a r
Ä± Ġ
Ã §
k Ġ
la r
m a
Ã ¶
Ä± n
e l
e n
a n
e t
a l
i nĠ
e k
l er
u Ġ
d e
d aĠ
Ä± r
v eĠ
y a
d a
d eĠ
o l
e s
i ÅŁ
b ir
e m
o r
u n
t a
k a
Ä± nĠ
i s
o n
i m
u r
e d
Ä± ÅŁ
e nĠ
i y
bir Ġ
i k
Ä± l
u l
e y
la n
a s
Ã¼ r
a k
i z
i t
Ġ s
Ġ b
Ġ B
g Ã¶
Ġ k
a y
Ã¼ n
a kĠ
a t
Ã¶ n
Ä± m
i Ã§
i ÄŁ
u m
b il
i kĠ
Ġ veĠ
ma s
a ÅŁ
Ä±n daĠ
a ÄŁ
er Ġ
e kĠ
d u
d Ä±r
Ä± ÄŁ
da nĠ
Ã¼ z
Ä± k
t Ä±r
in deĠ
t ir
de nĠ
lar Ä±Ġ
a m
in eĠ
Ġ A
in iĠ
lar Ä±n
a z
Ġ t
in inĠ
Ġ y
la nĠ
Ġ d
gÃ¶ r
Ä °
ek t
e v
l eĠ
e ÅŁ
ya p
d ir
s t
Ġ g
Ã¼ l
e c
il er
u nĠ
a nĠ
m aĠ
o lar
il eĠ
Ġ h
l iĠ
m iÅŁ
m Ä±ÅŁ
Ä± z
el er
u ÅŁ
l Ä±Ġ
de ÄŁ
Ä± s
y aĠ
ma k
Ã¼ m
olar akĠ
v er
Ġ (
m es
a h
l en
Ġ K
Ã¼ ÅŁ
ler iĠ
u y
u s
Ã¶ z
Ġ ol
Ġ S
e ÄŁ
ma n
iÃ§ inĠ
ÄŁ r
Ġ m
Ã ¢
Ä± kĠ
Ġ "
is t
k iĠ
lar Ä±nĠ
du ÄŁ
o k
Ã¼ k
a d
Ä± y
g el
Ġ T
l em
b uĠ
al Ä±ÅŁ
i b
u t
ed ir
k ar
a f
m ekt
ĠB uĠ
Ġ Ã
Ã§ o
u z
i p
i f
la ÅŁ
Ã¶ r
mas Ä±Ġ
o p
b ul
l ik
el Ġ
Ä±n Ä±Ġ
Ä±n aĠ
la Ġ
Ä±ÄŁ Ä±Ġ
g er
e Ã§
iÄŁ iĠ
Ġ D
ed il
Ġ M
e z
mak ta
r o
ul lan
a Ã§
lar Ġ
o nĠ
Ã§ alÄ±ÅŁ
a b
s on
mekt edir
i h
o la
b aÅŁ
da h
en d
Ġ p
Ä±n danĠ
i d
t ar
Ã¶ l
makta dÄ±r
Ä±n Ä±nĠ
ka t
Ġ .
m eĠ
miÅŁ tir
a ma
Ġ Ä°
i c
Ġ H
t ur
Ã¼ nĠ
mÄ±ÅŁ tÄ±r
Ã¶n em
a p
o lanĠ
ler inĠ
o y
d ur
Ġ Y
Ġ E
bil ir
dah aĠ
et k
Ã¼ y
o m
k on
ar t
Ã¼ Ġ
b el
a c
ar k
k ullan
v ar
da kiĠ
ar as
la m
u k
g u
Ã§o kĠ
y an
l eÅŁ
Ä± c
t er
Ġ G
duÄŁ uĠ
t aĠ
Ã¶ ÄŁr
Ġ birĠ
ek iĠ
Ã¼ kĠ
ma kĠ
or ta
et m
Ã¼z er
in c
Ã¶ y
o ÄŁ
i ya
et Ġ
y Ã¶n
ler Ġ
Ã¼ t
in denĠ
ib iĠ
t an
a v
es iĠ
ya ÅŁ
t Ã¼r
o s
uÅŁ tur
ka d
al Ġ
un uĠ
im Ġ
mes iĠ
e b
iy or
Ä± lanĠ
deÄŁ er
ka y
r u
s Ã¼r
t eĠ
ÅŁ ek
bel ir
bul un
o t
Ġ f
s an
larÄ±n Ä±nĠ
y ar
ma l
d i
ma d
t em
iÅŁ k
t r
d Ã¼ÅŁ
il g
is eĠ
un daĠ
lar aĠ
e p
st er
iy et
iy eĠ
Ã§ Ä±k
il iĠ
Ã§ ek
Ġ O
y on
s aÄŁ
l ikĠ
l Ä±kĠ
lar daĠ
al t
Ã ®
gÃ¶ ster
Ġ P
k ur
d Ä±
d iÄŁ
kar ÅŁ
en inĠ
Ã¼ Ã§
iy leĠ
c eĠ
d ekiĠ
ya nĠ
la ma
e denĠ
ey eĠ
larÄ±n Ä±Ġ
is iĠ
g eÃ§
d er
an s
k al
gÃ¶r eĠ
et im
v r
Å ŀ
en iĠ
ĠÃ ĸ
. .
ĠÃ ĩ
i dir
â Ģ
ar Ġ
un unĠ
c akĠ
t op
y er
b aÄŁ
a lan
t i
e f
er k
Ã¼k s
Ã¼ c
Ġ n
u Ã§
Ġb uĠ
f ark
d en
uy gu
Ã¶z el
son r
l u
Ä±y or
m et
o ÄŁr
s ah
dur um
Ġ edil
e h
ola y
o z
ta nĠ
ÅŁek il
iĠ veĠ
ka p
o j
u c
v ey
Ġ %
ger ek
l et
ler ininĠ
k end
Ġ F
Ã¶ÄŁr en
g en
s ay
vey aĠ
Ä± t
un aĠ
aÅŁ tÄ±r
ya z
ya k
len dir
e de
Ã¼r k
s or
Ã§alÄ±ÅŁ ma
o d
deÄŁ iÅŁ
d Ã¼z
de v
l Ä±k
Ġ an
s a
la maĠ
ist em
il iÅŁk
Ä± dÄ±r
iÃ§ er
ler iniĠ
g ibiĠ
d Ä±ÄŁÄ±Ġ
l uĠ
gÃ¶r Ã¼l
ĠA n
ta s
Ġy Ä±l
larÄ±n aĠ
al Ä±n
s iz
g r
ay r
Ġt ar
Ġ olarakĠ
h al
Ġ Ġ
m ekĠ
t es
Ġ C
y onĠ
Ä± lar
ol oj
aras Ä±ndaĠ
t e
in iz
ol duÄŁuĠ
l iÄŁ
Ġ c
Ä± la
y al
Ã¼ s
b ak
Ġ N
d Ä±ÄŁ
s elĠ
e bilir
ver il
s el
Ã¼ ÄŁ
ed en
b Ã¼y
gel iÅŁ
a man
ec eÄŁ
lar Ä±ndaĠ
r es
ler eĠ
iler inĠ
n inĠ
Ġ Ã§
k an
af Ä±ndanĠ
sah ip
en t
ik iĠ
Ä±n dakiĠ
g iĠ
gÃ¶ z
h as
e deĠ
y Ã¼ks
la t
yap Ä±l
ÅŁekil deĠ
Ġ et
Ġk on
Ã¶nem liĠ
l ey
l Ä±ÄŁ
a ya
Ä±m Ġ
d iÄŁiĠ
p ar
s aĠ
p ro
y et
s iy
n eĠ
ma yaĠ
s al
y Ä±l
Ä± p
lar Ä±
y erĠ
an lam
im iz
m ey
iler iĠ
eler iĠ
d ik
Ä±y laĠ
ru p
d an
ol duÄŁ
Ġ -
n Ä±Ġ
leÅŁ tir
Ġ R
s Ä±n
d Ã¼r
h erĠ
h ar
ta k
deÄŁ il
eÄŁ it
et ir
Ã¼l k
dÃ¼ÅŁ Ã¼n
Ä± f
g Ã¼n
m uÅŁtur
u p
Ä±s Ä±Ġ
t ek
c aĠ
t al
c ak
sonr aĠ
iy iĠ
Ä±y la
t Ä±
z aman
im iĠ
in dekiĠ
in de
o Ġ
ĠB ir
ar aÅŁtÄ±r
ler deĠ
k iÅŁ
e bil
er ekĠ
Ä±n da
ta ÅŁ
ilg iliĠ
or an
d oÄŁr
Ã¼ st
de m
Ã ĸ
Ã¶zel lik
Ġ ileĠ
b Ã¶l
c Ä±Ġ
ar akĠ
f az
. "
ec ekĠ
Ġ ka
l um
ler ineĠ
il enĠ
Ã¼ v
h ak
f or
in san
ak t
bir lik
if a
Ä±m Ä±z
kay n
Ġ v
Ã§o c
orta yaĠ
l Ä±l
s Ä±z
y ol
el deĠ
o ÅŁ
h an
ÅŁ ey
u kĠ
Ġ r
il erĠ
Ã¶ÄŁren c
Ġ V
Ã ĩ
Ġk ar
du k
m em
Ġ yap
s er
g etir
ama nĠ
g ir
h em
m Ã¼ÅŁ
ĠA r
du y
lar danĠ
Ã¶l Ã§
ma y
mas Ä±
Ä±Ġ veĠ
el ikĠ
al iz
el erĠ
l e
y Ã¼z
ol uÅŁ
ler i
ĠA y
es indeĠ
deÄŁer lendir
ta b
l iÄŁiĠ
k or
s un
ger Ã§ek
man Ä±nĠ
inc el
s Ä±r
el iĠ
ol uÅŁtur
s Ã¶y
eÅŁ it
ev r
n eden
il kĠ
k Ä±s
Ġ de
ma m
bÃ¼y Ã¼kĠ
u ÄŁ
a daĠ
k aĠ
etk il
as Ä±Ġ
eler inĠ
Ġs on
fark lÄ±Ġ
âĢ Ļ
z amanĠ
aÃ§ Ä±k
Ġ Åŀ
i ka
Ġy Ã¶n
s Ã¶z
t enĠ
mas Ä±naĠ
f a
yÃ¼ks ekĠ
n Ä±nĠ
er iĠ
u laÅŁ
yap Ä±lanĠ
iÅŁ lem
lan anĠ
Ġk ur
b en
z an
Ã¶n c
s iĠ
c aÄŁ
Ä±m Ä±Ġ
am aĠ
iy e
kad ar
ay nÄ±Ġ
Ġg el
d iĠ
d oÄŁ
a bil
m u
la y
s eĠ
z or
Ã¼v en
Ġ ÅŁ
d Ã¶nem
kullan Ä±l
ta t
Ġg ibiĠ
iÃ§ indeĠ
Ġb aÅŁ
Ġ L
m ed
Ġ deĠ
m uÅŁ
bil g
T Ã¼rk
ya y
i g
bir ey
t ut
Ã¼n deĠ
Ã§ aĠ
belir t
saÄŁ la
Ġk ullan
d Ä±ÅŁ
ol ma
Ã¶r n
ifa deĠ
ler indeĠ
Ġ '
az Ä±Ġ
ec ek
d Ã¶n
Ġ olanĠ
Ġ ar
la s
et t
l Ã¼
Ã¼zer indeĠ
a lanĠ
birlik teĠ
ma nĠ
Ġol duÄŁuĠ
) ,
la h
Ä±l Ä±Ġ
Ġ ,
p er
Ġ o
es i
Ã¼l tÃ¼r
on om
e g
Ã§Ä±k ar
us uĠ
il miÅŁtir
inc iĠ
a da
Ġ I
a la
al g
eÄŁit im
Ġg er
uy g
in s
Ġ ver
h eĠ
Ġs Ã¼r
as yon
k enĠ
l Ä±ÄŁÄ±Ġ
da v
eĠ veĠ
et ic
es t
iÅŁ im
gÃ¶r Ã¼ÅŁ
ya s
in g
t Ã¼m
laÅŁ tÄ±r
baÅŁ la
i v
Ã »
da ÅŁ
lan dÄ±r
et r
Ġ ed
an Ä±ÅŁ
Ä±c aĠ
t Ä±ÄŁÄ±Ġ
l il
ma z
y eniĠ
iÅŁ tir
Ä±l Ä±m
) .
is indeĠ
Ä±k larÄ±Ġ
m ek
az Ä±r
b as
Ä±c Ä±Ġ
iya t
Ġs ay
yaĠ daĠ
son uc
ka nĠ
yak laÅŁ
tar afÄ±ndanĠ
Ġ U
Ä± daĠ
ler denĠ
da vr
dev am
k i
el ik
kad arĠ
ek onom
r e
tr ol
larÄ±n danĠ
ey iĠ
dÃ¼z en
uy or
d Ä±m
il m
oy un
gr am
Ġd Ã¼z
os yal
el eĠ
diÄŁ erĠ
s eÃ§
k en
iz met
il Ġ
Ġk al
aya t
edil enĠ
ka bul
b an
olduÄŁ unuĠ
s it
oy ut
de st
mas Ä±nÄ±Ġ
makĠ iÃ§inĠ
ĠT Ã¼rk
ma t
as Ä±l
as Ä±ndaĠ
s istem
kayn ak
Ġ iÅŁ
h at
karÅŁ Ä±Ġ
ek s
s ev
ĠA l
c Ä±
son uÃ§
ur um
s at
l o
aÃ§ Ä±s
Ã¼n eĠ
lu ÄŁ
v ur
oloj ikĠ
belir len
de ceĠ
k es
erk ez
k r
ih t
s eb
Ä±l mÄ±ÅŁtÄ±r
us undaĠ
Ġp ro
st an
ek et
iÄŁ iniĠ
tan Ä±m
yÃ¶n tem
b er
iz m
ka zan
vr am
ĠÃ ľ
A l
gÃ¶r Ã¼n
k im
l ed
a bilir
ler dir
akt Ã¶r
Ġt op
Ã¼n Ã¼nĠ
Ġol duÄŁ
ec eĠ
ok ul
Ã¶ÄŁr etm
lar dÄ±r
or um
p it
A n
Ã¼t Ã¼nĠ
Ã¶y leĠ
Ġ yaÅŁ
ka s
Ġb ul
Ã§oc uk
Ġtar afÄ±ndanĠ
ĠAy r
siy on
ler indenĠ
ta m
top lum
ic iĠ
.. .
gÃ¶r ev
s onĠ
Ã¶n ceĠ
o lan
m en
Ã¼c r
g an
s uz
m eyeĠ
ol it
ek len
Ġh al
in i
l Ä±
h er
o c
l ul
karÅŁ Ä±
in e
uyg unĠ
lan mÄ±ÅŁtÄ±r
lik leĠ
Ä±n Ä±z
y eĠ
da ÄŁ
Ã¼k Ã¼m
davr anÄ±ÅŁ
iht iya
y en
s am
ta h
lÄ±Ġ birĠ
m er
b u
Ġ ad
d il
enĠ birĠ
g Ã¼Ã§
ar et
hak k
aras Ä±ndakiĠ
Ã¼zer eĠ
ĠÄ° n
r at
ta mam
Ã¼zer ineĠ
Ġ on
em eĠ
b ah
Ġ Z
Ġs aÄŁ
Ġk end
t u
Ġ a
ama Ã§
l i
aras Ä±Ġ
d Ã¼n
an Ä±nĠ
an t
k et
d Ã¼ÄŁ
tek n
ka Ã§
es ininĠ
s i
k Ã¶
o v
Ä±l masÄ±Ġ
g Ã¼t
yÃ¶n elikĠ
Ã ľ
i denĠ
A r
Ġk iÅŁ
kon u
kend iĠ
aÃ§Ä±s Ä±ndanĠ
Ã¼r kĠ
al Ä±Ġ
ler leĠ
ar Ä±Ġ
h azÄ±r
ĠyÄ±l Ä±ndaĠ
Ã¢ n
ĠB un
a it
a at
g Ã¼ven
Ã¼ p
ol um
ÅŁek l
han giĠ
dik kat
dev let
g Ã¼nĠ
an aliz
Ã§ Ä±
doÄŁr uĠ
el im
s alĠ
h es
ĠAn cakĠ
lem eĠ
Ã§ ev
liĠ birĠ
ay aĠ
Ã§ Ã¶z
t Ä±ÄŁ
Ã§ eÅŁit
mes i
Ġb il
Ġd en
bÃ¶l g
tas ar
c ih
is i
n it
eceÄŁ iĠ
Ġ al
il mesiĠ
ar aĠ
var dÄ±r
Ġy Ã¼z
m od
m ez
m Ã¼
ĠĠ ĠĠ
Ġb el
ka m
tes pit
geliÅŁ tir
eÄŁ iĠ
l uk
Ġ bir
d et
gÃ¶rÃ¼l mektedir
l Ã¼Ġ
k Ã¼
s p
mad Ä±ÄŁ
es ineĠ
gerÃ§ek leÅŁtir
s in
is ininĠ
b un
ben z
iÃ§ im
g il
Ġ iÃ§inĠ
Ġh as
lar ĠveĠ
bulun anĠ
Ã¼r Ã¼n
m e
ar d
is e
ol duk
d olay
o f
Ã¢ r
uygu lama
s av
iliÅŁk inĠ
g rup
Ä±l mÄ±ÅŁ
Ã§alÄ±ÅŁ maĠ
en er
aÄŁ Ä±r
iÃ§er isindeĠ
h iÃ§
en c
Ġ etm
is iniĠ
ekt Ã¶r
m eler
mas Ä±ndaĠ
Ã§o ÄŁ
Ġ l
ka vram
dÃ¼z ey
ede f
h Ä±z
n edenĠ
baÄŁ lÄ±Ġ
s iniz
faz la
gel enĠ
l Ã¼ÄŁ
iz eĠ
orta m
ab er
da k
u b
Ġtar ih
Ġ dahaĠ
uygu lan
mas Ä±nÄ±nĠ
h izmet
larÄ±Ġ veĠ
s ur
il et
Ġb Ã¶l
yaÅŁ am
iÅŁ l
n ok
gÃ¶r e
s en
p r
yet er
iÃ§ in
Ã§ eĠ
uĠ veĠ
araÅŁtÄ±r ma
Ġ âĢ
p lan
Ġ ola
id er
r ah
Ġs istem
y o
an aĠ
uz unĠ
Ġ deÄŁer
da yan
y ok
iÄŁ erĠ
ĠÃĸ z
cak tÄ±r
Ġg en
k Ä±r
d in
tar ih
i de
Ã¼m Ã¼z
tar af
Ġ ya
baÅŁ ar
ĠAyr Ä±caĠ
en ek
al iyet
Ã¼m k
il ir
aĠ daĠ
b azÄ±Ġ
mÃ¼ÅŁ tÃ¼r
mes ineĠ
Ä±l Ä±r
ol masÄ±Ġ
Ä±lar akĠ
k u
is ineĠ
Ã¶y l
el likleĠ
r ak
kon trol
ev c
iĠ ileĠ
mal Ä±dÄ±r
ed er
t ekĠ
kap sam
et imĠ
Ã¶r t
Ġy er
n asÄ±l
lÄ±l Ä±kĠ
az ar
Ä±l Ä±kĠ
lu kĠ
b ur
tes t
mekĠ iÃ§inĠ
mad Ä±ÄŁÄ±Ġ
ik tar
Ġg Ã¼n
kur ul
bÃ¶l Ã¼m
art Ä±ÅŁ
k Ã¼ltÃ¼r
an laÅŁ
o st
h is
sÄ±n Ä±r
il miÅŁ
Ġb ilg
ol ur
Ã¶r gÃ¼t
h ayat
ter n
ekonom ikĠ
iler eĠ
Ġ el
faz laĠ
ama c
in in
iler ininĠ
ik leriĠ
f aktÃ¶r
ĠÄ° ÅŁ
yerĠ al
es iniĠ
aÄŁ Ä±Ġ
b et
gÃ¶ n
ta p
baÅŁ kaĠ
r an
il ikĠ
bil in
Ġ z
r is
d Ä±k
k Ä±
" ,
i la
may Ä±Ġ
Ã¶rn ek
r a
ĠÃĩ alÄ±ÅŁ
bir Ã§okĠ
in an
eh ir
t Ã¼
alt Ä±ndaĠ
Ġh em
Ã§ Ġ
stan bul
Ġd Ã¼ÅŁ
s Ġ
kad Ä±n
. ,
Ã¼y or
Ġ ay
g eĠ
bir iĠ
u lanĠ
Ġ aÃ§
ar ka
Ã¼r etim
as yonĠ
s Ä±k
g Ä±
evc ut
ins anĠ
il en
Ġy ar
m iĠ
Ġbul un
n unĠ
olar ak
lar laĠ
r ol
Ã¶zellik leĠ
deÄŁ iÅŁk
k oy
sa deceĠ
ÅŁ ir
b lem
r en
m Ã¼mk
Ġt ek
s il
k Ä±Ġ
ik selĠ
Ã§ evr
m enĠ
az al
r ek
b it
ul us
gel ir
h a
mes iniĠ
k em
Ã¼Ã§ Ã¼kĠ
aĠ veĠ
Ġd er
ib ar
Ã¢ l
a kat
l Ã¼kĠ
dÃ¶n Ã¼ÅŁ
Ġb aÄŁ
v et
ler ĠveĠ
p ay
e j
yap Ä±
i deĠ
Ġy an
t Ä±k
bir bir
har eket
kullan Ä±lanĠ
eler deĠ
Ġh ak
sÄ±n Ä±f
Ġh erĠ
es er
dÃ¼ÅŁ Ã¼kĠ
ek liĠ
m el
Ġs er
kar ar
s ik
h af
Ġ kat
o b
inc eĠ
Ġt heĠ
es n
Ġs Ã¶z
y Ã¼r
deÄŁil dir
Ġs or
t Ã¼k
it eĠ
makĠ Ã¼zereĠ
Ġd urum
r aÄŁ
dan aĠ
zaman daĠ
iler iniĠ
Ġs Ä±n
ib i
un da
z em
eler ininĠ
Ä° s
oy n
um Ġ
s es
ĠAr aÅŁtÄ±r
r aĠ
r as
s Ä±Ġ
Ã¼n c
t Ä±Ġ
etk in
un danĠ
s e
Ã¶ÄŁretm en
sÃ¼r ec
h ur
en gel
ekt edir
Ġg ru
ĠÄ° l
ÅŁekl indeĠ
Ã¶nemliĠ birĠ
an lat
seb ep
ener j
s iya
k olay
ĠÃĸ r
s man
it er
Ä° n
Ä±r ak
tem el
Ä±l dÄ±ÄŁ
s ap
ey enĠ
Ġedil miÅŁtir
Ġol ma
oÅŁ ul
yar dÄ±m
or gan
m in
d ar
Ġ ak
ekt r
r ar
a j
Ã¼ f
ay Ä±r
Ã¢ h
de s
Ġh ar
s Ä±
kur um
k om
ar kĠ
h edef
Ġm il
ĠK ar
Ġkar ÅŁ
ileĠ ilgiliĠ
geÃ§ ir
t eÅŁ
l idir
at if
Ã§eÅŁit liĠ
lan masÄ±Ġ
Ã¶ k
B ir
p oz
hes ap
Ġ ma
taÅŁ Ä±
bil giĠ
ĠB aÅŁ
eÅŁ tir
v rup
I I
Ġt an
il im
has ta
den ey
ya tÄ±r
s osyal
Ġs an
sor un
on unĠ
ol up
ik aĠ
ok u
d Ã¼
etk iliĠ
it ibar
yerĠ alanĠ
Ġg eÃ§
lan mÄ±ÅŁ
z ar
fa aliyet
i ver
hangiĠ birĠ
lar la
Ä±l Ä±ÄŁ
h am
Ã¼n Ã¼
ĠB ununĠ
mak taĠ
Ã¶n er
t el
ti v
da m
ĠdÃ¼z ey
ĠB ur
as it
for man
eÄŁ inĠ
Ġkon usuĠ
c an
kon uÅŁ
Ġ in
Ä±c Ä±
c ev
g it
yaÅŁ an
tat ist
yar at
Ġk i
TÃ¼rk iye
uygu la
Ġ :
d Ä±Ġ
Ġs ev
Ã¼r et
da ir
deÄŁiÅŁ ik
os y
b iÃ§im
Ġd iyeĠ
k ol
leriĠ veĠ
incel en
top lam
n Ä±z
b ar
enĠ veĠ
ta y
id ar
ortayaĠ Ã§Ä±k
b iz
Ġ w
iyor um
ĠolduÄŁ unuĠ
m il
m ut
ger ekt
olduk Ã§aĠ
eler eĠ
ar aÃ§
o kĠ
il iÅŁ
ĠS on
Ã§ iĠ
b Ã¼tÃ¼nĠ
yer ineĠ
as k
ĠO r
Ä±n Ä±
l is
for m
anlam lÄ±Ġ
on uĠ
az Ġ
m erkez
larÄ±Ġ ileĠ
t iÄŁiĠ
miÅŁ lerdir
il k
o g
ĠE r
bil dir
ecek tir
ter cih
kon usundaĠ
deÄŁiÅŁ tir
gr af
ÅŁ uĠ
ar ac
E R
ĠTÃ¼rk iye
Ġol masÄ±Ġ
caÄŁ Ä±Ġ
bak Ä±m
Ġ var
Ġd Ã¶nem
Ġ oran
Ġd Ä±ÅŁ
a lar
ac ak
eldeĠ edilenĠ
T Ã¼rkĠ
y oÄŁ
lem ekĠ
Ã§alÄ±ÅŁ an
olit ika
ec er
gerÃ§ek leÅŁ
etm ekĠ
u la
on k
ger Ã§
kay b
mes l
p or
n er
h av
yÃ¶n etim
Ġy ol
v an
ĠH erĠ
u an
Ã¼n Ã¼Ġ
oÄŁr af
ĠY ap
ĠE ÄŁ
Ã§alÄ±ÅŁma daĠ
c h
ac akĠ
uy um
em iz
Ġy aĠdaĠ
ah aĠ
iver sit
Ġ( %
Ã¶z g
tem elĠ
Ġ veyaĠ
ĠÃĩ Ã¼n
at Ä±Ġ
lan Ä±r
Ġ is
a ka
r et
Ä±l maktadÄ±r
gÃ¶n der
dolay Ä±Ġ
un luÄŁ
Ġbel ir
aÅŁ aÄŁ
f er
n aĠ
at Ġ
h ay
ĠÃĸ ÄŁr
dÄ±ÄŁ Ä±nÄ±Ġ
b or
en g
hakk Ä±ndaĠ
Ã§Ã¶z Ã¼m
sÃ¼r eÃ§
Ã§ er
k ul
Ã¶ nĠ
Ã¶l Ã¼m
ĠÄ° s
mod el
ip Ġ
ler iyleĠ
gen iÅŁ
y um
Ġs ah
s uĠ
iy etĠ
ola bil
Ä±c ak
f aĠ
an la
b oyut
t or
Ġb Ã¼y
gÃ¶ster mektedir
ĠBuĠ durum
birĠ ÅŁey
Ġf ark
f ay
un sur
baÄŁ Ä±m
Ġ ik
te dav
kat Ä±lÄ±m
has tal
Ã¶ÄŁrenc ilerinĠ
mey danaĠ
ĠG en
deÄŁiÅŁ im
yar ar
Ä±la bil
y Ä±Ġ
maĠ veĠ
Ġp ar
iler ineĠ
yaklaÅŁ Ä±m
at an
h Ã¼kÃ¼m
ma larÄ±Ġ
Ġ iÃ§
Ġ mad
u d
um hur
in ans
ar tÄ±r
birĠ ÅŁekildeĠ
m o
Ä±la bilir
Ġd Ã¼n
Ã§Ä± kanĠ
A R
l in
ist ed
ĠK ur
a il
el en
Ġb oyut
b oz
len enĠ
d ok
eldeĠ edil
duy g
neden iyleĠ
Ã¼z el
ma danĠ
? "
Ä±s Ä±ndaĠ
lar arasÄ±Ġ
arka daÅŁ
oluÅŁ anĠ
Ã¢ m
r ed
ma h
uc uĠ
Ã¶ÄŁr etim
Ġ =
etk isiĠ
ĠA k
s et
Ġv e
osy alĠ
f arkĠ
deÄŁiÅŁk en
t ik
il mektedir
Ġk Ä±s
eceÄŁ iniĠ
g id
ar etĠ
veril enĠ
t o
iliÅŁ kiĠ
ley enĠ
K ar
ĠÃĸr n
kabul Ġedil
Ġtop lum
Ġol uÅŁtur
Ã¼ b
or mal
Ġs Ä±r
r ans
uk uk
la kĠ
diÄŁ er
mesiĠ iÃ§inĠ
v e
ikĠ veĠ
ya ÄŁ
bil eĠ
m evcut
Ä±z Ä±Ġ
s ar
in dir
siy onĠ
sor um
Ä° l
t ic
neden leĠ
m eninĠ
Ã¼n denĠ
larĠ iÃ§inĠ
k Ã¼Ã§Ã¼kĠ
b ol
ada m
Ã¼zer indenĠ
un u
f ir
b eklen
Ġb ak
veril miÅŁtir
s em
pro blem
art tÄ±r
Ġs aat
diÄŁ iniĠ
yak Ä±nĠ
m iktar
par Ã§
Ġt er
s ak
s u
Ä±l Ä±k
E r
z er
leriĠ ileĠ
dÃ¼ÅŁÃ¼n Ã¼l
al Ä±kĠ
d Ä±klarÄ±Ġ
ma daĠ
pro gram
b ek
mas Ä±dÄ±r
inĠ veĠ
iyor du
Ġ W
ĠE l
Ì §
s im
b in
olum suz
elĠ olarakĠ
p ekĠ
ilet iÅŁim
as Ä±
Ġ J
u ÄŁr
f ik
ĠK on
iÅŁl etm
olma yanĠ
la yanĠ
eler iniĠ
ler in
a g
Ġm od
Ä± dakiĠ
masÄ±Ġ veĠ
Ġy et
m inĠ
Ä±ÅŁ tÄ±r
Ġs it
is yon
ol muÅŁtur
u kar
aÃ§ Ä±kĠ
a yanĠ
or m
Ġ daĠ
Ä± danĠ
iz inĠ
um aĠ
hem ĠdeĠ
meĠ veĠ
Ġan cakĠ
f iz
m ar
O r
an d
len miÅŁtir
lay Ä±ÅŁ
ĠyÃ¶n tem
p at
ol uĠ
iler ekĠ
ÅŁ art
Ä±m aĠ
eler indeĠ
ap or
lar Ä±mÄ±z
a danĠ
ger iĠ
in d
ayr Ä±Ġ
mat ikĠ
âĢ Ŀ
gerek ir
nok ta
Ġ ede
A B
is tatist
Ġ insan
dÃ¼ÅŁÃ¼n c
erk enĠ
Ġ enĠ
kÄ±s m
ay Ä±Ġ
doÄŁr u
ĠD ahaĠ
az et
ola bilir
ĠB unaĠ
y orum
ak tar
Ä±s Ä±
ul t
lan maktadÄ±r
Ġtek n
Ã¼ dÃ¼r
al et
sman lÄ±Ġ
ev let
us u
ur t
ab erĠ
devam Ġet
g ru
yap tÄ±ÄŁÄ±Ġ
Ġt e
k ent
iÄŁ indeĠ
kar arĠ
b Ä±rak
el t
B aÅŁ
Ġol ur
onk siyon
uz ak
bulun maktadÄ±r
Ã¼ks ekĠ
kat Ä±l
k o
av aÅŁ
kal dÄ±r
yen idenĠ
her hangiĠbirĠ
lÄ±l Ä±k
der s
Ġk iĠ
olay Ä±s
elĠ birĠ
Ġ Ã¼lk
mes indeĠ
ĠâĢ ľ
Ġ iseĠ
oyun caĠ
uy ar
g Ã¼c
gerek liĠ
at Ä±ÅŁ
Ġ alt
Ã¶yl eceĠ
enĠ Ã¶nemliĠ
kad Ä±nĠ
Ä±s Ä±nÄ±nĠ
miÅŁ ĠveĠ
Ġ amaĠ
g ar
a deceĠ
ĠbÃ¶l g
cev ap
l Ã¼k
alÄ±n anĠ
Ġ arasÄ±ndaĠ
Ä±Ġ ileĠ
an n
ta j
Ġan d
ek tir
ĠG Ã¼n
f iyat
g ibi
sahip tir
b ab
s ef
h ep
Ã¼c ad
ist en
k il
orta lamaĠ
dest ek
sÃ¼r eĠ
ÅŁir ket
mÃ¼mk Ã¼nĠ
mal iyet
duk larÄ±Ġ
madÄ±ÄŁ Ä±nÄ±Ġ
s uÃ§
kullan Ä±m
iz iĠ
de y
mey iĠ
de vr
Ġ Ã§ek
yapÄ±l mÄ±ÅŁtÄ±r
Ġs eÃ§
es as
tar t
la ya
yay g
ihtiya Ã§
d art
if t
mal zem
leÅŁ meĠ
ĠB el
baÄŁ lan
yay Ä±n
sÃ¼r dÃ¼r
ett iÄŁiĠ
aÅŁ a
Ġ yaz
ak ter
seb eb
iÄŁ i
Ġb en
aÄŁ r
t ep
Ġt em
gen el
ma ya
b es
ĠF akat
aynÄ±Ġ zamandaĠ
or taĠ
Ġm u
v vet
Ä±yor um
Ġpro gram
Ġed er
uÄŁ uĠ
gÃ¶rÃ¼l mÃ¼ÅŁtÃ¼r
olum luĠ
k Ã¼Ġ
b r
sap tan
ÅŁ ehir
karÅŁÄ± laÅŁtÄ±r
k oÅŁul
b Ã¼t
liÄŁ i
mas Ä±ndanĠ
gÃ¶z lem
Ã§ iz
d uĠ
eler ineĠ
k Ã¼r
em ekĠ
Ġ gÃ¶r
sonuc uĠ
Ġg rup
yan Ä±Ġ
iyor uz
b ununĠ
mÄ±ÅŁ ĠveĠ
Ġ Ã¶n
ĠT op
ta v
ik inciĠ
ĠT Ã¼rkĠ
mÄ±ÅŁ lardÄ±r
Ġol up
akt if
K ur
de ÅŁ
ul muÅŁtur
ot or
mes ininĠ
Ġp er
araÅŁtÄ±r maĠ
per forman
Ä±la cakĠ
Ġd oÄŁr
t ip
Ġt ut
Ġ /
Ġ Â
Ġk im
Ġm et
eÄŁit imĠ
id det
k Ä±z
l Ã¼l
ac aÄŁ
el l
ak an
lil ikĠ
lÄ±k lÄ±Ġ
pay laÅŁ
veĠ buĠ
sav aÅŁ
al Ä±k
ey lem
liÄŁ iniĠ
i ir
ifadeĠ et
Ġd oÄŁ
Ġk an
Ä± larÄ±Ġ
is im
b az
Ġo f
Ġson uÃ§
il ik
l us
. )
der ec
ru h
raÄŁ menĠ
hem enĠ
erk es
mad d
ĠÄ° stanbul
lÄ±ÄŁ Ä±
deÄŁ erĠ
l Ä±dÄ±r
t eh
d Ã¶rt
a ta
f Ä±r
et iĠ
gerek mektedir
b iy
rah at
poz it
Ġhak k
ist an
inĠ birĠ
it im
c u
b oÅŁ
k ir
n ak
kÄ±s aĠ
ek etĠ
st rat
s ey
l im
sonuc undaĠ
bulun muÅŁtur
izm etĠ
r af
ay ar
r i
s ab
pro j
at Ã¼r
ĠY an
Ġ alan
uy laĠ
Ġk es
orta kĠ
t Ä±klarÄ±Ġ
in t
Ġk Ã¼ltÃ¼r
on aĠ
ik ro
ĠAy nÄ±Ġ
ya daĠ
s ol
u st
mayaĠ Ã§alÄ±ÅŁ
tart Ä±ÅŁ
A vrup
K an
A N
yatÄ±r Ä±m
p o
Ã¼zer indekiĠ
Ġ at
et ikĠ
geÃ§ er
yan Ä±ndaĠ
es kiĠ
bÃ¼yÃ¼kĠ birĠ
Ġger ek
k Ä±n
art Ä±kĠ
on ikĠ
ĠT ar
ĠÄ° k
ek ilĠ
oloj iĠ
, "
gerek enĠ
Ã§ ar
baÅŁ vur
tanĠ sonraĠ
Ġkend iĠ
iÄŁ inĠ
Ã¼r Ã¼nĠ
bil im
r akĠ
Ġ [
dÃ¶nem deĠ
c ez
enerj iĠ
kay Ä±t
Ã¼ ler
ĠA maĠ
fark lÄ±lÄ±kĠ
yan Ä±nĠ
r iĠ
en iz
y ineĠ
Ä±n dan
la k
say Ä±sÄ±Ġ
o tur
ĠsÄ±n Ä±f
yanÄ±Ġ sÄ±r
lar da
sÃ¶y len
dÄ±ÅŁ Ä±ndaĠ
ed iĠ
e x
Ġk or
Ġm ed
ĠH as
Ä° ÅŁ
tak ip
sav un
ro m
m eleriĠ
sev iy
b ey
deÄŁerlendir il
Ġde di
Ã¶lÃ§ Ã¼m
il e
Al lah
an cakĠ
mesiĠ veĠ
b est
B uĠ
Ċ Ċ
iÅŁ Ġ
elik leĠ
y iĠ
anĠ veĠ
Ä±yor du
ama z
es el
geÃ§ enĠ
laĠ birlikteĠ
dah il
eÅŁ im
op er
ya ban
Ã§oc ukĠ
san at
ik t
Ġd iÄŁerĠ
atan daÅŁ
ĠBuĠ nedenleĠ
d im
Ä± lan
Ã§er Ã§ev
eler i
p ol
az alt
ĠP ro
incel end
c a
ma yanĠ
ortayaĠ koy
par aĠ
Ä±n Ä±n
yaÅŁ ad
an layÄ±ÅŁ
o w
baÄŁ lam
sÃ¶y lem
yÃ¼r Ã¼t
el ektr
Ġ as
h t
iter atÃ¼r
r ef
m ir
cÄ± larÄ±nĠ
ver im
Ġ edenĠ
p art
b e
ifadeĠ edil
Ġh at
ĠD iÄŁerĠ
ĠO n
larÄ±Ġ arasÄ±ndaĠ
ar iĠ
um uz
h aber
mÃ¼ÅŁ ter
mÄ±ÅŁ tÄ±
Ġfark lÄ±Ġ
ay et
yal nÄ±z
saÄŁ lan
liÄŁ inĠ
p sik
g am
Ġ Ã¶ÄŁrenc
Ġ Ã§okĠ
Ġy ok
Ã§ ab
b ecer
ak tiv
Ġt Ã¼m
sahip Ġol
h i
Ä±Ġ olarakĠ
ka v
p an
ma ÅŁ
Ã¢ nĠ
yol ĠaÃ§
strat ej
in ÅŁ
dik leriĠ
Ġan lam
ĠveĠ buĠ
s Ä±cak
Ġsev iy
n deĠ
iÅŁ iĠ
yaklaÅŁ Ä±kĠ
iÄŁ imiz
ĠD olayÄ±s
Ġger Ã§ek
bulun duÄŁuĠ
belirlen miÅŁtir
un uz
ĠM u
Ġ ev
kapsam Ä±ndaĠ
sor u
Ġy eniĠ
t ikĠ
dahaĠ Ã§okĠ
s Ä±kĠ
Ä±s Ä±nÄ±Ġ
larĠ arasÄ±ndaĠ
Ä± yaĠ
Ä±n t
Ã¼m eĠ
aÅŁ Ä±r
uy uĠ
c id
f es
um uĠ
s ektÃ¶r
la masÄ±Ġ
ar z
Ġ iÃ§er
uygu lamaĠ
a ir
ulus lararasÄ±Ġ
b eÅŁ
lÄ±Ġ veĠ
v az
incel em
Ġ Ã¶
m edenĠ
k Ä±nĠ
ð Ŀ
l oĠ
Ġt o
Ãĸ z
h us
h Ã¼cr
sp or
bah s
ĠB u
d um
Ġt Ã¼r
tasar Ä±m
Ã¶nem lidir
ĠE n
lÄ±ÄŁ Ä±nĠ
Ġk r
Ġ birey
ĠsÃ¼r ec
y Ã¼k
Ã¶rn ekĠ
Ã¶zg Ã¼r
l etĠ
Ã¶lÃ§ Ã¼
id di
Ã¢ t
Ġ Ã¶nc
Ä° stanbul
er g
ĠA s
iĠ olarakĠ
n et
vur gu
Ġb un
f i
c in
p olitika
bul gu
saÄŁ lÄ±kĠ
lÄ±ÄŁ Ä±nÄ±Ġ
kon uĠ
k ez
liĠ veĠ
larĠ daĠ
ĠyÃ¶n etim
Ä±l dÄ±ÄŁÄ±Ġ
l Ä±ÅŁ
c e
larÄ±n dakiĠ
Ã¼mÃ¼z deĠ
Ä±s Ä±naĠ
Ġg Ã¼nĠ
baÄŁÄ±m sÄ±z
mekt eĠ
ma lar
ĠdÃ¼z en
lerĠ iÃ§inĠ
ar ak
yardÄ±m cÄ±Ġ
baÄŁlÄ±Ġ olarakĠ
la z
l Ã§
kor u
erk ek
en f
Ġ kap
ark aĠ
gÃ¶ Ã§
eĠ gÃ¶reĠ
Ġ or
ada y
Ġk Ã¶
ekt eĠ
f inans
larĠ ileĠ
anlam lÄ±ĠbirĠ
b unaĠ
av an
kor un
las yonĠ
ev iĠ
ĠK at
el i
g ider
ta kiĠ
ar a
tenĠ sonraĠ
Ä±y Ä±Ġ
lÄ±l Ä±ÄŁ
enĠ Ã§okĠ
lul ukĠ
yÃ¼ks el
eleĠ alÄ±n
ĠB iz
Y Ã¶n
el eÅŁtir
makĠ ist
Ã¼cr et
iniz iĠ
tern et
ĠK an
p azar
erk ekĠ
n e
f ilm
Ġg Ã¼ven
p iya
Ġb as
l Ä±ndaĠ
r eĠ
m Ã¼z
kal it
dest ekĠ
mayaĠ baÅŁla
ka b
K on
TÃ¼rk iyeĠ
at i
d Ä±n
kan Ä±Ġ
umhur iyet
d Ã¼l
makĠ veĠ
oy unĠ
ek im
Ġ Ã§alÄ±ÅŁ
g e
s o
ver enĠ
yar akĠ
f il
Ġn eĠ
caÄŁ Ä±nÄ±Ġ
Ã§oc uÄŁ
Ä±ldÄ±ÄŁ Ä±ndaĠ
em ez
s osyalĠ
mey enĠ
Ä±n a
Ġs un
miÅŁ ti
Ã¼s lÃ¼
es indenĠ
iy il
nit elik
las yon
esiĠ veĠ
ĠÃĩÃ¼n kÃ¼
Ġ aĠ
o graf
saÄŁla ya
Ã¶yleĠ birĠ
im k
t if
ler imiz
t ez
en lerinĠ
Ġh ayat
aÅŁ ama
ĠÃĸz ellikleĠ
f onksiyon
yak Ä±n
Ġkur ul
Ã¼ ĠveĠ
etkin lik
itibar enĠ
Ä±l dÄ±
baÅŁ lan
il l
b unuĠ
s unĠ
istatist ikselĠ
Ġ ek
iÄŁ ineĠ
ĠTÃ¼rk iyeĠ
en z
Ã¢ y
kiÅŁ iĠ
am etr
Ġgel iÅŁ
sÃ¼r ekliĠ
c uĠ
ilen dir
iler i
mek an
dahaĠ fazla
lama yaĠ
Ġm erkez
ok si
mam Ä±z
Ġb ur
yaz ar
e la
kurul uÅŁ
gir iÅŁ
yeter liĠ
gerÃ§ ekĠ
avan taj
amac Ä±yla
tespit ĠedilmiÅŁtir
lar Ä±ylaĠ
likĠ veĠ
tamam enĠ
h r
duyg us
al l
his s
s as
yÃ¼z ey
laraĠ gÃ¶reĠ
benz erĠ
Ġk om
ĠG el
anlam daĠ
ol madÄ±ÄŁÄ±Ġ
Ġb u
ĠbÃ¶l Ã¼m
ard Ä±ndanĠ
de meĠ
Ä±l Ä±ÄŁÄ±Ġ
ĠE nĠ
h izmetĠ
eler denĠ
Ġ iÃ§indeĠ
oÄŁ lu
f et
A k
ey gam
b a
ma mÄ±ÅŁ
d Ã¼k
eÄŁ er
Ġs adeceĠ
ĠD Ã¼n
if ad
ÅŁ iddet
et kiĠ
r apor
zor un
aÃ§Ä±k la
un luk
d al
M A
k Ã¶y
uĠ ileĠ
sÃ¶z ĠkonusuĠ
ekt enĠ
de siĠ
iÄŁ er
N A
D evlet
ĠS Ã¶z
ol maktadÄ±r
Ġb inĠ
m Ã¼r
Ã¼f us
Ġs ektÃ¶r
al eĠ
Ã¶ v
el e
konu daĠ
yan s
o da
Ã¼n iversit
Ġson r
ĠG Ã¶r
bakÄ±m Ä±ndanĠ
Ġ ÅŁeklindeĠ
ĠS ay
tak Ä±m
Ã¶ÄŁren meĠ
lar dÄ±
ma ÄŁ
im diĠ
er ek
tem sil
E ÄŁ
aÃ§ Ä±danĠ
n ormal
tek rar
iy le
t ed
anĠ birĠ
k elim
p uan
ĠT ab
ver iĠ
om etr
ey n
amac Ä±ylaĠ
lul uk
tut um
kend iniĠ
k ut
sÃ¶y led
du var
en ler
p res
ben im
h Ã¢
ĠS onĠ
karÅŁÄ± laÅŁ
ed iy
dahaĠ fazlaĠ
ĠÃĸ n
d inĠ
doÄŁru danĠ
biÃ§im deĠ
Ġedil enĠ
geliÅŁ im
Ġ gÃ¶ster
har eketĠ
hiÃ§ birĠ
tal ep
ĠyÃ¼z yÄ±l
Ã¼n dÃ¼r
kon um
ik sel
kullanÄ±l mÄ±ÅŁtÄ±r
Ã¶z elĠ
mel idir
ilg iĠ
Ġhem ĠdeĠ
k op
ras t
Ġb it
u f
gen Ã§
ki tap
is el
bir im
eg or
l if
t ec
yarar lan
or t
sonr a
ekt if
Ġt est
er eĠ
Ġ i
s ul
larÄ±naĠ gÃ¶reĠ
an Ä±m
oÄŁ luĠ
d el
ta z
Ġd iy
d ol
Ġol uÅŁ
Ġh af
duy gu
ĠBun un
P ro
ot oÄŁraf
Ġtar af
t ekiĠ
iÃ§ iĠ
da y
ed eniĠ
makta nĠ
birlik te
Ġs osyal
t heĠ
ay Ä±f
R us
ayr Ä±caĠ
yanÄ±ĠsÄ±r aĠ
baÅŁ Ä±naĠ
larÄ±Ġ daĠ
aĠ gÃ¶reĠ
yeniĠ birĠ
M u
al Ä±m
ikĠ birĠ
c Ä±lar
ris k
der nĠ
inde dir
h e
Ġan aliz
an daĠ
d is
dÃ¼zen lem
un dakiĠ
top lan
v ak
kur al
en eĠ
ineĠ gÃ¶reĠ
dikkat eĠ
s anĠ
ĠS an
ol makĠÃ¼zereĠ
il diÄŁiĠ
uy la
Ä±p Ġ
san tr
ĠBur adaĠ
il di
Ġkur um
ĠÃĩ oc
l etm
c el
ĠT Ã¼m
kam uĠ
ĠSon uÃ§
ola caktÄ±r
c il
uz ey
Ġm iktar
ede c
sÄ±r asÄ±ndaĠ
Ã§ev res
ma mÄ±ÅŁtÄ±r
ĠH al
yer leÅŁ
il ebilir
g Ä±Ġ
tas yon
Ġkon trol
iler denĠ
da yal
ol du
liÄŁ ininĠ
bir kaÃ§
iÄŁ ininĠ
m Ã¼cad
g Ã¼zel
hal eĠ
ka la
ĠÄ°l kĠ
ed ekiĠ
Ã¶zellik leriĠ
iĠ birĠ
d iy
diÄŁ indeĠ
deÄŁiÅŁik lik
fik ir
ĠA ÄŁ
pozit if
im eĠ
Ġt es
iler deĠ
mu h
ih r
Ġg ir
tan siy
h ey
iÅŁl ev
Ġ zaman
ul masÄ±Ġ
den iz
dÃ¼zey deĠ
p l
ed iÄŁiĠ
q u
ebil mektedir
bak Ä±ÅŁ
d o
larÄ±n da
lar dakiĠ
Ä°n gil
d iz
fay da
Ä±yor uz
- -
ĠAl lah
yÃ¼z deĠ
alan daĠ
sun uz
Ì Ĩ
ir aĠ
ad Ä±naĠ
birĠ ar
st r
ver diÄŁiĠ
ed in
as Ä±nÄ±nĠ
Ġm ek
organ iz
bÃ¼y Ã¼k
it h
Ã§alÄ±ÅŁ anĠ
laÅŁ maĠ
mes iyleĠ
ĠYap Ä±lanĠ
Ġ â
g Ã¼
i j
aÅŁaÄŁ Ä±dakiĠ
deĠ buĠ
Ġ ï
ĠB ey
Ġd Ã¶n
alg Ä±
aĠ Ã§Ä±k
em ir
r arĠ
ka z
ku vvet
r ad
bilir siniz
n es
ĠK al
yap Ä±Ġ
on larÄ±nĠ
ĠB Ã¶yleceĠ
n iĠ
eks ik
Ġo lan
kar akter
Ä±c a
Ã¼y leĠ
y em
Ä±l maz
al Ä±ÄŁ
ins iyet
t Ã¼Ġ
iz len
dem ok
ka lanĠ
a ileĠ
ortayaĠ Ã§Ä±kar
ĠY Ã¶n
z iy
Ã§ocuk larÄ±nĠ
kiÅŁ ininĠ
gÃ¶rÃ¼l enĠ
Ġka vram
ĠÄ° b
Â ±
u anĠ
Ì Ī
O smanlÄ±Ġ
Ġs tr
b oy
ĠK end
geÃ§ miÅŁ
dÃ¼ÄŁ Ã¼
uygu lananĠ
Ã¶ÄŁretm enĠ
as Ä±naĠ
yÃ¶n etic
ĠK ad
m ec
v atandaÅŁ
Ã¢ b
r am
yayg Ä±nĠ
ask er
c o
may eĠ
er s
dahaĠ yÃ¼ksekĠ
u dur
Ġmod el
iÅŁ eĠ
etkil en
gÃ¶z ĠÃ¶n
tekn oloj
Ġb er
T ab
daĠ birĠ
Ã¼Ã§ Ã¼nc
alt Ä±Ġ
Ġsay Ä±lÄ±Ġ
z eng
ak iĠ
durum uĠ
ab et
ad landÄ±r
eÄŁ i
Ġ il
ÅŁ ah
G en
Ġetm ekĠ
m Ä±z
Ã¼ÅŁ ter
Ã§oÄŁ uĠ
t Ã¼l
o dak
Ġt Ã¼k
h ip
yap anĠ
yÄ±l lardaĠ
E n
Ġ X
ĠA B
lan maĠ
ÅŁ eh
benz er
yerĠal maktadÄ±r
gÃ¶ster enĠ
E M
n um
tan Ä±
ak Ä±l
ÅŁ iir
en s
yapÄ±l masÄ±Ġ
dÄ±ÄŁ Ä±ndaĠ
yoÄŁ unĠ
Ġs iya
mak tÄ±r
ĠD oÄŁ
Ã§ aÄŁ
ĠbÃ¼y Ã¼kĠ
t im
Ġyan iĠ
gerek tir
Ġka zan
gen ellikleĠ
ver ir
yaban cÄ±Ġ
ley iciĠ
tÄ±ÄŁ Ä±nÄ±Ġ
Ġb iz
ul muÅŁ
Ġ dak
Ġh Ã¼cr
c iĠ
d on
Ġ Ã¼st
nit el
n daĠ
du yar
dahaĠ iyiĠ
Ġg Ã¼Ã§
as t
w w
h id
mad deĠ
Ã¼y eĠ
Ġhakk Ä±ndaĠ
ĠsÄ±n Ä±r
ac Ä±Ġ
dÃ¼n yaĠ
m ot
lay Ä±cÄ±Ġ
ya sal
len meĠ
liÄŁ eĠ
san Ä±z
Ġ eÄŁitim
Ä±s Ä±r
enĠ bÃ¼yÃ¼kĠ
Ã¶lÃ§Ã¼ deĠ
mem iÅŁ
Ġb iÃ§im
ĠG er
k uÅŁ
Ä±m daĠ
Ġn ok
A y
yan lÄ±ÅŁ
Ġk Ä±r
Ä°s lam
Ã¼s Ã¼
Ġd il
Ġhar eket
v Ã¼c
Ä±r kenĠ
gen elĠ
Ġ oyn
ĠD en
el sef
ĠA vrup
Ġh izmet
c om
n a
kar Ä±ÅŁ
Ã¶ ÄŁ
l or
insan larÄ±nĠ
lul uÄŁ
n iversit
m ev
ihtiya Ã§Ġ
h ad
aras Ä±nda
lerĠ ileĠ
ek il
mÃ¼mk Ã¼ndÃ¼r
iyet iĠ
al maĠ
h ukuk
ĠA b
ult usundaĠ
Ã¶l dÃ¼r
Ġ ikiĠ
Ġs Ã¶y
alan Ä±ndaĠ
l ider
seÃ§ im
r it
yok tur
durum undaĠ
Ġf or
man Ä±z
ek n
yo kĠ
deney im
baÅŁar Ä±lÄ±Ġ
ol saĠ
let meĠ
it ir
pekĠ Ã§okĠ
tedav iĠ
alt Ä±naĠ
aÃ§Ä±k lama
gÃ¶ster ir
b eĠ
ak Ä±ÅŁ
bil eÅŁ
gel mektedir
Ã¶lÃ§ Ã¼l
ab aĠ
Ġhas ta
Ä±n caĠ
etkil eÅŁim
ok s
sal dÄ±r
masÄ±Ġ iÃ§inĠ
tan Ä±nĠ
ma maktadÄ±r
Ã® Ġ
hal ineĠ
performan s
eÄŁ in
Ġk elim
m i
olduÄŁuĠ gibiĠ
u lar
ĠE s
yerineĠ getir
ila Ã§
v a
Ġ *
la st
larÄ±n Ä±
ĠY ineĠ
te or
Ã§ ok
d it
kayn akĠ
bah is
deĠ birĠ
birey lerinĠ
stan dart
A s
Ġ gÃ¶z
lÃ¼ÄŁ Ã¼
leriĠ arasÄ±ndaĠ
T an
yan Ä±t
ĠdÃ¼ÅŁ Ã¼n
ĠAn kar
nok tas
Ġh av
etkil em
eygam ber
ortayaĠ Ã§Ä±kanĠ
ĠK ay
ol un
uz man
der eceĠ
fÄ±r sat
cid diĠ
tr ans
us ta
saÄŁ lar
Ġ tab
Ġm m
asyon uĠ
m elerĠ
al nÄ±z
orta danĠ
baÅŁkaĠ birĠ
Ġ Ã¶zellikleĠ
ya t
ĠÃĸÄŁr enc
Ġ Ã§alÄ±ÅŁma
ĠÄ°n san
ma larÄ±nĠ
Ġc m
A S
b iyat
ĠT em
Ġson uc
dÃ¼zen len
saÄŁla yanĠ
ĠY aÅŁ
c Ä±lÄ±kĠ
B akan
n am
iÅŁ imĠ
Ä±n dÄ±r
ĠS er
lÄ±Ġ olarakĠ
ger ekĠ
dem ir
neĠ kadar
Ã¶n eĠ
larÄ±n Ä±n
ed i
yan danĠ
dikkat ĠÃ§ek
is tanĠ
enĠ iyiĠ
g uĠ
Ġmil yonĠ
deÄŁer iĠ
ama cÄ±Ġ
L ER
Ġk ol
Ġy Ã¼ksekĠ
Ġ deÄŁil
gerekt iÄŁiniĠ
maktaĠ veĠ
T ar
b on
taÅŁ Ä±n
gel enek
Ġ iÅŁlem
Ġ ist
ĠS aÄŁ
Ã¶ÄŁr etimĠ
d iyeĠ
ĠĠĠĠ ĠĠĠĠ
hal indeĠ
mes idir
ik ler
is indenĠ
larÄ±Ġ iÃ§inĠ
liÄŁ ineĠ
ar ay
at or
sÃ¶z leÅŁ
y gu
orta lama
ĠYan iĠ
ic eĠ
b oyuncaĠ
v aÅŁ
z ayÄ±f
is ayar
b iĠ
Ä° N
ĠE v
Ġol makĠÃ¼zereĠ
hat Ä±r
ðĿ ĳ
lil iÄŁiĠ
Ġd in
Ã§ ift
c i
ed iyeĠ
h erkes
ek siyon
lerĠ arasÄ±ndaĠ
edil miÅŁtir
Ġh iÃ§
Ã§ a
ad Ä±m
ĠA h
iĠ iÃ§inĠ
lÄ±kĠ veĠ
son undaĠ
gÄ± Ã§
eler leĠ
bÃ¼t Ã¼n
fark lÄ±lÄ±k
res im
ekt ro
yer leÅŁtir
yaÅŁ ayanĠ
yaÅŁan anĠ
es elĠ
iler leĠ
ren k
s ig
sonr akiĠ
g ec
Ġb azÄ±Ġ
b at
el idir
iliÅŁk iliĠ
ebil ecekĠ
ede bil
Ã¼lk eĠ
Ġet t
Ġet mektedir
istatistikselĠ olarakĠ
mas Ä±ylaĠ
t Ġ
Ġh er
s Ã¼z
yeter siz
Ġb ah
lÄ±ÄŁ Ä±nÄ±nĠ
ĠkarÅŁ Ä±
D oÄŁ
z ih
etk inĠ
ĠO y
as Ä±nÄ±Ġ
Ã§ar p
gÃ¶ster ilmiÅŁtir
it al
ĠbirĠ ÅŁekildeĠ
lar Ä±yla
iÃ§ ineĠ
deÄŁerlendir meĠ
ol muÅŁ
uk ukĠ
n un
ĠÃ§ Ã¼n
iÃ§er enĠ
ĠÃĩÃ¼n kÃ¼Ġ
yapÄ±l mÄ±ÅŁ
em ey
eg atif
E N
A h
B el
Ġ +
g Ã¼l
daÄŁ Ä±t
m on
Ã¢ yet
lÄ±ÄŁ aĠ
lan abilir
z at
Ġh Ä±z
Åŀ ekilĠ
k it
u var
Ã§ ap
A L
ĠV eĠ
dÃ¼ÄŁ Ã¼Ġ
em em
Ġs at
kararĠ ver
Ġkal it
ola s
ad et
f end
ÅŁ er
Ã¶nc ekiĠ
c Ã¼m
im z
per son
Ġhas tal
ar ÅŁ
s ek
k us
kat kÄ±Ġ
E T
e w
Ġf akat
sa at
A T
Ġb an
lerineĠ gÃ¶reĠ
ĠT an
lÄ±ÄŁ Ä±naĠ
zar ar
c am
al ĠveĠ
Ã§ e
ĠY eniĠ
ad Ä±Ġ
sat Ä±nĠ
ark enĠ
H z
Ġden ey
M ah
tern atif
mer ika
Ġson raĠ
say Ä±daĠ
sat Ä±ÅŁ
sonr asÄ±Ġ
d ileĠ
ir ket
v ir
Ã§ev ir
ĠE k
Ãĸ ÄŁr
enĠ yÃ¼ksekĠ
mekt eĠveĠ
ol u
Ġsan at
g Ã¼z
b ay
ris kĠ
is k
g iz
bur adaĠ
ika s
Ġgel iÅŁtir
ĠN it
eler indenĠ
tÃ¼k etic
t Ä±m
eÄŁ iniĠ
dayal Ä±Ġ
led iÄŁiĠ
acak tÄ±r
n em
im ar
al Ä±r
yÃ¼z denĠ
An ad
mil let
Ã§ Ä±Ġ
Ġk oÅŁul
un ut
Ġb az
ĠH em
ĠĠ Ġ
yan sÄ±
Ġd ik
la maktadÄ±r
sÃ¶ylen ebilir
B ey
gÃ¶ tÃ¼r
Ġ inĠ
davr an
mÃ¼ dah
Ġ gÃ¶rÃ¼n
y ukar
ĠÃľ l
E S
v b
i ma
m ikro
h oÅŁ
b enĠ
ĠY ar
m eÅŁ
iÅŁ Ã§
Ġd ok
iy di
siya siĠ
ĠH at
la mÄ±ÅŁtÄ±r
la dÄ±
belir lem
im inĠ
ÅŁ Ã¶yleĠ
Ġy en
i a
or g
deÄŁer leriĠ
. '
ul ur
Ġ devlet
det ay
duÄŁ unuĠ
par ametr
eÄŁ ilim
A b
Ġtarih indeĠ
iÅŁ aretĠ
dev letĠ
daÄŁ Ä±lÄ±m
var dÄ±
H al
en Ã¼z
gir iÅŁim
mal Ä±
es iyleĠ
med iÄŁiĠ
aktiv it
n iyet
gel en
is elĠ
kat k
iy an
on larÄ±Ġ
ir a
esiĠ ileĠ
Ġ ilkĠ
ya yÄ±l
Ã§Ä± ka
id i
in den
Ġn um
ser best
Ġol muÅŁtur
ot o
Ä±l masÄ±
Ġs onĠ
Ġh es
oran Ä±Ġ
e mal
tah minĠ
m is
yan iĠ
ĠyÄ±l Ä±Ġ
Ġyet er
o h
ĠB Ã¼y
hus us
T op
Avrup aĠ
s oÄŁ
in Ã§
Ġg etir
b aĠ
ak Ä±m
eÄŁit imiĠ
n ef
am p
ay Ä±n
et er
ĠveĠ S
Ã¼n de
ĠB enĠ
E K
Ã¼n dekiĠ
tak dir
Ġt ip
inan Ã§
G Ã¼n
teh lik
m edeĠ
o ur
ih ti
aÅŁÄ±r Ä±Ġ
gel miÅŁtir
ĠDolayÄ±s Ä±yla
d Ä±ĠveĠ
ĠAyr Ä±ca
kullan Ä±larakĠ
c er
karÅŁ Ä±la
n Ã¼fus
Ġ e
p olit
AB D
Ġolma yanĠ
Ġp iya
Ġy Ã¼k
A K
po tansiy
Ä±s Ä±z
d ek
al dÄ±ÄŁÄ±Ġ
mad Ä±
enĠ az
ĠM il
gerekt iÄŁiĠ
Ġ mak
Ġ aÄŁ
k z
bulun dur
kazan dÄ±r
ĠV er
ley ic
i kat
mes aj
E L
hÄ±z lÄ±Ġ
k er
Ġm ey
sahip ĠolduÄŁuĠ
l Ã¢m
mes el
sÄ±r as
l y
iÄŁ eĠ
zar arĠ
kend isineĠ
Ġ zamanĠ
ah tar
toplam Ġ
ol ek
ĠTar ih
tespit Ġedil
tÄ±ÄŁ Ä±mÄ±z
y Ä±k
ĠbaÅŁ kaĠ
Ġt el
ĠÄ° Ã§
Ġb oyuncaĠ
Ã§ atÄ±ÅŁ
o id
l iteratÃ¼r
Ġb Ã¼tÃ¼nĠ
t en
h o
oluÅŁ maktadÄ±r
mas Ä±yla
etk ileriĠ
H as
an lÄ±Ġ
Ä±l Ä±
ĠÃ§ Ã¶z
kap asit
m ent
mekt ey
Ġ Ã¶rgÃ¼t
a larÄ±Ġ
! "
n edeniĠ
mem iÅŁtir
yalnÄ±z caĠ
ĠE y
an Ä±Ġ
ey h
ĠB il
ol mak
ĠA ÅŁ
Ã¶n lem
Ã¶ÄŁretmen lerinĠ
g azet
iÄŁ iniz
t iĠ
iz Ġ
H ak
bir inciĠ
Ġm Ã¼
ĠÄ°k inciĠ
kadÄ±n larÄ±nĠ
lerĠ deĠ
âĢ ¦
o bil
leriĠ deĠ
sÃ¶y ley
iy on
yer eĠ
ya bil
Ġh is
arasÄ±ndakiĠ iliÅŁk
bas Ä±n
k lem
kaÃ§ Ä±n
mar uz
ĠEÄŁ erĠ
rat ikĠ
Ġon unĠ
k in
ist ikĠ
ac aÄŁÄ±Ġ
ver iÅŁ
daĠ buĠ
Ã§Ä±k Ä±ÅŁ
dÃ¶nÃ¼ÅŁ tÃ¼r
p ost
at ej
la dÄ±ÄŁÄ±Ġ
Ġb or
kiÅŁ ilerinĠ
Ġ oĠ
olarakĠ tanÄ±m
y urt
dÄ±k tanĠsonraĠ
baÅŁ Ä±ndaĠ
Ġt ic
sonuc unaĠ
ĠÃĩ okĠ
Ġp lan
a larÄ±nĠ
a yak
in al
an larÄ±nĠ
lan dÄ±ÄŁÄ±Ġ
kend ineĠ
dahaĠ daĠ
alan Ä±Ġ
b eriĠ
_ _
ĠB en
es inde
kÄ± yas
Ã§alÄ±ÅŁma da
de d
lereĠ gÃ¶reĠ
Ġk Ä±z
ik leriniĠ
dileĠ getir
lÃ¼Ġ birĠ
Ġhal eĠ
hastal Ä±k
Ġp uan
ev iz
ey leĠ
ti on
Ġh ay
Ġt ekĠ
dÃ¼ÅŁ Ã¼r
ik r
ĠAraÅŁtÄ±r maĠ
ro man
ĠU z
kap at
Ġ Ã¶z
lan dÄ±
Ġyar at
sab it
Ġ em
ĠM es
sÄ±nÄ±f landÄ±r
ed iyor
ir ĠveĠ
s ineĠ
Ġd ur
mes af
tic aret
t Ã¶r
gÃ¼n lÃ¼kĠ
bulun ur
d Ä±mĠ
Ġg Ã¼c
b undaĠ
saptan mÄ±ÅŁtÄ±r
makta y
Ġs p
oluÅŁtur anĠ
ma lÄ±Ġ
anlam Ä±naĠ
l Ä±yor
yaĠ veĠ
zor undaĠ
yap tÄ±r
ek lem
Ġs in
Ġ man
Ġte dav
. Ċ
F rans
gÃ¼ven ilir
h akĠ
sonr asÄ±ndaĠ
ĠB azÄ±Ġ
herĠ ÅŁey
Ã¼r etimĠ
psik olojikĠ
Ġf a
Ġol du
neĠ kadarĠ
c ul
G el
uz akĠ
Ġgru buĠ
ler de
Ã¼l ebilir
dÄ±ÄŁ Ä±
kullanÄ±l maktadÄ±r
Ġy erĠ
inÅŁ aĠ
unluÄŁ uĠ
ĠÃ§ eÅŁit
etkil ey
Ä° K
Ġkar ar
da t
yet iÅŁtir
yer deĠ
top rak
Ä±ÄŁ Ä±nĠ
Ä±l maĠ
ĠI I
C umhuriyet
tÃ¼m Ġ
I N
t h
Ã¶l g
an lar
et meĠ
kor k
masÄ±Ġ ileĠ
Ġad lÄ±Ġ
v anĠ
Ġbak Ä±m
yap tÄ±klarÄ±Ġ
G Ã¶r
n etic
bir az
eÄŁ eĠ
K at
ma larĠ
sah ibiĠ
m Ä±Ġ
end Ã¼st
ist ih
tem iz
ĠsÃ¼r eÃ§
c es
Ġs en
nasÄ±l Ġ
Ġ iÃ§erisindeĠ
al Ä±
p op
siz likĠ
ebilir siniz
Ġs Ä±k
etk isiniĠ
il mesi
insan Ä±nĠ
f otoÄŁraf
Ġbulun maktadÄ±r
bel liĠ
yÃ¶n lendir
larÄ±n Ä±z
yÃ¼rÃ¼t Ã¼l
et mektedir
alÄ±n arakĠ
lÄ±l Ä±ÄŁÄ±Ġ
lÄ±k la
M il
g iy
ol masÄ±
dÄ±ÄŁ Ä±mÄ±z
sÄ±n Ä±z
ĠkiÅŁ iĠ
is iyleĠ
par ator
inc ir
ĠS Ã¼r
kas Ä±Ġ
doÄŁr ul
E t
Ä±n tÄ±
buĠ durum
len mesiĠ
l ist
Y ap
t Ä±kĠ
Ġsor un
toplum sal
Ġs al
ĠH ar
b o
Ä±nĠ veĠ
ĠB an
ter yal
Ġ aynÄ±Ġ
ĠN eĠ
karÅŁ Ä±lÄ±kĠ
d alg
orta k
len miÅŁ
s ir
ĠY Ä±l
O N
olanĠ birĠ
E l
Ġed iyor
ĠBuĠ baÄŁlam
es idir
Ã¶zel liÄŁiĠ
u g
r ab
ĠO smanlÄ±Ġ
luÄŁ uĠ
Ã§evr eĠ
ay iĠ
D Ã¼n
k Ã¢r
meyeĠ Ã§alÄ±ÅŁ
h ac
meydanaĠ gelenĠ
ĠT L
h Ã¢l
bak Ä±ldÄ±ÄŁÄ±ndaĠ
ik Ã¢y
eg em
ĠS osyal
ist er
ma Ã§
ede y
ĠE t
rek lam
ey inĠ
ber aber
g inĠ
M Ã¼slÃ¼
S S
Ġoran Ä±ndaĠ
baÅŁ kan
d Ä±z
kat egor
ol maĠ
in ternet
ib er
la f
belirt ilmiÅŁtir
lat form
abilir siniz
Ġ iz
y e
Ä° b
dem ikĠ
t om
tas yonĠ
ĠÃĸrn eÄŁinĠ
Ġde diĠ
l imĠ
ĠÄ°n gil
u v
iÅŁ aret
ĠÃĸrn eÄŁin
EÄŁ itim
Ã¼zer e
deÄŁ in
ĠÃ§ evr
ver giĠ
v is
ĠH z
ka daÅŁ
bas it
eÅŁ il
las ikĠ
beklen t
ÅŁekil de
laĠ ilgiliĠ
ham med
de p
bir leÅŁ
h Ã¼k
Ã¢ z
kon us
Ġola bilir
meyeĠ baÅŁla
ĠÃĸÄŁr etm
ĠÄ° z
ir kenĠ
Ġger Ã§
yap Ä±lacakĠ
olumsuz Ġ
Ġy Ã¼r
bor Ã§
yan aĠ
kullan Ä±mÄ±Ġ
g az
d iĠveĠ
iy er
danĠ sonraĠ
lis ans
Ġb oz
m uz
kullan arakĠ
herĠ zamanĠ
uyor du
olduÄŁ u
bir ik
mes indenĠ
hav aĠ
im liĠ
yÃ¼ks ek
yas alĠ
gÃ¶ster g
Ġ aynÄ±ĠzamandaĠ
Ġb Ä±rak
v ikĠ
r anĠ
tan dart
laÅŁ Ä±m
alÄ±n mÄ±ÅŁtÄ±r
H ar
ele man
Ġgel ir
tar z
d iÅŁ
em inĠ
om ut
fark lÄ±
kÄ±s Ä±t
ed erekĠ
har c
m or
hal k
dÃ¼n ya
Ġtekn oloj
imiz eĠ
im i
Ġh azÄ±r
g ez
elen dir
il iÄŁiĠ
ak l
der n
n esn
toplum salĠ
el Ã§
i aĠ
kat Ä±lanĠ
res miĠ
Ġkon uÅŁ
Ã§ocuÄŁ unĠ
Ġad et
de f
ĠY Ã¼z
ĠK as
l ok
lardanĠ bir
tan Ä±n
un lukĠ
d Ã®
tel ef
yapÄ±l Ä±r
Ã¼s Ã¼Ġ
c ep
Ġ Ã§ocuk
b al
gÃ¶rÃ¼l Ã¼r
say esindeĠ
ĠK or
kap sa
dahaĠ az
dÃ¼ÅŁÃ¼nÃ¼l mektedir
oran daĠ
ar s
ma liĠ
Ã§alÄ±ÅŁan larÄ±nĠ
incelend iÄŁindeĠ
incelen miÅŁtir
has taĠ
Ã§erÃ§ev esindeĠ
eb eĠ
K ay
ĠH an
Ġya ÄŁ
Ġb ununĠ
Ġp olitika
edil miÅŁ
in ler
m etĠ
tekn ikĠ
el ĠveĠ
r ez
geÃ§ iÅŁ
ihr ac
Ġt ur
yap Ä±s
R o
ay dÄ±n
iÄŁ indenĠ
oluÅŁtur maktadÄ±r
Ġ eÅŁ
ti onĠ
it r
s aÃ§
ileriĠ sÃ¼r
n egatif
diÄŁ imiz
yÃ¶n el
dÃ¶nÃ¼ÅŁ Ã¼m
ĠR o
Ġ Ã¼zerindeĠ
lar caĠ
iĠ S
r iv
Ġy Ã¼ks
in aĠ
Ġet tiÄŁiĠ
ĠveĠ T
kur t
ol makĠ
mesl ekĠ
Ġ okul
ar tanĠ
k eĠ
b Ã¶yleĠ
ki tab
us ul
gÃ¶n Ã¼l
rol Ġoyn
ok ur
is m
k eÅŁ
Ar ap
lin ikĠ
Ġb ecer
Ã§alÄ±ÅŁma lardaĠ
ĠyÃ¶n etic
birbir ineĠ
ĠÃĸ lÃ§
ĠK ap
Ġm evcut
s Ã¼t
sahip ĠolanĠ
r on
sur et
lÄ±k larÄ±Ġ
ihtiya c
par al
ĠKat Ä±lÄ±m
bit k
gÃ¶ster miÅŁtir
j enĠ
ay kÄ±r
yÃ¶n et
Ä± lama
ĠyaÅŁ am
eÄŁ len
yap abil
ilg il
uz ur
veril erĠ
ĠM ah
Ġh Ã¼kÃ¼m
d iler
s ta
Ä±r lar
mem ektedir
Ġt al
etr af
dah iĠ
Ä±y dÄ±
ĠÃľ r
L AR
. ĊĊ
Ä±r Ä±m
Ġka m
B Ã¼y
Ġol duk
t on
ĠEÄŁ itim
on ay
Ä ŀ
it ikĠ
ĠG eÃ§
S T
iler indenĠ
r al
ĠBir Ġ
Ã§alÄ±ÅŁ manÄ±nĠ
Tab loĠ
etmekĠ iÃ§inĠ
ĠO l
Ġm g
al ternatif
m Ã¼k
Ġg ibi
c insiyet
ul uĠ
s af
mekt e
Ġs avaÅŁ
yap mÄ±ÅŁ
ÅŁ am
bÃ¼y Ã¼m
yap ar
am el
a dakiĠ
Ġd ir
il Ã§
Ä±ÅŁ Ä±kĠ
Ã¼v enĠ
Ġ. ..
Ġsah ip
iÄŁ inde
mektedir ler
ler dekiĠ
Ã§alÄ±ÅŁma lar
ler indekiĠ
ĠAn cak
arac Ä±lÄ±ÄŁ
Ġb Ã¼t
bilg ilerĠ
tan eĠ
ihtiyaÃ§Ġ duy
Ġ uz
Ä±m Ä±nĠ
Ã¶rnek lem
s tat
kayn aÄŁ
ĠOr ta
ola cak
laĠ birlikte
zorun luĠ
Ġ it
alar akĠ
Ä° R
g em
Ġsonr asÄ±Ġ
t ok
sor unĠ
Ar aÅŁtÄ±r
Ġm em
r Ä±
masÄ±naĠ nedenĠ
Ġede c
yap Ä±sÄ±Ġ
ler ini
daÄŁ Ä±l
hal deĠ
ati on
t uÄŁ
s Ä±f
c anĠ
Ã§alÄ±ÅŁma larĠ
ĠÃĩalÄ±ÅŁ maĠ
dÃ¶nem indeĠ
S ay
kÄ±sm Ä±Ġ
mekĠ veĠ
gÃ¼n Ã¼mÃ¼z
olup Ġol
s ed
ban aĠ
Ã¶ÄŁrenc iĠ
ent ez
Ġh an
ĠH er
rek ans
leriĠ iÃ§inĠ
ik al
mas Ä±nda
g al
ol g
Ã¢h il
ĠsÃ¶z leÅŁ
Ġs es
iler in
doÄŁ al
b erĠ
Ġki tap
belirt miÅŁtir
ask eriĠ
k etĠ
ol madÄ±ÄŁÄ±nÄ±Ġ
et inĠ
kay Ä±p
iyil eÅŁtir
Ġkon u
Ġm Ã¼ÅŁter
oy uĠ
ul lah
Ġm i
var say
bun larÄ±nĠ
k s
l Ã¢
la l
dir en
ĠD er
Ġkon usundaĠ
n in
Ġbilg iĠ
kal k
ma masÄ±Ġ
bel g
p as
ka h
imiz inĠ
belir liĠ
ĠR us
Y un
Ã¼y orum
an anĠ
kĠ veĠ
is yonĠ
tas Ä±Ġ
gÃ¶r enĠ
durum lardaĠ
t Ã¼ÄŁ
c oÄŁraf
on d
ĠÄ° kiĠ
den etim
/ /
la makĠ
ot el
etm eyeĠ
tut ar
ĠS Ä±n
Ġk ent
ĠAB D
b eb
maktadÄ±r lar
fiz ikselĠ
Ġ insanĠ
ban ka
usta faĠ
u h
ya ka
ĠÃľ Ã§
sel ĠveĠ
ab r
raÄŁ men
etk en
ma te
yay Ä±m
mo dernĠ
derec edeĠ
t p
er iÅŁ
ĠB aÄŁ
Ä°l iÅŁk
ola cakĠ
durum daĠ
at eÅŁ
dÄ±ÅŁ Ä±Ġ
r eh
Ġk u
ĠV E
etkil eyenĠ
Ãĩ alÄ±ÅŁ
r em
tab iĠ
i iĠ
or it
Ġs ap
w eb
Ġpro blem
m iyor
Ġsonuc undaĠ
t eb
or d
tÃ¼k etim
Ġs eb
ĠP er
Ġ Ã¼retim
Ġ aÄŁÄ±r
gÃ¶ l
sonuÃ§ larÄ±Ġ
iyiĠ birĠ
Ġk il
yon uĠ
us al
Ã¶nĠ plan
Ä° z
Ġmed yaĠ
lar a
saĠ daĠ
ĠveĠ M
es indekiĠ
tek rarĠ
imiz iĠ
ĠDahaĠ sonraĠ
Ġt eÅŁ
ot ez
ihtiya cÄ±Ġ
m Ã¼l
haf if
ser t
lemekĠ iÃ§inĠ
Ä°ngil iz
m Ä±yor
lÄ±k laĠ
Ä±naĠ gÃ¶reĠ
la kaĠ
al iyetĠ
iliÅŁk iler
iv il
H P
yans Ä±t
deÄŁiÅŁ ikĠ
Ġbil im
herĠ tÃ¼r
Ġola bil
kend isiniĠ
iliÅŁk isiĠ
m Ã¼t
ĠB ilg
Ġs uÃ§
ru f
is indekiĠ
k Ä±l
edey seĠ
ĠyÃ¼z ey
f ak
Y ar
uc u
ĠU lus
ĠK Ä±s
ĠK ullan
aÅŁaÄŁ Ä±daĠ
ileĠ birlikteĠ
kayn aÄŁÄ±Ġ
uy an
sÃ¼rec indeĠ
bir leÅŁtir
ĠZ iraĠ
.. ."
te gr
uk u
kon om
K al
lamaĠ veĠ
Ã¶n Ã¼neĠ
ĠkiÅŁ ininĠ
ĠDÃ¼n yaĠ
bÃ¶lÃ¼m deĠ
Ã§alÄ±ÅŁma larÄ±Ġ
baÅŁ lar
g ayr
ler inin
M S
Ġpro j
Ã¶nem Ġ
ay Ä±s
f en
r Ã¼b
oluÅŁ um
g iliĠ
ortadanĠ kaldÄ±r
ut bol
Ġ deÄŁildir
Ġh edef
i kay
im er
kan Ä±t
Ä±ÅŁ Ä±Ġ
Ġp ay
herĠ ikiĠ
iĠ M
ĠP ar
Â °
l ev
Ãĸ r
len ir
Ġp araĠ
Ġm ez
gel di
ĠÄ°s lam
as lÄ±ndaĠ
ĠÃĩoc uk
am ikĠ
t ih
f elsef
in likleĠ
f r
Ġet miÅŁtir
Ġon uĠ
ya cakĠ
ekĠ veĠ
ol masÄ±naĠ
á ¸
iddi aĠ
Ġkullan Ä±m
it y
ĠB Ã¼tÃ¼nĠ
ĠgerÃ§ek leÅŁtir
iĠ deĠ
alĠ olarakĠ
az ir
l Ä±caĠ
kon usuĠ
can lÄ±Ġ
mesl ekiĠ
ĠT e
Ġp ol
st res
larÄ±nÄ±Ġ veĠ
t ef
yol uĠ
ĠK iÅŁ
kullanÄ±l Ä±r
eÄŁ ininĠ
dol dur
birey inĠ
i ta
Ġdak ikaĠ
cih az
lil ik
Ġb ar
Ġy alnÄ±z
Ġyar dÄ±m
S avaÅŁ
kar deÅŁ
bilin Ã§
Ġr e
Ä±c akĠ
hay van
et ti
eb ev
Ġ ortam
iÃ§ indekiĠ
r Ã¼
Ä±nt Ä±lÄ±Ġ
eÄŁ erĠ
Ã¼Ã§Ã¼nc Ã¼
ek ler
bir liÄŁiĠ
Ã¼r etic
siz eĠ
sebeb iyleĠ
k od
yaÅŁad Ä±ÄŁÄ±Ġ
Ä±l masÄ±naĠ
d Ã¼m
hasta larÄ±nĠ
bir denĠ
ay n
ifadeĠet mektedir
ya vaÅŁ
ak siyon
gr es
ĠÄ°ÅŁ teĠ
birĠar ayaĠ
mekan iz
Ä±ÅŁ Ä±k
lÄ±k taĠ
A D
etk isininĠ
Ġ <
ilet iÅŁimĠ
ĠT ur
Ãĸ lÃ§
ok un
h ib
fes yon
esn asÄ±ndaĠ
ama kĠ
ma teryal
Ã§oÄŁ unluk
alt Ġboyut
Ã¶l Ã§ek
ar az
devlet inĠ
pro te
) '
var lÄ±ÄŁÄ±Ġ
be yaz
k el
ĠD evlet
Ġbil eÅŁ
l ineĠ
k inĠ
gÃ¼ven likĠ
Ġ orta
E s
yar dÄ±mĠ
rahat sÄ±z
ĠAraÅŁtÄ±r manÄ±nĠ
ĠdÃ¼ÅŁ Ã¼nc
ograf ikĠ
z u
da s
Ã¼lk emiz
k ey
ek ip
deÄŁiÅŁik likĠ
Ġtop lam
kim s
B ur
k Ã¼t
Ġ oyun
Ã¼Ġ ileĠ
en k
lan t
os it
tal eb
ĠÃĸn c
Ġf ir
Ġ Î
doÄŁr ultusundaĠ
analiz iĠ
S ur
dolay Ä±s
gÃ¶zĠÃ¶n Ã¼ndeĠ
endÃ¼st r
ver g
Ã¶nc edenĠ
A P
lan abil
kur tar
ĠbaÄŁ Ä±m
iz el
diÄŁ i
m Ä±zÄ±Ġ
edil ir
as in
dahaĠ Ã¶nceĠ
len mektedir
Ã¶nem iĠ
z iya
lendir meĠ
poz isyon
ol madÄ±ÄŁ
nokta daĠ
ebilir iz
gid erekĠ
d iniĠ
I n
lo g
ĠB unuĠ
ĠB akan
si lah
baÅŁ lat
ĠbaÅŁ ar
Ġs uĠ
liÄŁ indeĠ
man Ä±Ġ
Ġ uygulama
ĠB ul
S an
al mÄ±ÅŁtÄ±r
m os
ĠBuĠ sebep
k ans
Ġh ip
Ġm ut
ĠA d
ÅŁ Ã¼p
bilin mektedir
i lah
ma hal
ĠO kul
ĠY az
m it
Ġtan Ä±m
ev res
usu dur
ayr Ä±l
aĠ er
enĠ buĠ
r inĠ
ĠM ad
ortayaĠ kon
er ans
lar Ä±dÄ±r
) ;
r op
Ġs ab
Ġol duklarÄ±Ġ
v al
aya taĠ
i on
karÅŁ Ä±lÄ±k
m otor
ĠB Ã¶yl
c Ã¼
kr iter
O S
z emeĠ
l es
lÄ±ÄŁ Ä±ndaĠ
lan arakĠ
ĠB ah
var lÄ±k
Ġb unuĠ
b Ã»
der in
k e
ek Ã¢
Ġmil yar
Ġs orum
im leriĠ
Ã ©
ĠK urum
kar maÅŁ
yer iĠ
ac h
n ot
D er
ĠY Ã¼ksekĠ
kÃ¼ltÃ¼r elĠ
etr ol
baÅŁla yanĠ
Ġdik kat
sÃ¶yled i
el em
et miÅŁtir
ĠBunaĠ gÃ¶reĠ
iÅŁ leriĠ
Ù İ
: //
ler ceĠ
mak la
ĠK om
gerek sin
uku kiĠ
Ã§okĠ dahaĠ
ĠM et
ÅŁ un
Ä° Ã§
h enÃ¼z
man ya
Ġ onĠ
toplum unĠ
leĠ ilgiliĠ
herĠ birĠ
Ġhes ap
sonuÃ§ larĠ
Ġ gÃ¶rÃ¼ÅŁ
ĠBun lar
ar Ä±m
Ġ ifa
Ġhal indeĠ
ek kÃ¼r
ebil eceÄŁiĠ
ĠveĠ B
tan Ä±t
k Ä±y
tak Ä±mĠ
mah kem
la yarakĠ
ĠT er
olek Ã¼l
ĠAl t
ĠÄ°b nĠ
ol gu
kan un
g Ã¼r
v as
Ä±r ĠveĠ
Ã¶ mÃ¼r
isiĠ veĠ
y Ã¼kÃ¼m
ĠdeÄŁer iĠ
an lÄ±kĠ
b izeĠ
taÅŁÄ± yanĠ
yo laĠ
ic h
ĠAnkar a
aÅŁ aĠ
liĠ olarakĠ
Ġgen ellikleĠ
ĠsaÄŁ lÄ±kĠ
mekĠ ist
lar ĠtarafÄ±ndanĠ
ĠâĢ ĵ
" .
ser mayeĠ
ĠAvrup aĠ
Ġy oÄŁ
saÄŁ lÄ±klÄ±Ġ
at Ã¶r
tasar ruf
edil mesiĠ
Ġf iyat
masÄ±nÄ±Ġ saÄŁla
olma z
ĠM art
g enĠ
dik tenĠsonraĠ
de dil
teÅŁ vikĠ
tarih iĠ
itibar iyleĠ
santr asyon
v el
Ġedil mesiĠ
s inĠ
Ġ Ã¶lÃ§
mem nun
m Ã¼n
. -
Ġk it
imk Ã¢n
kad Ä±nÄ±nĠ
yer el
belir liĠbirĠ
Ã¼ret ilenĠ
k Ã¼l
ĠY ukar
Ġtar z
Ġ mal
Ä±mÄ±z aĠ
siz inĠ
kiÅŁ ilerĠ
ok sit
k Ã¢
m ur
iniz eĠ
gen elĠolarakĠ
al mÄ±ÅŁ
daĠ daĠ
Ġ Ã¼y
et ik
ya hat
iÅŁlem iĠ
Ã¼r t
ĠK am
Ã¶nc elikleĠ
S er
tam ĠolarakĠ
ĠDolayÄ±s Ä±ylaĠ
os yo
Ã¼n y
tut ul
mÃ¼cad el
ikĠ olarakĠ
alan dÄ±r
tur izm
erk en
Ġ im
on laraĠ
cevap Ġver
t in
lik leriĠ
oran Ä±
hal kĠ
Ġm er
d ost
Ä±Ġ daĠ
kur am
Ġkat Ä±lÄ±m
Ġ ekonomikĠ
ir ler
ĠP eygamber
gel ecekĠ
r y
gerÃ§ekleÅŁtir ilenĠ
sor gu
gÃ¼Ã§ lÃ¼
yer indeĠ
Ġ Ã¼rÃ¼n
belirlen enĠ
yapÄ±l dÄ±ÄŁÄ±Ġ
ĠF ark
sonĠ dereceĠ
ma larÄ±nÄ±Ġ
teh dit
ĠK i
ul tanĠ
oz it
Ġm Ã¼z
aÄŁ aÃ§
hat taĠ
iniĠ veĠ
ĠM ar
Ġs Ä±cak
ĠveĠ K
ĠK Ä±r
ede biyat
ĠBuĠ yÃ¼zdenĠ
mevcut tur
u danĠ
say g
eldeĠedil miÅŁtir
Ġs por
A M
belirt ilenĠ
seĠ deĠ
ĠBunun laĠbirlikteĠ
istih dam
kur ulanĠ
iÅŁ letmeĠ
boz uk
O l
) :
Ä±ldÄ±ÄŁ Ä±nda
S aÄŁ
k oÅŁ
Ġyer ineĠ
yayg Ä±n
lul uÄŁuĠ
yet en
s ad
eler iĠveĠ
Ġp art
olduÄŁ unaĠ
hasta lardaĠ
m l
Ä±lar Ä±
ab a
i at
vaz geÃ§
iyor lar
Ġsah ibiĠ
ter e
II I
iler ĠveĠ
Ġsay Ä±sÄ±Ġ
iÅŁ inĠ
eĠ gir
yap makĠ
Ã¶ den
gÃ¶ster diÄŁiĠ
Ġh ep
Ã¼l ey
oluÅŁtur ul
B ul
ala bil
Ġ olay
ak et
Ġper forman
g in
is p
enc er
tes is
d Ã¶k
l iy
t erĠ
kÃ¶ tÃ¼
v ide
ab Ä±Ġ
ay etĠ
Ġb es
ihrac at
Ä±nĠ birĠ
kend isiĠ
Ġn it
aÃ§Ä±k Ã§aĠ
Ġy ineĠ
ĠTop lum
Ġ aÅŁ
Ä° L
BaÅŁ kan
birbir indenĠ
ĠY er
il meĠ
demok ras
ĠAynÄ±Ġ zamandaĠ
Ä° m
person el
Ġ olarak
em ek
kolay laÅŁtÄ±r
unda dÄ±r
Ġ es
Ġd iz
b Ã¶yleĠbirĠ
M eh
C O
araÅŁtÄ±r manÄ±nĠ
sÄ± v
Ġtem el
baÅŁ arÄ±Ġ
dest eklen
ĠBuĠbaÄŁlam daĠ
ka f
yas ak
sen iz
Ġ uygula
Ã¼c Ã¼
eĠ geÃ§
yÃ¶n deĠ
baÄŁlan t
had is
ĠBir ey
lÄ±ÄŁÄ±Ġ veĠ
ist ik
Ġd iÄŁer
un laÅŁ
etm ek
lem ektedir
ĠB as
yer iniĠ
an ti
ta tÃ¼r
Ä±l Ä±yor
Ã¼lk eninĠ
olarakĠ daĠ
Ġb e
Ġ er
h end
sÃ¼rec iĠ
Ġ ac
Ġsistem iĠ
b ed
ar kas
b inĠ
ĠdeÄŁer leriĠ
ĠF rans
ilg ilen
ol uyor
ĠE ÅŁ
h aberĠ
hÃ¼cr eĠ
Ã® r
Ġmek an
v ad
al iĠ
Ġol un
bir ininĠ
fa aliyetĠ
olduÄŁuĠ gÃ¶rÃ¼lmektedir
ma kam
ik lerinĠ
lÄ±ĠbirĠ ÅŁekildeĠ
ala cak
Ã» r
bilin enĠ
gÃ¼z elĠ
tic ariĠ
Ã¶ p
lÃ¼ÄŁ Ã¼Ġ
ĠiÅŁ letm
Ġ j
gÃ¶rÃ¼n tÃ¼
ĠGÃ¼n Ã¼mÃ¼zdeĠ
Ã¢ s
ÅŁ ans
Ġmad des
ĠÃľ st
tek lif
araÅŁtÄ±rma daĠ
Ġf az
il mesineĠ
abil ecekĠ
elektr ikĠ
b eniĠ
ĠY ak
yaz Ä±lÄ±Ġ
sistem iĠ
lay Ä±p
kend ileriniĠ
ĠdÄ±ÅŁ Ä±ndaĠ
ayr Ä±m
kat say
ro s
Ġs u
ĠsÃ¶z ĠkonusuĠ
ziy aret
z incir
Ġol masÄ±
Ä±nÄ±z Ä±Ġ
g i
ok uy
c on
in er
k um
Tar ih
c ar
hazÄ±r lananĠ
ĠM er
Ġ kay
ĠM ayÄ±s
ĠU ygu
lar akĠ
Ġf iz
ĠG rup
Ġ kaynak
ĠT ekn
Ġ tak
Ġ ;
farklÄ±Ġ birĠ
mad Ä±k
mek leĠ
dahaĠ sonraĠ
Ġ res
ulaÅŁ tÄ±r
Ġgel iÅŁim
dÄ± lar
Ã¶ÄŁr et
ĠI n
alg orit
An kar
ber aberĠ
t iÄŁiniĠ
tekĠ birĠ
ĠEy lÃ¼l
ler inde
is idir
alÄ±n masÄ±Ġ
Ã¶ dem
ĠBuĠ daĠ
o ut
fi il
gel diÄŁiĠ
ĠÅŁ irket
Ä±ÅŁ Ä±ÄŁ
mÃ¼cad eleĠ
Ġg it
ecek leriĠ
Ġa il
deĠ deĠ
sÃ¶z c
oluÅŁtur ur
Ġb enĠ
dok tor
Ġgen iÅŁ
Ä±nda dÄ±r
mekt enĠ
h anĠ
Ã¼l t
zer siz
rek abet
haleĠ getir
yÄ±l lÄ±kĠ
ĠH ak
ĠÃ§Ã¼n kÃ¼
V er
ley erekĠ
s ininĠ
larÄ±nĠ veĠ
kend ilerineĠ
mak in
kullan Ä±cÄ±
ĠyÄ±l lÄ±kĠ
r ut
l os
k uĠ
Ġ en
Ġt hat
de faĠ
Ġb oÅŁ
Ġ Ã¼Ã§
oluÅŁ ur
med i
ĠR es
e lasyonĠ
es iz
h aĠ
gÃ¶zĠÃ¶nÃ¼ndeĠ bulundur
Ġ taÅŁ
y Ä±
di j
M ar
an neĠ
us unaĠ
siz lik
Ġk uÅŁ
g ur
mem esiĠ
iÅŁ lerdir
s enĠ
Ġh ukuk
Ã§alÄ±ÅŁma yaĠ
ĠO nunĠ
S A
Ġ da
Ġar kadaÅŁ
Ġp azar
kullanÄ±l masÄ±Ġ
ĠdÃ¶nem indeĠ
Ã¶ demeĠ
Ġ ta
Ġde st
Ġ ot
mo bil
dan Ä±ÅŁ
a iĠ
Ø §
eler ĠveĠ
al maktadÄ±r
da dÄ±r
s akĠ
tar Ä±m
kon ut
ar Ä±
muÅŁ lardÄ±r
Ġhat taĠ
s oy
alÄ±ÅŁ veriÅŁ
Ġs iz
Ġ x
ĠgeÃ§ ir
b Ã¼r
us alĠ
taÅŁÄ± maktadÄ±r
birĠ sÃ¼reĠ
Ä° T
y leĠ
ka vr
sÃ¼reÃ§ teĠ
boz ul
Ġs o
ĠsÄ±r asÄ±ndaĠ
ett ikleriĠ
R es
gÃ¼Ã§ lendir
s ez
TÃ¼rk Ã§eĠ
haf az
ĠD Ã¼ÅŁ
sÄ±r adaĠ
ĠkÄ±s m
Ã¶z et
vÃ¼c ut
ĠT heĠ
alÄ±ÅŁ kan
ĠdÄ±ÅŁ Ä±Ġ
la v
ĠM a
r az
ÅŁ im
t oz
ac aĠ
evr en
Ġk Ä±
laraĠ karÅŁÄ±Ġ
uyum luĠ
yapÄ±l maktadÄ±r
ek siyonĠ
has tan
ĠBuĠ neden
Ã¼zerindeĠ dur
en lerĠ
karÅŁ Ä±sÄ±ndaĠ
Avrup a
Ġber aberĠ
dÃ¼z elt
olan akĠ
parÃ§ asÄ±Ġ
dÃ¼n yanÄ±nĠ
la mÄ±ÅŁ
d Ã¢hil
Ã§okĠ sayÄ±daĠ
sorum luĠ
Ġr ek
in f
ĠD eÄŁ
ĠAncakĠ buĠ
olduÄŁuĠ iÃ§inĠ
B aÄŁ
ĠAn ad
c Ä±nÄ±nĠ
larÄ±n a
Ġstr atej
Ġsay esindeĠ
fa iz
ot ikĠ
Ã¼niversit eĠ
Ġ Ã¶ÄŁretmen
Ġt r
Ġ uy
ver ilerinĠ
bu la
ser gil
ila veĠ
faz las
den g
D eÄŁer
oluÅŁtur ulanĠ
ter ap
sÃ¶y ler
s end
eceÄŁ iniz
K or
ÅŁuĠ ÅŁekildeĠ
Ġk Ã¼Ã§Ã¼kĠ
M Ã¼dÃ¼r
olanĠ veĠ
gÃ¼n eĠ
baÅŁlan gÄ±Ã§
imĠ iÃ§inĠ
yatÄ±r Ä±mĠ
h um
mÃ¼ÅŁter iĠ
doÄŁ alĠ
iler lem
eÄŁ ineĠ
p ir
a tanĠ
un un
Ã§ iÃ§
ekt i
at Ä±
Ġ Ã§Ä±k
saÄŁ lanmasÄ±Ġ
num un
ĠE fend
uÄŁr aÅŁ
d alÄ±Ġ
oluÅŁtur duÄŁuĠ
im ĠveĠ
is iz
Ġya tÄ±r
ad alet
ĠÃĩalÄ±ÅŁ mamÄ±z
Ġd o
ah ÅŁ
organ ikĠ
hÃ¢ kim
ĠyÃ¶n deĠ
Ġd olar
ĠSÃ¶z ĠkonusuĠ
liÄŁiĠ veĠ
ol mas
A merika
Ä±c Ä±lar
ĠdÃ¶n Ã¼ÅŁ
ĠE m
Ġn eden
v i
selĠ olarakĠ
T K
ĠM erkez
ol ikĠ
ka k
sÃ¼r edeĠ
zeng in
P ar
s up
v ekil
ver mektedir
P er
ifadeĠ eder
hÃ¼kÃ¼m et
ĠG Ã¶z
ab etĠ
sÄ±nÄ±r lÄ±Ġ
Ã¶nc esiĠ
bÃ¼y Ã¼meĠ
o dernĠ
E D
ikt idar
olduÄŁ undanĠ
ĠÅŀ ekilĠ
ad iĠ
olan ak
k Ä±ÅŁ
ĠEl deĠ
ĠÃĸr gÃ¼t
im ler
ĠÅŁ art
piya sa
Ã¼l enĠ
alg Ä±la
aÃ§ Ä±l
ĠÅŀ imdiĠ
ortayaĠÃ§Ä±k mÄ±ÅŁtÄ±r
bir idir
ol d
Ġ art
gÃ¼n eÅŁ
ĠBuĠdurum daĠ
baÅŁ ka
p uanĠ
s Ä±ÄŁ
ik Ã¼l
baÅŁ taĠ
mak al
Ġbelir t
ac Ä±
d oz
kullanÄ±l dÄ±ÄŁÄ±Ġ
edil mektedir
Ã¶r dÃ¼n
v en
ka bil
ĠBaÅŁ kaĠ
Ġhal ineĠ
ĠH av
kr ediĠ
ĠS istem
m iniĠ
v d
Ġkullan Ä±larakĠ
K om
ĠBuĠ Ã§alÄ±ÅŁmadaĠ
alan lardaĠ
Ġg azet
k Ã¼Ã§
I R
Ġp sik
ĠM ak
dis ip
Ġfa aliyet
gÃ¼n cel
geliÅŁ miÅŁ
ĠM an
l iyor
kr iz
izel geĠ
gel iyor
ner edeyseĠ
top rakĠ
Ġk Ã¶y
Ã¼p han
ĠM eh
Ġm etr
Ġt oĠ
katÄ±lÄ±m cÄ±larÄ±nĠ
de z
kal Ä±n
ĠÂ ±
Ġder s
baÄŁ lÄ±dÄ±r
yar gÄ±
b ez
Ã¶zellik leriniĠ
ok umaĠ
ĠM od
doÄŁ um
siy etĠ
K ad
kÄ±n maĠ
c Ä±lÄ±ÄŁ
im deĠ
sÃ¼r esiĠ
un d
incelend iÄŁinde
ma larÄ±naĠ
re j
d Ä±ndanĠ
Ã¼ lasyon
ulus al
Ġbur adaĠ
ortam daĠ
Or ta
i mat
l isiĠ
dayan Ä±k
b etĠ
Ä± larÄ±nÄ±nĠ
mek Ã¢n
uk luĠ
selĠ birĠ
deÄŁiÅŁk enĠ
kar Ä±ÅŁtÄ±r
i i
ĠS adeceĠ
f erĠ
M erkez
ist ek
Ġgru bundaĠ
ĠÃľ niversit
Ġar alÄ±ÄŁ
ar eĠ
anlaÅŁ Ä±lmaktadÄ±r
g o
Ġ Ã¶zel
Ġh a
ĠK r
Ã¼ lerĠ
U lus
ĠK az
un c
Ġ davranÄ±ÅŁ
gÃ¶rev Ġyap
ĠÄ° st
S Ã¶z
s iyeĠ
Ġf aktÃ¶r
dav aĠ
Ã¶n Ã¼ndeĠ
id iĠ
Ã§alÄ±ÅŁma larÄ±nĠ
ĠNit ekim
m Ä±
aka demikĠ
Ġ Ã§alÄ±ÅŁmaĠ
Ġol maktadÄ±r
Ġder ec
Ġ Ã¶ÄŁrencilerinĠ
Ã¼st Ã¼
yÃ¶n Ã¼ndeĠ
et miÅŁ
has sas
deÄŁiÅŁ enĠ
iÄŁ ini
du nĠ
duygus al
aya ÄŁ
ic i
ÅŁ air
Ġf ilm
Ġm ev
l ig
ekĠ olarakĠ
Ġs e
haf taĠ
amaÃ§ lÄ±Ġ
ler di
Ä±z aĠ
gel miÅŁ
olduk larÄ±Ġ
esiĠ olarakĠ
s ub
K emal
bel liĠbirĠ
ka hr
h uzur
f at
Ã¶ dÃ¼l
ter Ã¶r
ol malÄ±dÄ±r
Ġ arasÄ±ndakiĠ
fiz iksel
el indeĠ
lardanĠ biriĠ
l iyet
tÄ±k Ã§aĠ
b i
ler ĠtarafÄ±ndanĠ
bil iÅŁ
ka ÄŁ
yap arakĠ
s is
hend is
b Ä±r
f e
kÃ¶ tÃ¼Ġ
il t
unaĠ gÃ¶reĠ
ĠS or
ver miÅŁtir
tern etĠ
st it
Ä±s Ä±ndanĠ
Ġ tam
el ektro
. âĢĿ
Ġs em
k uzey
bilg isayar
ayr am
ĠdÃ¼n yas
kan al
Ġ )
Ġk ir
kÄ±s Ä±m
farklÄ± laÅŁ
ĠHat taĠ
doÄŁ anĠ
kaynak lananĠ
Ã¼k le
yak Ä±t
gÃ¶rÃ¼n Ã¼m
ilmesiĠ veĠ
kullan Ä±labil
gerek Ã§
Ä±Ġ K
Ã¶v iz
ler idir
inc e
ait Ġ
ww w
ĠD Ä±ÅŁ
bar Ä±ndÄ±r
ĠÄ°n sanĠ
yet enek
a larĠ
Ã¶zel t
mad diĠ
mekteĠ olanĠ
yap Ä±labil
ĠN is
geliÅŁ meler
zaman lardaĠ
de kĠ
Ġy orum
d iya
pr em
h om
Ä±lmasÄ±Ġ veĠ
ust os
maktay dÄ±
kiÅŁ isel
ĠM ec
ĠD eÄŁer
or din
saÄŁla maktadÄ±r
ĠK im
bu gÃ¼nĠ
c en
kar arÄ±Ġ
ya bilir
ta bil
il ebil
ĠolarakĠ tanÄ±m
Ä±r ken
taraf tanĠ
veril ir
Ġ alÄ±n
m elerinĠ
on g
ig Ã¼r
sÄ±z Ä±nĠ
Ġgru bun
Ġad etĠ
bir isiĠ
ĠG Ã¼ven
ilm elidir
kÃ¶ k
in lerinĠ
Ã¼yor du
S osyal
im ininĠ
mot iv
ren kĠ
yay Ä±Ġ
r Ä±Ġ
g eceĠ
merkez iĠ
iliÅŁk ileriĠ
uygu lanmÄ±ÅŁtÄ±r
l ez
olur saĠ
ayr Ä±ntÄ±lÄ±Ġ
A d
Ã¢ d
Ġc ez
ĠA liĠ
D A
fa kat
tah r
mak sim
laya bil
or du
bÃ¶lg edeĠ
ĠSon raĠ
Ġc ih
il mesiniĠ
ecekĠ birĠ
istatistikselĠolarakĠ anlamlÄ±Ġ
M ec
ab an
ol sunĠ
Ä±la caÄŁÄ±Ġ
Ã¶ÄŁrenc ilerĠ
ki lat
ĠK a
etm ez
ek i
ya cak
o daĠ
kurt ul
sÄ±r alan
aÅŁa masÄ±ndaĠ
duy ur
ĠTem muz
Ä±ndaĠ birĠ
ĠveĠ ark
T ur
ah at
ad Ä±ÄŁÄ±Ġ
ĠAn aliz
son aĠer
gÃ¶r Ã¼r
ĠkarÅŁÄ± laÅŁ
Ġbir Ã§okĠ
uy ur
av un
veril mesiĠ
b eden
aya kĠ
ĠMu hammed
ĠÃĸ teĠ
iler indeĠ
ĠS ur
b eÄŁ
isted iÄŁiĠ
for mas
ka dem
e ar
r ev
ÅŁey iĠ
ma tr
z a
bilg ileriĠ
eler dir
dahaĠ dÃ¼ÅŁÃ¼kĠ
DÃ¼n yaĠ
M a
tercih Ġedil
yÃ¼ks elt
Ġar z
dÃ¼ÅŁÃ¼n ceĠ
gÃ¶zĠÃ¶n Ã¼neĠ
Ġed erekĠ
Ġter cih
A ÄŁ
v es
Ġï ĥ
en in
ib idir
Ä± b
leÅŁ ikĠ
ĠP art
it alĠ
ĠBÃ¼y Ã¼kĠ
p az
tep k
enĠ azĠ
Ġte or
Ã§ at
ol sun
at om
h az
ĠT ek
ĠK Ä±z
l it
den et
tar if
h ap
bulun du
iler iĠveĠ
Ġk g
B M
deĠ veĠ
la ÄŁ
kor umaĠ
M es
hastal Ä±kĠ
k ov
ĠÃ¶nc esiĠ
ĠSaÄŁ lÄ±kĠ
larÄ±Ġ tarafÄ±ndanĠ
Ġk o
Ġkurul uÅŁ
lÄ±k lar
Ġm Ä±
ik enĠ
ĠBun larÄ±nĠ
Ġol um
y iy
maruz Ġkal
Ġki tab
kal p
Ã§ al
D en
kes inĠ
p latform
lem e
r um
ikt is
uzunĠ sÃ¼r
Ġ Ã¶nceĠ
Ġs ig
abil mektedir
t Ä±lar
ser may
ĠG ir
ĠBun danĠ
olduÄŁ unu
U R
Ġk ez
ĠH iÃ§
H an
Ã§ Ã¶k
m arkaĠ
ma cÄ±Ġ
Ä±m ĠveĠ
Ġmey danaĠ
kay bet
a lardaĠ
yÃ¶ntem iĠ
bir erĠ
hazÄ±r lan
kavram Ä±Ġ
iyil eÅŁ
Ã Ĥ
iliÅŁk ilendir
Ġ ise
ĠTab loĠ
Ä° M
Ġkon usudur
olanĠ buĠ
i es
tab lo
dÃ¼z eyiĠ
ĠbÃ¼y Ã¼k
netic esindeĠ
an ket
Ġtes pit
ĠÃĸz el
g Ä±nĠ
Ã¼m Ã¼ÅŁ
ĠÃľl kem
Ãľ niversit
s uy
Ġede bil
Ġh ac
kiĠ deĠ
yet iÅŁ
eceÄŁ ineĠ
t il
Ġk olay
gÃ¶rev iĠ
ĠM al
yapÄ± landÄ±r
ma larÄ±nÄ±nĠ
ĠA v
in alĠ
Ġ kadÄ±n
Ä±nÄ±Ġ veĠ
azir anĠ
ĠB ar
Ä±lmÄ±ÅŁ ĠveĠ
h ayataĠ
K K
ĠGer Ã§
E C
dey iÅŁ
pol is
Ġol muÅŁ
ver di
Ġp uanĠ
Ã¼n Ã¼z
ul maktadÄ±r
ar lar
O sman
mad de
insan lar
f rekans
eĠ deĠ
katk Ä±daĠ
hay al
s ine
Ä±n d
gÃ¼n ey
cer rah
organiz asyon
Ġol masÄ±naĠ
ĠÂ µ
lo w
Ġtel ef
ĠEldeĠ edilenĠ
n Ã¶
Ä°s lÃ¢m
en leriĠ
ĠK Ã¼ltÃ¼r
ma larÄ±
ĠdÃ¼n yaĠ
ĠbakÄ±m Ä±ndanĠ
ec iĠ
Ġs osyalĠ
s Ä±ndaĠ
Ġson ucuĠ
ular akĠ
Ġ am
ol og
Ġkur al
Ġs tandart
belir tenĠ
saÄŁ lam
gÃ¼c Ã¼
Ġtarih liĠ
Ġk Ã¼r
ĠB it
l inĠ
Ġan aĠ
l eh
Ã¼Ġ birĠ
Ġb iy
yaÅŁ ama
ayÄ±n larÄ±
devam ĠedenĠ
Ġ alanĠ
geÃ§er liĠ
dÃ¼n yadaĠ
hem ÅŁir
iy im
Ä±Ġ birĠ
ad iÅŁ
sem bol
k Ã¼m
Ġm Ã¼cad
n an
dikkateĠ alÄ±n
mÃ¼dah al
Ġ deÄŁiÅŁken
-- --
Ġb ey
Ä±s al
* *
n etĠ
Ġy aĠ
Ä° Åŀ
mesiĠ ileĠ
z ir
ĠgÃ¼n lÃ¼kĠ
Ġf orm
ziy aretĠ
yÃ¼kÃ¼m lÃ¼l
Ġik inciĠ
ĠP ol
tec rÃ¼b
T L
em iĠ
say edeĠ
dÄ±ÄŁ Ä±nda
n elerĠ
dok un
Ã§ aÄŁr
ĠM at
tar akĠ
eg zersiz
Ã¼lk elerinĠ
t uÄŁuĠ
Ã¢ ÅŁ
Ä±ÄŁ aĠ
ĠB or
baÅŁ Ä±Ġ
ah ir
ĠD av
h ukukĠ
ĠDen ey
t inĠ
Ä±la caktÄ±r
sor uĠ
t edir
p tom
Ä± larÄ±nĠ
Ä±n tÄ±Ġ
ĠÄ° m
Anad oluĠ
dÃ¼ÅŁ Ã¼ÅŁ
Ã¢n Ã®
ar y
h ukukiĠ
suret iyleĠ
F or
b alÄ±kĠ
Ä±l masÄ±nÄ±Ġ
mek tir
gÃ¼n Ã¼mÃ¼zdeĠ
var lÄ±ÄŁÄ±nÄ±Ġ
geniÅŁ ĠbirĠ
led i
s Ã¼s
ef f
d os
Ġy o
Â ł
dem ektir
I L
ma il
ede bilir
p ek
ka st
Ġr ad
ĠBir inciĠ
l Ä±lar
B iz
l Ã®
P art
dÄ±k larÄ±nÄ±Ġ
z ev
siya set
evr eĠ
ir ken
ted bir
Ã¶lÃ§ Ã¼t
Ġh aber
B an
Ä±c Ä±nÄ±nĠ
b unĠ
b kz
Ġc on
uyor um
ĠAn aya
oper atif
it Ġ
Ä±naĠ gir
laraĠ veĠ
veril mektedir
n Ã¶r
la manÄ±nĠ
Ġet meĠ
hakk Ä±Ġ
O R
katÄ±lÄ±m cÄ±
E y
Ġber aber
ar an
ĠBuĠneden le
ĠSÄ±n Ä±f
ra il
Ġban ka
end iÅŁ
ot ip
mut lakaĠ
ĠB ak
tekn olojiĠ
d ip
lama daĠ
Ä± v
yapÄ±lanĠ birĠ
Ġbir bir
is ay
karÅŁ Ä±nĠ
Ã§ el
g idenĠ
ĠB Ã¶lg
Ġc ev
eĠ ileĠ
pro fesyon
Ġ ÅŁekl
leÅŁ miÅŁ
Ġher hangiĠbirĠ
ik liĠ
Ä±yor lar
Ġel ektr
iÃ§er mektedir
ev i
ĠdÃ¼z eyiĠ
i lanĠ
belirt miÅŁlerdir
ter kĠ
im iniĠ
s Ä±nÄ±nĠ
Ġ aÃ§Ä±s
yÃ¶netim iĠ
ĠÃ Ĥ
sin ir
Ġk em
k linikĠ
sÄ±n av
ad lÄ±Ġ
Ġtic aret
Ġmad d
ey r
v asÄ±
s omut
ĠS tr
last ikĠ
ger eÄŁiĠ
deÄŁiÅŁ imĠ
Ä° k
iÅŁ len
uygunĠ olarakĠ
al i
edil diÄŁiĠ
t is
Frans Ä±z
Ġbah is
t onĠ
I S
Ã§ eÅŁ
ĠTop lam
Ġ ayrÄ±caĠ
ola caÄŁÄ±Ġ
belir ginĠ
eler in
f enĠ
bet teĠ
mÃ¼dah aleĠ
in at
Ġ gÃ¶
enf eksiyon
dÃ¼ÅŁ Ã¼k
iz asyonĠ
diÄŁ inde
Ã¶r g
ĠBuĠsebep leĠ
ĠG az
d oy
mal zemeĠ
bulun masÄ±Ġ
m Ã¼s
erg isi
Ġf onksiyon
ebev eyn
ĠD Ã¼z
tem s
Ġka bul
iy el
er v
YÃ¶n etim
fay daĠ
ama cÄ±
s Ã¼l
ĠA t
h y
lerinĠ veĠ
yap Ä±nÄ±nĠ
bildir ilmiÅŁtir
idar iĠ
iÅŁ ler
st il
s ist
iy ar
ĠB enz
D E
bilg ilendir
bil iyor
or f
D eÄŁ
n o
ad res
doÄŁ ur
Ä±mÄ±z Ä±nĠ
larĠ iseĠ
oj enĠ
f Ä±k
U ygu
ineĠ veĠ
Ġt ep
uzak laÅŁ
seÃ§ enek
Ġg eriĠ
ya caÄŁ
iÃ§inĠ birĠ
eceÄŁ iz
us ununĠ
Ġb in
en miÅŁ
finans al
yak Ä±ndanĠ
p iÅŁ
iciĠ birĠ
ĠÃ§eÅŁit liĠ
keÅŁ f
ihti mal
Ã¼st Ã¼n
Ġkar akter
getir diÄŁiĠ
zor luk
ĠS avaÅŁ
tekn olojikĠ
ĠKur ul
ar alÄ±Ġ
S Ã¼r
mayaĠ baÅŁ
i o
Ġb eÅŁ
Ġ Ã¼zerineĠ
ĠdoÄŁr uĠ
oj en
por t
TÃ¼rk Ã§
kÃ¶ ÅŁ
Ġol maĠ
iz deĠ
tr af
mut luĠ
ifadeĠet miÅŁtir
ot om
E v
temsil c
Ġd is
doÄŁ an
etkilem ektedir
ot iv
is ans
y or
hizmet iĠ
i or
ĠK Ã¶
var ĠolanĠ
ĠÃĩalÄ±ÅŁ madaĠ
ler e
nit elendir
ĠÅŀ ub
ka mu
doÄŁ uĠ
azal maĠ
kom pl
h ikÃ¢y
dÃ¼zen lemeĠ
doÄŁrul tu
ha ta
Ġb eklen
ĠdÃ¼ÅŁ Ã¼kĠ
Ã¶ÄŁr end
gel erĠ
kullan Ä±mĠ
bÃ¶l Ã¼n
Ã¢ nÄ±Ġ
Ġ {
aĠ birĠ
aĠ ileĠ
arac Ä±Ġ
Ã¼lk edeĠ
gÃ¶r sel
Ġb ileĠ
ilm ez
us unuĠ
kullan Ä±labilir
Y ah
ima j
tab an
yolaĠ Ã§Ä±k
iz lem
Ġkullan Ä±lmÄ±ÅŁtÄ±r
isiĠ ileĠ
ĠveĠ C
B atÄ±Ġ
kap alÄ±Ġ
gerÃ§ekleÅŁtir ilmiÅŁtir
var lÄ±kĠ
etkin likĠ
V I
yar Ä±ÅŁ
iÃ§ inde
ĠS ev
m erĠ
s iniĠ
yaÅŁ a
hÃ¼k m
il eÅŁ
eÄŁ indeĠ
ĠyÄ±l Ä±ndanĠ
Ä± br
v ek
an al
ip t
iyat ro
ek imĠ
hareket leĠ
Ä±m Ä±
il em
Ġser gil
yÃ¼z yÄ±l
sÃ¶y lemekĠ
ik teĠ
larÄ±ndanĠ biriĠ
gibiĠ birĠ
gÃ¶r dÃ¼ÄŁ
e matikĠ
it esiĠ
T em
kaynak lÄ±Ġ
iÃ§inĠ deĠ
ikas yon
iÅŁ ĠveĠ
bÃ¶lg eĠ
Ġ >
ed iÄŁiniĠ
ar adaĠ
gÃ¶z lenmiÅŁtir
geliÅŁtir ilenĠ
ist is
ĠT as
y emekĠ
yerĠal dÄ±ÄŁÄ±Ġ
ver ileriĠ
Ġh ad
g Ã¼venĠ
Ä±br Ä±s
Ã§Ã¶z Ã¼l
b oÄŁ
Ġku vvet
bit kiĠ
Ã§alÄ±ÅŁma mÄ±z
sÄ±z lÄ±kĠ
Ġp o
iÄŁ im
s Ä±cakĠ
olduÄŁuĠ veĠ
iĠ K
b is
Anad olu
lu dur
n ih
al makĠ
del il
ĠkarÅŁ Ä±sÄ±ndaĠ
Ġ la
say Ä±sÄ±nÄ±nĠ
ek lerinĠ
Ã¼yor uz
tav siyeĠ
im lerinĠ
n i
Ä° S
belirlen mesiĠ
ĠGen el
kiÅŁ iler
Ã§alÄ±ÅŁ masÄ±Ġ
n ey
kar t
S on
zorundaĠ kal
buĠ konudaĠ
Ä± Ã§
Ġola caktÄ±r
M K
ĠD oÄŁr
potansiy el
or adaĠ
c Ä±lÄ±k
` `
ig ht
etk ileriniĠ
ĠveĠ D
Ã¼cret siz
Ã§alÄ±ÅŁ masÄ±ndaĠ
mÃ¼k em
ef end
baz enĠ
Ġyap Ä±lanĠ
bak ter
b Ã®
unĠ veĠ
yapÄ± yaĠ
sonuÃ§ lar
buĠ tÃ¼r
man larÄ±nĠ
ĠKad Ä±n
ĠyÄ±l larÄ±ĠarasÄ±ndaĠ
U z
geliÅŁ meĠ
Ġ az
art tÄ±ÄŁÄ±Ġ
yapÄ±l dÄ±
etkil eÅŁ
at uvar
gerÃ§ ektenĠ
bit ir
laz Ä±m
ozit if
ziya deĠ
devamĠet tir
ĠC umhuriyet
adiÅŁ ah
harc ama
olarakĠ kabulĠedil
Ä±nÄ±z aĠ
M an
ĠFark lÄ±Ġ
Ã§iz g
ha lat
ĠdÃ¼zen lem
olma danĠ
oyun cu
Ġ malzem
om p
eler iyleĠ
ya sa
Ä±lar ak
la makĠiÃ§inĠ
Ä±mÄ±z Ä±Ġ
m eden
ÅŁ imdiĠ
benz eriĠ
ĠU y
lil iÄŁiniĠ
yar g
ec e
lama z
cez aĠ
ah la
ĠBel ir
ĠHas ta
deÄŁerlendir ilmesiĠ
tal ya
Ġm us
Ġ ekonom
Ġ ile
ĠAr ap
Ġk alÄ±n
ĠA merika
Ġhaf taĠ
en tegr
Ġsonr asÄ±ndaĠ
ola sÄ±Ġ
Ġk od
il ecekĠ
oc a
eleriĠ ileĠ
ya yaĠ
M er
A Y
Ã¶nc elik
leriniĠ veĠ
Ġ tah
Ġkar deÅŁ
etk enĠ
Kan un
Ġs ol
d olar
Ġg id
yÃ¼r Ã¼r
Ġgel enek
Ä±l ma
C umhur
ak ÅŁam
Ġp r
ĠL iteratÃ¼r
kaynak larÄ±Ġ
t uz
ĠÃ§Ã¼n kÃ¼Ġ
Ġ Ã¶rn
Ġ mas
Ġgen Ã§
ĠÅŁ uĠ
Y aÅŁ
ĠH am
eliĠ birĠ
al dÄ±
Ã¶ÄŁrenc ilereĠ
Ã¶z elĠbirĠ
ĠR e
A v
baÅŁ kanÄ±Ġ
lerindenĠ biriĠ
Ġben z
h it
ba kanĠ
den klem
aÅŁama daĠ
kor uy
Ġed in
ĠdoÄŁr ultusundaĠ
bun danĠ
Ġb ek
ulaÅŁ Ä±lmÄ±ÅŁtÄ±r
Ã¼st Ã¼nĠ
sÃ¼r ek
ĠY un
etk iler
Ġ aÃ§Ä±sÄ±ndanĠ
un a
Ġgen el
Ãĩ oc
ĠveĠ H
t iÄŁimiz
ĠileĠ ilgiliĠ
uÅŁ akĠ
de pres
larĠ arasÄ±ndakiĠ
sorum luluk
on lar
iÅŁ ley
Ġp an
tik Ã§eĠ
ver en
s entez
ĠH ay
kullan dÄ±ÄŁÄ±Ġ
ĠY en
sor unuĠ
om uz
ad Ä±ÄŁ
tem inĠ
ĠE konom
Ã¼m r
f iĠ
aÄŁ Ä±
tas av
Ġ &
Ä±mÄ±Ġ ileĠ
meler iniĠ
laÅŁtÄ±r maĠ
Ġd iyor
zer bay
b anĠ
Ġpro te
Y eniĠ
il ip
Ã¶ de
gÃ¶z len
Ġd oy
zem inĠ
Ġ Ã¶rnek
ut an
Ġinsan larÄ±nĠ
dÄ±ÅŁ ar
E fend
Ġar aÃ§
Ġb ab
Ġol makĠ
n ikĠ
er im
uz at
Ġon larÄ±nĠ
hes ab
b onĠ
Ġw ith
belirt ilmektedir
ĠgeÃ§ miÅŁ
c ilikĠ
isten enĠ
leÅŁtir meĠ
sistem inĠ
yÃ¼ks ektir
Ä±lar Ä±ndaĠ
tÃ¼r Ã¼
DoÄŁ uĠ
kÃ¼ltÃ¼r el
Ġd alg
kiÅŁ ilikĠ
oper asyon
m Ã¼lk
ĠBu gÃ¼nĠ
n Ã¢
Ġg Ã¼zel
ĠA Ã§
eleĠ geÃ§ir
h ekim
larÄ±n dan
test iĠ
iniz inĠ
h ut
ĠdiyeĠ sor
baÅŁar Ä±sÄ±z
um ut
ak ar
zih in
d etĠ
san ay
ĠÃľÃ§ Ã¼nc
Ä±r ist
aykÄ±r Ä±Ġ
B ar
gerek iyor
ide al
Ġboz uk
G S
ĠM ed
karÅŁÄ± yaĠ
y Ã¶r
Ġben im
kus ur
iliÅŁk ilerĠ
U L
yar Ä±Ġ
olabil eceÄŁiĠ
ir iĠ
Ġf i
eyeĠ Ã§alÄ±ÅŁ
ĠdahaĠ sonraĠ
karmaÅŁ Ä±kĠ
ĠseÃ§ im
Ã¶neĠ sÃ¼r
B as
e bel
art maktadÄ±r
f utbol
Ġbit k
Ä° H
A liĠ
Ġ eser
ĠT Ã¼k
is inde
cÃ¼m l
Ġn asÄ±l
hey ec
Ġdiy erekĠ
Ġk Ä±l
ĠdÃ¼zey indeĠ
ĠÅŀ uĠ
yas Ä±Ġ
te mas
tal Ä±kĠ
Ġk ans
zat enĠ
gru buĠ
Ġk m
belirt mektedir
daĠ veĠ
mÃ¼z ikĠ
ĠG Ã¶
bir iniĠ
il i
Ġ ilk
Ã§Ä±k tÄ±
Ä±s Ä±t
ser v
uygulan masÄ±Ġ
yay Ä±nĠ
bun larÄ±Ġ
tes limĠ
Ġak tiv
Ã¼lk elerdeĠ
ĠS iz
u ar
yerĠ verilmiÅŁtir
ĠEÄŁ er
Ġnok ta
mu hafaz
ĠSan at
G az
E k
ĠgerÃ§ek leÅŁ
ĠK ol
ilmiÅŁ ĠveĠ
ola ÄŁ
iy onĠ
Ã» m
a kanĠ
Ã§alÄ±ÅŁma larÄ±ndaĠ
ĠAs lÄ±ndaĠ
ĠT aÅŁ
amel iyat
orta lamasÄ±Ġ
Devlet i
Ġ uzunĠ
yen ilik
Ġp olit
Ġa ileĠ
ett iÄŁiniĠ
Ġk ut
Ġtek rar
s eninĠ
at enĠ
Ã¼Ġ olarakĠ
ometr ikĠ
dÄ±ÄŁ Ä±nÄ±z
ikĠ asit
ĠyÃ¼r Ã¼t
t ev
ma laraĠ
ĠyÄ±l Ä±naĠ
uz manĠ
E m
kazan Ã§
otor it
ĠÄ°ngil iz
aÃ§Ä±k lamaĠ
Ġn ot
geliÅŁ enĠ
ĠS Ä±r
Ġ eks
ĠB ilim
belir tir
mod eliĠ
ĠtÃ¼k etic
ĠsÃ¶y lem
inĠ deĠ
gelenek sel
sal ĠveĠ
Ġet ti
ĠÃĩalÄ±ÅŁ manÄ±nĠ
T C
im aĠ
ĠbirĠ ÅŁey
ĠB az
saÄŁ lÄ±k
sÃ¼rdÃ¼r Ã¼lebilir
ĠUlus lararasÄ±Ġ
Ġp at
Ã§oÄŁ unluÄŁ
ĠK es
ĠdÃ¼zey deĠ
Ã¼r Ã¼nÃ¼nĠ
re aksiyon
s Ã®
mem ur
alt Ä±nĠ
kav uÅŁ
M Ä±sÄ±r
gres yonĠ
on ya
n ez
hal kÄ±nĠ
Ã¶ÄŁretmenĠ aday
fayda lan
eviz yonĠ
zeng inĠ
Ġk red
finans alĠ
saÄŁla dÄ±ÄŁÄ±Ġ
Al t
larÄ±n Ä±zÄ±Ġ
ĠS eÃ§
lÄ±k larÄ±nĠ
Ġpar Ã§
Ġkend iniĠ
Ġd on
es ter
deÄŁerlendir ilmiÅŁtir
Ġ ÅŁey
mu hal
ar p
izinĠ ver
meydanaĠ gel
s Ä±nĠ
kahr aman
inc isiĠ
ama m
ĠGen elĠ
D Ã¼z
Ã¶nem Ġver
s us
A mer
gÃ¼Ã§ lÃ¼Ġ
ad Ä±mĠ
fik r
I M
eler dekiĠ
Ġ kadÄ±nĠ
enĠ dÃ¼ÅŁÃ¼kĠ
iy i
K az
un g
ifadeĠ edenĠ
deÄŁiÅŁ imiĠ
Ġv d
Ð °
ara larÄ±ndaĠ
yon unĠ
Ġb unaĠ
zararĠ ver
p eÅŁ
ip ar
Ġh t
leĠ birlikteĠ
Ä° LER
K ullan
Ù Ħ
duygus alĠ
Ġs ak
ĠolduÄŁ u
ĠO naĠ
ir miĠ
Ġs atÄ±ÅŁ
ec t
ma da
lan gÄ±Ã§
gÃ¶rÃ¼l dÃ¼ÄŁÃ¼
proj eĠ
saÄŁlaya cakĠ
Ġet miÅŁ
ter s
Or taĠ
luĠ birĠ
rast lan
al Ä±p
ĠBuĠ tÃ¼r
al dÄ±klarÄ±Ġ
ĠiÃ§ iĠ
Ã§alÄ±ÅŁ tÄ±r
tekn ik
n Ã¼nĠ
etm em
O n
taz min
olabil mektedir
Ã¶n gÃ¶r
edil di
n denĠ
uz an
kÃ¼r esel
dur dur
y olojikĠ
diÄŁerĠ birĠ
yap mÄ±ÅŁtÄ±r
ark en
siya h
yap tÄ±ÄŁ
gec ik
acaÄŁ Ä±nÄ±Ġ
d ullah
Ġhas taĠ
g Ä±n
takdir deĠ
uylaĠ ilgiliĠ
sÃ¶y l
ĠI II
d Ä±nĠ
belir lemekĠ
ĠBaÅŁkaĠ birĠ
med iÄŁiniĠ
ĠA z
ĠMil let
beraber indeĠ
Ġ artÄ±ÅŁ
g eler
ĠÄ°ÅŁ letm
Y Ä±l
landÄ±r maĠ
f igÃ¼r
ĠV ar
yok sul
ih lal
yaz Ä±lÄ±m
fay dalÄ±Ġ
dÃ¶nem inĠ
yÃ¶n etm
ah r
yap Ä±yor
iÃ§er ir
. ).
K urum
hesap lanmÄ±ÅŁtÄ±r
d r
aÄŁ Ä±z
ĠT ekĠ
. /
yap maĠ
grup taĠ
Gen el
Ġkam uĠ
taÅŁ Ä±y
lan masÄ±
larĠ arasÄ±Ġ
ÅŁ ar
Ġht tp
lama larÄ±Ġ
kes inlikleĠ
m arka
Ġd olayÄ±s
ĠM Ã¼
Ġt h
gÃ¶z denĠ
R A
deÄŁer liĠ
iyet iniĠ
em aĠ
iĠ olanĠ
lama yÄ±Ġ
Ġt ez
sap ta
Ä±l masÄ±ndaĠ
Ġ uÃ§
BÃ¼y Ã¼kĠ
luÄŁ u
s Ã¼
Ã¼st Ã¼ndeĠ
en dir
eÄŁ r
Ġ Ã¶ÄŁren
uygunĠ birĠ
on un
enĠ fazlaĠ
bak Ä±r
ĠEr k
g ide
Ġ enerjiĠ
ĠgerÃ§ ekĠ
j ektif
eĠ sahip
Ġ Ã§Ä±kar
Ä±sÄ±Ġ ileĠ
yap tÄ±k
dÃ¼ÅŁÃ¼n Ã¼r
ĠS iya
ortayaĠÃ§Ä±k maktadÄ±r
Ã¶nem iniĠ
Ġbil dir
Ġt rans
ĠÅŁ eh
kan unĠ
el iĠveĠ
Ġad Ä±Ġ
B en
dÃ¶nem lerdeĠ
Ä±l Ä±p
ĠÃ§ ap
an ahtar
D P
b Ã¼ny
l id
G er
Ġsor u
Ä± larÄ±nÄ±Ġ
nok taĠ
s ivil
ĠyalnÄ±z caĠ
ĠS ab
sey r
s osyo
Ġedil ir
baÄŁ Ä±r
ilkĠ olarakĠ
kat Ä±Ġ
larĠ olarakĠ
Ġv i
Ã§Ã¶z Ã¼n
ĠS al
K ap
Ġ ifad
ĠF or
ĠOr taĠ
ĠÃĸÄŁrenc ilerinĠ
Ä±nĠ daĠ
ra kam
tr en
aÄŁ z
al og
ĠolarakĠ adlandÄ±r
mate mat
Ġsal dÄ±r
mektey iz
ĠBenz erĠ
ĠAnkar aĠ
ĠhaleĠ getir
Ġd Ã¶rt
im kan
Ġg ider
un dan
Ġt eh
iÅŁ Ã§iĠ
cin siyetĠ
t Ä±ĠveĠ
Ã¼rÃ¼n lerinĠ
lerĠ olarakĠ
l ek
ÅŁ ark
ininĠ birĠ
gÃ¶rev l
ala kal
konuÅŁ tu
lik teĠ
Ä±sÄ±Ġ veĠ
iÅŁ let
deÄŁer ler
ken ar
sek iz
hak im
sun ulanĠ
Ä±n maĠ
konu lardaĠ
kabul Ġetm
uzak laÅŁtÄ±r
Ġan layÄ±ÅŁ
aÄŁÄ±r lÄ±kĠ
tep kiĠ
sÄ±ras Ä±ylaĠ
gel in
I V
Ġon aĠ
h ab
lar Ä±m
dev ir
l ot
var saĠ
j iĠ
An aya
eÄŁ il
ifa dey
ic aret
ola caÄŁ
Ä±Ġ olanĠ
n as
m r
Ġm Ã¼mk
t it
ver iler
Ã¼rÃ¼n leriĠ
Ġol madÄ±ÄŁÄ±Ġ
ayrÄ±Ġ birĠ
et tir
Ġ arasÄ±Ġ
Ġol saĠ
m ark
ilkĠ kez
m eliĠ
ĠSay Ä±nĠ
h ayÄ±r
iÅŁ teĠ
gerek lidir
Ã¢l Ã¢
Ġola cak
d oku
eĠ gÃ¶re
Ġol uyor
ĠYÃ¶n etim
b Ã¶yleceĠ
yoÄŁ unlaÅŁ
Ã¢ v
E B
e man
Ġ Ã¶ner
ĠsÃ¶z c
yeter inceĠ
on danĠ
b Ã¶
seÃ§ en
devam Ġediyor
Ã¶ tes
tok ol
p H
Pro gram
ya caktÄ±r
kay dedil
uc uz
Ã¼z g
er t
has ebeĠ
i var
isten ilenĠ
elektr onikĠ
Rus ya
ati onĠ
incel emeĠ
uyg un
ĠBir Ã§okĠ
Ã¶nc e
hayat Ä±nÄ±Ġ
on eĠ
tr av
ĠÃ§ iz
os uĠ
Ä±s alĠ
abil eceÄŁiĠ
bulun mamaktadÄ±r
m olekÃ¼l
bir i
g anĠ
et eĠ
d uĠveĠ
kiÅŁ iselĠ
MÃ¼slÃ¼ manĠ
s ok
e veĠ
larlaĠ ilgiliĠ
ek st
inĠ buĠ
karÅŁ Ä±mÄ±z
ON U
T heĠ
ĠK Ã¼r
se yahat
er ĠveĠ
pr ens
do laÅŁ
aĠ gir
Ġ duy
d ikĠ
k g
fer ans
yet ikĠ
ĠT ez
indeĠ birĠ
T S
ĠB ay
m m
aydÄ±n lat
mektey di
ĠAr alÄ±kĠ
sp an
at Ä±nĠ
polit ikĠ
olma yan
n edir
ĠsÃ¼r ekliĠ
Ã¶ÄŁrenc iler
n ic
' ,
Ã¶zel likĠ
Ġol mak
D S
er ler
Ġseb eb
meler ineĠ
ref erans
v ef
yap Ä±larakĠ
vak it
met in
ĠAr tÄ±kĠ
o od
Ġk en
ĠkÄ±s aĠ
sÄ±cak lÄ±kĠ
Ä±p kÄ±Ġ
Ã¼lk elerĠ
iÅŁ birliÄŁiĠ
dem ografikĠ
lar dan
at eĠ
art tÄ±kÃ§aĠ
h Ã¼r
Ä±naĠ sahip
Ġt artÄ±ÅŁ
ĠAÄŁ ustos
iz asyon
is pat
ĠB eÅŁ
Î ±
Ä°b nĠ
Ã¼st Ã¼Ġ
D av
Ġtan eĠ
w e
eceÄŁ im
an aya
lerdenĠ biriĠ
geriĠ dÃ¶n
Ġma h
Ġb eĠ
iz ah
lan ma
Ġf inans
T e
B u
gerÃ§ekleÅŁ enĠ
dÃ¼zen lenenĠ
em r
yaz Ä±Ġ
davranÄ±ÅŁ larÄ±Ġ
im erĠ
ĠT am
a larÄ±nÄ±nĠ
ayrÄ±Ġ ayrÄ±Ġ
gel ec
ĠK ent
k lasikĠ
.. ..
ĠNis anĠ
ĠyÃ¼zyÄ±l Ä±nĠ
bak Ä±ldÄ±ÄŁÄ±nda
R e
Ġar ac
baÅŁla dÄ±
ĠO cakĠ
K Ä±r
z am
Ġolduk Ã§aĠ
Ä±c Ä±lÄ±kĠ
sebeb iĠ
Ä°z mir
s Ã¼n
Ġkon um
Ãĸ n
yan Ä±naĠ
aĠ karÅŁÄ±Ġ
Ġ Ã§ocukĠ
ya caÄŁÄ±Ġ
devam Ġedec
mesl ek
Ġdurum uĠ
Mah kem
larĠ Ã¼zerindeĠ
E ÅŁ
w it
Ä±lar danĠ
ĠgÃ¼ven likĠ
__ __
Ã§Ä±k art
Ġan laÅŁ
ar alÄ±k
uy u
han eĠ
hat aĠ
Ã¶y k
bar Ä±ÅŁ
P S
Ä° Y
ist ey
dÃ¼ÅŁ enĠ
Ġbor Ã§
amaÃ§ la
Yun an
ĠM Ã¼slÃ¼
ver miÅŁ
ro b
is kĠ
Ġb anaĠ
yerĠ veril
yanÄ±ĠsÄ±r a
ĠT est
em in
et i
Ġ vardÄ±r
imiz deĠ
Ġanaliz iĠ
deĠ verilmiÅŁtir
m eniĠ
Ä°liÅŁk inĠ
gÃ¼n demeĠ
Ä±cÄ±Ġ birĠ
ev len
M od
oto matikĠ
mer akĠ
Ä±l malÄ±dÄ±r
Ġm Ã¼dÃ¼r
n azar
ĠN o
birey sel
bas k
c asin
C am
birey selĠ
d elikĠ
Ã¼zer iĠ
ecekĠ veĠ
Ã¶ f
am ur
aĠÃ§Ä±k maktadÄ±r
egem en
har f
un caĠ
aÃ§Ä±k lan
eĠ kadar
ol masÄ±nÄ±Ġ
biz im
Ġd ar
isiĠ deĠ
noktas Ä±ndaĠ
Ã» l
Ġk Ä±y
top lamaĠ
ĠD ok
met al
y eÅŁil
ĠhiÃ§ birĠ
ayÄ±r t
Ġr enk
ĠD ev
ĠveĠ arkadaÅŁ
bul uÅŁ
. ;
men sup
Ġkullan Ä±lanĠ
Ã¼n it
Ġbun larÄ±nĠ
bas kÄ±Ġ
dÃ¼ÅŁÃ¼n Ã¼yorum
Ġnok tas
ÅŁ Ä±
GÃ¼n ey
denĠ sonraĠ
Ġ tat
ĠAn ahtar
d iziĠ
ez aĠ
ol eĠ
Ä±c Ä±ĠveĠ
miktar Ä±Ġ
B il
tak ipĠ
Ġ ab
Ġyen idenĠ
ay an
y itir
aĠ ulaÅŁ
af ir
Ġ oy
lÄ±lÄ±ÄŁ Ä±nĠ
Ġv b
Ġ ayr
ĠOy saĠ
ÅŁekil lendir
yan Ä±nda
gelenek selĠ
piya saĠ
maksim um
n az
verim liĠ
ist al
K Ã¼ltÃ¼r
T er
ak siyonĠ
Ġb o
ĠHerĠ ikiĠ
Ã¶rgÃ¼t selĠ
yap Ä±m
ĠyatÄ±r Ä±m
em ed
man lÄ±kĠ
ĠBunun laĠbirlikte
if er
gÃ¶rÃ¼n tÃ¼l
ĠEs kiĠ
aracÄ±lÄ±ÄŁ Ä±ylaĠ
Ä± h
Ã® m
Ãĩ in
der inĠ
inc il
ic il
ĠveĠ P
O B
ut maĠ
rah im
Ġhis s
iĠ H
mekĠ Ã¼zereĠ
ÅŁÃ¼p h
ĠkarÅŁÄ± laÅŁtÄ±r
ad Ä±
aÃ§ Ä±lanĠ
gÃ¶rÃ¼l ebilir
Ġk oy
pazar lamaĠ
mah k
g aĠ
oÄŁ ul
Ġf Ä±r
met inĠ
Ä±Ġ iÃ§inĠ
biy olojikĠ
r ic
kurum sal
m us
eceÄŁ imiz
Ġb oy
or eĠ
ev deĠ
tav Ä±r
teÅŁ ekkÃ¼r
il mesindeĠ
san ayiĠ
gÃ¶r dÃ¼k
Ġsistem ininĠ
bakÄ±ÅŁ ĠaÃ§
Ġkullan Ä±cÄ±
O kul
M al
uygulama yaĠ
dam ar
T ekn
em ok
bÃ¶lÃ¼m Ã¼ndeĠ
N T
ĠÄ°z mir
ya ta
Ġya ban
hid ro
anlamlÄ±ĠbirĠ farklÄ±lÄ±kĠ
Mil let
mil liĠ
enĠ uygunĠ
bilg iyeĠ
de prem
aracÄ±lÄ±ÄŁ Ä±yla
ĠH aziranĠ
ĠBel ediy
B at
Ãĸz el
kullan anĠ
z et
Ã¼m Ã¼
Ã¼retim iĠ
n Ä±n
kÃ¼Ã§Ã¼kĠ birĠ
t ib
men iz
G eÃ§
ifadeĠedil mektedir
yol cul
madanĠ Ã¶nceĠ
kÃ¶ ken
n danĠ
ÅŁ ikay
Ġmad de
ib r
ilgil idir
yÃ¶n etimĠ
uygulama larÄ±Ġ
Ġ Ã¼zerindenĠ
mad des
araÅŁtÄ±r mayaĠ
ebil mekĠiÃ§inĠ
P aÅŁa
iyet eĠ
larÄ±mÄ±z Ä±nĠ
aÄŁr Ä±Ġ
der g
ĠO sman
iy ot
Ġ du
z ikr
S Ä±n
isay arĠ
ifadeĠedil miÅŁtir
ar tar
Ġy um
sun ulmuÅŁtur
tÃ¼k et
yol uylaĠ
t uk
sp ektif
kit l
birĠ baÅŁkaĠ
rek abetĠ
ola caÄŁÄ±nÄ±Ġ
Ġ iÃ§in
durum unĠ
baÅŁlan g
in ter
mo dern
er iÅŁim
uy uÅŁ
ĠbÃ¼t Ã¼n
his set
C R
bilg iĠveĠ
kiÅŁ iyeĠ
Say Ä±nĠ
y ediĠ
Ġde vr
Ã¶zellik lerininĠ
birĠar adaĠ
eb o
lereĠ karÅŁÄ±Ġ
ul ukĠ
ĠÃ§ ift
inÅŁ aat
ĠAraÅŁtÄ±r madaĠ
i lan
kim seĠ
diÄŁ iniz
ĠÄ°l k
ad eniz
el iÄŁiĠ
ĠS a
Ġtest iĠ
Ġg az
edec ekĠ
A H
iÅŁlem eĠ
ebil mesiĠiÃ§inĠ
ĠS p
ĠE ser
Ä±la cak
Ġs ar
m uyor
ris kiĠ
Ã§ek ir
tas vir
kaÃ§ Ä±r
vad eliĠ
yap tÄ±
ĠD eniz
B enĠ
ĠK elim
baÅŁ lÄ±caĠ
Ġc ivar
Ä±lmasÄ±Ġ iÃ§inĠ
Ġcih az
ĠAÅŁ aÄŁ
iÃ§er ikĠ
sÄ±r aĠ
u daĠ
ĠB ab
iseĠ buĠ
y etk
ik iliĠ
Gen elĠ
yukar Ä±daĠ
kolay caĠ
tamam lan
Ġ araÅŁtÄ±rma
c em
Ġs aÃ§
Ġka Ã§
bil e
Ġka s
Ä±ldÄ±ÄŁ Ä±nÄ±Ġ
liÄŁ indenĠ
ac il
deÄŁil di
daÄŁÄ±l Ä±mÄ±Ġ
Ġ iliÅŁk
Ġs oÄŁ
ebil enĠ
sorum lulukĠ
is yen
larÄ±naĠ veĠ
Ġc in
B Ã¶lg
Ġm ikro
G ir
Ã¼ el
uygula masÄ±Ġ
kazan Ä±m
Ġ kadar
deÄŁer lerĠ
ka ya
len ebilir
Ġpar ametr
mad an
istik rar
aĠ gÃ¶re
orta la
op t
lÄ±k larĠ
ihtiyaÃ§ larÄ±nÄ±Ġ
es inceĠ
p etrol
kam pan
m imar
ef er
ĠsonuÃ§ larÄ±Ġ
aras Ä±ndanĠ
ĠK o
n amaz
liĠbirĠ ÅŁekildeĠ
ser vis
i veĠ
ĠKon trol
if aĠ
kÄ± ya
Ä°m parator
iÅŁ imiĠ
g Ä±daĠ
ĠDiÄŁerĠ birĠ
Ġv Ã¼c
gÃ¼Ã§ lÃ¼ĠbirĠ
luÄŁ unĠ
Ã¶rgÃ¼t sel
Ġtur izm
diren Ã§
Ġy okĠ
ett ik
Ġhan giĠ
av ram
Y ak
j en
ĠAvrup a
Ä± larĠ
lÄ±k tanĠ
Ġt emiz
ÅŁek liĠ
ortayaĠ Ã§Ä±ka
ĠH ep
ĠsÃ¼rec indeĠ
f os
eks ikĠ
Ġy ukar
yaÅŁ amaĠ
haf ta
kay g
ma yan
yaygÄ±nĠ olarakĠ
bulun duÄŁ
ĠG Ã¼l
ic raĠ
Ä±naĠ iliÅŁkinĠ
ĠUz unĠ
Ã¼ d
lanmÄ±ÅŁ ĠveĠ
a larÄ±ndaĠ
T A
es ir
ÅŁ em
Ġb Ã¶yleĠ
kem ikĠ
Ġtal ep
Ġbil in
it Ã¶r
Ġifa des
uÄŁ day
k imiĠ
Ä±lÄ± Ã§
Ġp ekĠ
iy elĠ
evr im
Ġk ul
iÅŁ it
akĠ veĠ
ĠyÄ±l Ä±nda
b ran
Ġ altÄ±ndaĠ
ĠM Ã¼z
ĠD emir
vek iliĠ
incel ey
eĠ karÅŁÄ±Ġ
alan larÄ±Ġ
lÄ±l Ä±klarÄ±Ġ
ĠyÃ¼ks ek
Ġh Ã¼k
s uyuĠ
maÄŁ dur
k ok
etraf Ä±ndaĠ
at aĠ
l ip
ov yet
b etim
yer lerdeĠ
S P
il iyor
Ġden etim
may Ä±p
ar ab
Ġhastal Ä±k
kapsam daĠ
Ġkan al
s k
sor p
lik ler
y enĠ
bilg iler
lerin den
e o
iy erĠ
ell ef
Ã¶nem Ġarz
geÃ§ iciĠ
abr ika
an g
Ġalt Ä±naĠ
V ar
oÄŁ l
yaÅŁ lÄ±Ġ
Ġh erkes
Ġ artÄ±kĠ
SaÄŁ lÄ±kĠ
kÄ±r mÄ±zÄ±Ġ
anlamlÄ±ĠbirĠ farkĠ
demok ratikĠ
l ekĠ
aktiv iteĠ
olduÄŁuĠ gÃ¶rÃ¼lmÃ¼ÅŁtÃ¼r
A t
geniÅŁ let
b alÄ±k
op at
iÅŁletm elerinĠ
anlam Ä±Ġ
an ak
Ä±ndaĠ daĠ
M ustafaĠ
M ed
cin selĠ
ar ĠveĠ
G Ã¼ven
kalit eliĠ
es if
p rat
iyor sunuz
ĠbaÅŁ vur
ÅŁ Ä±kĠ
sab ah
Ä±nÄ±Ġ daĠ
etk isiyleĠ
n Ã¼f
p ut
insan larÄ±Ġ
lan d
ĠKend iĠ
yaÅŁ aya
as Ä±ndanĠ
gerek seĠ
on u
yarat tÄ±ÄŁÄ±Ġ
ĠS ah
han g
lider likĠ
kayb Ä±Ġ
H av
iÃ§er isindekiĠ
beklen enĠ
la bor
ĠBunaĠ gÃ¶re
Ã§ ilikĠ
Ġbas Ä±n
Ã¼l mÃ¼ÅŁtÃ¼r
bes len
Ġol g
eb ek
tay inĠ
d ilĠ
ĠSonuÃ§ ĠolarakĠ
ok im
dolayÄ±s Ä±ylaĠ
makĠ istem
Ã¶zellik ler
idar eĠ
genel indeĠ
ĠÃ§ evres
gÃ¶r mekĠ
Ã¢ f
Ä±s Ä±nÄ±z
edil ebilir
ma v
Ġnum aralÄ±Ġ
ahÅŁ ap
alt Ä±ndakiĠ
Ġver iĠ
reh ber
tekĠ baÅŁÄ±naĠ
Hak k
T O
Ġtarih iĠ
lar ĠgibiĠ
uyum ĠsaÄŁ
doÄŁrultu daĠ
sonuc unda
end iÄŁiĠ
ka kĠ
buĠ yanaĠ
Ġb eniĠ
bah Ã§
ĠA mer
sÄ±ras Ä±yla
ortam Ä±ndaĠ
eĠ kadarĠ
rab z
al kol
Ġ" ...
u diĠ
birĠ tan
sun ul
sÃ¶z leÅŁmeĠ
et mesiĠ
m Ä±yorum
ĠÃĸ yleĠ
mem nunĠ
ÅŁ aÅŁÄ±r
fa at
Ġbirey inĠ
ed ip
saÄŁla makĠ
hizmet leriĠ
sÃ¶z Ġkonusudur
eĠ ait
Et k
B K
er i
ref orm
Ġ erkek
d ard
Ġg ec
hakk Ä±ndakiĠ
kapsa yanĠ
performan sĠ
itir az
sosyal ĠmedyaĠ
yet iÅŁk
siya sal
acaÄŁ Ä±z
ĠPro j
larÄ±Ġ arasÄ±ndakiĠ
kal iteĠ
on t
ett iÄŁimiz
A C
I Åŀ
ver dikleriĠ
ĠhÃ¼cr eĠ
a laraĠ
hayat taĠ
web Ġsit
seĠ sen
san Ä±nĠ
an maĠ
Ã¼ÄŁ Ã¼
Ä±nda y
ed ilerekĠ
faaliyet leriĠ
la c
yen ilen
Ã¼l mÃ¼ÅŁ
ĠkiÅŁ ilikĠ
ula bil
el inĠ
ineĠ sahip
iÃ§ imiĠ
yÃ¼r Ã¼y
p p
led ik
larÄ±nĠ daĠ
h ayr
ĠB al
Ġ ortaĠ
Ãĩ izelgeĠ
Ġtem elĠ
Kur ul
Ġ enerj
ul d
ĠH ayat
Ġgru bunaĠ
ahla kiĠ
mod elĠ
oran laĠ
bil imĠ
olmasÄ±Ġ veĠ
ĠM Ã¼ÅŁter
Mil liĠ
Ġ ÅŁekildeĠ
Ġd al
ĠKad Ä±nĠ
Ã¼m in
ep tÃ¶r
Ä±ÅŁ Ä±n
K r
ÅŁ eyeĠ
larÄ±nÄ±Ġ daĠ
gÃ¶r mÃ¼ÅŁ
ĠYukar Ä±daĠ
herĠtÃ¼r lÃ¼Ġ
iyer arÅŁ
Ġis imliĠ
ans Ä±z
an lamaĠ
lereĠ sahip
Ġsat Ä±nĠ
may Ä±n
lama danĠ
Ġbaz enĠ
ĠBun lardanĠ
mÃ¼mkÃ¼nĠ deÄŁildir
ĠBuĠ konudaĠ
ĠD Ã¶nem
iy iceĠ
Ġka z
siz ĠbirĠ
kor elasyonĠ
ĠD r
s asÄ±Ġ
Ġpiya sa
l eket
Ġan lat
ineĠ iliÅŁkinĠ
min im
est etikĠ
dahaĠ kolay
bak tÄ±ÄŁÄ±mÄ±z
Ġz ar
tÄ± b
esn ek
yar alan
id ekiĠ
ez iĠ
Ġyok tur
ĠÃĸ l
yaÅŁad Ä±klarÄ±Ġ
ma c
Ã§ i
has ar
sorun larÄ±Ġ
g Ã¢h
sÃ¼r eceĠ
ih mal
stratej ikĠ
alan aĠ
eleĠ al
Ã¶nemliĠ Ã¶lÃ§Ã¼deĠ
yap arkenĠ
son unaĠ
lanmasÄ±Ġ veĠ
man eviĠ
ĠĠĠĠ ĠĠĠ
makĠist eyenĠ
Ġm l
Ġinsan Ä±nĠ
Ġ iyiĠ
bak an
Ã¶zgÃ¼r lÃ¼k
Ġb y
Ġya vaÅŁ
daĠ bulunanĠ
usu f
gÃ¼c Ã¼Ġ
vasÄ± tas
bilim selĠ
gÃ¼n dem
ak la
Ġy em
y Ã¼kĠ
A f
al etĠ
n Ã¼
gÃ¶rÃ¼ÅŁ leriĠ
let iÅŁim
giz liĠ
Ġ Ã¶lÃ§Ã¼m
ir Ã¼s
Ã§ ay
K i
ver mekĠ
dÃ¼nya yaĠ
yaygÄ±n laÅŁ
hep siĠ
s oyut
Ġs ek
karÅŁÄ±lÄ±k lÄ±Ġ
ĠâĢ ĺ
ilĠ edenĠ
if eĠ
ola maĠ
An aliz
ÅŁ iÅŁ
enĠ sÄ±kĠ
ay lÄ±kĠ
Ã¼n lÃ¼
yaz maĠ
Ġden g
ar amaĠ
ÅŁ id
g ibidir
buĠ ÅŁekildeĠ
Ã§ il
ĠB e
Ġmil let
baÄŁlan tÄ±Ġ
geliÅŁ imiĠ
ÅŁ e
v ol
Ġstr es
leÅŁ meninĠ
hakkÄ±ndaĠ bilgiĠ
yol uyla
Ã§ ilerinĠ
vur guĠ
h il
ĠBununĠ iÃ§inĠ
Ã¶nc esindeĠ
ĠÃĩoc ukĠ
Ġg iy
ev ir
Ã§ aÄŁÄ±r
baÅŁla mÄ±ÅŁtÄ±r
da kĠ
B ilg
iÅŁlem leriĠ
Ġol masÄ±dÄ±r
ik ir
Ġg erekĠ
Ġm en
sorum luluÄŁ
kÄ±s menĠ
Ġhay van
ib ininĠ
ĠGen Ã§
Ġbirey lerinĠ
I C
miktar daĠ
ĠY azar
sÄ±f Ä±r
Ã§okĠ iyiĠ
v iz
Ġ uygulan
bilg ilerinĠ
Ä±s Ä±ndakiĠ
Ã¶ÄŁrenc ilerininĠ
mev zu
Ġmekan iz
Ä±n ar
lar ĠbuĠ
sÄ±nÄ±r larÄ±Ġ
eb b
im ariĠ
ĠÃĸteĠ yandanĠ
ide oloj
ĠM ustafaĠ
Ġ veril
Ã¢ lem
yeĠ gÃ¶reĠ
uyor uz
Ġedil miÅŁ
lu p
birĠ diÄŁerĠ
fil tr
gÃ¶ ÄŁ
Ä±naĠ veĠ
bu gÃ¼n
onĠ veĠ
Ġ eÅŁit
ev Ã®
it e
eceÄŁ i
Ġv ak
Ġyo uĠ
etm ey
lam ent
R um
manĠ veĠ
es erĠ
bil inc
kal Ä±p
Ġ Ù
Ä±mÄ±z daĠ
ad Ä±nÄ±Ġ
ĠS e
yap Ä±labilir
Ġg Ã¼l
dir enc
ĠPro gram
iler ek
caÄŁ Ä±z
aÅŁ aÄŁÄ±Ġ
Ġ eldeĠ
Ġprogram Ä±Ġ
Ã¼ ceĠ
O L
ro z
meydanaĠ getir
Ä±s Ä±l
Ġtut ar
len diÄŁiĠ
in a
hak larÄ±Ġ
alg Ä±lan
Ġet miÅŁlerdir
olma masÄ±Ġ
lay Ä±n
Ġ erkekĠ
mesineĠ nedenĠ
anlat Ä±m
indeĠ deĠ
devamĠet mektedir
Ġh ey
Ġ $
kelim eĠ
ĠS ultanĠ
U N
is inĠ
M et
mÃ¼ dÃ¼r
tÃ¼m Ã¶r
ĠdÃ¼n yadaĠ
Ġoran Ä±Ġ
yaklaÅŁ Ä±k
Ġh id
ĠMayÄ±s Ġ
duyg uĠ
ĠT ah
dik leriniĠ
Ġ duvar
uzak tanĠ
kas Ä±
Ġtoplum unĠ
ĠD il
Ãĸr gÃ¼t
ĠolduÄŁ undanĠ
ĠK Ã¶y
Ġgir iÅŁim
larÄ±nÄ±nĠ veĠ
hÄ±z laĠ
yÃ¶n elt
hi kay
B al
ĠaÃ§ Ä±kĠ
Ã§oc uÄŁuĠ
Ã¼ lasyonĠ
K Ä±z
b atÄ±Ġ
kon santrasyon
Ã¶z n
Ġ yapÄ±l
Ġ kad
as Ä±ndakiĠ
Ġtem sil
il idir
Ä±k lÄ±kĠ
muh temel
ĠsÃ¼r dÃ¼r
B ilim
S tr
Ġk Ã¼t
Ã§alÄ±ÅŁma laraĠ
ĠB at
kullan maĠ
Ġ gÃ¶rev
Ġhal k
an lÄ±
a deĠ
ininĠ deĠ
ĠC am
sah n
h or
par Ã§aĠ
ma lardaĠ
ĠA tatÃ¼r
kan aat
Ġ eskiĠ
art masÄ±Ġ
ĠÃĩ in
ĠbaÄŁÄ±m sÄ±z
etk iyeĠ
lÄ±ÄŁ Ä±ndanĠ
Ġbu gÃ¼nĠ
mekt up
Ġg raf
mad Ä±klarÄ±Ġ
am Ä±z
daĠ iseĠ
ĠkarÅŁ Ä±Ġ
C o
Ġ eden
d oluĠ
ikt id
Ä±naĠ dair
gar ant
biz iĠ
iÃ§er iÄŁiĠ
basÄ±n Ã§
ĠB er
D emir
Ãľ r
Ġp ozitif
Ġper son
Ġol maz
Ã¼ler ekĠ
soÄŁ ukĠ
gÃ¶z eĠ
ONU Ãĩ
k imĠ
ĠBÃ¶yl elikleĠ
ĠB atÄ±Ġ
say aĠ
Ã¼st Ã¼neĠ
sÄ±f at
an a
ĠP aÅŁa
c m
i onĠ
baz Ä±larÄ±Ġ
eĠ birĠ
de dir
Ġvi tam
n isp
eĠ ulaÅŁ
uyan dÄ±r
say gÄ±Ġ
un Ã§
taÅŁ Ä±maĠ
Ġ end
es s
gÃ¶rÃ¼n t
Ġon larÄ±Ġ
kÃ¼ ler
mut lakĠ
ĠG azet
ĠKatÄ±lÄ±m cÄ±larÄ±nĠ
inde y
Ġc am
pr op
um ĠveĠ
bak Ä±mĠ
ĠÂ °
Ġâ Ī
ik lim
sistem ininĠ
C em
manÄ±z Ġgerek
gÃ¼ven ir
biz imĠ
yok tu
Ġsin ir
an larĠ
tÃ¼r Ã¼Ġ
uy du
Ġhem enĠ
dalg aĠ
hal kaĠ
Ġ ruh
Ä±s Ä±n
ĠÃĩ oÄŁ
birĠ durum
Ã® ĠveĠ
Ġ ey
mas Ä±nÄ±
ĠbaÄŁ lam
b edenĠ
it imĠ
u kat
kabul ĠgÃ¶r
Ã¶nÃ¼neĠ geÃ§
olarakĠ adlandÄ±r
tak v
mahal l
ilmesiĠ iÃ§inĠ
ayr Ä±lÄ±r
ĠT el
er it
ileriĠ ileĠ
e op
lerĠ iseĠ
ik en
fir maĠ
Ġs af
Ġd el
kes it
baÄŁÄ±m lÄ±Ġ
eÄŁitim inĠ
sonucunaĠ var
Y en
yÄ±l dÄ±z
S a
meĠ becer
p en
tur ist
Ġser mayeĠ
yayÄ±n lananĠ
s Ä±naĠ
ĠdÃ¶nÃ¼ÅŁ Ã¼m
B or
yap ay
un cuĠ
davranÄ±ÅŁ Ä±Ġ
Ġ ?
) "
am il
r asyon
oluÅŁtur ulmuÅŁtur
hiÃ§ birĠÅŁey
gÃ¶ster ilenĠ
at ih
ref ah
gÃ¶zlem lenmiÅŁtir
Ã¶rdÃ¼n cÃ¼
karÅŁ Ä±t
etkil ediÄŁiĠ
ĠA K
o og
gru bunĠ
g unĠ
im indeĠ
ted ar
ĠF ir
memnun iyet
Ġs Ã¼t
s ep
ÅŁ u
dÄ±ÄŁ Ä±nÄ±
ul tan
Ġmad deĠ
akÄ±l lÄ±Ġ
s indeĠ
sef er
ku maÅŁ
l iyeĠ
ineĠ gir
Ä±ÅŁ maĠ
v uf
Ġof ĠtheĠ
ĠO k
ĠY alnÄ±z
c r
kap an
im etr
met od
iÅŁ iniĠ
olduÄŁuĠ gibi
t uĠ
yar ak
Ã¶l Ã¼
ĠA f
Ä° st
seÃ§ ilenĠ
gÃ¶rÃ¼ÅŁ meĠ
ĠÃ§Ã¶z Ã¼m
mate matikĠ
gÃ¼n Ã¼
U y
suz lukĠ
gen eldeĠ
l olar
iya nĠ
Ã§ab aĠ
M at
hay vanĠ
Ġmod eliĠ
n orm
Ġhav aĠ
Ġt ec
Ġnum un
kullan Ä±cÄ±Ġ
cin sel
oĠ kadarĠ
Ġ Ã§alÄ±ÅŁan
at Ä±k
ĠS in
ĠEk imĠ
p os
Ġn ormal
zaman Ä±ndaĠ
K as
ĠY as
en kĠ
p encer
aĠ sahip
Ã¼Ã§Ã¼nc Ã¼Ġ
baÄŁlam Ä±ndaĠ
Ä±m Ä±nÄ±nĠ
sar ay
ĠGÃ¼n ey
ĠS por
) Ċ
laraĠ ulaÅŁ
Ġ ap
odak lan
oran larÄ±Ġ
ĠdÃ¼n yanÄ±nĠ
bilim sel
sev g
ma at
bakÄ±ÅŁ ĠaÃ§Ä±s
ĠM ek
ÄŁ Ä±t
a mak
d iliĠ
Ġm in
bah ar
ĠH af
tr op
Ä±ÅŁÄ±ÄŁ Ä±ndaĠ
leÅŁ me
is iniz
birey ler
dÄ±ÅŁ Ä±ndakiĠ
say f
á¸ ³
Ġ uluslararasÄ±Ġ
dolayÄ±s Ä±yla
ak sineĠ
t ey
sÄ±nÄ±r landÄ±r
Ä±r t
dav etĠ
Ã¶rg Ã¼tÃ¼nĠ
M ak
ĠB Ã¶yleĠbirĠ
kas Ä±nÄ±nĠ
ĠTÃ¼rk Ã§eĠ
masÄ±ndanĠ dolayÄ±Ġ
dest eÄŁiĠ
U S
p m
v ans
gen etikĠ
BaÅŁ kanÄ±Ġ
riv ayet
dayan anĠ
ben imĠ
telef onĠ
i et
Ġd iÅŁ
V A
Ġedil ebilir
cez alandÄ±r
oran Ä±nÄ±nĠ
ĠdoÄŁr udanĠ
Ġbilg isayar
ĠY ah
kÃ¶ tÃ¼l
birbir lerineĠ
len f
yer ine
den em
ĠY ay
il kes
Ġc o
Ġson undaĠ
mem eĠ
ikas yonĠ
ĠyÃ¼zyÄ±l daĠ
eks in
ĠkiÅŁ i
ta c
etm en
belir ter
Ġkar arĠ
post aĠ
Ġd ol
kim yasal
ĠE bÃ»
iniĠ deĠ
Ã¼zg Ã¢r
in hib
ĠA lan
Åŀ ah
g a
i al
ik iyeĠ
esiĠ iÃ§inĠ
Ã¶ t
man tÄ±k
S istem
Ã¼Ġ iÃ§inĠ
tanĠ sonra
tat minĠ
liĠ yÄ±l
lerĠ arasÄ±ndakiĠ
mayaĠbaÅŁla mÄ±ÅŁtÄ±r
hip otez
uzunĠ sÃ¼reĠ
en meĠ
eldeĠedil ir
yaklaÅŁ Ä±mÄ±Ġ
top luluk
ol masÄ±dÄ±r
A ÅŁ
kur uĠ
ler ine
yapÄ± lan
ol masÄ±nÄ±nĠ
ar alÄ±ÄŁ
deÄŁer lerinĠ
ov aĠ
nes il
Ġ tasarÄ±m
bu lan
MÃ¼slÃ¼ man
Ġsay Ä±daĠ
ĠÅŁ iir
T ek
iletiÅŁim Ġkur
Ã§evr im
Ġedil mektedir
Ġb Ã¶yleceĠ
r ist
ĠM as
Ġ ortalamaĠ
ka lan
dÃ¶nem iĠ
oloj i
muÅŁ tu
ĠtÃ¼k etim
ed ik
ĠAraÅŁtÄ±r ma
Ġ Ã¼r
Ġan n
sÃ¼r Ã¼k
Ġc Ã¼m
Ġser may
Ġhas tan
A z
arasÄ±nda dÄ±r
iÃ§er isineĠ
Ġn er
mel i
cÄ± larĠ
Ġola cakĠ
faktÃ¶r lerinĠ
D NA
st aĠ
Ã§oÄŁunluk laĠ
sÄ±v Ä±Ġ
esiĠ deĠ
larÄ±mÄ±z Ä±Ġ
r ok
zaman Ä±Ġ
bilg isiĠ
sÄ±k lÄ±kla
p il
ĠKas Ä±mĠ
karÅŁ Ä±lÄ±ÄŁ
tah min
Ġ ah
Î ²
Ã¶z deÅŁ
ĠÅŁ ehir
deĠ iseĠ
ĠBuĠ yÃ¶ntem
ortayaĠkoy maktadÄ±r
in k
dij ital
ul du
Ã¶zgÃ¼r lÃ¼ÄŁ
m iy
ler den
Ġser best
ib erĠ
farklÄ±Ġ olarakĠ
insan larĠ
tÄ±ÄŁ Ä±
am Ä±ÅŁ
y el
gÃ¶rÃ¼n Ã¼r
iyet inĠ
yaz Ä±l
Ä° ran
ĠM Ã¼dÃ¼r
kim likĠ
lay Ä±cÄ±
Â Ń
o u
et h
d if
Ġis tatist
Ã§ ekt
muÅŁ ĠveĠ
D eniz
z ek
kÄ±sm Ä±nÄ±Ġ
sÄ±r ala
Ġ av
H ukuk
B ay
sed Ã¼r
iÅŁletm eninĠ
Ã¼l Ã¼
maya cakĠ
detay lÄ±Ġ
kabul ĠedilmiÅŁtir
Ġik enĠ
med yaĠ
ĠÅŀ im
insan laraĠ
c ins
pop Ã¼ler
leÅŁtir ilmiÅŁ
eler indekiĠ
ĠkiÅŁ ilerinĠ
aÄŁ Ä±nĠ
t Ã¼n
gerekliĠ olanĠ
ro w
oksi jenĠ
en ceĠ
Al manya
ĠgeÃ§ er
ed ar
s manĠ
YÃ¶n tem
P ol
ĠMart Ġ
belir siz
kÃ¶ pr
Ä±m Ä±nÄ±Ġ
ka ÅŁ
er Ã§ev
ĉ Ġ
ĠarasÄ±ndaĠ deÄŁiÅŁ
t oĠ
Ġy urt
n ik
halineĠ getir
or k
lereĠ veĠ
r anÄ±ÅŁ
Ã§oÄŁunluk la
top luĠ
Ġ daÄŁÄ±lÄ±m
Ġ Q
em ent
makĠ isted
Ġka b
Ã¼s eyinĠ
aban cÄ±Ġ
belir ley
cerrah iĠ
devam Ġeder
Ä±nĠ buĠ
ĠyÄ±l dÄ±r
eleĠalÄ±n mÄ±ÅŁtÄ±r
el eb
p lanĠ
larÄ±naĠ iliÅŁkinĠ
savun maĠ
Ã¼l mesiĠ
algÄ± lananĠ
ger il
dÃ¼n yas
herkes inĠ
say Ä±sÄ±
bab aĠ
Ġol malÄ±dÄ±r
uÄŁ unĠ
Ġs a
Ãľ M
ĠS it
biraz ĠdahaĠ
Ġs izeĠ
lamayaĠ Ã§alÄ±ÅŁ
lan Ä±yor
ĠMil liĠ
g ul
ma aÅŁ
Ġw h
ĠÄ°s lÃ¢m
Ã¶zellik lerĠ
sin yal
o us
al eyh
hip er
l iseĠ
larÄ±Ġ gibiĠ
Ä±r k
Ankar a
Ġm ec
w ith
ver meĠ
dÃ¼ÅŁ man
an Ä±ndaĠ
ĠolduÄŁ unaĠ
im ent
Ar ab
K Ã¼rt
oran t
ĠT ak
kim yasalĠ
mas raf
Ġkar Ä±ÅŁ
Y az
Ġ oku
var yans
h Ä±r
ek leĠ
Ã¶r f
kay d
dolay Ä±
yap maktadÄ±r
eÄŁ indenĠ
laraĠ yÃ¶nelikĠ
B er
ĠveĠ G
or anĠ
Ã¶lÃ§ ekĠ
Ġak Ä±l
dÃ¶n Ã¼kĠ
say Ä±Ġ
anlamlÄ±ĠbirĠ iliÅŁkiĠ
an eĠ
ecekĠ olanĠ
ĠY ok
in ternetĠ
ĠBuĠ noktadaĠ
ĠBuĠ dÃ¶nemdeĠ
Ġ us
a tay
Y er
deÄŁer lerininĠ
Ġbul gu
lerĠ arasÄ±Ġ
ĠGen ellikleĠ
Ġka lanĠ
dayan maktadÄ±r
Amerika nĠ
bÃ¼t Ã§
a dÄ±r
Ġkat egor
kend isininĠ
madÄ±ÄŁ Ä±
er rah
ala cakĠ
ĠS u
at Ä±kĠ
Kan unu
aliz m
em eyenĠ
ek leriĠ
kÄ±yas laĠ
ĠM ev
yÃ¶n Ã¼ndenĠ
ĠAh med
ĠM Ä±sÄ±r
mekan ikĠ
on ar
il is
Tan rÄ±
oÄŁ az
B S
ĠS ch
iya tr
Ä± da
kaÃ§Ä±n Ä±lmaz
anla tÄ±r
esiĠ olanĠ
Ã§ ak
zor undadÄ±r
mas Ä±na
ebil eceÄŁiniĠ
ciddiĠ birĠ
uĠ olarakĠ
ka mer
konuÅŁ maĠ
Ġsiya siĠ
ÅŁ if
herĠtÃ¼r lÃ¼
gÃ¶rÃ¼ÅŁ meler
ĠEl ektr
al Ä±ÄŁÄ±Ġ
aras Ä±naĠ
ĠS am
ĠD ur
paral el
P lan
p la
bir ineĠ
ik lerininĠ
emiz deĠ
Ġm ar
tasar Ä±mĠ
tenĠ sonra
kiÅŁ i
etkiliĠ birĠ
olduÄŁunuĠ dÃ¼ÅŁÃ¼n
eÄŁlen c
Ġb et
mot if
b ala
ul duÄŁ
t itr
Ã¼lkemiz deĠ
iliÅŁk ilerinĠ
Ä°ngil tere
ĠS ONUÃĩ
H ay
ĠKay nak
ininĠ veĠ
ĠB ilgiĠ
ac ebo
beÄŁ en
Ġhar eketĠ
ĠÃľl k
ĠsÃ¼rec iĠ
Ġhal deĠ
lik tenĠ
Ä±c Ä±sÄ±Ġ
olduÄŁunuĠ veĠ
aĠ kadar
kus uz
ĠF iz
Ä±s Ä±nda
gel diÄŁiniĠ
satÄ±nĠ almaĠ
has tanÄ±nĠ
Ġdak ika
ĠE vet
eler de
siya salĠ
engel liĠ
mir as
kÄ±saĠ sÃ¼redeĠ
at ur
ĠBuĠ sayedeĠ
Mu hammed
tÃ¼ketic iĠ
arasÄ±ndaĠ birĠ
il inĠ
Ġ ulaÅŁ
ĠÃĩalÄ±ÅŁmamÄ±z daĠ
konu yaĠ
olit ikĠ
d Ã¶viz
tic aretĠ
yÃ¶ntem leriĠ
ĠT r
Ġkon santrasyon
ed iciĠ
de deĠ
vÃ¼c ud
d arĠ
kavram Ä±nÄ±nĠ
ay Ä±ndaĠ
hi tap
sÄ±ÄŁ Ä±n
Ġyan Ä±t
Ã¼c Ã¼Ġ
ad etĠ
g alĠ
b uz
Ã» n
ĠK Ã¼Ã§Ã¼kĠ
Ġd iya
gerek enĠbirĠ
is it
ĠT es
belirlen miÅŁ
J ap
Ä±l masÄ±nÄ±nĠ
geliÅŁtir meĠ
sey ir
ep h
ĠKam uĠ
S elÃ§
ĠBununĠ yanÄ±ndaĠ
el iniĠ
all y
on lineĠ
iyor sanÄ±z
ÅŁun lardÄ±r
ĠÃ¶ÄŁrenc iĠ
enĠ fazla
ĠA ileĠ
mos fer
ĠEylÃ¼l Ġ
Ġtedav iĠ
a gan
sor uÅŁtur
amaÃ§ lanmÄ±ÅŁtÄ±r
bel ediy
ula cakĠ
mÄ±ÅŁ ĠbirĠ
Ä±naĠ yÃ¶nelikĠ
ĠM em
eyeĠ gir
siz iĠ
H at
ĠsÃ¼r esiĠ
etk ilerininĠ
re at
ĠH Ã¼kÃ¼m
diÄŁ indenĠ
ecek siniz
or ij
M Ã¼z
eÅŁ ya
er inĠ
ra g
kap Ä±Ġ
ĠA m
diÄŁ ineĠ
yÄ±l daĠ
bÄ±r akt
kan Ä±nĠ
Ã§ek meĠ
ĠaralÄ±ÄŁ Ä±ndaĠ
dem iĠ
Ġbe yaz
ed iyorum
et leriĠ
D Ã¶nem
es ef
Ã¼mr Ã¼kĠ
el emeĠ
destek lem
r uĠ
laÅŁ ma
yap rak
Ġsay f
sahipĠol duklarÄ±Ġ
K am
T as
Ã¼n tÃ¼
yap Ä±lar
aÄŁÄ±r lÄ±klÄ±Ġ
r iyet
ĠdÃ¼n ya
yaÅŁad Ä±ÄŁ
part iĠ
ĠÃľlkem izdeĠ
at Ä±rÄ±m
la mak
or tal
ekt ekiĠ
z aĠ
ĠS ig
Ä±lÄ±ÄŁÄ±Ġ ileĠ
Ã¼z yonĠ
k oc
D il
as Ä±ylaĠ
bakÄ±m danĠ
S e
medenĠ Ã¶nceĠ
C l
h u
ĠEfend i
T R
D air
Ġh izmetĠ
gÃ¶zĠÃ¶nÃ¼neĠ alÄ±n
ĠD in
Ä±m larÄ±Ġ
orum aĠ
mekĠ iÃ§in
bir azĠ
p aket
fark Ä±ndaĠ
Y Ã¼ksekĠ
teÅŁ kil
kÃ¼r eselĠ
mu ay
Ġay lÄ±kĠ
nasÄ±l ĠbirĠ
ortam Ä±Ġ
seviy edeĠ
Er men
yÃ¼rÃ¼r lÃ¼ÄŁ
larÄ±nÄ±nĠ daĠ
Ġ ilgiliĠ
Ã¢r Ã®
den gel
S O
Ã¼Ã§ Ġ
K u
din am
Ġol sun
onk siyonĠ
ust ur
san aĠ
f ar
Ä±lanĠ birĠ
D K
ĠD ep
durum aĠ
Ãľ R
Ġden iz
V eĠ
U K
met ab
Ã® d
top lananĠ
S or
ola t
has eb
ĠD aÄŁ
Ġm iĠ
lÄ±lÄ±ÄŁ Ä±nÄ±Ġ
Ġ deÄŁerlendir
kr onikĠ
ey im
an iĠ
leriĠ tarafÄ±ndanĠ
ek siĠ
Ġsab it
Ġkit l
im kanÄ±Ġ
hastal Ä±ÄŁÄ±Ġ
iÅŁ ti
dur uÅŁ
kar aĠ
K o
M R
ol iz
ĠY ol
imk Ã¢nÄ±Ġ
Ã§Ä±k mÄ±ÅŁtÄ±r
Ġtop rak
madd elerinĠ
imz alan
man Ä±n
kay det
neden iyle
ti veĠ
laya bilir
ĠÄ° yiĠ
Ä°R Ä°Åŀ
ĠB kz
Ġs tat
D Ã¼ÅŁ
Ġgen elĠ
n ut
sit eĠ
B it
tan Ä±Ġ
benim sen
art mÄ±ÅŁtÄ±r
ĠyÃ¼ks el
kal emeĠ
mal Ä±y
Ġet mesiĠ
z urum
olduÄŁ undaĠ
iler leyenĠ
a w
Ġ mes
G F
Ak deniz
okur yazar
makĠ iÃ§in
kal Ä±cÄ±Ġ
T eÅŁ
lama lar
il mesininĠ
Ã¼ley manĠ
p e
b Ã¶yl
den ir
res m
diÄŁ ini
ĠGen elĠolarakĠ
Al manĠ
lo c
so h
f on
em ektedir
id inĠ
Ã¶zellik leri
t s
ĠR ek
Meh met
es k
dip lo
nitel iÄŁiĠ
G Ã¶
eviz yon
s kor
N o
im denĠ
gÄ± tay
Ġm otor
gÃ¼z elĠbirĠ
mey veĠ
ko ordin
Ã¶ÄŁrenc ininĠ
Ã§aÄŁ daÅŁ
Ġg r
iliÅŁk ininĠ
Ġbilg ilerĠ
ak lÄ±Ġ
ev lilikĠ
ĠAraÅŁtÄ±r mayaĠ
karÅŁÄ±Ġ karÅŁÄ±yaĠ
hem Ġ
dez avantaj
olduk larÄ±nÄ±Ġ
devam Ġed
yaÅŁam Ġkalit
M Ã¼
imk Ã¢nĠ
yol unaĠ
Ġs avun
Ġn ef
ÅŁeh r
ik lerĠ
Ġol saĠdaĠ
w h
konus undakiĠ
dÄ±ÄŁ Ä±ndanĠ
Ã¼ÄŁ Ã¼nĠ
Ġk Ã¼m
ikiĠ farklÄ±Ġ
polit ikaĠ
ĠBir ĠbaÅŁkaĠ
tÃ¼r lÃ¼
M ev
etm e
ta d
yap abilir
Ä ·
aras Ä±
hes iz
de si
ĠNit ekimĠ
ĠF er
ĠAnad oluĠ
Ġb izeĠ
Ã¶n len
yerĠal Ä±r
ya hut
oy unuĠ
V ak
etkin liÄŁiĠ
v il
sÃ¼rec ininĠ
kr ed
it halat
to hum
im lerininĠ
la yan
nitelik teĠ
leh ineĠ
Ġil Ã§
durum unda
H erĠ
veril miÅŁ
len inĠ
dÃ¼zen liĠ
ĠyÃ¶ntem iĠ
f ot
Ġ eylem
ler iniz
mayaĠbaÅŁla dÄ±
L A
Ã¶z gÃ¼nĠ
im leĠ
ĠKi tap
oĠ kadar
ĠÅŀ ah
ĠBÃ¼y Ã¼k
i da
Ġperforman s
gÃ¶ster ilmektedir
N eĠ
sorun larÄ±nĠ
D Ä±ÅŁ
p ul
motiv asyon
rak ip
faktÃ¶r ler
bah set
ĠEn d
etk ilerĠ
ĠGÃ¶r Ã¼ÅŁ
Ġol madÄ±ÄŁÄ±nÄ±Ġ
Ġbel g
Ġ Ã¶lÃ¼m
ĠS o
eks en
geliÅŁ melerĠ
ĠFrans Ä±z
c Ä±sÄ±Ġ
ĠAr dÄ±ndanĠ
deÄŁer ininĠ
Ġ dav
Ġ ex
mil liyet
ĠBun larĠ
kr itikĠ
mÄ±ÅŁ ĠolanĠ
Ġtoplum salĠ
olduÄŁ ununĠ
dÄ±ÅŁ Ä±naĠ
ta Ã§
tamam Ä±Ġ
arasÄ±ndakiĠiliÅŁk iyiĠ
Bir leÅŁikĠ
ĠAl manya
v uz
B ak
gÃ¼ven liĠ
ĠBur adanĠ
de biyat
ĠDahaĠ Ã¶nceĠ
v eÃ§
dayan arakĠ
Ġb ut
dÄ±ÄŁÄ±Ġ veĠ
Ġol gu
Ã» d
al Ä±yor
tarih sel
r ep
gel eceÄŁ
elem ent
Ġs Ä±f
z ekÃ¢
y ed
ban kaĠ
sem ptom
Ġs ez
m un
lo b
Ã¶zellik lerineĠ
iÃ§ indenĠ
yar gÄ±Ġ
kat sayÄ±sÄ±Ġ
Ã¼cr etĠ
E vet
hÃ¢l Ã¢
bÃ¶lg esindeĠ
Ġd oz
kaynak lanmaktadÄ±r
birĠ Ã§okĠ
is miĠ
Ãĸr n
Ġed ilerekĠ
bulun uyor
el ineĠ
ĠBuĠ ÅŁekildeĠ
izm inĠ
ilg inÃ§
kat kÄ±
a lama
iyleĠ ilgiliĠ
farklÄ±lÄ±kĠ gÃ¶ster
Ã¶nemĠ taÅŁÄ±maktadÄ±r
ama mÄ±ÅŁtÄ±r
yÃ¼z Ã¼ndenĠ
insan Ä±Ġ
durum u
maÄŁ az
fark Ä±Ġ
âĢ ĸ
gel ip
ĠGel enek
Ġm Ä±Ġ
il ist
ĠC umhur
yap Ä±daĠ
Ġkr iter
kullan abil
Ġmiktar Ä±Ġ
Ġy eriĠ
hak sÄ±z
kaynak larÄ±nĠ
lar kenĠ
ĠâĢ ķ
mÄ±ÅŁ ĠolduÄŁuĠ
af f
Ġgru bununĠ
uk ur
iya z
gÃ¶ k
maya cak
. :
Ġs Ä±v
as tr
ĠH izmet
key if
Ġkend isineĠ
p on
sÃ¶zc Ã¼k
lama tu
dÃ¼ÅŁ tÃ¼ÄŁ
ĠyaÅŁ Ä±ndakiĠ
sig araĠ
hus usundaĠ
ib adet
gÃ¶zdenĠ geÃ§ir
tak ib
uz ay
ki denĠ
v ah
BÃ¼y Ã¼k
yÄ±l Ä±nĠ
sev er
alan Ä±nĠ
len erekĠ
Ã§evres elĠ
Ã¼n Ã¼n
inan c
um unĠ
Ġgir iÅŁ
ilg ilendir
af et
dir ekt
F A
ses siz
Ã§oÄŁ unluÄŁuĠ
farklÄ±lÄ±k larĠ
ĠB Ã¶lÃ¼m
dok uz
Ã¶rn eÄŁiĠ
Ġ amaÃ§
ĠM ur
al ma
M E
iy od
son uĠ
cep h
bes inĠ
ĠmÃ¼cad el
ĠMeh met
ad il
ÅŁekilde dir
ĠyÄ±l Ä±nÄ±nĠ
ey e
na dir
Ã§ok luĠ
Ulus lararasÄ±Ġ
Ġtoplum sal
ifa des
l Ã¼t
H Ã¼kÃ¼m
alan larÄ±ndaĠ
lerinĠ deĠ
masÄ±naĠ veĠ
aÄŁ aĠ
di v
ik alĠ
Ġb oyuĠ
herĠÅŁey iĠ
E konom
meler i
ĠgÃ¼n eÅŁ
ac k
h alĠ
Ġyer leÅŁ
rak iĠ
Ä±nÄ±z daĠ
v etĠ
at ar
durum unuĠ
masÄ±naĠ raÄŁmenĠ
Ã¼l Ã¼r
S al
dÃ¼ÄŁ Ã¼ndeĠ
incelen mesiĠ
im leriniĠ
ip to
A tatÃ¼r
d om
Ä±l Ä±ÅŁ
ĠA c
sÄ±k Ä±ntÄ±
Ġ aÄŁr
an o
ÅŁah Ä±s
birĠarayaĠ getir
Ã§erÃ§ev edeĠ
incel emekĠ
in leĠ
T est
en tr
yok saĠ
Ġkr iz
B T
nef es
literatÃ¼r deĠ
ĠBaÅŁ kan
kapsa maktadÄ±r
P A
Ġïĥ ĺ
d Ä±kĠ
ĠBiz imĠ
bÃ¼yÃ¼kĠ Ã¶lÃ§Ã¼deĠ
Ġbulun muÅŁtur
gÃ¼ven liÄŁiĠ
d Ã¶
Ġhak kÄ±Ġ
ĠB et
Ġï ģ
ĠyeniĠ birĠ
S am
prote inĠ
C H
fark Ä±nd
ĠbaÅŁkaĠ birĠ
ilerĠ iÃ§inĠ
K a
tÃ¼r lÃ¼Ġ
mad Ä±m
h ik
met ot
Ġ Ã¼rÃ¼nĠ
yer denĠ
dahaĠ azĠ
ĠK uzey
H er
Ã¼Ġ deĠ
meleriĠ iÃ§inĠ
ĠetmekĠ iÃ§inĠ
Ġc insiyet
Ġn Ã¼fus
edenĠ birĠ
ilerĠ tarafÄ±ndanĠ
men faat
eff af
Ã¢ k
lardaĠ daĠ
Ġas lÄ±ndaĠ
l iber
hak ikat
y Ã¶nĠ
Ã§e veĠ
i us
ĠV eriĠ
et ay
K uzey
ikselĠ olarakĠ
Ġn o
otom obil
hak em
baÄŁ Ä±ÅŁ
uy umĠ
tr as
eÅŁ likĠ
re gresyonĠ
Ã¶zg Ã¼
Ġyol uĠ
Ġs s
ada p
inc isi
en lereĠ
d Ã¼nĠ
oksi danĠ
bozuk luk
toplan tÄ±
in o
ĠÄ°stanbul Ġ
G E
yer elĠ
ser iĠ
er gen
end i
yap mayaĠ
saÄŁla makĠiÃ§inĠ
n akĠ
a u
ic r
korun masÄ±Ġ
ortakĠ birĠ
Ġkur am
an ketĠ
Ã§evres indeĠ
a larÄ±nÄ±Ġ
sÄ±k Ä±Ġ
Ġin ÅŁ
dÃ¼zey leriĠ
Ġhip otez
li am
y alĠ
yerleÅŁ im
G Ã¼l
isiĠ olarakĠ
ĠDoÄŁ uĠ
Ġs ilah
maya caÄŁ
Ġyap anĠ
pro fil
Ġedil diÄŁiĠ
Ġ kayÄ±t
Ã¶n deĠ
ĠÃ¼lk eĠ
sel likĠ
ka yaĠ
Ã§okĠ az
Ġ maliyet
ter mal
Ġ ro
aÃ§Ä±k tÄ±r
yen il
ĠbaÄŁ lant
indenĠ sonraĠ
Ġyaban cÄ±Ġ
Ġar dÄ±Ġ
yarar lÄ±Ġ
Y ayÄ±nlarÄ±
Ä±t Ä±m
ya caÄŁÄ±nÄ±Ġ
T aÅŁ
dÃ¼ÅŁÃ¼n Ã¼yor
bon us
tut uk
ge bel
Ã§ Ã¶zelt
sÄ±k Ä±nt
ĠK af
ter eĠ
lÄ± larÄ±nĠ
ebilir ler
Ġbulun anĠ
dÃ¼ÄŁ Ã¼m
ĠD urum
Ġ dem
ĠM ey
iz am
ĠbaÅŁ lÄ±klÄ±Ġ
ĠP lan
mÃ¼ f
Ã¶nem Ġkazan
Ġp as
deÄŁiÅŁk eniĠ
iÅŁ tenĠ
yoÄŁ unluÄŁ
sÄ±cak lÄ±k
saÄŁ lanmÄ±ÅŁtÄ±r
bilg ininĠ
Ġyol uylaĠ
ĠbaÅŁ taĠ
ĠherĠ zamanĠ
es eriĠ
n av
h oc
yer liĠ
Ġ `
ÅŁey inĠ
Ġkur uĠ
esn af
Ġm odernĠ
Ġmu h
alakal Ä±Ġ
lan tÄ±
ĠY Ãĸ
ital ist
Ġmak in
ĠM us
C on
hÄ±z landÄ±r
benzer likĠ
n Ã¼kle
ya kala
gÃ¶ v
gÃ¼n ah
Ãľ l
Y ay
ya saĠ
Ġhaf ta
ilereĠ gÃ¶reĠ
Ġet tik
iy iz
Ġ iĠ
ĠgeÃ§ enĠ
la ĠberaberĠ
e mat
Ġgrubun dakiĠ
pol imer
hayat Ä±Ġ
Ġkal p
sÃ¶yl Ã¼yor
as Ä±nda
alÄ±n dÄ±
ci var
dÃ¼zey lerininĠ
h el
ĠTemmuz Ġ
Ġ uyar
sa da
zih n
Ġar eĠ
mas Ä±z
kam p
yaban cÄ±
oj istikĠ
ya tay
etm eyiĠ
ler iniziĠ
disip lin
as Ä±yla
Ã¶rnekĠ olarakĠ
ey z
yan dan
ĠyÄ±l larÄ±ndaĠ
cil t
man yetikĠ
ĠGÃ¼n Ã¼mÃ¼z
ĠA dam
mak sÄ±zÄ±nĠ
AraÅŁtÄ±r maĠ
ht tp
ec eriĠ
olduÄŁuĠ tespitĠedilmiÅŁtir
beraberindeĠ getir
kullanÄ±m Ä±nÄ±nĠ
ĠM ut
dÄ±ÄŁ Ä±m
Ã§ iler
tÃ¼r k
iyeĠ veĠ
Ä±la vuz
c Ã¼Ġ
Ġ uygulamaĠ
gÃ¶rev lendir
ver iyor
kon uyuĠ
bulgu lar
paraĠ kazan
Ġtal eb
z ey
performan sÄ±Ġ
ov id
Ġh ukukĠ
yaĠ gÃ¶reĠ
Ãĸ L
duÄŁ umuz
larÄ±naĠ gÃ¶re
Bir liÄŁiĠ
ĠA fr
ĠdÃ¶nem deĠ
sun duÄŁuĠ
ĠN ormal
yaz Ä±lmÄ±ÅŁ
baÅŁvur uĠ
ĠH erkes
gÃ¶rÃ¼l dÃ¼
Ġ Ã¼ret
likĠ birĠ
Ġv atandaÅŁ
olan larÄ±nĠ
ell if
Ġkullan Ä±mÄ±Ġ
et enĠ
elerĠ iÃ§inĠ
im g
M ad
karÅŁÄ±mÄ±z aĠÃ§Ä±kmaktadÄ±r
ĠolduÄŁuĠ iÃ§inĠ
un t
cu larÄ±nĠ
p ah
h iĠ
Ġtip iĠ
dÃ¼ÄŁ Ã¼nÃ¼
ov a
Ġm eÅŁ
ĠS en
br ekĠ
ĠoluÅŁ um
Ġyet iÅŁtir
ed im
Ä±n ca
s Ġand
luĠ veĠ
Ġh Ã¢
Ä°l k
den kĠ
alt Ä±nda
O H
kay ded
Ġm on
gÃ¶rÃ¼ÅŁ leriniĠ
ÅŁid detĠ
makĠ amacÄ±yla
bas tÄ±r
Ã¼s Ã¼nÃ¼nĠ
y uvar
lar ĠoluÅŁtur
Ġyap tÄ±ÄŁÄ±Ġ
dÃ¼zen lenmiÅŁtir
on al
ĠgÃ¼n Ã¼mÃ¼zdeĠ
ind eks
davranÄ±ÅŁ larÄ±nÄ±Ġ
aĠ kadarĠ
diÄŁiĠ gibiĠ
dok uĠ
yap Ä±sÄ±nÄ±Ġ
yapÄ± larÄ±nĠ
koruy ucuĠ
imz aĠ
ar ta
Ġ kapsamÄ±ndaĠ
ett im
Ġma ÄŁ
yum ur
hastal Ä±ÄŁ
tÄ±ÄŁ Ä±ndaĠ
ĠAb dÃ¼l
Åŀ er
iliÅŁk ilidir
Ġr ahat
. ),
ineĠ ait
nit elikĠ
Ġr ol
ĠI V
Ã® n
kal em
Ġg ez
bes lenmeĠ
il iÄŁindenĠ
yum uÅŁakĠ
ĠP sik
yardÄ±mcÄ±Ġ olur
ĠGel iÅŁ
buĠ ikiĠ
ah h
H am
araÅŁtÄ±rma cÄ±Ġ
iz ley
an i
deyiÅŁ leĠ
cev ab
ĠTÃ¼m ĠbuĠ
v iÃ§
Ġt his
Al man
kÄ±sm Ä±nÄ±nĠ
ecekĠ ÅŁekildeĠ
ĠF ilm
ĠH ip
larÄ±naĠ karÅŁÄ±Ġ
v erĠ
larÄ±Ġ iseĠ
ĠK u
unuĠ veĠ
Ġol mas
egem enĠ
ĠÃĸnc elikleĠ
ĠveĠ F
Ãĩ okĠ
Ġs t
Ã¼ man
H Ä±rist
ĠN a
asÄ±Ġ ileĠ
Ġhal kĠ
ek ir
Ġmevcut tur
st e
al e
suz luk
maktaĠ olanĠ
Ġs ur
taÅŁ Ä±r
kurul muÅŁtur
ber t
telef on
Ġkon ut
ĠAh met
l ic
tal yaĠ
g Ã¼v
ir as
tar Ä±mĠ
deÄŁer iniĠ
bÃ¶lg elerdeĠ
eÅŁ ilĠ
nak l
siz liÄŁiĠ
Ġ Ã¶nemliĠ
boyut uĠ
eygam berĠ
ĠV ak
Ġ esas
h Ã¼c
ala caÄŁ
Ġanlam Ä±naĠ
ecek leriniĠ
Ġf otoÄŁraf
m ikĠ
ĠsÄ±r adaĠ
isim lendir
Ġz ih
Ã§ocuk lar
bel ediyeĠ
er al
profesyon el
ur kenĠ
g ay
ĠA Ã§Ä±k
ĠC o
Ġs ub
mez ar
tay Ä±Ġ
Ġh ap
bÃ¶lg eninĠ
birbir leriyleĠ
Ġay Ä±ndaĠ
f ol
ĠZ aman
Ãľ zer
form Ã¼l
millet vekil
Ġyan lÄ±ÅŁ
lan dÄ±ÄŁÄ±nÄ±Ġ
N a
ib aret
ula bilir
t ikleriĠ
a masÄ±Ġ
uf akĠ
Ġp latform
ilkĠ defaĠ
d ans
ĠYaÅŁ am
okul uĠ
yapmÄ±ÅŁ ĠolduÄŁuĠ
ĠolarakĠ bulunmuÅŁtur
Ã¼st len
zamanĠ zamanĠ
Ġ iletiÅŁim
ĠKan un
olay larÄ±nĠ
neĠ zamanĠ
Ġyok saĠ
ĠiÃ§ indekiĠ
gru baĠ
ĠZ atenĠ
v ic
G Ã¼r
aĠ Ã§Ä±kar
Ġet tir
Ġf elsef
ya tanĠ
ĠE ner
ekonom iĠ
Ġhar c
ik tir
ĠD ik
Ġde f
AR T
B eÅŁ
Ġedil di
ĠyaÅŁ an
etic iĠ
olduÄŁuĠ sÃ¶ylenebilir
yap masÄ±Ġ
Ġyap Ä±Ġ
hemenĠ hemenĠ
ĠP an
iv as
belirt ildiÄŁiĠ
der siĠ
ulaÅŁ abil
ineĠ yÃ¶nelikĠ
ama yaĠ
as eĠ
Ġmerkez iĠ
birĠ kez
sal ĠbirĠ
ey i
z af
katkÄ±daĠ bulun
Rus yaĠ
ima lat
r ikĠ
olduÄŁunuĠ gÃ¶stermektedir
ler ĠgibiĠ
mayaĠ yÃ¶nelikĠ
den geĠ
Y as
ik naĠ
Ġger eksin
gru bundaĠ
gÃ¶Ã§ men
al makĠiÃ§inĠ
ĠSonuÃ§ Ġolarak
ebil iyor
Ġf rom
b Ã¼l
larÄ±ndaĠ daĠ
mak ro
saÄŁla mÄ±ÅŁtÄ±r
mey v
Ä±nÄ±nĠ birĠ
Ġa yak
Ġ un
ulus alĠ
ipt alĠ
ĠS uĠ
al masÄ±Ġ
ĠyÃ¼z deĠ
olabil eceÄŁiniĠ
en n
Ã§ Ã¼n
mÃ¼ hendis
olupĠol madÄ±ÄŁÄ±nÄ±Ġ
kal mÄ±ÅŁ
f Ã¶y
ĠolduÄŁ unu
gerÃ§ekleÅŁ miÅŁtir
isyon uĠ
ver erekĠ
Ġr ef
n eÅŁ
á ¹
Ġel eÅŁtir
Ġ eÄŁitimĠ
taĠ veĠ
aray Ä±ÅŁ
ren s
yaz dÄ±ÄŁÄ±Ġ
kullan Ä±lacakĠ
hatÄ±r lat
ĠKi tab
is tasyon
lerleĠ ilgiliĠ
gÃ¼n deĠ
Ã¼r Ã¼z
ineĠ karÅŁÄ±Ġ
la masÄ±
baÅŁ lÄ±kĠ
ĠmÃ¼ÅŁter iĠ
at Ä±l
bÃ¼yÃ¼k lÃ¼ÄŁ
ol lan
Ġmilyar Ġdolar
indeĠ bulun
Ġkom pl
zaman da
S D
ekt e
lÄ±k larÄ±nÄ±Ġ
ĠA il
ĠÅŁ Ã¼p
n iÅŁ
Ġn inĠ
iy aĠ
ĠiÃ§er enĠ
Ġl ider
eÄŁ im
oz of
saÄŁlaya bil
lil iÄŁinĠ
bahis Ġsit
madd elerĠ
deÄŁer i
Ġhas tanÄ±nĠ
alg Ä±Ġ
ob ikĠ
Ã¶y kÃ¼
Ġ unsur
araÃ§ larÄ±Ġ
ĠileĠ birlikteĠ
ĠÃĩ eÅŁit
ug h
neĠ deĠ
iĠileĠ ilgiliĠ
iy yeĠ
madd eninĠ
ĠC h
ĠÅŀ irket
anlam Ä±ndaĠ
la mas
Ä±c Ä±lÄ±ÄŁ
z eĠ
ĠÄ° Ã§er
vak Ä±f
ĠgÃ¼n Ã¼
Ġf il
dÄ±ÅŁ Ä±nda
lardaĠ veĠ
Ġsap tan
bilg iyiĠ
dÄ±r Ä±m
gÃ¶z et
k Ã¶r
bin lerceĠ
eh l
Ã§ Ä±lar
ayr Ä±lanĠ
ĠB Ã¶yleĠ
Ġpo tansiy
kapsam lÄ±Ġ
temel indeĠ
Ġk art
er r
toplum daĠ
Ġde dim
r ay
sonucuĠ olarakĠ
ĠD iÄŁer
gar iĠ
ey nĠ
ĠHal kĠ
p aras
man Ä±zÄ±Ġ
ĠG Ã¼r
Ġden klem
ĠÅŀ eh
im parator
m Ã¢
eksik liÄŁiĠ
laraĠ sahip
ĠT ay
bur ayaĠ
kabulĠedil enĠ
sÃ¶y leyenĠ
gÃ¶rÃ¼l dÃ¼ÄŁÃ¼Ġ
ob ez
larÄ±naĠ yÃ¶nelikĠ
iy ye
gide c
gÃ¶ster iyor
Ã¼c car
tabiĠ tut
ber g
renk liĠ
iÅŁleriĠ Bakan
kat man
dij italĠ
soru lar
isted iÄŁiniz
I K
lÃ¼ ĠveĠ
gÃ¶z ĠardÄ±Ġ
lerimiz iĠ
i eĠ
Ġ op
hÄ±z la
ol mayaĠ
ihtiyaÃ§ larÄ±Ġ
M P
son suz
duy ulanĠ
ebil mesiĠ
ol maktanĠ
benim sem
ĠI s
fark lÄ±dÄ±r
ĠZ amanĠ
n at
ĠolduÄŁuĠ gÃ¶rÃ¼lmektedir
a maktadÄ±r
Ġtop rakĠ
seÃ§ imĠ
ĠÅŁ iddet
V al
y etkil
D ergisi
P aÅŁaĠ
d erĠ
akt erĠ
B ah
ĠOn uĠ
Ġm obil
kal eĠ
bileÅŁ en
ek ran
trans ferĠ
Ġbir liÄŁiĠ
yÃ¶n Ã¼yleĠ
el liĠ
om ent
tÄ±b biĠ
parÃ§ alan
c elen
rad yo
lik le
masÄ±naĠ sebep
ĠSon r
kurum salĠ
ec i
kÃ¶ kĠ
t laÅŁ
makĠ amacÄ±ylaĠ
ĠM evcut
sor ununĠ
lan an
Ġka nĠ
Ã¼Ġ olanĠ
alÄ±n Ä±r
iyar bakÄ±r
Ã¶rnek leriĠ
; Ċ
din amikĠ
ĠM ez
y irmiĠ
A zerbay
plan t
ĠÄ°n ternet
ÅŁirket inĠ
ipar iÅŁ
Ä±n c
bÃ¼ny esindeĠ
Ã ½
eÄŁil imiĠ
L E
bÃ¶lg eyeĠ
ac Ä±k
ĠveĠ birĠ
Frans a
ĠF inans
af or
ha laĠ
ger iyeĠ
iÃ§ sel
aĠ ait
Ä±n cÄ±Ġ
oluÅŁanĠ birĠ
ka demikĠ
ela l
yap Ä±sÄ±nÄ±nĠ
Ã¶nem li
hal kÄ±Ġ
ĠB o
en j
Ġb ed
ala bilir
danĠ itibarenĠ
organ izeĠ
A Ã§
sÄ±kĠ sÄ±kĠ
N O
t idar
Ġyer el
ortayaĠkoy muÅŁtur
Ä±m sÄ±z
iy eliĠ
b y
Ġ Ã§ocuklarÄ±nĠ
ĠdÃ¶nem iĠ
incelen enĠ
gÃ¶r selĠ
Ä°n sanĠ
Ankar aĠ
mak laĠbirlikteĠ
Ġsan ay
kÄ±sm Ä±ndaĠ
GÃ¶r eĠ
laraĠ iliÅŁkinĠ
ĠYÃ¶n tem
Ä° Z
Ġik en
kiÅŁ ilereĠ
siya s
ĠveĠ L
ma malÄ±dÄ±r
uy dur
ĠdoÄŁ um
Ġp oz
Ġmek Ã¢n
anlayÄ±ÅŁ Ä±Ġ
s y
E bÃ»
muhal ef
] .
Ġ asker
ma j
ĠAyrÄ±caĠ buĠ
Ġo tur
in leriĠ
Y Ã¼z
bek lem
deÄŁiÅŁtir meĠ
led ikleriĠ
tav siy
d ola
s Ã¶mÃ¼r
olmayanĠ birĠ
Ã¶nc Ã¼l
ind istan
d iyet
e laĠ
Ã¶n der
iler iyleĠ
im en
ist i
Ã¼rÃ¼n ler
oloj isiĠ
ÅŁ ef
ĠolmasÄ±Ġ veĠ
leĠ veĠ
Ã§okĠ fazla
unut ul
Ġaktiv it
ĠD es
ĠBuĠ kapsamdaĠ
Ah met
ĠseÃ§ en
G rup
karÅŁ Ä±n
ĠRus ya
Ġpsik olojikĠ
ela st
Ġg em
katÄ±lÄ±m cÄ±Ġ
l ine
yukar Ä±Ġ
olarakĠ gÃ¶r
laraĠ daĠ
ĠKelim eler
engel lem
ĠbÃ¼yÃ¼kĠ birĠ
labor atuvar
ĠherĠ ikiĠ
veril ebilir
hayat Ä±nĠ
rob ot
T E
tan Ä±ÅŁ
gÃ¶z Ã¼k
Ã§okĠ fazlaĠ
Ã¶ÄŁretm eninĠ
dÃ¼zey indeĠ
Ġ id
Ġett ikleriĠ
Ã¢ deĠ
vef at
so kak
Ġb undanĠ
ro f
S Ä±r
ĠmÃ¼mk Ã¼nĠ
S ev
ey y
n is
Ä° dar
yerĠ alan
O K
ak rab
kr al
end er
G azet
it ler
M us
olaÄŁ an
Ġsiya set
leriniĠ deĠ
ta bak
duyar lÄ±Ġ
devr im
s Ã»
ama yanĠ
Ã¼mÃ¼z dekiĠ
Ġd os
ĠAnad olu
Ã¶rt Ã¼ÅŁ
Ġ duygu
ĠHerĠ birĠ
deÄŁiÅŁiklik ler
K Ã¶
an larÄ±Ġ
eĠ sahiptir
em e
ĠBuĠ ikiĠ
M ek
ĠGÃ¼n eÅŁ
H ayÄ±r
saÄŁ lanÄ±r
ĠÃ§alÄ±ÅŁ masÄ±ndaĠ
A c
ĠÃ§ eÅŁ
Ġgen elĠolarakĠ
hazÄ±r lanmÄ±ÅŁ
c ort
yÃ¼z Ã¼neĠ
gÃ¼n lerdeĠ
ĠÄ°ngil tere
Ġmet al
ÅŁey ler
Ġ{ Ċ
Ġmetr eĠ
B e
taÅŁÄ±n maz
aynÄ±Ġ ÅŁekildeĠ
ĠB iy
Ġw as
Ġh am
ins Ã¼l
doÄŁ u
hal l
Ã§oÄŁuĠ zamanĠ
bab asÄ±Ġ
deÄŁiÅŁik liÄŁiĠ
sÄ±k Ã§aĠ
gÃ¼l Ã¼m
tedav isiĠ
ĠT eÅŁ
eder ler
kullan dÄ±klarÄ±Ġ
yaÅŁam Ä±nĠ
Ġs end
ĠÃľ zer
tat il
devlet lerinĠ
H izmet
ail eninĠ
kes im
her eĠ
gÃ¶revĠyap anĠ
y etkiliĠ
siz lereĠ
ÃĸÄŁr enc
da sÄ±Ġ
Ġ ÅŁekil
yaÅŁ ant
Ġha veĠ
ðĿ Ĳ
Ġs eneĠ
yap ma
enf lasyonĠ
ĠÃ§ erÃ§ev
ĠG Ã¶k
ij ital
Ġhal kÄ±nĠ
nitelik liĠ
demok rat
ektr um
Ġs il
olupĠol madÄ±ÄŁÄ±Ġ
C h
kar bon
Ã¶z enĠ
ÅŁ ub
Ġ daÄŁ
Ġgel enĠ
tekn iÄŁiĠ
de ce
Ê ¿
mec bur
Ġ }
Ġr apor
et ĠveĠ
Ġka h
may Ä±
farklÄ±lÄ±k lar
adam Ä±nĠ
ebil meĠ
hayataĠ geÃ§ir
T es
en ter
eĠ yÃ¶nelikĠ
kal mÄ±ÅŁtÄ±r
ĠH azÄ±r
ĠKa bul
larĠ iÃ§indeĠ
ĠW eb
D L
bey inĠ
mey en
Ġ ðĿĳ
esn ekĠ
r Ä±z
fark Ä±nĠ
S ch
O P
at Ä±f
v s
yÄ±l lar
Ġy Ä±k
Ä±lama z
aka dem
ger ilim
uygulan abilir
ĠTÃ¼rk Ã§
hareket eĠ
Ã¼rk enĠ
Ä±naĠ var
er tel
nedenĠ olmaktadÄ±r
ĠgibiĠ birĠ
p laz
ĠbuĠ durum
ĠÅŀub atĠ
an lama
S ultanĠ
F er
Ġk imiĠ
sp esif
Ġdikkat eĠ
fik riĠ
as Ä±dÄ±r
D aÄŁ
y umĠ
ig h
belir lemekĠiÃ§inĠ
bul ur
Ã¶ÄŁretmenĠaday larÄ±nÄ±nĠ
ĠO ÄŁ
ĠY aÄŁ
yap Ä±sÄ±naĠ
enĠ Ã¼st
Ġ araÅŁtÄ±r
DeÄŁer lendir
ot if
Ġmem ur
ortayaĠ ko
co inĠ
duyg usuĠ
ĠmÃ¼ dah
iyet i
S u
met ikĠ
kal kÄ±n
ik let
biliÅŁ sel
tartÄ±ÅŁ maĠ
as laĠ
ĠK uÅŁ
Yun anĠ
if iyeĠ
ĠH Ä±z
B Ã¶lÃ¼m
ed ikleriĠ
MÃ¼dÃ¼r lÃ¼ÄŁÃ¼
g ah
yaklaÅŁ Ä±mĠ
ÃĸlÃ§ eÄŁi
bulun duklarÄ±Ġ
ĠH ayÄ±r
Ä±ylaĠ ilgiliĠ
Ġger ekt
sen eĠ
Mec lis
yar ata
az iĠ
piÅŁ ir
nedenĠ olur
at ĠveĠ
el indenĠ
Pro j
it tif
E d
Ġken ar
anla tanĠ
mas Ä±ndakiĠ
is imĠ
Ġ Ã¶ÄŁretim
makĠist ey
bur g
l etim
def ter
Ġkullan Ä±lmaktadÄ±r
yap acak
kÄ±y met
Ä±m Ä±naĠ
kÃ¼t Ã¼phan
alÄ±n mÄ±ÅŁ
om er
A fr
ĠdiyeĠ konuÅŁtu
Ãĩ aÄŁ
ĠÃĸÄŁretm enĠ
kah v
H az
is h
al esef
g n
paral elĠolarakĠ
Ġser t
ĠEkonom ikĠ
belir leyiciĠ
ĠBuĠ anlamdaĠ
ĠkÃ¶ ÅŁ
Ġ eÄŁerĠ
gel eĠ
uz unluÄŁ
kurul muÅŁ
unuz uĠ
sÃ¼rekliĠ olarakĠ
benzerĠ birĠ
konu larÄ±Ġ
geliÅŁtir ilmesiĠ
Ã¶yl edir
t etik
Ġkal dÄ±r
as Ä±ĠveĠ
Ġde y
Ġb on
Ġb eb
Ġin ternet
S I
kon ak
elerĠ ileĠ
ĠÅŁ imdiĠ
masÄ±nÄ±Ġ veĠ
Ã§ an
ĠyerĠ almaktadÄ±r
lerineĠ veĠ
mekĠ istem
emem iÅŁtir
man daĠ
Ã¢ c
fir malarÄ±nĠ
alg Ä±sÄ±Ġ
muhafaz aĠ
lerĠ Ã¼zerindeĠ
gÃ¶nder ilenĠ
eser inĠ
ist erĠ
yaÄŁ Ä±ÅŁ
ler kenĠ
kaynak larÄ±nÄ±nĠ
Ġde p
ans Ä±
Ġad res
ĠSonĠ olarakĠ
p ratikĠ
Ġ araÅŁtÄ±rmaĠ
mal Ä±sÄ±nÄ±z
Ä±n anĠ
ĠbÃ¶lÃ¼m Ã¼ndeĠ
kit leĠ
ĠhÃ¼k m
al lah
A lan
ĠP at
zarar lÄ±Ġ
Ġb asit
birĠ kÄ±smÄ±Ġ
mes inde
ĠyÃ¶netim iĠ
kr it
laraĠ gÃ¶re
bir takÄ±m
n uĠ
yet kiĠ
top raÄŁ
ĠO lay
kÄ±s acaĠ
oks ikĠ
Ġbak Ä±ÅŁ
Ġm arkaĠ
lil iÄŁininĠ
int ih
da imaĠ
anlaÅŁ Ä±lÄ±r
alan Ä±naĠ
mad desiĠ
Ġs izinĠ
yarat Ä±cÄ±Ġ
san atĠ
b ach
ev inĠ
Ġkend isiniĠ
ÃĸL ÃľM
ĠS ol
kes int
ĠAÄŁustos Ġ
belir leyenĠ
un um
Kan unĠ
ÅŁiddet liĠ
es ap
saÄŁ lÄ±ÄŁÄ±Ġ
u lan
kims eninĠ
Ġs kor
laÅŁ mÄ±ÅŁ
suy unĠ
Ã¼p erĠ
asyon u
riskĠ faktÃ¶r
ya lan
Ġtut um
araÅŁtÄ±rma lar
dahaĠ bÃ¼yÃ¼kĠ
bun un
olay larÄ±Ġ
Ä°l giliĠ
ĠT Ã¼r
belirlen mesindeĠ
Ġy Ã¼kÃ¼m
ĠKan unu
yaÄŁ mur
b ulaÅŁ
veril di
Kar adeniz
tasar Ä±mÄ±Ġ
gÃ¼n Ã¼nĠ
B A
bak tÄ±
N ur
c ununĠ
e or
Ġm imar
faaliyet leriniĠ
karÅŁÄ±laÅŁtÄ±r Ä±ldÄ±ÄŁÄ±ndaĠ
Ä±ndanĠ sonraĠ
Ä°ngiliz ceĠ
ĠbaÅŁ kan
tel if
iÄŁ imĠ
K Ã¶y
ĠGÃ¶r Ã¼l
bun lar
sÃ¼rec inĠ
az Ä±n
H O
or kĠ
Ä°s rail
kal Ä±r
ĠveĠ R
iÃ§inĠ buĠ
aynÄ±Ġ andaĠ
saÄŁlaya caktÄ±r
K ral
eÄŁitim ĠveĠ
maĠ ileĠ
M ur
Ã¼rÃ¼n Ã¼
Ä±m danĠ
form uĠ
eyn ir
gir enĠ
ok rat
kay gÄ±Ġ
Ã¶z Ã¼m
Ã¼nde dir
haf Ä±z
sÄ±r t
ĠD Ã¶n
k lor
Ġm Ã¼k
sektÃ¶r Ã¼ndeĠ
durum larÄ±Ġ
alan larÄ±nĠ
kes in
ĠbuĠ konudaĠ
yonĠ veĠ
Ġ yaklaÅŁÄ±m
ila v
en deĠ
pay Ä±Ġ
ĠGÃ¼ven likĠ
bulun duÄŁunuĠ
N ew
yakÄ±nĠ birĠ
zor dur
hal enĠ
ay Ä±ÅŁ
odak lÄ±Ġ
Ah med
artÄ±ÅŁ ĠgÃ¶ster
teÅŁ kilat
Ġger ekliĠ
bulun mamÄ±ÅŁtÄ±r
Ãľniversit esiĠ
A m
iv an
oluÅŁtur muÅŁtur
tab lolar
yon aĠ
ĠS es
t id
sun maktadÄ±r
il diÄŁiniĠ
res tor
gel mesiĠ
ak Ã¼lt
yÃ¼k len
Ġbeklen t
ĠS enĠ
Ġak Ä±ÅŁ
f l
yÃ¼rÃ¼tÃ¼l enĠ
led iÄŁiniĠ
Ã¶zg Ã¼Ġ
Ã¶y le
ĠAn n
uc h
ĠBaÅŁ kanÄ±Ġ
ĠP azar
p h
M ac
Ġkan un
s eniĠ
Ġseb ep
bu har
diÄŁ im
laraĠ ait
ilerineĠ gÃ¶reĠ
Kay nak
geliÅŁtir ilmiÅŁtir
Ġdevlet inĠ
i um
Ã¶ÄŁren imĠ
ĠAnahtar ĠKelimeler
iÅŁ bir
Ġgel en
ĠTarih i
Ġc an
hav uz
olduÄŁuĠ belirlenmiÅŁtir
Ġyaz ar
d ro
can landÄ±r
Ġn esn
deĠ bulunanĠ
sonucunaĠ ulaÅŁÄ±lmÄ±ÅŁtÄ±r
ob Ã¼s
hazÄ±r la
bÃ¶lÃ¼m Ã¼
Ġdeney im
araz iĠ
T icaret
c iÄŁer
C HP
es inin
Ã§ ininĠ
Ġyet enek
belirt ti
ĠJ ap
mÃ¼k ellef
man Ä±
yerĠ ver
Ġboyut luĠ
Ġc om
Ä° D
ÅŁey leriĠ
ĠD ar
ak s
bas kÄ±nĠ
et nikĠ
coÄŁraf iĠ
Ġdoy um
S ah
Ã§alÄ±ÅŁma larÄ±nÄ±nĠ
ila yet
nedenĠ olanĠ
Ã¶ÄŁrenc ileriĠ
lerineĠ iliÅŁkinĠ
olabil ecekĠ
sta bil
ik likĠ
ĠO t
Ġn m
Ã¼neĠ gÃ¶reĠ
hÄ±z lÄ±ĠbirĠÅŁekildeĠ
et teĠ
ĠM ill
olay Ä±Ġ
ĠC ev
etk isi
yapÄ±s al
sÃ¼r eliĠ
leriĠ gibiĠ
ĠS em
ÅŁekil lerdeĠ
an tren
R ab
al Ã§
sev kĠ
Ã¼z gar
larlaĠ birlikteĠ
Ġ deÄŁiÅŁim
Ä° ranĠ
eÄŁlen ceĠ
de h
aÃ§ Ä±ÄŁaĠ
mec lis
ist iyor
Ġsorum lulukĠ
ac Ä±kĠ
Ã§evr eyeĠ
aÃ§Ä±kĠ birĠ
yapÄ±l malÄ±dÄ±r
an ol
mayÄ±Ġ baÅŁar
meler ininĠ
lik eĠ
ant ib
Ġkred iĠ
olsaĠ daĠ
K Ä±brÄ±s
Ġnit elik
hal de
Ġolum suz
ĠbuĠ nedenleĠ
kÃ¼Ã§ Ã¼k
Ä±lanĠ buĠ
A V
ihr aÃ§
Ãĩ inĠ
Ġr isk
Ġ birlikteĠ
tion s
Ġger ektir
saÄŁ lananĠ
bilg i
E V
olmasÄ±naĠ raÄŁmenĠ
ama caĠ
yapÄ±s alĠ
an dÄ±r
kol on
indeĠ bulunanĠ
v aka
ir d
K iÅŁ
raf ikĠ
mis afir
et leĠ
dÃ¼ÅŁÃ¼nÃ¼l ebilir
p adiÅŁah
Ġm is
asyon unĠ
ĠM odernĠ
a lay
bas Ä±nĠ
ĠdahaĠ Ã§okĠ
Ġbelir liĠbirĠ
iliÅŁk isiniĠ
Ġka la
v aĠ
tasav vuf
graf ikĠ
ÅŁart larÄ±Ġ
Ġver giĠ
Ġbak ter
D M
ĠBan ka
ĠÃĩ aÄŁ
ifadey leĠ
deÄŁerlendir ilmektedir
bas kÄ±
Ġtes is
Ġalt Ä±Ġ
yaÅŁam Ä±ÅŁ
hal inde
yÃ¼rÃ¼rlÃ¼ÄŁ eĠgir
Ġd oku
ĠOr gan
katÄ±lÄ±m cÄ±lar
Ġar dÄ±ndanĠ
Ġ Ã¼zerindekiĠ
deÄŁiÅŁiklik lerĠ
iz leyic
biz zat
Ġver im
Ã§okĠ Ã¶nemliĠ
ifadeĠet miÅŁlerdir
Ã¶zgÃ¼r lÃ¼kĠ
mu ha
al mayaĠ
geler ekĠ
ĠK ul
nedenĠ olduÄŁuĠ
geÃ§enĠ gÃ¼nĠ
seĠ de
Ä±nÄ±nĠ daĠ
hesap lananĠ
ĠseÃ§ enek
ortalama larÄ±Ġ
Ġp pm
s ekĠ
G K
iĠ gibiĠ
SavaÅŁ Ä±
Ã§alÄ±ÅŁma larÄ±nÄ±Ġ
ĠG Ã¼Ã§
t Ã¼y
fÄ±rsat Ä±Ġ
YÃ¶n elikĠ
Ġol madÄ±ÄŁ
ĠbÃ¶lg esindeĠ
Ġhar f
uyuÅŁ maz
iÅŁaretĠ etmektedir
ĠsektÃ¶r Ã¼ndeĠ
ĠAn aĠ
sev gil
ĠF a
S p
e a
amacÄ±Ġ ileĠ
sÃ¶yley ebiliriz
d ib
M ill
ecek ler
fir ma
b Ã¼
lÄ±k larÄ±nÄ±nĠ
lan tÄ±Ġ
iÅŁ lerinĠ
de sen
aÅŁ kÄ±nĠ
g at
Ġkullan Ä±l
h ala
sÃ¶ylem iÅŁtir
Ġg eceĠ
Ã§atÄ±ÅŁ maĠ
anĠ buĠ
ĠB oz
mey enĠbirĠ
g ol
iktis adiĠ
yolaĠÃ§Ä±k arakĠ
bala j
dÄ±ÅŁ arÄ±Ġ
Ġ aÃ§Ä±k
Ã¼zer inde
Ä±cÄ± yaĠ
ĠBununĠ Ã¼zerineĠ
yÃ¼kÃ¼mlÃ¼l Ã¼k
ĠR ad
larÄ±Ġ Ã¼zerindeĠ
ĠpekĠ Ã§okĠ
eĠ of
o terap
P h
vir Ã¼s
lem esiĠ
Ġder in
lik lerinĠ
mem iz
Ġter Ã¶r
kans er
h orm
lerdeĠ deĠ
Ã¼ks ek
le x
Ä±m Ä±ndaĠ
ĠAn ket
f as
say fa
sonĠ yÄ±llardaĠ
kabulĠedil mektedir
ĠT ut
alt Ä±nÄ±Ġ
Ġt he
makĠ gerekir
d Ã¶v
mek Ã¢nĠ
aĠ indir
araÅŁtÄ±rma da
N F
geliÅŁ imĠ
Ġden ir
ĠB anaĠ
denĠ Ã¶nceĠ
aÅŁ kĠ
ĠAÄŁ Ä±r
C A
gelec ekteĠ
i er
eÄŁitim eĠ
devamĠet miÅŁtir
ĠS ar
ĠAynÄ±Ġ ÅŁekildeĠ
okul lardaĠ
Ġed iyorum
T ah
Ġ anĠ
tip iĠ
isiĠ olanĠ
gerektir ir
Ã¶lÃ§ek liĠ
Ġg Ã¼ndeĠ
Ġver enĠ
gÃ¶r meĠ
ik Ã¢yet
kad ro
faaliyetĠ gÃ¶sterenĠ
lo kĠ
ĠTe or
Ã¼zer ine
art er
LER Ä°
vide o
bur adanĠ
Åŀ eyh
ola maz
alan Ä±ndakiĠ
uy r
t ul
Ġ zor
Ġh oÅŁ
har iÃ§
sÃ¼rec iniĠ
ek str
deÄŁerlendiril diÄŁindeĠ
Ġ Ã¶l
Ġyol uyla
etm eninĠ
karÅŁ Ä±mÄ±zaĠ
ÅŁeh rinĠ
Ġalan Ä±Ġ
Ã§okĠ Ã¶nemlidir
gÃ¶r dÃ¼
B o
Ġneden iyleĠ
ĠM o
maya caÄŁÄ±Ġ
gid ip
de mekĠ
ayak taĠ
t um
yerĠal mÄ±ÅŁtÄ±r
Ġ #
tih at
D urum
ĠK ir
hakk Ä±nÄ±Ġ
lan masÄ±ndaĠ
in ov
R T
D ur
tef sir
olumluĠ yÃ¶ndeĠ
as la
mÃ¼kem mel
eÄŁ iĠveĠ
ist eÄŁiĠ
t y
ĠY ayÄ±nlarÄ±
se lam
Ã¶ldÃ¼r Ã¼l
ĠÃľÃ§Ã¼nc Ã¼
s if
ĠGeÃ§ miÅŁ
ĠH e
f it
Ġb Ã¶yleĠbirĠ
ĠÃ§ Ã¶zelt
ta cakĠ
`` `
yol undaĠ
ekonomikĠ veĠ
kar ac
doÄŁruĠ birĠ
us ur
ok ut
Osman lÄ±
gÃ¶rev iniĠ
gen elĠbirĠ
Ġkend ileriniĠ
s Ä±nÄ±Ġ
ĠB in
d imĠ
tik tenĠsonraĠ
s Ã¢
Ġâ ī
Ġeder im
s h
Ġmad desiĠ
ĠFakat ĠbuĠ
ic iĠveĠ
Ġt uz
on daĠ
Ġma Ã§
uÃ§ uÅŁ
v it
anlamÄ±naĠ gelmektedir
ĠP ekiĠ
bulgu larĠ
ĠDiÄŁerĠ taraftanĠ
C I
O y
ĠkiĠ buĠ
araÅŁtÄ±rma larĠ
ĠBuĠ Ã§alÄ±ÅŁmaĠ
t hat
be yanĠ
ĠdahaĠ Ã¶nceĠ
ĠÃĸz elĠ
ĠÄ° dar
kend isindenĠ
nazar anĠ
taÅŁÄ± ma
p eygamber
oy ununĠ
masÄ±naĠ yolĠaÃ§
ih dam
faaliyet lerininĠ
ĠAl i
as h
mÃ¼kem m
hatÄ±r la
ebb Ã¼s
Ä±n dal
Ġalt Ġboyut
Ġbulun ur
ide olojikĠ
uĠ olanĠ
K im
ed erkenĠ
Ġhat Ä±r
dep olamaĠ
Ġrek lam
grup larÄ±nĠ
ĠP r
h eb
Ã§alÄ±ÅŁma larÄ±naĠ
el d
Ġsin yal
iy aret
his seĠsen
sonr adanĠ
boÅŁ luk
H B
ev er
ĠdoÄŁ al
ro nĠ
Ġg iz
ĠBuĠ bÃ¶lÃ¼mdeĠ
Ġyap Ä±
art mÄ±ÅŁ
C D
ec ekti
Ġed ip
enc e
Ġy our
laya cakĠ
f f
b ayr
trans fer
ĠherĠ birĠ
Ġw eb
lar ĠhakkÄ±ndaĠ
Ġ kadarĠ
hazÄ±r lanmÄ±ÅŁtÄ±r
baÄŁlant Ä±lÄ±Ġ
du c
Ã¶ÄŁ Ã¼t
Ġbelir len
a lamaĠ
dÃ¼z gÃ¼nĠ
Ġbelir liĠ
c or
Ġ uĠ
f Ã®
iĠ iseĠ
Å «
ban t
t iyatro
aÅŁ k
G Ã¶k
tut un
bulun ma
O D
ĠO p
tel evizyonĠ
Ġett iÄŁiniĠ
Ġ Ã§alÄ±ÅŁanlarÄ±nĠ
Ġol sunĠ
dur anĠ
ur o
Ġs enĠ
T r
ihti maliĠ
mahk emeĠ
ad an
birbir iyleĠ
iÅŁ galĠ
Ġ Ø
Ġm otiv
ef san
baÅŁ Ä±nÄ±Ġ
mekĠ amacÄ±yla
lem esineĠ
tal imat
ce maat
Ġ asit
Ã¼rk en
Ġm ark
Bel ir
s osy
bu gÃ¼neĠ
oksi da
Ġ eĠ
Ġ ip
s esiĠ
herĠ gÃ¼nĠ
ben likĠ
ÅŁek er
geÃ§ tiÄŁiĠ
taraf Ä±ndan
aÃ§Ä±k lanmÄ±ÅŁtÄ±r
ĠE vr
ĠBel ediyeĠ
ĠAmerika nĠ
Ġsistem inĠ
Ġd ost
Ġï Ģ
ES Ä°
un larÄ±Ġ
Ġ Ã§ocuÄŁunĠ
ul duÄŁuĠ
maĠ gibiĠ
iÃ§ eĠ
ĠS oÄŁ
temel iniĠ
k oz
el veriÅŁ
Ä±kĠ veĠ
bilg isayarĠ
n if
gÃ¼c Ã¼nÃ¼nĠ
yap tÄ±ÄŁÄ±mÄ±z
em iÅŁ
ĠBundanĠ dolayÄ±Ġ
ĠolanĠ birĠ
ĠyÄ±l daĠ
ĠbiÃ§im deĠ
Ġgerek seĠ
Ġede bilir
ĠBuĠ aÃ§Ä±danĠ
ĠAk siĠ
O M
devamĠet ti
j e
i ĉ
ĠyÃ¼z eĠ
oÄŁ ol
Ġdurum daĠ
lem eĠveĠ
abil mesiĠiÃ§inĠ
mem leket
on yaĠ
rabz on
anlamlÄ±Ġ farkĠ
dÃ¼ÅŁÃ¼k tÃ¼r
nedeniĠ ileĠ
Ġ Ã¶ÄŁrenmeĠ
ar ayaĠ
lama larĠ
Ġb at
Ġp op
ĠolarakĠ belirlenmiÅŁtir
SÄ±n Ä±f
indeĠ veĠ
olay Ä±nĠ
Ã§ab ukĠ
Ã¼lk eyeĠ
ler arasÄ±Ġ
n dekiĠ
ilm eyeĠ
Ã¶rn eÄŁinĠ
Ġ deÄŁiÅŁ
ob jektif
oloj ik
Ġd iniĠ
ĠveĠ A
arac Ä±ĠolarakĠ
lerininĠ veĠ
ik leri
D ev
c elĠ
enĠ Ã¶nem
kabulĠedil ebilir
la mÄ±ÅŁlardÄ±r
el ekt
ĠBuĠ sonuÃ§
den etimĠ
sa atĠ
ĠyaÅŁ Ä±ndaĠ
s Ġof
ĠvÃ¼c ut
duk tanĠsonraĠ
Ġkur uÅŁ
it likĠ
ing ĠtheĠ
baÅŁlang Ä±c
Ġm e
hastal Ä±ÄŁÄ±nĠ
lik leriniĠ
Ġkavram Ä±Ġ
entegr eĠ
Ġ Ã¶nĠ
Bel ediy
ĠKÄ±s aĠ
larÄ±Ġ olanĠ
las Ä±Ġ
R S
arac Ä±lÄ±ÄŁÄ±ĠileĠ
ic e
ÅŁikay et
konu dakiĠ
ĠK Ä±brÄ±s
od yum
tu tanĠ
ec ilikĠ
m Ã¢n
Ġkon uĠ
ĠÃ§evr eĠ
araÅŁtÄ±r Ä±lmÄ±ÅŁtÄ±r
traf ikĠ
ĠcÃ¼m l
Ã¶lÃ§ eÄŁiĠ
ĠM ac
araÅŁtÄ±rma lardaĠ
pas if
sada kat
Ã¶nemĠarz Ġetmektedir
baÅŁkaĠ birĠÅŁey
ist eĠ
kur gu
Ã§ek in
bilg ilereĠ
k lin
E nĠ
sorun larĠ
lerimiz inĠ
ala tasar
Ġv ur
ĠyÃ¶n etimĠ
em liĠ
ĠÅŀ er
K end
etm el
sig ortaĠ
Ã¢ det
kon ununĠ
ulaÅŁ mÄ±ÅŁtÄ±r
Ġg Ã¼z
t Ã¼p
rom b
ÅŁuĠ ÅŁekildedir
ĠbaÅŁ lÄ±ÄŁÄ±Ġ
ĠolduÄŁ umuz
pres yon
us unda
yap makĠiÃ§inĠ
ed d
ĠveĠ diÄŁerĠ
ÅŁirket lerinĠ
alan Ä±nÄ±nĠ
kompl eks
s erĠ
alatasar ay
ĠBÃ¶yl ece
anlamÄ±naĠ gel
ĠdÃ¼ÅŁÃ¼n ceĠ
sÃ¼r esinceĠ
fiz yolojikĠ
dÄ±ÄŁÄ±Ġ birĠ
Ġdok tor
ad Ã¼f
ett inĠ
uz ananĠ
I P
ĠolarakĠ daĠ
problem ĠÃ§Ã¶z
dak ikaĠ
mes ini
Ã§Ä±k tÄ±ÄŁÄ±Ġ
teor ikĠ
Ġtan Ä±
olacakĠ ÅŁekildeĠ
eb r
mÃ¼ÅŁ tÃ¼
e lasyon
yapÄ±l mÄ±ÅŁĠveĠ
on e
ĠH ukuk
l Ã»
ineĠ gÃ¶re
l op
rol Ã¼
erkek lerinĠ
mesaf eĠ
im m
ĠdolayÄ±s Ä±ylaĠ
Ġetm eyeĠ
Ġgerek ir
il diÄŁindeĠ
git ti
kav em
iÃ§er iĠ
Ġbun larÄ±Ġ
ĠC on
yap mak
Ġb ez
im it
ĠsÃ¼r eĠ
biy o
ol makĠiÃ§inĠ
olan lar
T ut
Ã¼Ã§ Ã¼k
Ã¼s lim
Ġk ula
koÅŁul larÄ±Ġ
kes meĠ
Ġk Ã¶k
kur ut
E P
toplum aĠ
Ġyar ar
OB Ä°
K es
iÅŁ gal
Ġ gÃ¶rÃ¼l
Ġ gÃ¶nder
ĠbaÅŁ ka
ĠdoÄŁ ur
ĠHer hangiĠbirĠ
O ÄŁ
Ã§ elikĠ
Ġmiktar daĠ
bildir miÅŁlerdir
man aĠ
hal iĠ
program Ä±Ġ
H K
olas Ä±lÄ±ÄŁ
kav uÅŁtur
i x
Ġhaf if
tam ĠbirĠ
ĠBuĠ amaÃ§
Ġr ez
durum unaĠ
ĠÄ°l giliĠ
ma larÄ±ndaĠ
Ù Ĩ
Ã¶ÄŁretm eniĠ
ĠK emal
uy kuĠ
Ġ enz
ÅŁey lerĠ
miÅŁ ĠolduÄŁuĠ
ĠkÄ±sm Ä±ndaĠ
v ektÃ¶r
eleriĠ deĠ
im et
ev indeĠ
yap acaÄŁ
id or
ĠKar ar
ĠBununĠ yanÄ±ĠsÄ±raĠ
duk larÄ±nÄ±Ġ
T V
la Ã§
gÃ¶r Ã¼yoruz
bel kiĠ
anlaÅŁ maĠ
ĠKar ÅŁ
r ec
ĠS af
kans erĠ
mav iĠ
ĠÅŁ ah
baÄŁlan maĠ
f onksiyonĠ
ĠHas tan
Ġ kayb
Ro maĠ
neĠ veĠ
Ã¶ mr
ĠG Ä°RÄ°Åŀ
ĠB ÃĸLÃľM
Ġsosyal ĠveĠ
Ġp ost
s os
kend ileriĠ
zamanĠ dil
yan Ä±l
ĠbuĠ daĠ
T Ã¼r
hukuk aĠ
Ä±nÄ±z Ä±nĠ
uy ru
i e
baÅŁ Ä±ndanĠ
baÅŁla yarakĠ
ĠTe dav
ĠkÄ±s Ä±t
kom bin
artÄ±ÅŁ Ä±Ġ
ĠYukar Ä±dakiĠ
iliÅŁk ileriniĠ
oluÅŁtur ulmasÄ±Ġ
bÃ¼t Ã§eĠ
Bir liÄŁi
Ã¢ yeĠ
el ininĠ
esineĠ gÃ¶reĠ
n ek
ilenĠ birĠ
Ä±la caÄŁ
ĠÃľst elikĠ
ayr Ä±lmÄ±ÅŁtÄ±r
oluÅŁ tuÄŁuĠ
der sĠ
Hakk Ä±ndaĠ
F ark
art Ä±k
zor unda
mayaĠÃ§alÄ±ÅŁ Ä±lmÄ±ÅŁtÄ±r
abilir ler
ter im
Ġbir kaÃ§
at mosfer
ortadanĠ kalk
lil ikĠveĠ
Ġm L
Ġson ra
ic idir
model inĠ
b id
eleriĠ iÃ§inĠ
im kanĠ
azal dÄ±ÄŁÄ±Ġ
boyut luĠ
sÄ±z ĠbirĠ
yÃ¶n elik
Ã ¨
Ġsab ah
Ġb Ã¶
tab anlÄ±Ġ
Ġ resim
Ä±r Ä±l
Ġben zer
Ġh az
ĠYun an
bir imĠ
Ã® ĠbirĠ
Ġz eng
at maĠ
kullan dÄ±
cÃ¼m leĠ
F aktÃ¶r
eleriĠ arasÄ±ndaĠ
oyun cuĠ
tak lit
oog leĠ
kadÄ±n lar
ĠveĠ dÄ±ÅŁ
hizmet lerinĠ
ĠÃ¶ ÄŁ
siy um
Ġc oÄŁraf
kil it
ĠKur uluĠ
per spektif
deÄŁiÅŁken lerinĠ
man lar
saptan dÄ±
ĠveĠ N
dÃ¼ÅŁÃ¼nc eleriniĠ
Kon trol
D V
paylaÅŁ Ä±m
noktas Ä±Ġ
ĠbuĠ tÃ¼r
taÅŁÄ± dÄ±ÄŁÄ±Ġ
bulun an
ay Ä±p
c az
v ez
sosyal Ġmed
ĠFrans a
lerindeĠ deĠ
du lar
D r
Ã§okĠ sev
ĠM on
ifadeĠ edilenĠ
de denĠ
hazÄ±r lÄ±kĠ
Ã§ Ã¼r
a larÄ±
ĠbÃ¶lg edeĠ
n Ã¼s
lerdenĠ dolayÄ±Ġ
Ã¶zel ĠsektÃ¶r
ihtiyac Ä±nÄ±Ġ
Ã¼ley man
et miÅŁlerdir
sig orta
ot al
ĠÃ¶nc ekiĠ
at Ä±lanĠ
ĠAy dÄ±n
t iĠveĠ
ĠN ur
on larĠ
Ġtekn ikĠ
f Ä±
s Ã¶n
Ġb ask
---- ----
d iniz
tim um
Ġ kaynakĠ
mev sim
Ġbil inÃ§
ik taÅŁ
z ehir
Ġg ar
i ant
Ġk ok
G A
pro sedÃ¼r
birbir iniĠ
ĠLiteratÃ¼r deĠ
ĠveĠ kontrol
sadeceĠ birĠ
a us
ĠH aber
deÄŁerlendir meler
ekĠ olarak
S o
Ġolma larÄ±Ġ
sist ematikĠ
du aĠ
layanĠ birĠ
Ġbit kiĠ
gÃ¶r dÃ¼m
ĠP aÅŁaĠ
ĠO nĠ
okul daĠ
Ã¼n lÃ¼Ġ
g erĠ
kullan Ä±r
ev ineĠ
plan lamaĠ
n u
Y ol
of f
tÃ¼k etimĠ
gen iÅŁlem
Ã¢h ir
Ã¼ leĠ
enc ereĠ
ĠÄ° letiÅŁim
ĠS osyalĠ
S ovyet
kÄ±ya fet
Par is
politika sÄ±Ġ
Ġma te
daÄŁÄ±t Ä±m
ĠE d
ĠÄ° ran
ĠbaÅŁ Ä±naĠ
adet aĠ
zev k
Ġm o
Ġ idi
iÄŁ eriĠ
ĠveĠ E
Ġt on
insan aĠ
kal dÄ±ÄŁÄ±Ġ
iÃ§indeĠ bulunduÄŁuĠ
maliyet iĠ
bun laraĠ
Ġy ard
kas Ä±naĠ
an ks
Ġ ep
y uĠ
s ch
Ä±yor ĠveĠ
Ġpar Ã§a
h iz
S en
ĠkiÅŁ isel
elereĠ gÃ¶reĠ
Ġmet od
mez unĠ
seÃ§ imiĠ
er j
ĠgÃ¶rÃ¼n tÃ¼
yol unuĠ
leÅŁ enĠ
Ù ħ
Ã¼s Ã¼ndeĠ
teĠ birĠ
ist eyenĠ
eh ber
iy y
yok sunĠ
ask erĠ
zaman laĠ
adam Ä±Ġ
eceÄŁ iĠveĠ
LAR I
Ġ Ã¶zelĠ
farkÄ±nd alÄ±kĠ
ĠMu h
doÄŁ aĠ
ĠBil in
gÃ¼n Ã¼Ġ
gÃ¶r ebil
h im
ĠdeÄŁer lerininĠ
ĠK avram
sÄ±k Ä±ntÄ±Ġ
ac kĠ
ĠÄ° t
leÅŁ mesiĠ
m imariĠ
iliÅŁk isininĠ
enĠ sonĠ
ĠÅŀ ehir
mal iyetĠ
lil iÄŁi
rez erv
neden i
iÅŁlem ler
taraf tar
r etĠ
Ġh enÃ¼z
iy al
Amer ikaĠ
vazgeÃ§ ilmez
Ġbel liĠ
at Ä±r
ĠgeliÅŁ miÅŁ
araÅŁtÄ±rma cÄ±lar
alan dakiĠ
m Ä±s
eh r
Ġs uy
Ġkullan arakĠ
uÃ§ larÄ±Ġ
sonuÃ§ larÄ±nĠ
ĠBaz enĠ
Ġ Ã¶yleĠ
dÃ¶n dÃ¼
ner edeĠ
kal maĠ
es ans
Ġkal Ä±p
Ã¶l y
Ä±nÄ±nĠ veĠ
gel diÄŁindeĠ
Ġ |
dahil ĠolmakĠÃ¼zereĠ
Ġkim seĠ
E Y
bir imiĠ
ĠgibiĠ gÃ¶rÃ¼n
laÅŁ manÄ±nĠ
tab aka
Ġl iteratÃ¼r
K Ã¼r
enĠ yakÄ±nĠ
BirleÅŁikĠ Devlet
deney selĠ
kal dÄ±
yÃ¶n lÃ¼Ġ
dayan dÄ±r
ma lÄ±ĠveĠ
uĠ iÃ§inĠ
ĠherĠ ÅŁey
hak lÄ±Ġ
Er meniĠ
yÄ± laĠ
Ġbil iÅŁ
ĠC em
ĠÃĩoÄŁ uĠ
F a
Ġb uyur
ĠÃ§ aÄŁ
Ã¼l tÃ¼
Ġb al
yÃ¼z Ã¼ndeĠ
duy duÄŁuĠ
For ex
Ã§ u
Top lum
faktÃ¶r lerĠ
ĠoluÅŁtur maktadÄ±r
Ġcev ap
Ã¶ner ilenĠ
Ã§evrim iÃ§iĠ
m uk
z Ä±t
karÅŁÄ±laÅŁ Ä±lanĠ
Ġy emekĠ
ĠH az
ĠK ab
Ġtek rarĠ
ĠK ut
mut f
dÃ¼z lem
k ilĠ
ÅŁek erĠ
ah lÃ¢
Ã¶ tÃ¼rÃ¼
al ist
hat t
Ġb eden
ĠÄ°nsan larÄ±nĠ
Ġv ide
deÄŁiÅŁim eĠ
Ġbah Ã§
mekĠ gerekir
K Ä°
formas yonĠ
ĠN ew
ĠkÄ±s Ä±m
Bul gar
mal ĠveĠ
ed dinĠ
Ġf ay
ĠK it
Ġkor k
n ow
kiÅŁ ehir
tr end
Ġd Ã¼ÄŁ
veril diÄŁiĠ
g ov
D es
end eks
ĠHasta larÄ±nĠ
ĠD emok
geÃ§ mektedir
ĠbaÄŁ lÄ±lÄ±kĠ
ĠÅŁ Ã¶yleĠ
uzunĠsÃ¼r eliĠ
b aka
don anÄ±m
g on
Ġk Ã¢
ĠsÄ±n av
o gen
halineĠ gelmiÅŁtir
karÅŁÄ± lan
ann e
Ġ gÃ¶zlem
oksi das
Ġ demir
Ġ kadÄ±nlarÄ±nĠ
ok ras
r eÃ§
l ilerinĠ
L U
Ġkullan Ä±lÄ±r
iÃ§er isinde
ebilir ĠveĠ
ĠS el
iler lemeĠ
ĠÎ ¼
ĠN asÄ±l
mayaĠ veĠ
ĠÃĸ y
yar Ä±
gerÃ§ekleÅŁ ir
Ġm Ã¼lk
Ġp H
olma larÄ±Ġ
yÃ¶ntem ler
P a
as Ä±z
yaz Ä±lanĠ
l Ä±yorum
maktay Ä±z
Ä°n san
s arÄ±Ġ
iĠ B
R NA
gerektir enĠ
inc iĠveĠ
belirlen di
kiÅŁ il
Ġmil yon
de yeĠ
iÅŁk inĠ
hiÃ§birĠ zamanĠ
pro tokol
sor b
ĠBuĠbaÄŁlam da
m um
on av
say Ä±larÄ±Ġ
im ineĠ
ĠS ek
ol manÄ±nĠ
G Ã¶z
y org
poz isyonĠ
uygulan Ä±r
Ġ yaklaÅŁÄ±kĠ
s ent
Ã¶zellik lerinĠ
uzunĠ birĠ
Ġyeter liĠ
mu hasebeĠ
ma larÄ±ĠveĠ
eceÄŁ ini
Ġser vis
Ġy Ä±
arkas Ä±ndaĠ
ka maĠ
getir ilenĠ
Ġk op
oluÅŁtur ulmuÅŁ
isted ikleriĠ
Ġtic ariĠ
ĠSay Ä±lÄ±Ġ
ĠV Ã¼c
Ġt oz
Ġ Ã¶ÄŁretmenlerinĠ
denĠ fazlaĠ
isten miÅŁtir
ir eĠ
Sur iye
v akt
ay oluĠ
mÃ¼l tec
on ur
tan dard
E x
n on
ĠÃ§ atÄ±ÅŁ
Has anĠ
zar f
Ġ aktif
ifadeĠedil ebilir
ler ĠbuĠ
Ä±t maĠ
gen Ã§Ġ
gerÃ§ekleÅŁ tiÄŁiĠ
Ġpay laÅŁ
M em
Ã¼ lat
buĠ kadar
c ilerinĠ
Ã§ocuk lukĠ
As ya
Ã§ocuk lardaĠ
K ol
tah sis
ĠE kĠ
BM M
Ã§er Ã§eveĠ
Ġdiy enĠ
bulun muÅŁ
nĠ veĠ
k Ã®
aman Ä±nĠ
tÄ±k tanĠsonraĠ
masÄ±ndanĠ sonraĠ
Ã¶rnek lerĠ
lem iÅŁtir
Ġkend ineĠ
olduÄŁuĠ birĠ
med res
ĠbaÅŁ langÄ±Ã§
satÄ±nĠ al
gÃ¶rev liĠ
ĠTan rÄ±
ĠÃ§ ok
anlamlÄ±Ġ farklÄ±lÄ±kĠ
eÄŁ iz
bo ya
iÃ§er ik
olay lar
Ã¶n gÃ¶rÃ¼l
lem eyeĠ
Ġsay Ä±sÄ±nÄ±nĠ
Ä±yor sunuz
gÃ¶rev leriĠ
mas Ä±nÄ±n
Ġm ekt
gu lar
minim um
k Ä±zÄ±Ġ
iÅŁ ver
etk inĠbirĠ
lik lerĠ
bel kiĠdeĠ
an Ä±lanĠ
iyet ininĠ
fonksiyon uĠ
ik aĠveĠ
ĠD ers
k ereĠ
hÄ±z Ä±Ġ
enf lasyon
yap Ä±t
bÃ¶lg edekiĠ
sta gram
ĠsaÄŁ lÄ±klÄ±Ġ
Ġs ey
es ini
indeĠ iseĠ
Ġ ilaÃ§
kar bonĠ
Ġkurul uĠ
leÅŁmiÅŁ ĠMillet
kar an
varsay Ä±m
ĠbÃ¼y Ã¼m
h iyerarÅŁ
Ä±lmÄ±ÅŁ tÄ±
L e
Ġh Ã¢l
ĠgÃ¼ven ilir
Ġ ir
Ã§ek enĠ
Y ayÄ±n
mekĠ amacÄ±ylaĠ
kom pozit
Ã¶l geĠ
asyonĠ veĠ
b om
Ġ inanÃ§
Ġhad is
sÄ±k lÄ±klaĠ
kal b
ela ket
kan at
gÃ¶rÃ¼ldÃ¼ÄŁÃ¼ ĠgibiĠ
Cumhur baÅŁkan
olursaĠ olsunĠ
re aksiyonĠ
toplan t
larÄ±mÄ±z aĠ
ĠT al
Ã§ocuk laraĠ
iĠ T
ĠL e
ĠsaÄŁ la
duÄŁ u
isiĠ iÃ§inĠ
Ġtelef on
yineĠ deĠ
Ġf ikir
ol sa
Kar ar
bilin ir
ĠÃ¼lk eninĠ
f abrika
ĠD ir
n or
aÄŁÄ±r lÄ±ÄŁÄ±Ġ
Ġ kapsam
meyeĠ yÃ¶nelikĠ
bin aĠ
l on
ĠDÃ¼ÅŁ Ã¼kĠ
Ġp aket
b ayram
ma maĠ
dÃ¼ÅŁÃ¼nÃ¼l enĠ
tespit ĠedilenĠ
mayaĠbaÅŁ lanmÄ±ÅŁtÄ±r
aÄŁÄ±r lÄ±k
iyor ĠveĠ
r eg
tazmin at
ta vr
ÅŁ Ä±k
Ġïĥ ¼
Ġï Ĥ
ĠOrta lamaĠ
of t
K B
karÅŁ Ä±lÄ±ÄŁÄ±Ġ
Ġon laraĠ
ĠinĠ theĠ
ĠAl manĠ
oz om
ĠdoÄŁ alĠ
gÃ¶r mekteyiz
bah Ã§eĠ
bek let
ĠYak laÅŁ
ent s
sorun lar
baÅŁla dÄ±ÄŁÄ±Ġ
Ġk um
al y
tab loĠ
tes lim
lim it
ÃĩalÄ±ÅŁ maĠ
leriĠ iseĠ
karar laÅŁtÄ±r
ometr eĠ
ĠbÃ¶l geĠ
kurum larÄ±nĠ
geÃ§er lidir
masÄ±ylaĠ birlikteĠ
d ininĠ
i mam
yÃ¼rÃ¼y Ã¼ÅŁ
r esiĠ
ed iÄŁimiz
isk el
Ãĩoc uk
O k
ĠÃĩ izelgeĠ
s alÄ±n
eliĠ olarakĠ
y Ä±ÄŁ
anlamÄ±naĠ gelir
Ã§Ä±k mÄ±ÅŁ
ah lak
ĠmÃ¼cad eleĠ
bu dur
ĠHem enĠ
prens ip
ĠD o
kavram Ä±
abil mekĠiÃ§inĠ
T IR
ĠneĠ deĠ
l ir
C B
Ã§ Ä±nÄ±nĠ
mÃ¼ d
Ġ if
gÃ¶ster il
ĠdeÄŁer ininĠ
rol Ã¼Ġ
n ed
demokras iĠ
bir likĠ
incel eyenĠ
P azar
ilk okul
Ä±lÄ±r ĠveĠ
yaÄŁ Ä±Ġ
ol guĠ
ĠÄ°ÅŁ lem
kavram larÄ±Ġ
Ã§ ilerĠ
ĠKullan Ä±lanĠ
kÃ¶ t
R P
v at
Ã¼y esiĠ
Ù Ĵ
ĠÃĩ ift
har ic
el betteĠ
tab iiĠ
ta ahh
ay Ä±
deĠ gÃ¶sterilmiÅŁtir
Kan unuĠ
gÄ± da
tanĠ veĠ
dÃ¼zenlem elerĠ
sÃ¶ylem ektedir
isim liĠ
Ä±r Ä±Ġ
ĠP ost
lereĠ ait
S por
yol daĠ
s kop
ĠC in
ĠOnaĠ gÃ¶reĠ
am in
par a
Ã§okĠ bÃ¼yÃ¼kĠ
E G
Ġ uygunĠ
b lok
Ã¼t Ã¼phan
T M
imkÃ¢n sÄ±z
Ġf Ä±k
Ä±naĠ bak
ĠD ah
kullanÄ±m Ä±
Ġser v
z ul
geliÅŁ mekteĠolanĠ
har ita
lez zet
kut sal
ak er
ĠÃľ n
ĠY urt
Ä± larÄ±naĠ
sorp siyonĠ
sosyal ĠveĠ
Ã¼ÄŁ Ã¼Ġ
karÅŁÄ±laÅŁtÄ±r maĠ
sebep leĠ
ser um
aÅŁaÄŁÄ±dakiĠ gibiĠ
Ġin dir
z imat
Y A
lerininĠ deĠ
teÅŁ em
ih an
uygulama larÄ±nÄ±nĠ
ul l
t Ã¼zel
kay gÄ±
el y
Ä° span
Ä°Ã§ inĠ
bir indeĠ
unĠ birĠ
ĠY abancÄ±Ġ
s asÄ±ndaĠ
arasÄ±ndakiĠ iliÅŁkiĠ
d elik
Ċ ĠĠĠĠ
ĠDÃ¼z en
Ġifa desiĠ
Ġver g
amp iyon
Ġm olekÃ¼l
Ġ' '
eser indeĠ
av ukat
l Ä±nda
ĠBuĠ doÄŁrultudaĠ
yaz Ä±kĠ
z e
iz oleĠ
ĠiÅŁ letmeĠ
Ġb iziĠ
D Ã¶n
H anÄ±m
Ì ĩ
gÃ¶nÃ¼l lÃ¼Ġ
sistem leriĠ
Ġalan Ä±ndaĠ
Ġo dak
enf eksiyonĠ
ĠAl man
ĠC an
bul ut
aliz eĠ
bil mektedir
uyg ar
hareket iĠ
casin o
gÃ¶ster mesiĠ
Ġw eĠ
ler le
deĠ yerĠalanĠ
vaz if
om ur
g Ä±z
Ġd Ã¶k
C an
dolay lÄ±Ġ
ÅŁ unuĠ
lerineĠ karÅŁÄ±Ġ
Ġben imĠ
Ã§ocuk larÄ±Ġ
sun ar
geÃ§ ti
ĠÃĩ evr
len di
Ä±m lÄ±Ġ
ron bach
dÃ¼r Ã¼st
gÃ¶ster ilebilir
Ġs alg
kullan mÄ±ÅŁtÄ±r
Ġyap Ä±sÄ±Ġ
sÄ± Ã§
Ã¼y elikĠ
biliÅŁ selĠ
ĠD uyg
kat Ä±lan
el denĠ
dak ika
etkiliĠ olduÄŁuĠ
s c
oloj ininĠ
Ġyap tÄ±klarÄ±Ġ
Ġ oyunĠ
Ġ iy
dar beĠ
beklen mektedir
taz eĠ
IÅŀ MA
Ġ Ä±s
alan lar
Ġ gÃ¶Ã§
zor lan
Ġd etay
yata ÄŁ
Ã§Ä±kar Ä±lanĠ
Ġd oluĠ
kon uylaĠilgiliĠ
eceÄŁ indenĠ
diÄŁiĠ veĠ
nak it
bir takÄ±mĠ
baÄŁlan tÄ±
bul muÅŁtur
ĠM en
ileĠilgiliĠ olarakĠ
ĠSay Ä±
L is
ĠdolayÄ±s Ä±yla
gÃ¶ mÃ¼l
katk Ä±sÄ±Ġ
ih al
oĠ zamanĠ
ist iyorum
Ġhes ab
dayan Ä±r
destek ley
p ark
ilg isiniĠ
gÃ¼c Ã¼neĠ
or manĠ
deyiÅŁ le
mor f
Ä° B
ĉ ĉ
iÅŁlev sel
yÃ¶n denĠ
sorum luluÄŁuĠ
Gen Ã§
formas yon
Ġyer eĠ
esas Ġ
inĠ theĠ
eder ek
eler inde
Ã¼y elerininĠ
deÄŁiÅŁ mektedir
Ä±labil ecekĠ
liÄŁ iyleĠ
amaz anĠ
eÅŁit likĠ
Ġbenz erĠ
p lastikĠ
As yaĠ
Ġd anÄ±ÅŁ
tam ir
Ã§Ã¶zÃ¼n Ã¼r
Ã¼min yum
b uÄŁday
Ġb Ã¼r
ĠveĠ Ã¼zeriĠ
uc ununĠ
bÃ¼y Ã¼t
birdenĠ fazlaĠ
l d
ĠMad deĠ
ek ley
doÄŁr usal
bÃ¼y Ã¼y
lereĠ yÃ¶nelikĠ
s Ã¶r
dÃ¼z eniĠ
daÄŁ Ä±Ġ
mel iĠveĠ
O T
ev v
mad Ä±Ġ
Ã¼k Ã»
lÃ¼l Ã¼kĠ
Ġr ej
Ã¼retim indeĠ
ĠgÃ¼n Ã¼mÃ¼z
ĠAb dullah
enĠaz Ä±ndanĠ
mem ekĠ
ĠBel kiĠ
Ġbir inciĠ
etkileÅŁ imĠ
ĠM in
yanĠ birĠ
ol duĠ
Ã¢l im
Ġetm ek
Ġbilg ileriĠ
tedav isindeĠ
ĠGerÃ§ ekĠ
gerÃ§ekleÅŁtir il
Ġka v
nokta yaĠ
Ã¢ nÄ±nĠ
Efend i
lik lerininĠ
Ġy iy
ulaÅŁ Ä±m
ĠkÄ±r Ä±k
g ev
problem iĠ
inĠ ilkĠ
Ġol masÄ±nÄ±nĠ
tep eĠ
S ab
i an
Ã¼n e
Ġ/ /
ÅŁ Ã¶yledir
eÄŁ idir
eleĠ alÄ±nanĠ
Ġ Ã¼niversit
ren g
veĠ birĠ
acakĠ olanĠ
lan dÄ±ÄŁÄ±ndaĠ
ĠC O
or y
bil enĠ
ĠÃĸÄŁretm en
iant ep
Ã§ap Ä±ndaĠ
ia deĠ
Ġk oÅŁ
D oÄŁr
sar f
I s
dÃ¼zey ininĠ
Ã§okĠ Ã¶nemliĠbirĠ
ilir kenĠ
larÄ±nĠ birĠ
ĠA L
Ã¶lÃ§Ã¼l mÃ¼ÅŁtÃ¼r
Ġkor u
Ġtar Ä±m
Ġbozuk luk
iler ideĠ
kr ay
Ġc anlÄ±Ġ
iÅŁk in
am et
birey lerdeĠ
larĠ altÄ±ndaĠ
Ã§Ä±k maktadÄ±r
Ä±naĠ inan
kullanÄ±lanĠ birĠ
ĠÃĸ ner
Ġ endÃ¼str
uyg unlukĠ
as Ä±r
U r
belirter ek
ĠAmer ikaĠ
S em
ir m
Ġel ektro
la kat
yaÅŁam Ä±nÄ±Ġ
yÃ¼ksekĠ birĠ
n ing
Ã¼z Ã¼m
Ġkend ilerineĠ
S ig
ĠÃĸÄŁretm enlerinĠ
R apor
Ġs el
an est
olan aÄŁÄ±Ġ
lanÄ±r kenĠ
im p
Bel ediyeĠ
ilm iĠ
ĠveĠ diÄŁer
ĠyÄ±l dÄ±z
am Ä±Ġ
Ä°l kĠ
gr eg
Ġhem ÅŁir
taÅŁ Ä±Ġ
ĠM ark
ed iyoruz
eÄŁ iyleĠ
kÃ¶ p
Ġcivar Ä±ndaĠ
ĠBuĠ Ã§alÄ±ÅŁmada
Ã§alÄ±ÅŁ tÄ±ÄŁÄ±Ġ
iÃ§ ĠiÃ§
ĠE x
Ġan ti
ÅŁekil len
uc usuĠ
oper atÃ¶r
ĠÃ¶ÄŁrenc ilerininĠ
il ler
ninĠ buĠ
ĠY ayÄ±n
u dunĠ
Er doÄŁan
Ã¶zellik lerindenĠ
sÃ¼r esininĠ
luÄŁ aĠ
Bakan lÄ±ÄŁÄ±Ġ
ant ik
h ist
ĠPro blem
Ġder eceĠ
masÄ±nÄ±Ġ saÄŁlar
say Ä±sÄ±nÄ±Ġ
kar eĠ
Ä° t
ak ut
S eÃ§
Ã§eÅŁ id
Mah all
ak aĠ
Der n
sun anĠ
ĠÄ°ÅŁteĠ buĠ
ĠBakan lÄ±ÄŁÄ±Ġ
pek iÅŁtir
ĠhÃ¼kÃ¼m et
mÃ¼ÅŁ ĠveĠ
ov as
larÄ±Ġ olarakĠ
sanat Ã§Ä±
olas Ä±lÄ±ÄŁÄ±Ġ
ĠBuĠ aradaĠ
Ã¶lÃ§ eÄŁinĠ
meyeĠ baÅŁ
daÄŁÄ±l Ä±mĠ
toplam daĠ
tuÄŁ unuĠ
olumluĠ birĠ
uyar Ä±ncaĠ
A A
nitelik tedir
iÅŁl eviĠ
Ġ takÄ±m
bahs edil
ĠT at
doktor aĠ
Ġ denĠ
kent sel
Ġal l
T T
larÄ±ndaĠ veĠ
ĠYÃ¶n etic
dÃ¼ÅŁÃ¼n dÃ¼r
ĠDÃ¼n ya
araÃ§ larÄ±nÄ±nĠ
uk lu
Ġmus unuz
neden lerleĠ
oldukÃ§aĠ Ã¶nemlidir
ĠenĠ yÃ¼ksekĠ
olumsuz ĠyÃ¶ndeĠ
lanmasÄ±Ġ iÃ§inĠ
r Ã¼zgÃ¢r
Ã§ek il
ec h
L ev
Yar dÄ±m
ar Ä±z
ĠUygu lamaĠ
Ġk eÅŁ
ifa desiĠ
den emeĠ
Ġf er
ede bilirsiniz
Ġnok tasÄ±Ġ
l Ä±sÄ±Ġ
aÄŁ Ä±nÄ±nĠ
stit Ã¼sÃ¼
t Ä±p
Ġtec rÃ¼b
Ãĩoc ukĠ
tems ilĠedenĠ
Ġf en
giriÅŁ Ġyap
t iler
Ġsit esiĠ
miÅŁ ĠolanĠ
per i
Meh med
ĠÃĩeÅŁit liĠ
as et
Ã§ eyr
dahil Ġedil
ar o
imiĠ ileĠ
mayÄ±Ġ amaÃ§
ĠN er
faaliyet lerinĠ
yÃ¶netic iĠ
Ä±s Ä±dÄ±r
f lor
yol ĠgÃ¶ster
U M
Ä± d
yar d
Ġ etkinlik
uygulama lar
aliz Ã¶r
ĠD NA
ĠveĠ Y
cÄ± laraĠ
us undakiĠ
Ġmev sim
Ġ deÄŁerĠ
Ġbel kiĠ
gÃ¼n dÃ¼z
ĠkiÅŁ iyeĠ
ot op
yanÄ±t Ġver
Ġ idar
ok um
ĠtarafÄ±ndanĠ yapÄ±lanĠ
meÅŁ ru
opt imiz
olmasÄ±Ġ nedeniyleĠ
tar ay
kur duÄŁuĠ
meyeĠbaÅŁla mÄ±ÅŁtÄ±r
tas Ä±
ĠFor ex
alan larÄ±nÄ±nĠ
ÅŁ effaf
Ġmaddes indeĠ
t ipĠ
hizmet lerininĠ
ĠM ikro
ĠY atÄ±rÄ±m
ans Ä±Ġ
Ġfaz la
arkadaÅŁ larÄ±nÄ±nĠ
var oluÅŁ
aÃ§Ä±s Ä±ndan
eÄŁitim ininĠ
Ã¢l Ã®
Ġb ol
c ad
tr a
maktaĠ olup
ek ib
ĠYan i
ĠkÃ¼r esel
â Ī
ĠÃ¶nc elikleĠ
sun um
ĠGerÃ§ ektenĠ
SavaÅŁ Ä±Ġ
ĠbaÅŁar Ä±lÄ±Ġ
siz ĠveĠ
is Ġ
il Ã§eĠ
S ar
aĠ baÄŁlÄ±Ġ
F e
toplum uĠ
Ã¼n ceĠ
ĠsÃ¼rec ininĠ
ĠD E
arz uĠ
S iya
an dar
iÅŁletm elerĠ
yap Ä±sÄ±
siyon uĠ
is ini
yÃ¼ksekĠ olanĠ
maya caÄŁÄ±nÄ±Ġ
oy unaĠ
ĠÅŁ er
iniz deĠ
ĠÃ§ iÃ§
ent elekt
ens Ã¶r
Ġder g
Ä±labil mektedir
ig nĠ
daĠ yerĠalanĠ
Ä±ÄŁ Ä±
E vr
belirlen ir
karÄ±ÅŁ Ä±m
dikkatĠÃ§ek mektedir
c Ä±lÄ±ÄŁÄ±Ġ
e us
ĠKon uÅŁ
ĠStr atej
f eder
geliÅŁim iniĠ
Ã¶ner ilmektedir
I X
on a
yavaÅŁ ĠyavaÅŁ
at er
P r
tÃ¼k enmiÅŁ
ĠA zerbay
b oyunĠ
I D
makĠ mÃ¼mkÃ¼ndÃ¼r
Ä±b biĠ
haleĠ gel
ay laĠ
yaÅŁ at
eg ment
S M
Tan rÄ±Ġ
Ã¼l mektedir
Ã§iz giĠ
ĠDeÄŁ iÅŁ
Ã¶n gÃ¶rÃ¼lenĠ
ÅŁun larÄ±Ġ
Ã§ocuÄŁ aĠ
iÅŁlem Ġyap
im e
mÃ¼ sa
op ol
uygulama larÄ±nĠ
lÃ¼k teĠ
ĠolduÄŁuĠ veĠ
zaman Ä±nĠ
ĠdÃ¼zey leriĠ
ĠK lasikĠ
baÅŁ Ä±
Ġbiz im
tanĠ birĠ
Ġhip er
ik alÄ±Ġ
c us
Yap Ä±lanĠ
Ã§ Ä±l
ÅŁir ketĠ
doÄŁ uÅŁ
NT EM
Ã¶zg Ã¼l
anti oksidanĠ
S onĠ
sef erĠ
l Ä±nÄ±nĠ
zor lukĠ
risk iniĠ
Ù Ĳ
gÃ¶r Ã¼yor
t Ä±n
ot uz
g un
va dedeĠ
mekteĠ olup
uygulama daĠ
ĠD ergisi
mem elidir
Ġ deÄŁiÅŁtir
ĠS tandart
lardaĠ iseĠ
Ã¶lÃ§Ã¼l enĠ
aÃ§Ä±kla dÄ±
imiz denĠ
st ro
dÃ¼ÄŁ Ã¼nÃ¼Ġ
an Ä±z
Ġ(% )
Ã§ Ä±lÄ±kĠ
Ä±l Ä±dÄ±r
is inin
yÃ¶ntem dir
Ġ adam
tÃ¼ketic ilerinĠ
olmuÅŁ tu
insÃ¼l inĠ
ik isiĠ
gÃ¶rÃ¼n Ã¼ÅŁ
yÃ¶ntem iĠileĠ
l Ã¼m
fir manÄ±nĠ
Ġsor uĠ
top lanmÄ±ÅŁtÄ±r
Ġtaraf Ä±ndan
OsmanlÄ±Ġ Devleti
Ã¶rgÃ¼t len
say Ä±lanĠ
ĠG ru
ĠÄ°b rahim
deĠ bulun
mÃ¼mk Ã¼n
ĠB es
a larÄ±naĠ
kÄ±saĠ birĠ
engel ley
ĠB oÅŁ
etkin liÄŁiniĠ
ta bilir
kararĠver meĠ
Ġseviy esiĠ
ĠAk Ä±l
ya d
har ikaĠ
Ġr iskĠ
aÃ§Ä±kla maktadÄ±r
g esiĠ
engel len
ve ĉ
ind ow
] ,
davranÄ±ÅŁ lar
belirt tiÄŁiĠ
imen kul
ÅŁ Ä±r
veyaĠ birĠ
mas al
S K
iliÅŁk ilerininĠ
edenĠ veĠ
temel liĠ
ĠBe yaz
ester ol
zaman la
i os
ĠÃĩalÄ±ÅŁ mayaĠ
ayr Ä±lmaktadÄ±r
Ã¶ dev
uÅŁtur ucuĠ
de g
yaÅŁ Ä±Ġ
anla yabil
i manĠ
Ġkes it
ĠaÄŁ aÃ§
m ol
ĠveĠ p
anlaÅŁ Ä±lacaÄŁÄ±Ġ
mak ineĠ
tanÄ±m lanmÄ±ÅŁtÄ±r
L at
ĠP iya
kor ku
ay ol
tab a
benzerĠ ÅŁekildeĠ
olmak sÄ±zÄ±nĠ
Ã¼z Ã¼l
ĠÃľr etim
Ù Ĭ
mak ul
etkil idir
Biz ans
Ä±ndaĠ veĠ
Ġfi il
art esiĠ
sÃ¼rec ineĠ
tah sil
nav ut
ĠG r
iÅŁ Ġyap
ĠH ad
ĠBur adakiĠ
kon santr
ĠÅŁ im
Ġrad ikal
sahip ĠolmasÄ±Ġ
Ġh uzur
ay la
aĠ doÄŁruĠ
has saĠ
sivil Ġtoplum
ĠN ih
Ã§iÃ§ ekĠ
f Ä±Ġ
Ġyukar Ä±daĠ
ĠKÃ¼r esel
oyn an
devlet iĠ
ĠsaÄŁ lÄ±k
kam usalĠ
Ġbir im
o gram
yap tÄ±ÄŁÄ±nÄ±Ġ
gÃ¶sterg esidir
lÄ±lÄ±ÄŁ Ä±
neden leriĠ
man z
eĠ baÄŁlÄ±Ġ
meÅŁ hur
Ġm Ã¼t
w ay
ĠBir ĠdiÄŁerĠ
malÄ±y Ä±z
dÃ¶nem de
mor tal
durum ununĠ
etmekĠ veĠ
ÅŁeh it
n Ã®
Ġx Ġ
dÃ¼z enĠ
Ã¶z erk
luluÄŁ unĠ
ĠDok tor
Ġ etk
D ir
Ã¶nĠplan aĠÃ§Ä±k
leÅŁ mesi
Ä±yor lardÄ±
larÄ±Ġ buĠ
mut lulukĠ
sel erĠ
j ener
Ġgerek iyor
incelem iÅŁtir
mesineĠ raÄŁmenĠ
yaÅŁad Ä±k
tamam la
ĠbileÅŁ en
garant iĠ
dikkat iĠ
Ã§alÄ±ÅŁan larÄ±nÄ±nĠ
gerekt iÄŁineĠ
yal Ä±Ġ
A Åŀ
ĠkÃ¶ kĠ
ĠH edef
Ġsaat Ġ
dikkat liĠ
larÄ±naĠ ait
karar larĠ
L isans
tam Ġanlam
deÄŁiÅŁim inĠ
oluÅŁ muÅŁtur
olan Ä±Ġ
ĠiÅŁ aret
ÃĸÄŁr etm
yoÄŁ unluk
malzem elerinĠ
il d
Ġat eÅŁ
M art
baktÄ±ÄŁÄ±mÄ±z daĠ
kurul masÄ±Ġ
beb ekĠ
e birĠ
S in
uygulan dÄ±ÄŁÄ±Ġ
yar Ä±m
az ot
Ġ evr
maĠ iÅŁlem
dÄ±ÄŁ Ä±mĠ
kal kÄ±nmaĠ
GÃ¶r Ã¼ÅŁ
Ġh Ä±zÄ±Ġ
Ġbiz imĠ
S i
l ekiĠ
kap it
l Ä±yoruz
ĠAÃ§ Ä±kĠ
bÃ¶lÃ¼m Ã¼Ġ
Ã§oÄŁ ununĠ
S el
Ġfiz iksel
k ef
Ġpoz isyon
iÄŁ idir
d iyor
I rak
h usu
as iteĠ
h l
hizmetĠ ver
larÄ±ndanĠ dolayÄ±Ġ
ayr Ä±c
VI D
Ä°k inciĠ
l isi
mevzu at
ey alet
faktÃ¶r leriĠ
H em
ĠÄ° span
ĠÄ°n ÅŁ
ilerĠ ileĠ
diÄŁiĠ birĠ
Ġolum luĠ
mes ine
Ãĸ nem
enĠaz aĠindir
kÄ± vr
Ä±cÄ± larÄ±nĠ
b iÃ§
gÃ¶zeĠ Ã§arp
il etken
' '
f ib
Ġden et
Ġs eninĠ
Ġbel ediy
tan Ä±mÄ±Ġ
birdenĠ fazla
aÅŁ kÄ±n
res eptÃ¶r
m ininĠ
ĠÃ§alÄ±ÅŁ masÄ±Ġ
T Ãľ
Â ²
ĠErk ekĠ
tehlik eliĠ
Ø ±
Ã§el iÅŁk
yap Ä±ÅŁ
Ã¶ÄŁretim Ġprogram
ĠAr kadaÅŁ
Ġ yayÄ±n
Ġyar gÄ±
makĠ suretiyleĠ
b alÄ±ÄŁ
Ù Ī
ya tak
Ġ aÅŁÄ±rÄ±Ġ
amac Ä±naĠ
ef t
op siyonĠ
ĠY eter
eÄŁitim Ġprogram
ĠS elÃ§
ĠÃĸ nĠ
beb ek
fark Ä±ndal
olmadÄ±ÄŁ Ä±
durum dur
c al
baÄŁ lÄ±lÄ±kĠ
iÅŁ yer
iÅŁ lerĠ
ĠmilyonĠ dolar
Ab dullah
el ler
ar at
Ã§alÄ±ÅŁmamÄ±z daĠ
Ã¼st ĠdÃ¼zey
dek i
ter al
Ġbun lar
Ã® f
Ġtan esiĠ
nÃ¼fus unĠ
Ġfa iz
ik limĠ
n af
f eriĠ
ĠV al
Ġl if
tan r
potansiy elĠ
kur s
Ġ Ã¶ÄŁretmenĠ
ĠT ip
y Ä±p
it eninĠ
tes cil
sonĠ test
ĠY et
l iyoruz
kaÄŁ Ä±t
d y
olduÄŁuĠ saptanmÄ±ÅŁtÄ±r
ar it
F eder
tanÄ±m lananĠ
ak tanĠ
boy uĠ
her hangiĠ
p et
Ġb Ã¼ny
lereĠ iliÅŁkinĠ
or duĠ
yapÄ±l masÄ±
aÃ§Ä±sÄ±ndanĠ daĠ
m Ã¼c
tanÄ±m lan
kiÅŁ iyiĠ
ĠgÃ¼c Ã¼
gerÃ§ eÄŁiĠ
Ã§el iÅŁ
ebilir im
d eks
y la
Ġteh lik
ĠT a
saĠ veĠ
sistem eĠ
destek leyenĠ
ilgil i
liÄŁiĠ ileĠ
Ġs iziĠ
kÄ±r Ä±l
lar Ä±mÄ±Ġ
bun larĠ
k ub
par lakĠ
ÅŁah it
Ġ ortakĠ
al b
ces aret
Ġg Ã¼r
Ġseviy esindeĠ
Ã¶ tek
tÃ¼r ev
maz lar
Ġh ekim
Ä±lmasÄ±Ġ ileĠ
daĠ olsaĠ
ĠVer ilerinĠ
ĠÃĩ Ä±k
olupĠol madÄ±ÄŁ
destek lemektedir
as gariĠ
Ġson rakiĠ
G ru
ac Ä±nÄ±nĠ
onav irÃ¼s
gÃ¶ster di
ira des
ĠT anÄ±m
diÄŁ inceĠ
ĠSonĠ yÄ±llardaĠ
Ã¶f k
fark Ä±naĠvar
prop agan
ĠAÅŁaÄŁ Ä±dakiĠ
t esiĠ
ĠbÃ¼y Ã¼meĠ
ĠD u
ur lar
kavram Ä±nÄ±Ġ
C ar
lid erĠ
ro mat
olmakĠ Ã¼zere
Ġkar arÄ±Ġ
iÅŁlem lerinĠ
S af
ĠenĠ az
ek olojikĠ
sÄ±z lÄ±k
deÄŁer leriniĠ
saÄŁ lanmaktadÄ±r
ĠAr t
n de
saÄŁla mak
var yan
iÅŁ ineĠ
em m
eyeĠ kadar
eĠ olarakĠ
as eb
Ġm iras
Ġsay fa
Ġbel liĠbirĠ
Ġhakk Ä±ndakiĠ
c Ä±nĠ
ya saÄŁ
yapÄ± larÄ±Ġ
ur ĠveĠ
yÄ±l larĠ
ĠÄ° mam
kayÄ±t lÄ±Ġ
dÄ±ÄŁÄ±nÄ±Ġ veĠ
san al
ĠT rans
ilmiÅŁ ti
dikkat iniĠ
imz ala
Ã¼l oz
Has tan
R ec
ĠEÄŁ itimĠ
id en
ĠÃĸ N
dÃ¼ÅŁÃ¼n meĠ
Ã§ocuk larÄ±nÄ±nĠ
Ġl ist
danĠ birĠ
ol mayÄ±Ġ
Ã ¤
ĠBur ada
Ã§Ä±k Ä±p
baÅŁla mÄ±ÅŁ
taleb iĠ
gÃ¶z lenmektedir
bel l
ÅŁ ap
ad Ä±k
Ä±nĠ ilkĠ
B oz
am es
Ä±lÄ±k lÄ±Ġ
br anĠ
ler ĠBir
- ,
iliÅŁkiĠ kur
ÅŁ ikÃ¢yet
bel geĠ
Ġbir az
Ġetm ey
Ã¶lÃ§ meĠ
dÃ¼z el
oĠ daĠ
belir g
S Y
in di
es ses
B ek
yÃ¶netic ilerinĠ
Ġv al
nih aiĠ
ĠD ef
il mesiyleĠ
Ãľ Ã§
ĠK em
yÃ¶n elim
ilg isiĠ
ĠhalineĠ getir
ic k
kur tu
dayal Ä±ĠolarakĠ
dikkateĠ alÄ±narakĠ
Ġn amaz
ĠEr doÄŁan
enĠ yaygÄ±nĠ
Ġtarih leriĠarasÄ±ndaĠ
ika metĠ
sah ib
em pat
Ġpolit ikaĠ
ĠTÃ¼k etic
E F
baÄŁlam daĠ
zor laÅŁtÄ±r
C a
ot h
Ä±l masÄ±dÄ±r
orta sÄ±ndaĠ
Ã§ek iciĠ
mÃ¼lk iyet
sat Ä±r
ĠYar gÄ±tay
san kiĠ
sistem deĠ
liĠ yÄ±llardaĠ
oÄŁl ununĠ
ĠmÃ¼z ikĠ
gÃ¼n denĠ
bulun mayanĠ
ĠC ar
F ran
ĠÃ§iz g
ru c
kurum unĠ
anlamlÄ±Ġ olarakĠ
katÄ±l Ä±yorum
c iÄŁerĠ
ĠBuĠdurum unĠ
fark lÄ±lÄ±klarÄ±Ġ
ĠTab iiĠ
git tikÃ§eĠ
davranÄ±ÅŁ larÄ±nÄ±nĠ
B ab
ĠgÃ¼n Ã¼Ġ
mu d
Ã¶nemliĠ rolĠoyn
ama ÄŁ
inf lamatu
herĠ biriĠ
Åŀ eh
iÄŁ indekiĠ
ĠB Ã¼t
gÃ¶rÃ¼n tÃ¼Ġ
iÄŁ n
ah lakĠ
olduÄŁ umuz
Ġsem bol
eĠ iliÅŁkinĠ
Ã¼s Ã¼neĠ
a id
am Ä±ÅŁtÄ±r
Ġ uyum
iĠ tarafÄ±ndanĠ
sol unum
Ġb Ä±r
la Ġberaber
yayÄ±m lananĠ
C en
Ġs Ã¼s
b Ã¼rÃ¼n
Ã§ap raz
M on
gÃ¶z lenenĠ
yaÅŁ amakĠ
ĠkÄ±s mÄ±Ġ
isted i
diya bet
ĠR ef
yaÅŁam Ä±Ġ
ĠF az
kon for
kil is
yapÄ±l Ä±rkenĠ
Ġh ata
- )
um ur
Ã¶z en
ayak kab
eyeĠ gÃ¶reĠ
g lik
sonuc unuĠ
ĠDÃ¼n yanÄ±nĠ
ÅŁehir ĠBelediy
kend iliÄŁindenĠ
buĠ kadarĠ
Hal kĠ
Ġsay Ä±sÄ±
yÄ±l lardÄ±r
ev vel
ĠB r
mas aĠ
ĠyÃ¼z denĠ
Ġ inan
an laraĠ
ĠÃľniversit esiĠ
tarÄ±m salĠ
Ġ eklen
); Ċ
ĠZ or
ĠBiz im
Ġsebeb iyleĠ
saÄŁ lÄ±yor
ĠD evr
has taneĠ
cul ukĠ
Ġc anĠ
ust ral
iz lemeĠ
yaÅŁan dÄ±ÄŁÄ±Ġ
istatist ikiĠ
w as
sebeb iyetĠ
tem izlen
merkez liĠ
dir ĠveĠ
Ġkes im
od on
c eh
luk oz
hÄ±z lÄ±ĠveĠ
hisset tir
fet h
ĠC en
Ġede biyat
Es kiĠ
Ġsor usunaĠ
den liĠ
ĠB eniĠ
H ac
kabulĠedil ir
ad aletĠ
ĠP o
bu kiĠ
Ã§ek im
olun um
Ġg ur
Ã® l
ĠSÃ¼r ekliĠ
salĠ olarakĠ
dahil indeĠ
Ã¼n ist
ab or
ÅŁuĠ andaĠ
Ġo b
yap rakĠ
ĠTur izm
Cumhuriyet i
gid iyor
analiz indeĠ
dÄ±k tanĠsonra
am ukĠ
kÃ¼t l
ol masÄ±ndanĠ
Ä±nÄ±Ġ ver
Ġi laĠ
il iÄŁinĠ
bulun madÄ±ÄŁÄ±Ġ
Åŀ ub
n erĠ
buĠ dÃ¶nemdeĠ
dahaĠ yÃ¼ksektir
Cumhur baÅŁkanÄ±Ġ
lÃ¼ÄŁ Ã¼nÃ¼nĠ
Ġrek abet
M as
Ä± lardaĠ
H ayat
olarakĠtanÄ±m lanmaktadÄ±r
g Ã¼mÃ¼ÅŁ
soru laraĠ
ĠveĠ kuruluÅŁ
K ut
ilet iÅŁimiĠ
Ġkor un
ĠBuĠ Ã§alÄ±ÅŁmanÄ±nĠ
depres yonĠ
of ĠtheĠ
organiz asyonĠ
an ta
art masÄ±
Ġortam Ä±ndaĠ
y etkisiĠ
it imiĠ
Ġp etrol
elektro nĠ
g Ã¼b
fak ir
or ayaĠ
ĠÃĩ evreĠ
tÄ±ÄŁ Ä±nÄ±z
ĠAÅŁaÄŁ Ä±daĠ
bÃ¶lÃ¼m de
f Ã¼z
yap mayÄ±Ġ
mÃ¼ÅŁ lerdir
Ä±kĠ birĠ
C C
it ib
en Ã§
Ã§evres el
Ã¶nc elikĠ
ĠY Ã¼r
Ġk Ä±ÅŁ
katÄ±l Ä±mĠ
katÄ±l maĠ
Ã¼lk elereĠ
N ec
Ġs entez
ĠY oÄŁ
bildir miÅŁtir
ar ama
Ġifad eleriniĠ
bÃ¼tÃ¼nĠ olarakĠ
Top lam
hak larÄ±nÄ±Ġ
P sik
oh nĠ
ilir ĠveĠ
fat ur
ala caÄŁÄ±Ġ
ed Ġto
ĠiÅŁ teĠ
iÅŁ siz
ĠG ar
okuy ucu
ĠolmasÄ±naĠ raÄŁmenĠ
vurgu lanmÄ±ÅŁtÄ±r
ĠK Ã¼rt
m y
en e
Ġh ikÃ¢y
tir oid
send rom
ĠOy un
K af
y Ã¢
malzem eninĠ
Ġy Ã¶r
ĠHar eket
geÃ§ erekĠ
Ã¶n Ã¼
E O
Ġ demektir
ter c
Ã¶zel liÄŁiniĠ
em iÅŁtir
gÃ¼ven ceĠ
diy alog
mak sad
el ek
Ġed iciĠ
Ã¼s lup
geÃ§ miÅŁtir
Ġet kiĠ
os u
Ã¶nemliĠ olanĠ
ep eĠ
istanĠ veĠ
key f
nes neĠ
ĠMes ela
em ediÄŁiĠ
ĠDÃ¼n yadaĠ
Ġn oluĠ
ĠGÃ¼n lÃ¼kĠ
em izeĠ
A maĠ
Ä±c Ä±lÄ±k
y n
tekĠ tekĠ
kÄ±r mÄ±z
l Ä±y
Ġ dev
birĠ parÃ§asÄ±Ġ
erk eÄŁinĠ
gel enĠbirĠ
akÃ¼lt esiĠ
ĠAtatÃ¼r k
iyileÅŁ meĠ
el ey
lereĠ deĠ
Ã¶rnek lemeĠ
Ġ ez
Ġ yak
lil iÄŁineĠ
ver ilereĠ
ĠÃĩÃ¼nkÃ¼ ĠbuĠ
oyun larÄ±Ġ
etĠ al
miÅŁ ĠbirĠ
uÃ§ ukĠ
Ġbil ir
meydanaĠ gelir
aÅŁ amaĠ
P at
orant Ä±lÄ±Ġ
mu kavem
ordu s
kork uĠ
gÃ¶nÃ¼l lÃ¼
Ġs av
nÃ¶ bet
j u
kullanÄ±m Ä±nÄ±Ġ
i tasyonĠ
ĠOsman lÄ±
P P
h ediyeĠ
s ec
abil enĠ
birĠ deĠ
ma g
yap Ä±sÄ±ndaĠ
makĠist er
la ĠveĠ
ĠE b
yÃ¶n Ã¼ndekiĠ
mikro organiz
per yal
f Ã¼r
es in
h eter
d ul
af iz
n elerdir
H A
ĠancakĠ buĠ
Ġy Ã¼kĠ
red iĠ
tekn ikleriĠ
Ġn edenĠ
ey di
baÅŁ kent
lerdeĠ veĠ
iliĠ veĠ
Ġp la
ilÃ§ esindeĠ
Ġr iv
ĠÅŀ air
ĠÅŁekl indekiĠ
iÅŁ leriniĠ
Ä±ÅŁ Ä±
risk liĠ
bahs edilenĠ
gÃ¼Ã§ lÃ¼k
ĠkÃ¼ltÃ¼r elĠ
ahr aman
uygun dur
Ġ devletĠ
am ir
tÃ¼r leriĠ
ÅŁim di
la dÄ±klarÄ±Ġ
kr istal
Ġkans er
Ã¶nĠplan daĠ
ĠMah kem
Ġsistem indeĠ
ĠhÄ±z lÄ±Ġ
kullanÄ±l dÄ±
fiz ikiĠ
L I
lat maĠ
y laĠ
Ġyok sul
gur ur
kaynak landÄ±ÄŁÄ±Ġ
ĠBaÅŁ ar
ĠBirey lerinĠ
Ġve ya
Ã¶ncelik liĠ
B atÄ±
ij italĠ
Ġo ut
Ã§alÄ±ÅŁ masÄ±nda
yaptÄ±r Ä±m
unsur larÄ±Ġ
l ununĠ
or man
tasyon uĠ
Ġ Ã¶zellik
cev abÄ±Ġ
dÃ¶rt genĠ
de di
os kop
te laf
har can
yum uÅŁ
hay liĠ
grup larĠarasÄ±ndaĠ
sÄ±ralan abilir
S enĠ
deÄŁil ĠdeĠ
Ã¼y eleriĠ
gru bun
analiz leriĠ
H e
bek liyor
ĠÄ°s mail
arasÄ±ndakiĠiliÅŁk ininĠ
Ä° mam
diÄŁ eriĠ
l iler
kar tÄ±Ġ
kala balÄ±kĠ
mesineĠ veĠ
incelend iÄŁiĠ
E debiyat
Ä±s lah
Ġkar maÅŁ
herĠ yÄ±l
saĠ da
Ġay dÄ±n
gÃ¶rÃ¼ÅŁ Ã¼
ik i
hakk Ä±nÄ±nĠ
madÄ±k larÄ±nÄ±Ġ
oper asyonĠ
yanĠ veĠ
person elĠ
ĠÄ°s tatist
ĠyoÄŁ unĠ
Ã¼ÅŁ Ã¼m
konum landÄ±r
meler iĠveĠ
ren giĠ
maya caktÄ±r
at tÄ±
kr on
ĠÄ°s rail
basÄ±n Ã§Ġ
m Ã¼yor
gel dik
ÃĸlÃ§ eÄŁiĠ
nÃ¼f uz
f onĠ
Ġuz unluÄŁ
Ġsiya h
Åŀ ekil
or ld
Ġyet en
oran lardaĠ
m Ġ
ĠBuĠ bakÄ±mdanĠ
acebo okĠ
eler idir
danĠ daĠ
ĠA maÃ§
van ter
tehlik eĠ
yer lereĠ
becer ileriĠ
res t
ar if
kar akterĠ
ĠbuĠ yÃ¼zdenĠ
ed iyordu
madd eleriĠ
baÅŁ lÄ±Ġ
b ut
kr em
baÄŁÄ±msÄ±z ĠolarakĠ
ĠÃĸ Z
heyec an
acakĠ veĠ
ĠBen im
ay arakĠ
T a
T ay
ĠÃĸrn ekĠ
ĠSÄ±n Ä±r
yas Ä±
N e
on imĠ
ob j
Ġpiya saĠ
Ġoran Ä±
ĠG erekĠ
is in
ĠHerĠ neĠkadar
ï ģ
ĠHas taĠ
ak ip
yÃ¼r Ã¼m
denĠ fazla
han e
Ġm arka
Ã» nĠ
kÄ±yas la
Ã¶ndeĠ gelenĠ
ac Ä±lÄ±kĠ
ma tes
Ġn egatif
cez a
Ċ ĠĠĠĠĠĠĠĠ
eler inin
ĠgerÃ§ ektenĠ
bul g
ĠBuĠ tez
ik s
ayÄ±r anĠ
Ġgen eldeĠ
Ġg ib
il kiĠ
el bis
bÃ¶lg esel
gÃ¶r dÃ¼ÄŁÃ¼Ġ
tercih ĠedilenĠ
ĠkÃ¼ltÃ¼r el
kap italist
ĠM ekt
var lÄ±ÄŁÄ±nÄ±nĠ
mÄ±ÅŁ lar
ĠBir kaÃ§
vatandaÅŁ lÄ±kĠ
paral elĠ
Ġs anaĠ
Ä° leĠ
Ġyan i
p ans
amaÃ§ larÄ±Ġ
ĠS t
es ine
W eb
B D
in enĠ
tr al
lÃ¼ÄŁ Ã¼neĠ
Ġ takip
dÄ±r ĠveĠ
ĠÄ°l iÅŁk
ĠS P
ef sir
il eÅŁtir
y eÅŁilĠ
sahiptir ler
duÄŁ um
ĠB Ä°L
Ġyer indeĠ
altÄ±nÄ±Ġ Ã§iz
en enĠ
Ġtic aretĠ
Ġfiz ikselĠ
fiyat Ä±Ġ
Ġf rekans
pr iz
inc i
larĠ birĠ
Ġ roman
T o
ita at
birĠkez ĠdahaĠ
ayaĠ kadar
isted iÄŁiniĠ
n dakiĠ
Y usuf
iy iĠveĠ
meÅŁ gul
oluÅŁ umuĠ
on lardanĠ
yap Ä±p
konu lanĠ
lÄ±ÄŁÄ±Ġ ileĠ
Ġd ek
har d
ĠR um
b oyun
mekĠ adÄ±naĠ
pozitif ĠyÃ¶ndeĠ
ÅŁ iv
Cumhuriyet iĠ
ah met
devr eĠ
ayr Ä±ntÄ±
ayaÄŁ aĠ
kullanÄ±m Ä±naĠ
dÃ¼k leriĠ
met alĠ
Ù ı
C ev
ĠH ac
yapÄ±lanĠ buĠ
Ġg Ä±daĠ
ĠOn larÄ±nĠ
ĠBaÅŁ langÄ±Ã§
W il
inc ilĠ
tÄ±k larÄ±nÄ±Ġ
K Ä±s
ĠM e
Ãĩ Ä°N
Kat Ä±lÄ±m
: Ċ
makĠ zorundaĠkal
ĠGÃ¶r Ã¼n
iÅŁ i
aÃ§Ä±k lar
Ġsah n
ĠF Ä±r
unsur uĠ
fiyat larÄ±Ġ
asin o
hap is
Ã¼z Ã¼n
N P
m olek
hayat Ä±ndaĠ
sÃ¼rdÃ¼r Ã¼l
ĉ veĉ
Ã§ amur
ĠKas Ä±m
B r
Ġk er
olduÄŁunuĠ bil
c ret
Ã¶ dey
uÅŁ uĠ
gÃ¶ÄŁ Ã¼s
ĠHas tal
larĠ aÃ§Ä±sÄ±ndanĠ
masÄ±naĠ yÃ¶nelikĠ
yar Ä±sÄ±Ġ
n ar
Ä±lmÄ±ÅŁ ĠbirĠ
h ic
gerÃ§ek Ã§iĠ
D ep
danĠ veĠ
c ilerĠ
olas Ä±lÄ±k
dÃ¼ÅŁ manĠ
ĠDiÄŁerĠ yandanĠ
mey e
an mÄ±ÅŁ
Ġet raf
ĠÃĩocuk larÄ±nĠ
Ġik tidar
ac a
kullanÄ±cÄ± larÄ±nĠ
ĠÃĸteĠ yandan
Ġl iraĠ
ĠÃ§ evir
rehber likĠ
dÄ±ÅŁ aĠ
Ġdin am
makĠist iyorum
ic ilikĠ
n ev
M ark
laÅŁ masÄ±Ġ
ĠM eÅŁ
Ġs im
orta okul
ĠÃĩ inĠ
ler Ġsun
ed erken
Ġ gÃ¶reĠ
gibiĠ birÃ§okĠ
Ay dÄ±n
Ã¶rf ez
kaz aĠ
alÄ±ÅŁkan lÄ±k
t Ã¼ccar
ĠH a
Ab dÃ¼l
Ġb iÃ§imiĠ
tas Ä±ndaĠ
anlamlÄ±Ġ dÃ¼zeydeĠ
rez il
ĠÄ°lkĠ olarakĠ
BaÅŁ kanĠ
ĠHas anĠ
M o
veriĠ toplamaĠ
iÃ§ineĠ gir
yÃ¼z Ã¼
Ġf os
sonuÃ§ larÄ±nÄ±Ġ
olarakĠ deÄŁerlendir
ĠBir eyinĠ
ĠÄ° r
yerel ĠyÃ¶netim
fil ozof
m uc
edil mesi
S Ã¼n
s eyiĠ
per iyod
D ar
birĠ yÄ±l
st em
kend er
aÄŁ Ä±naĠ
larÄ±nÄ±z aĠ
sÄ±n da
Ã§alÄ±ÅŁ Ä±r
dalg alan
t his
Ġkar bon
ika met
belir ler
Ġorta lamasÄ±Ġ
l ilerĠ
ĠÄ° h
Ġn e
ĠBah is
ĠYar dÄ±m
matr is
ait tir
Ġgelenek sel
gÃ¼n delikĠ
Ġol masÄ±nÄ±Ġ
gerek liliÄŁiĠ
evren sel
anlaÅŁ Ä±l
hal ef
seÃ§ ilmiÅŁtir
iÅŁ gÃ¶r
ĠGer Ã§ek
kon tr
ortayaĠÃ§Ä±k tÄ±ÄŁÄ±Ġ
C ezaĠ
Ġl ir
ĠenĠ dÃ¼ÅŁÃ¼kĠ
lereĠ ulaÅŁ
kar anlÄ±kĠ
D EK
Ġdurum da
Ġsan ayiĠ
indeĠ yerĠalanĠ
Ġdiya bet
dÃ¶n g
ÅŁer ef
Ã¶ g
D ok
zihin sel
Ġay larÄ±ndaĠ
iÅŁ sizlikĠ
banka cÄ±lÄ±kĠ
T P
oku la
Ġharc ama
hareketeĠ geÃ§ir
ma x
Ġtekn iÄŁiĠ
G r
av uz
l eks
davranÄ±ÅŁ larÄ±nĠ
kullanÄ±l mÄ±ÅŁ
ÅŁekl indedir
ĠdeÄŁer i
zamanĠ veĠ
sonuÃ§ larÄ±naĠgÃ¶reĠ
tarih teĠ
for mat
uzakĠ dur
kontrol Ġedil
Ġd iÄŁeriĠ
ĠdÃ¶nem inĠ
takipĠ edenĠ
lÄ±lÄ±ÄŁ Ä±nÄ±nĠ
koy uĠ
ĠT o
forman s
dÃ¶nÃ¼ÅŁtÃ¼r Ã¼l
yaÅŁam Ġtarz
ĠBenzerĠ ÅŁekildeĠ
º C
d indeĠ
ĠYÃĸ NTEM
ĠY usuf
k Ã¢n
ĠÅŀ eyh
yap Ä±ÅŁtÄ±r
spesif ikĠ
ĠÄ°nsan Ä±nĠ
b log
Ã§Ä±k tÄ±Ġ
miÅŁĠveĠ buĠ
aÃ§Ä±kla mÄ±ÅŁtÄ±r
ada yÄ±Ġ
Ã¶nĠplan aĠÃ§Ä±kar
Ġ Ã¼retic
F ilist
ĠÅŀ iir
kÃ¼ lerĠ
mesiĠ gerekmektedir
ĠTar Ä±m
ed erĠ
in liĠ
Kam uĠ
lan Ä±p
ard Ä±ndan
yas yonĠ
Ġg Ã¼venĠ
var lÄ±ÄŁÄ±naĠ
m p
kom isyon
c ekĠ
larÄ±naĠ daĠ
Ġy y
ĠbÃ¼t Ã§
ograf iĠ
Ġy eÅŁil
ĠT icaret
etm edenĠ
disip linĠ
olduÄŁ undan
D emok
Ġyar Ä±ÅŁ
tasar lanmÄ±ÅŁtÄ±r
cÄ±Ġ veĠ
etkilen enĠ
Ġm Ã¼f
ekt eĠveĠ
Ġs ivil
Ġk uzey
ĠEl betteĠ
arÅŁ iv
Ġt u
eÄŁ inceĠ
teÅŁ v
taraf Ä±ndaĠ
Ġvar dÄ±
soru yaĠ
s of
w ard
ninĠ deĠ
kalit esiĠ
kapasit esiĠ
puan larÄ±Ġ
m uĠ
Ã¼ dÃ¼
R ef
d Ã¶rdÃ¼ncÃ¼
kÄ±s miĠ
ĠTab lo
mÃ¼t e
ĠM or
b uyur
sÄ±k Ä±ÅŁtÄ±r
Ġ inc
L ig
ger ideĠ
duyg uĠveĠ
Ġdis ip
mot iveĠ
Ġm Ã¼s
re as
gru bununĠ
analiz Ġedil
S B
ad resim
ver iciĠ
ĠÄ° ht
pozitif ĠyÃ¶n
Ġd ip
c isim
eder im
ak larÄ±Ġ
m ineĠ
ÅŁ Ã¼k
azal tÄ±r
f ab
il ham
dur aÄŁ
dahaĠ sÄ±kĠ
yÃ¶n lÃ¼
gazet ec
Ä±naĠ gÃ¶re
ĠEr kenĠ
Kar ÅŁ
ya lanĠ
ĠAraÅŁtÄ±rmayaĠ katÄ±lanĠ
at f
Anaya saĠ
ad Ä±klarÄ±Ġ
baÅŁ tanĠ
Ġ tamamenĠ
oyn aya
rad ikal
Ä±nÄ±Ġ artÄ±r
kat kÄ±s
leriĠ olarakĠ
ĠT ic
yÃ¼ksekĠ olduÄŁuĠ
devam lÄ±Ġ
iÃ§er diÄŁiĠ
Â ´
kadÄ±n lardaĠ
hal if
Ġma teryal
der iĠ
Yah ud
okim yasal
ĠD Ã¶rt
org anĠ
tes ir
ĠC ilt
Bakan lÄ±ÄŁÄ±
ayr Ä±lmaĠ
GS Y
indir gen
yÃ¶netim ininĠ
etk isineĠ
t iyaz
arkadaÅŁ lar
deÄŁerlendiril diÄŁinde
bab asÄ±nÄ±nĠ
lerineĠ yÃ¶nelikĠ
dos ya
kullan Ä±lan
dayanÄ±k lÄ±Ġ
et ler
dÃ¼n yayÄ±Ġ
zev kĠ
Hak larÄ±Ġ
geliÅŁtir ilmiÅŁ
ĠN um
miktar Ä±nÄ±nĠ
ĠHav aĠ
em iyor
T Ã¼m
kÃ¶ mÃ¼r
Ã§oÄŁ alt
Ġkal iteĠ
ĠyÃ¶n et
z ed
arz u
ĠsÄ±nÄ±r lÄ±Ġ
Ġg al
D evr
analiz ĠedilmiÅŁtir
em esiĠ
herĠ geÃ§enĠgÃ¼nĠ
b ih
DÃ¼z en
an ormal
ecek lerdir
ec k
var sa
n anĠ
Ġvitam iniĠ
denĠ birĠ
g Ä±t
Ã§ uĠ
ĠÄ°m parator
Ġc ep
al Ä±cÄ±Ġ
masÄ±naĠnedenĠ olmuÅŁtur
ĠÃ¶rn eÄŁinĠ
ÅŁaÅŁÄ±r t
y ola
ĠMod el
bor c
Ã¼lk eler
Ġkit leĠ
d un
Ã§ocuk larĠ
nedenĠ olabilir
ÃĸÄŁr etim
tamam Ä±nÄ±Ġ
p s
y u
kÄ± dem
o ĠveĠ
cen net
Ġhay al
ruh sal
Sur iyeĠ
emiz inĠ
di ven
gerÃ§ekleÅŁtir diÄŁiĠ
sim etr
lukĠ veĠ
ĠVer giĠ
hid rat
dÃ¶n dÃ¼r
ilm eyeĠÃ§alÄ±ÅŁ
tat lÄ±Ġ
Ã® nĠ
Kar ÅŁÄ±
ac t
mesiĠ gerekenĠ
iĠ buĠ
etkinlik leriĠ
ĠKan unuĠ
ĠY Ä±lmaz
ĠMÃ¼slÃ¼ manĠ
Ġc ins
gÃ¶rÃ¼n ceĠ
dÃ¼zen liĠolarakĠ
S H
r ul
hesap lanÄ±r
gÃ¶re veĠ
l ing
teknoloj ininĠ
dil inĠ
bey it
larÄ±Ġ vardÄ±r
T ez
uz laÅŁ
Ġ ifadeĠ
deÄŁerlendiril ebilir
Ġhastal Ä±kĠ
kom ut
manÄ±z aĠ
d Ä±nÄ±z
larĠ vardÄ±r
Tan r
ĠHan giĠ
p ap
ĠÃĸn ceĠ
ĠbaÄŁlam Ä±ndaĠ
ĠiÅŁ lev
Ã§ lar
zararĠ gÃ¶r
mod Ã¼l
tasar lanmÄ±ÅŁ
bun lardanĠ
unsur larÄ±nĠ
ĠBuĠ Ã§alÄ±ÅŁma
l ojistikĠ
eleÅŁtir el
makĠ zorundaĠ
Ġor adaĠ
saÄŁlan masÄ±
Ã¶ÄŁrenc ilerin
w o
Kat Ä±l
Ä±ÅŁÄ±k lÄ±kĠ
an Ä±
D in
Ã¶n Ã¼l
leÅŁ meĠveĠ
lik leri
____ ____
C ez
tah taĠ
ede kĠ
kalit esiniĠ
gerÃ§ekleÅŁ mektedir
iz ler
M M
f elaket
Ġsan kiĠ
dik ey
birĠ sÃ¼r
errah iĠ
aĠÃ§Ä±k maĠ
sa daĠ
ala bilirsiniz
en nem
len mesi
Ġ ulus
alÄ±n acakĠ
yÃ¶netim i
kabil iyet
k ler
aliz minĠ
bab a
en iziĠ
K ent
Ġk ey
F Ä±r
Ġk lasikĠ
olur sa
iler ley
hizmet inĠ
yandanĠ daĠ
aÅŁ Ä±Ġ
problem leriĠ
Ġarac Ä±lÄ±ÄŁ
ĠS uÃ§
acaÄŁ Ä±m
l enĠ
yen ilikĠ
belirt il
ĠMec lis
sab Ä±r
Ã§ ilik
om en
ĠÅŀub at
Ãĸ Ġ
ortam lardaĠ
piya sayaĠ
soh bet
Q u
lÄ±Ġ yÄ±l
gel eceÄŁiĠ
danĠ gelenĠ
ĠsonuÃ§ larĠ
bu lanĠ
op timum
siĠ geÃ§enĠ
baÅŁar Ä±sÄ±Ġ
sa dece
kend imiĠ
end iÅŁeĠ
t Ä±pkÄ±Ġ
kent inĠ
ot elĠ
konu larÄ±nĠ
ĠkarÅŁ Ä±lÄ±ÄŁ
mak laĠbirlikte
yap abilirsiniz
Ġ mesel
mez hep
halk Ä±nÄ±nĠ
ic at
benim s
casin oĠ
pay daÅŁ
dah ilĠ
yapÄ±lanĠ Ã§alÄ±ÅŁmalardaĠ
puan Ä±Ġ
kes tir
for mÃ¼
boÅŁ alt
Ä±la y
sonucunaĠvar Ä±lmÄ±ÅŁtÄ±r
aĠ git
Ä±p lakĠ
l Ã¼ks
eldeĠ ettiÄŁiĠ
gan lÄ±kĠ
Ġd Ã¶viz
lar Ġsun
Ġuygula masÄ±Ġ
dÄ±k Ã§aĠ
o ver
ist lerinĠ
Ġh us
lardanĠbir idir
Ä±ÅŁ Ä±ÄŁÄ±Ġ
F ar
de po
soru larÄ±Ġ
uv aĠ
lez yon
dikkatĠÃ§ek enĠ
Ġd inĠ
larÄ±ylaĠ ilgiliĠ
gÃ¼nÃ¼mÃ¼z eĠ
ĠEt k
M AN
yerĠal Ä±yor
A pp
el leĠ
b iyeĠ
la masÄ±naĠ
alan Ä±
sin emaĠ
Ġ arasÄ±nda
O A
ĠB a
Ġ yas
ark e
gÃ¶z leriniĠ
N az
Ċ ĠĠĠ
Ġsan iyeĠ
ĠdÃ¼zey ininĠ
elerineĠ gÃ¶reĠ
personel inĠ
k Ã¶l
it aĠ
nit elĠ
Ġ meslekĠ
karÅŁ Ä±sÄ±naĠ
si on
u x
m isyon
ĠÄ°n cel
Ġ dam
say Ä±sÄ±naĠ
ĠkÄ±y met
iy otikĠ
Ġv az
veril ecekĠ
incelem iÅŁlerdir
ĠY eÅŁil
abil eceÄŁiniĠ
Ġ af
ineĠ ulaÅŁ
Ġnit el
Ġbilg iler
alÄ±n dÄ±ÄŁÄ±Ġ
sez onĠ
Ä°b rahim
li man
Ġs efer
m iyorum
s iyet
ĠGel ir
ĠtekĠ birĠ
mesiĠ iÃ§in
ama dÄ±ÄŁÄ±Ġ
Ã¶z elĠolarakĠ
F inans
et in
port fÃ¶y
ĠdÄ±ÅŁ Ä±ndakiĠ
Ġ Ã¶rnekĠ
saÄŁ lamaĠ
Ã¶ÄŁren im
ĠO ĠzamanĠ
am Ä±nĠ
eser leriĠ
Ġ tamam
ĠyÃ¶ntem iĠileĠ
yardÄ±m Ä±yla
Ġbun un
ayr Ä±lmÄ±ÅŁ
Ġde miÅŁ
it eĠveĠ
otomatikĠ olarakĠ
ith alĠ
Ġt Ã¼p
gÃ¶r mez
ĠH Ã¼cr
mil yon
ĠbaÅŁ arÄ±Ġ
konus unuĠ
Ã º
ĠKar a
aÄŁ Ä±nÄ±Ġ
Ġ algorit
lama larÄ±nĠ
yar atanĠ
sÃ¶ylemekĠ mÃ¼mkÃ¼ndÃ¼r
ĠGir iÅŁ
s ipariÅŁ
B ilgiĠ
u ma
Ġek ip
ĠM obil
belirlen mesi
ÅŁ en
ojen ikĠ
Ä±naĠ karÅŁÄ±Ġ
r Ã¢
d or
kar iyerĠ
Ġn Ã¶r
ett iler
hab eriĠ
nam e
dur maĠ
Ä±s rar
bulgu larÄ±Ġ
yÃ¼ksekĠ lisans
veĠ diÄŁerĠ
vas Ä±f
u yaĠ
H rist
ĠTas ar
L AN
elerĠ deĠ
Ġd olay
deÄŁer inĠ
tab i
ĠBul gar
Dav ranÄ±ÅŁ
yardÄ±m Ä±ylaĠ
iyleĠ birlikteĠ
uyor lar
Ġhayat Ä±nĠ
Ġa ta
ebev eynĠ
iletiÅŁim eĠgeÃ§
Ġs eniĠ
Ġ Ã¼cret
h ev
Ä±ndaĠ yerĠalanĠ
Ġkim likĠ
kadarĠ olanĠ
Ġd i
aÃ§Ä±kĠ veĠ
T H
ĠDeÄŁ iÅŁk
Ġhas ar
ĠB ek
gerek siz
eyeĠ ulaÅŁ
lo bal
olmak laĠbirlikteĠ
deĠ olsaĠ
H iÃ§
birey lerĠ
Ã¶nĠ test
motiv asyonĠ
doÄŁr ula
Ay r
gr an
br iy
Ġde faĠ
duÄŁ unuz
k emeĠ
par mak
ĠE K
Ã¶rdÃ¼n cÃ¼Ġ
laraĠ yolĠaÃ§
Ã¼n den
is tat
ya kĠ
l ut
Ġl isans
uygula manÄ±nĠ
eyy id
mesiniĠ veĠ
Ä±lÄ±r kenĠ
Kad Ä±n
p ed
tar amaĠ
ul tras
D ahaĠ
Ãľ st
tal yanĠ
Ã¶ÄŁretmen lerininĠ
sÃ¶zleÅŁ meninĠ
ÅŁekl indekiĠ
ma dÄ±r
ĠS ektÃ¶r
Ġo da
Ø§ ÙĦ
os kov
art maĠ
sÄ±nÄ±flandÄ±r maĠ
ĠolanĠ buĠ
Ġkem ikĠ
gr e
kapsam Ä±nda
ik anÄ±nĠ
Ä±la caÄŁÄ±nÄ±Ġ
ÅŁ eĠ
red dedil
Ä° yiĠ
ĠKar ÅŁÄ±
re dat
yaklaÅŁÄ±kĠ olarakĠ
ipto ĠparaĠ
ku v
ek lerĠ
Y an
c Ä±k
ĠEner jiĠ
Ġolma danĠ
ĠekonomikĠ veĠ
oran larÄ±nÄ±nĠ
ler im
Ġtep k
ĠsaÄŁ lan
teÅŁ ebbÃ¼s
kural larÄ±Ġ
c ir
ĠdÃ¼z lem
Ġg ayr
ĠBÃ¼tÃ¼nĠ buĠ
soÄŁ ut
var lÄ±ÄŁÄ±
potansiy eliĠ
okul ĠÃ¶ncesiĠ
ĠGÃ¶ Ã§
Ġz ayÄ±f
kop ar
ilk esiĠ
emey eceÄŁiĠ
Ġyar alan
eser lerinĠ
Ġk usur
insan iĠ
makĠist iyor
ĠS S
kompl ikasyon
enĠiyiĠ ÅŁekildeĠ
aÃ§ Ä±ÄŁ
etkil ediÄŁiniĠ
daĠ bulun
kaynak lardanĠ
p Ä±nar
saÄŁ lama
dahaĠ geniÅŁ
Ġh ur
Ġt Ã¶r
anlam landÄ±r
San at
dahaĠ hÄ±zlÄ±Ġ
bakÄ±ÅŁĠaÃ§ Ä±sÄ±Ġ
anlaÅŁ Ä±lmasÄ±Ġ
Ġpol is
Ġ mesaj
el iyleĠ
eklen enĠ
bek ley
Ġg ram
p a
f abr
yap Ä±yÄ±Ġ
eyeĠ yÃ¶nelikĠ
de b
Ġad alet
ĠH ey
kuvvet liĠ
ail elerinĠ
diÄŁ imĠ
b iÃ§imiĠ
tes adÃ¼f
ek k
var lÄ±ÄŁ
ĠfÄ±r sat
d ikiĠ
olojikĠ veĠ
anal itikĠ
kom ÅŁuĠ
ĠS ey
sar s
bit iÅŁ
Ä±l Ä±ĠveĠ
ĠHem ÅŁir
Ġek str
Kal kÄ±nmaĠ
em niyet
otur um
b Ã¼k
gÃ¼c Ã¼nÃ¼
s ĠveĠ
l Ä±m
O Äŀ
uygulan maktadÄ±r
yaz Ä±lmÄ±ÅŁtÄ±r
Ä± laraĠ
Arap Ã§aĠ
ah il
herkes eĠ
Ġhat aĠ
tems ilĠ
orij inal
Ä±naĠ kadar
kampan ya
aÃ§Ä±klama da
M e
A F
ĠÅŁ air
isten meyenĠ
P D
Ã§ iĠveĠ
ast ro
er dem
B in
yetersiz Ġkal
eĠ doÄŁruĠ
Ġ ayrÄ±Ġ
muhal if
ar gÃ¼
duygu larÄ±nÄ±Ġ
ĠP ekĠ
finans manĠ
ĠSur iye
Tarih i
tespit iĠ
Ġd Ã¼r
s asÄ±
ĠBilg isayar
vurgu lamaktadÄ±r
l Ã¢n
anlaÅŁ Ä±lmÄ±ÅŁtÄ±r
ku d
b oyn
dÃ¼zey iniĠ
ĠyÄ±lÄ±ndanĠ itibarenĠ
ĠÄ°ÅŁ letmeĠ
O p
hakĠ veĠ
da g
taraf Ä±nĠ
Ġ Ã¢yet
du at
alÄ±Ġ birĠ
Ulus al
unc tionĠ
Ġn es
Ġdurum aĠ
Ġ tav
ac aat
dÄ±ÅŁar Ä±danĠ
ler imiĠ
elerĠ arasÄ±ndaĠ
deÄŁiÅŁ ir
vide oĠ
umĠ amaĠ
sah neĠ
iz meĠ
mayÄ±Ġ hedef
ev liĠ
kÃ¢ ÄŁÄ±t
c Ã¼z
in erĠ
k uc
iÅŁÃ§ ilerinĠ
bel iĠ
c is
mayaĠ baÅŁlar
larĠ var
iÅŁĠ tat
in lerĠ
M ey
Ä°s mail
fark lÄ±lÄ±ÄŁÄ±nĠ
Ġkat Ä±Ġ
ĠkÄ± ya
uz uĠ
dÃ¼ÅŁÃ¼nc esiĠ
erg isiĠ
hayat Ä±naĠ
ek kÃ¼l
M ez
l Ä±yordu
meyeĠbaÅŁla dÄ±
b ineĠ
oluÅŁtur maĠ
edec ek
etkileÅŁ imiĠ
dep olan
g ut
okul unĠ
G U
ĠD i
D ers
ar e
dikkat ĠedilmesiĠ
ird elen
Ġkar Ä±ÅŁtÄ±r
getir miÅŁtir
Ġhat t
er obikĠ
ĠTar af
or n
nisp etenĠ
sÃ¼r esi
Ã¶rnek lerinĠ
ide alĠ
dair ĠbirĠ
lerdeĠ bulun
taraf Ä±Ġ
kitab Ä±Ġ
ĠdeÄŁer liĠ
ol malÄ±
Ġka f
lan mamÄ±ÅŁ
taĠ daĠ
hizmet Ġsun
hey kel
ĠYaklaÅŁ Ä±kĠ
H Ã¼seyinĠ
ekt om
F atih
Er zurum
yapÄ±l Ä±yor
Ġ meslekiĠ
gÃ¶r dÃ¼ÄŁÃ¼
iÃ§er enĠbirĠ
tan Ä±sÄ±Ġ
vans iyon
iyet leĠ
Ġt ed
Ġprote inĠ
ĠBen imĠ
suÃ§ unĠ
son landÄ±r
t he
k y
kap sar
fonksiyon el
p is
Ã¼m it
istis mar
anlam Ä±nÄ±Ġ
larÄ±nÄ±z Ä±nĠ
yap mÄ±ÅŁlardÄ±r
Ġf e
Kad Ä±nĠ
) )
kazan anĠ
yap acaÄŁÄ±Ġ
ekonom ik
Ġkat Ä±l
deney imiĠ
pro test
S Ã¼leymanĠ
ĠH esap
Ġ Ã¼retimĠ
iletiÅŁim inĠ
ÅŁÃ¼p heĠ
tedar ik
sÃ¼ per
Ġd if
Ġolur saĠ
ak it
ul maz
P olitika
b eceriĠ
ĠÃ§ at
ak istan
deÄŁer leri
teĠ veĠ
ĠH Ã¼s
koru makĠiÃ§inĠ
or adanĠ
ĠS im
Ġeder ler
Ġ lo
Ġkelim esiĠ
imk ansÄ±z
bÃ¼yÃ¼k tÃ¼r
ih bar
meÅŁ ruĠ
sak in
Ã§ Ä±ÄŁ
m ini
mad enc
sÃ¼reÃ§ tir
Ġsor unuĠ
Ġbelir lenmiÅŁtir
Ã¼ per
Ã§Ä±k Ä±yor
ĠÃ§ ay
Ġhastal Ä±ÄŁÄ±Ġ
C M
farklÄ±lÄ±k larÄ±nĠ
k un
Ġdalg aĠ
madÄ±ÄŁÄ±Ġ iÃ§inĠ
dest ekliĠ
t iÄŁindeĠ
Ġm Ä±dÄ±r
geliÅŁim ineĠ
Ġ Ã¶rneklem
re ad
ĠBenĠ deĠ
tas f
aÃ§Ä±k lanabilir
Ġtan Ä±sÄ±Ġ
av Ã¼z
Ġy arÄ±Ġ
av uÅŁ
Ġhttp s
Ġ uygulananĠ
malarÄ±Ġ iÃ§inĠ
Ã¶z Ã¼r
ak Ä±mĠ
T al
Ġbilg iĠveĠ
Ã§okĠ farklÄ±Ġ
doÄŁrul uÄŁ
ge ometr
Ġin ter
olumsuz luk
M ekt
kadÄ±nĠ veĠ
Ġk Ã¢r
de fa
SelÃ§ ukluĠ
Ã§alÄ±ÅŁ Ä±yor
eninĠ birĠ
ma masÄ±
ro manĠ
ĠK aÃ§
sin dir
arkadaÅŁ larÄ±Ġ
eÄŁitim Ġkurum
lÄ±kĠ birĠ
ĠSab ah
ĠÃĸl Ã¼m
Ġh ayÄ±r
Ġhasta larÄ±nĠ
ib eĠ
ĠdahaĠ fazla
ĠF ran
ĠdiyeĠ dÃ¼ÅŁÃ¼n
m araĠ
Ġ ortak
konuÅŁ anĠ
Ġyeter siz
red d
luÄŁ ununĠ
Ġbir iĠ
Ä±naĠ daĠ
lat on
ĠÃ¼lk elerinĠ
dey iĠ
ĠBaÅŁ kanĠ
Ã§ ileriĠ
tap Ä±n
art tÄ±ÄŁÄ±nÄ±Ġ
ka faĠ
F ars
min eral
tedar ikĠ
Ä±l makĠ
lerleĠ birlikteĠ
ĠD el
Ġel eman
EC D
ĠAtatÃ¼r kĠ
O smanĠ
kap lamaĠ
Ġh e
araÃ§ larÄ±nĠ
ĠdÃ¼nyas Ä±ndaĠ
eÄŁ en
yal Ä±m
F ir
taĠ birĠ
lan masÄ±naĠ
taahh Ã¼t
Ġkal em
larĠ veyaĠ
yata kĠ
ir tib
karÅŁÄ±lÄ±ÄŁ Ä±ndaĠ
may Ä±ĠveĠ
DoÄŁ u
am eleĠ
< .
il mesidir
ĠÄ° d
Ġkan Ä±t
T TK
yapÄ±l masÄ±nÄ±Ġ
dan a
t Ã¢b
ĠP as
for d
y etmez
Ã¶tes indeĠ
yaÅŁ Ä±yor
Ġm otif
Ġmet ab
Ã¼cr etiĠ
nih ayet
kavram larÄ±nĠ
Ġmah kem
olar Ä±nĠ
N is
med ik
Ã§iz el
il imĠ
HÄ±rist iyan
yÃ¶ntem iyleĠ
az eĠ
ver mesiĠ
ot obÃ¼s
L i
ĠHerĠ ÅŁey
ĠG al
r Ã®
U V
l iceĠ
Ã¼rÃ¼n lerininĠ
Ã§Ã¼n kÃ¼
ĠÅŀ ekil
taraf aĠ
lerdeĠ iseĠ
K M
veriĠ set
ira deĠ
os istem
gÃ¶l g
il ecektir
ĠYok saĠ
( "
Ġyap tÄ±r
ineĠ geÃ§
tÄ±r man
ayr Ä±ÅŁ
ĠÂ ·
c iler
kayded ilmiÅŁtir
Ġ erkenĠ
ak Ã¢r
dÃ¼nya dakiĠ
uĠ daĠ
birĠ Ã§alÄ±ÅŁmadaĠ
araÅŁtÄ±rma larÄ±nĠ
ĠL ev
Ġyap rak
P ark
Ä° r
mem esi
rom ozom
Ã§ Ä±r
bil miyor
Ã¼rÃ¼n Ã¼Ġ
tab los
ihti laf
P eygamber
Ġs oh
ĠMeh med
d f
ĠkÃ¶ tÃ¼
diÄŁiĠ iÃ§inĠ
mahk Ã»m
ĠsaÄŁ lar
ik leĠ
soru larÄ±nĠ
al p
ĠSonr asÄ±ndaĠ
ĠG eriĠ
boÄŁ az
algÄ± lamaĠ
S ultan
ĠyoÄŁ unluÄŁ
faiz Ġoran
et ininĠ
Ġz ek
dar b
hasta larÄ±n
anlaÅŁ maz
halineĠ gel
kÄ±s Ä±mdaĠ
Ä°ÅŁ lem
Ä±ĠK erim
kay Ä±Ġ
Ġbulun duÄŁuĠ
is ine
Ã¶n Ã¼ndekiĠ
ler ans
y i
iÅŁeĠ yar
send ika
artÄ±ÅŁ Ġ
kÃ¶y lÃ¼
R D
kolay lÄ±klaĠ
ĠK ah
ist otel
bet onĠ
ĠsÄ±r aĠ
ÅŁeh riĠ
Ġolma yan
Ġkalit esiĠ
mer t
Ġan neĠ
Ġyap maĠ
iz niĠ
birĠsÃ¼reĠ sonraĠ
Ã¶nem siz
ĠAl p
ĠAn lat
ĠbirĠ biÃ§imdeĠ
don at
Ġsistem i
im plant
ĠYÄ±l dÄ±z
kÄ±r sal
p omp
ĠPart iĠ
ebil ecektir
olarakĠ nitelendir
dahaĠ etkiliĠ
Ã§ Ã¶p
ĠH Ã¼seyinĠ
X X
red det
la masÄ±nÄ±nĠ
Ġvar saĠ
Ġkullan Ä±mĠ
z ik
dan Ä±nĠ
ĠdÃ¼n yayaĠ
ĠR apor
cÄ± larÄ±n
ilenĠ buĠ
birĠ Ã§alÄ±ÅŁmaĠ
Ġad Ä±nÄ±Ġ
in kÃ¢r
hÄ±z lÄ±ĠbirĠ
ulduÄŁ undaĠ
al itikĠ
ĠbasÄ±n Ã§
duygu larÄ±Ġ
azal maktadÄ±r
k Ä±lavuz
ip tal
leÅŁmiÅŁĠMillet ler
hes abaĠ
ara larÄ±ndakiĠ
es eĠ
tab iat
Ġhay vanĠ
iÅŁlem ĠgÃ¶r
Ã§ or
Ã¶zellik lereĠ
op tikĠ
ĠÄ° L
il etim
Ä±ÅŁ Ä±nÄ±Ġ
esiĠ tarafÄ±ndanĠ
h aÅŁ
ĠsÄ±f at
n da
ĠG Ã¼zel
yÃ¶ntem inĠ
sÄ±r adanĠ
bÃ¼yÃ¼kĠ orandaĠ
ifadeĠedil ir
kil oĠ
h ow
Ġol maktanĠ
din len
ĠE sas
birĠÅŁey lerĠ
ĠOsmanlÄ±Ġ Devleti
oda kĠ
ĠA da
ak tiveĠ
ĠBuĠ sÃ¼reÃ§teĠ
tut umĠ
Millet ĠMec
ak Ã¼l
ĠmÃ¼dah al
Ġin f
istotel es
zorun luluÄŁuĠ
kullan Ä±maĠ
ĠEr men
h ol
la dÄ±m
ĠyÄ±l ĠÃ¶nceĠ
uyg unluÄŁ
paraĠ yatÄ±r
Ġm d
benz et
din Ã®
Ä±ndaĠ iseĠ
tasar lananĠ
iÅŁ verenĠ
ĠAnaya saĠ
ter m
K S
mayÄ±Ġ tercih
ĠkatÄ±lÄ±m cÄ±larÄ±nĠ
O larakĠ
yap acakĠ
kurul uĠ
ĠolarakĠ hesaplanmÄ±ÅŁtÄ±r
Ġb ilm
kal Ä±nĠ
yaĠ karÅŁÄ±Ġ
arttÄ±r maktadÄ±r
Ã¼r ettiÄŁiĠ
ĠiÅŁletm eninĠ
seÃ§ ilmiÅŁ
ĠDoÄŁr uĠ
O ran
gÃ¼venir likĠ
enerj isiĠ
laĠ daĠ
A da
Ã¶rnek ler
eÄŁitim deĠ
Ġt edar
danĠ beriĠ
d Ã¢
ev denĠ
ĠHal k
m id
larĠ iÃ§erisindeĠ
arac Ä±lÄ±kĠ
C P
Ġh om
analiz ler
tasav vur
ĠDav ranÄ±ÅŁ
ĠK Ã¢
i dem
stit Ã¼
lanabil mektedir
kim inĠ
i anĠ
parÃ§ a
Ġolabil eceÄŁiĠ
mey i
ĠsÃ¼rdÃ¼r Ã¼lebilir
TÃ¼rk lerinĠ
Kar a
bil ecekĠ
ĠtÃ¼m Ã¶r
ĠM el
Ġm y
il ĠveĠ
doÄŁr ult
Ġtek lif
ihtiyaÃ§larÄ±nÄ±Ġ karÅŁÄ±la
tas nif
man larÄ±Ġ
son unda
eĠ olanĠ
tÃ¼m ĠbuĠ
Ġ eÄŁ
gÃ¶rÃ¼ÅŁ Ã¼Ġ
laya cak
gÃ¼c Ã¼nÃ¼Ġ
yol danĠ
b l
Ã¼nĠ veĠ
makĠ adÄ±naĠ
Ä±ndaĠ bulunanĠ
I T
etm eleriĠ
Ã¼r riyet
ar yo
Ġma tr
ul maĠ
lerdenĠ biridir
al Ä±mĠ
gereksin im
ĠM it
enĠ etkiliĠ
kem er
Ã¶ÄŁretmen ler
lerĠ aÃ§Ä±sÄ±ndanĠ
ĠS aÃ§
ad liĠ
ĠDik kat
c oÅŁ
C om
Ã§evr eninĠ
Ã¼m Ã¼Ġ
Ã¼Ã§ ĠfarklÄ±Ġ
Yunan istan
H af
tiv aĠ
iÄŁ it
ser tif
vasÄ±tas Ä±yla
ĠÃĸ mer
Ġsor unĠ
ortayaĠ at
G Ã¼Ã§
Ä±c Ä±lÄ±ÄŁÄ±Ġ
enĠ temelĠ
avantaj Ä±Ġ
ĠAn laÅŁ
Ġ istem
lÃ¼ dÃ¼r
ĠY aĠ
sahip ĠolduÄŁunuĠ
wit ter
sÄ±cak lÄ±ÄŁÄ±Ġ
mey danĠ
Ã¶zenĠ gÃ¶ster
I rakĠ
W al
grup larÄ±Ġ
lÃ¼l Ã¼k
K avram
fiziksel ĠveĠ
tah t
Ġt hey
dek or
durum lar
ayr Ä±ÅŁtÄ±r
ĠolarakĠ nitelendir
Ġdurum u
ÅŁekil Ġ
Ġb Ã¶yl
ĠC HP
Ekonom ikĠ
Ã¶ tekiĠ
S t
Ã§oÄŁunluÄŁ ununĠ
baÅŁlÄ±kĠ altÄ±ndaĠ
em i
Ġw ill
ĠOn lar
devamĠet tiÄŁiĠ
P iya
ĠolduÄŁ undaĠ
kad er
yukar Ä±dakiĠ
ĠHiÃ§ birĠ
Ġd kĠ
bo yaĠ
in asyon
sim g
herĠ ik
Ġ asÄ±l
oÄŁluĠ veĠ
karakter istikĠ
Ä±lar ĠveĠ
eleb i
artÄ±ÅŁ Ä±nĠ
D o
od rum
baÅŁ lÄ±k
mayaĠ baÅŁlan
y oĠ
Ġs Ä±ÄŁ
H azÄ±r
Ġ !
et iniĠ
stratej iĠ
b k
iz asyonuĠ
in asyonĠ
ER Ä°LER
Ã¢z Ã®
denĠ dahaĠ
dÃ¼ÅŁÃ¼n enĠ
l Ä±ydÄ±
danĠ dahaĠ
ĠSer best
ĠBan kasÄ±Ġ
as tÄ±r
ik ar
ak ir
zaman dÄ±r
geliÅŁ melerinĠ
ĠN ec
dÃ¼r Ã¼lebilir
Ã¼s yon
kur banĠ
birĠ gÃ¼nĠ
ĠBuĠ amaÃ§la
ik incil
Â µ
Ã¼rÃ¼n lerĠ
ĠP eki
tutum ĠveĠ
kavram dÄ±r
verim liliÄŁiĠ
ĠA RA
ĠgÃ¼n ey
evc ud
iÃ§ meĠ
Ġar aĠ
kar iyer
iÃ§inĠ gerekliĠ
Ġ up
pro ses
yeten eÄŁiĠ
gelin diÄŁindeĠ
Ã¶ÄŁretimĠ eleman
met n
anlayÄ±ÅŁ Ä±nÄ±nĠ
ic aĠ
top ar
orta maĠ
ĠsaÄŁ lÄ±ÄŁÄ±Ġ
ekĠ birĠ
ĠH id
hÃ¼kÃ¼m dar
kÃ¼ltÃ¼r Ã¼
Ġsor gu
ul malÄ±dÄ±r
Ġbar Ä±ÅŁ
dÃ¼zen leyenĠ
ĠS aat
Ġ ok
ĠBakan lÄ±ÄŁÄ±
v Ã¢n
ĠAn lam
Ġyum ur
eÅŁ liÄŁindeĠ
gÃ¶rÃ¼n Ã¼yor
c as
iÅŁ ĠsÃ¶zleÅŁ
azal masÄ±Ġ
ist ism
saÄŁlayanĠ birĠ
yol larÄ±Ġ
hay alĠ
ĠBuĠ Ã§erÃ§evedeĠ
konu larÄ±ndaĠ
L ond
var ĠmÄ±
H Ã¼s
hak larÄ±nÄ±nĠ
baÅŁ larÄ±ndaĠ
Ġl ev
vasÄ±tas Ä±ylaĠ
h ediy
tiv al
uz unluÄŁuĠ
Ġsistem leriĠ
Ġbilg ininĠ
taraf larÄ±nĠ
din lem
Ġs Ä±cakĠ
ing s
Ĩ Ĵ
lardanĠ sonraĠ
Ãľzer ineĠ
Ã¶neĠ Ã§Ä±kanĠ
ist alĠ
Ġdol dur
birbirindenĠ farklÄ±Ġ
= .
iÅŁÃ§ ininĠ
ĠgÃ¼n cel
ir aat
olma masÄ±
ĠolmakĠ Ã¼zere
al Ä±nĠ
Ġelektr ikĠ
eleĠ alanĠ
kapsam Ä±Ġ
masÄ±naĠnedenĠ olmaktadÄ±r
Ġ Ã¼n
eklen miÅŁtir
deÄŁiÅŁim ler
m ith
kiÅŁ ileriĠ
Ã¼ret enĠ
ĠMah all
oloj iĠveĠ
deÄŁerlendiril mesindeĠ
oksida tif
Al i
iÅŁlem lerĠ
sonuÃ§ larÄ±nÄ±nĠ
denĠ oluÅŁmaktadÄ±r
Ã§alÄ±ÅŁma yÄ±Ġ
ifadeĠ ettiÄŁiĠ
elveriÅŁ liĠ
stan dard
dro id
is ar
ĠY aĠdaĠ
plan lananĠ
ĠkiÅŁ iler
nÃ¼f usuĠ
Ġg e
nitel iÄŁindeĠ
met afor
ĠsÃ¶y ley
hareket eĠgeÃ§
lil iÄŁeĠ
Ġtarih ĠveĠ
ĠD anÄ±ÅŁ
kon umaĠ
ĠsÃ¶z Ġkonusudur
ĠÃ¶ÄŁrenc ininĠ
ĠA la
Ġs uyuĠ
gerektir mektedir
ĠA R
Ġgelenek selĠ
iÃ§inĠ bkz
aÃ§Ä±k lÄ±kĠ
fi iliĠ
kon sol
l Ã¢h
ortayaĠkoy duÄŁuĠ
Åŀ irket
Ã¼l dÃ¼
am balaj
it el
ĠZ ey
azal Ä±r
iÃ§ i
duÄŁ undaĠ
seviy esiĠ
ĠN edenĠ
olmakĠÃ¼zereĠ ikiĠ
kÃ¶ken liĠ
Ä° A
T Ã¼k
Ä° kiĠ
ĠkiÅŁ iselĠ
ortayaĠÃ§Ä±k tÄ±
unuĠ daĠ
Gel iÅŁtir
Ġyer leÅŁtir
dÃ¶nem lerindeĠ
Ã¼ elĠ
yÄ±k an
iz leyenĠ
olarakĠ gÃ¶rÃ¼l
ku lakĠ
ey in
teÅŁ his
deÄŁer lereĠ
kur u
ÅŁey h
ifadeĠ ileĠ
ĠK av
olmadÄ±ÄŁ Ä±nÄ±
bilinÃ§ liĠ
ĠS ovyet
kullan Ä±ÅŁ
Ġh ayataĠ
analiz i
Ãĩ Ä±k
mas yon
ĠTarih iĠ
I F
caÄŁ Ä±m
bÃ¶ brekĠ
kans eriĠ
ett ikleriniĠ
Ġis im
iÅŁlem inĠ
ĠD is
ge ometrikĠ
cÄ± larÄ±Ġ
Ġr enkĠ
Ġhizmet iĠ
maliyet leriĠ
ĠAk deniz
olur sak
ĠB oyut
Ġkullan Ä±cÄ±Ġ
R ad
Ġt or
s lan
muh taÃ§
ĠKiÅŁ ininĠ
ĠR ab
yoÄŁ unluÄŁuĠ
P an
re eĠ
iÅŁ lenenĠ
deÄŁer lerineĠ
kap s
Ã¼s kÃ¼r
y Ã¼c
YaÅŁ am
santr al
AtatÃ¼r k
ĠkÃ¶ ken
kah veĠ
ĠP araĠ
liÄŁ idir
Ar t
yÃ¼z ĠyÃ¼zeĠ
aÅŁaÄŁ Ä±yaĠ
L C
ĠP ay
aktif ĠolarakĠ
ĠolsaĠ da
k eriĠ
ĠAr aÃ§
larÄ±naĠ uygunĠ
M ut
kiĠ buĠ
Ġedil melidir
n al
performans Ä±nÄ±Ġ
it esi
ac asÄ±Ġ
ik met
ec kĠ
birĠ biÃ§imdeĠ
kad Ä±naĠ
enz im
tamam Ä±nÄ±nĠ
ĠÃ§ arp
meden iyet
dit ion
M en
aleyh ineĠ
for ex
ÅŁ unĠ
em ekliĠ
bildir im
Str atej
uy ucuĠ
yÃ¶ntem ininĠ
lanmÄ±ÅŁ tÄ±
ĠtÃ¼r Ã¼
ĠÃĩ ek
ĠyÃ¶n Ã¼ndenĠ
c eb
Ã§oÄŁ ul
ĠE kim
zamanĠ iÃ§indeĠ
ĠÃ§ Ä±
birĠ takÄ±m
ar ar
laÅŁtÄ±r Ä±lmÄ±ÅŁ
tarih indeĠ
ad ig
V en
farklÄ±lÄ±kĠ gÃ¶stermektedir
kas ab
ak Ã§
dÄ±k larÄ±
Ä°ÅŁ letm
ĠdÄ±ÅŁ ar
Ġ qu
ĠkarÅŁ Ä±t
c y
o caĠ
etkiĠ edenĠ
Ġ Ã¼niversiteĠ
tablo daĠ
Ġku maÅŁ
Ġh aberĠ
B et
ti mal
hayat Ä±nÄ±nĠ
Ġsonr aĠdaĠ
Ġthe ir
Ã¶zel liÄŁineĠ
Ã» h
sÄ±z dÄ±r
neĠ yap
Ġis tasyon
yÄ±l dÄ±r
lardaĠ bulun
amp ir
ik ram
f ac
c ariĠ
Ġbilg isiĠ
ar r
Ã¼lk elerindeĠ
kadÄ±n larĠ
a kam
m eb
ĠteÅŁ kil
uygulan acakĠ
Ġh akĠ
sÃ¶yled iÄŁiĠ
ĠÃĩalÄ±ÅŁ anlarÄ±nĠ
Åŀ ehir
y in
mekleĠ birlikteĠ
kar araĠ
Ġ Ã¼Ã§Ã¼ncÃ¼
ĠkiÅŁ ilerĠ
Ä±ldÄ±ÄŁ Ä±
maktaĠ veĠbuĠ
gÃ¶z leriĠ
tarafÄ±ndanĠ yapÄ±lanĠ
ik ola
kon ferans
ĠdÃ¶n g
ĠTem elĠ
gÃ¶ Ã§Ġ
uzunĠ vadeliĠ
un anĠ
ĠRek lam
ok al
fes Ã¶r
ĠF il
kÄ±l Ä±n
v Ã¢
kullan maktadÄ±r
ĠEr iÅŁim
or al
Ġ Ä±Ġ
al dat
ĠhaleĠ gel
aÄŁÄ±rlÄ±klÄ±Ġ olarakĠ
bas amak
ak lar
ĠBuĠ yaklaÅŁÄ±m
etkil end
ed ikĠ
yeter likĠ
Ä±l mamÄ±ÅŁ
Ä±ndanĠ dolayÄ±Ġ
yoÄŁunĠ olarakĠ
ĠgrubunaĠ gÃ¶reĠ
ĠAn d
ÅŁar ap
Ì Ħ
enĠ kÃ¼Ã§Ã¼kĠ
P R
der seĠ
iy esiĠ
belir lediÄŁiĠ
ĠKadÄ±n larÄ±nĠ
ĠoĠ zamanĠ
birey lereĠ
or e
or tek
ind eki
duyar lÄ±lÄ±kĠ
Ġmez unuĠ
gÃ¶ster enĠbirĠ
dair eĠ
id oÄŁ
altÄ±naĠ alÄ±n
i mal
ĠsÃ¼r enĠ
for mu
yer inĠ
seÃ§en ekĠ
t iÄŁi
baÅŁar Ä±yaĠ
birĠarayaĠ gel
masÄ±nÄ±nĠ ardÄ±ndanĠ
saÄŁla yarakĠ
yurt taÅŁ
ĠS ad
ĠN e
kaynak lar
ĠS ez
Ġhap is
Ġtemel liĠ
ĠEnd Ã¼st
gil endir
okim yasalĠ
c Ä±kĠ
Ġgerek enĠ
politika larÄ±Ġ
endÃ¼st riĠ
yer indenĠ
beÅŁ inciĠ
Ã¶ tÃ¼rÃ¼Ġ
P o
Ġsig araĠ
s ing
Ġcev ab
Ä°mparator luÄŁu
Ã¶n lemekĠiÃ§inĠ
ĠTekn ikĠ
ĠD iz
ku lak
vakit ĠgeÃ§ir
Ġt Ä±pkÄ±Ġ
A ileĠ
bak arakĠ
id erĠ
saÄŁlÄ±k lÄ±ĠbirĠ
C ronbach
sistem indeĠ
dair Ġ
en ta
Ġh Ä±r
Ã§oÄŁ al
lÃ¼ÄŁ Ã¼nÃ¼
Ġmod elĠ
lan masÄ±nÄ±Ġ
Ġt onĠ
benĠ deĠ
bir isidir
ik tenĠ
ĠT or
ÅŁans Ä±Ġ
larĠ Ã¼zerindenĠ
Ġs y
ser i
mey ecekĠ
ĠBit k
ud Ã¼s
var lÄ±ÄŁÄ±nĠ
Ä±ylaĠ birlikteĠ
o uĠ
ĠW il
Ġsaat likĠ
eceÄŁ ininĠ
profesyon elĠ
merkez indeĠ
Ã® b
id diĠ
sistem i
iyor saĠ
pro f
for ma
Ġver ileriĠ
eler ini
soruÅŁtur maĠ
Ġse yahat
Ġb ant
El ektr
ikinciĠ yar
laÅŁtÄ±r Ä±lmasÄ±Ġ
ĠOr adaĠ
anĠ Ã¶nceĠ
ih tivaĠ
ek er
ĠR uh
ayr Ä±nt
S aray
prote in
m oment
os eĠ
ĠBuĠ sÃ¼reÃ§
hareket liĠ
ok ard
uz un
luÄŁ unuĠ
ikiĠ kat
part ikÃ¼l
ob b
ya bilirsiniz
alt yapÄ±Ġ
U n
etm ektir
Ġn r
ifad eleriĠ
etkilem iÅŁtir
leriĠ olanĠ
miÅŁ ler
Ã§evres indekiĠ
dÃ¼ÅŁ er
davaĠ aÃ§
tan siyonĠ
don an
kazan mÄ±ÅŁtÄ±r
ĠP a
sil in
r ik
abilir iz
lem ent
eldeĠ etmekĠiÃ§inĠ
ol e
var dÄ±Ġ
Ã¶n lemekĠ
ev et
ham ur
Ã¼rÃ¼nĠ veĠ
pil ot
la ĠkarÅŁÄ±laÅŁ
eyz aj
geriĠ dÃ¶nÃ¼ÅŁ
eÅŁ iĠ
kÃ¼ltÃ¼r Ã¼nĠ
fazlas Ä±nÄ±Ġ
tem inat
koÅŁul lardaĠ
ĠS un
karar larÄ±Ġ
Ġor du
kal e
ĠÃĸ merĠ
ĠRus yaĠ
Ã§alÄ±ÅŁma larda
destek lerĠ
ĠS ak
yaÅŁ taĠ
insan lÄ±kĠ
ÅŁek li
program Ä±nĠ
Ãľ N
Ġkap asit
masÄ±Ġ gerekenĠ
ĠH Ä±rist
Ġseviy esineĠ
mekĠ ister
yas Ä±ndaĠ
ta kĠ
Ġkompl eks
ĠU Ã§
itir af
r aÄŁÄ±Ġ
ĠK ral
Ġk linikĠ
ama ÅŁÄ±r
Ã¶zellikleĠ deĠ
p re
Ġsem ptom
Ġtut ul
uzman lÄ±kĠ
karmaÅŁ Ä±k
mesineĠ sebep
olduÄŁuĠ dÃ¼ÅŁÃ¼nÃ¼lmektedir
ĠmÃ¼ hendis
bildir ilmektedir
mekĠist eyenĠ
Yah udiĠ
Ġist ihdam
birbir leriniĠ
at lÄ±Ġ
kad Ä±nÄ±Ġ
ilk Ã¶ÄŁretimĠ
mez ler
ekonom ininĠ
ĠEr zurum
Ġr en
ĠB eb
san alĠ
say Ä±labilir
of is
Ġt itr
boÅŁ lukĠ
ÅŁ ebek
Ã¶ÄŁretim iĠ
deÄŁiÅŁken likĠ
Ä±yor dum
Ġtr av
m g
deÄŁiÅŁiklik leriĠ
san dal
sistem lerininĠ
genÃ§ lerinĠ
ÅŁiddet iĠ
ĠBaÄŁ Ä±msÄ±z
ĠAd alet
hal iniĠ
bÃ¼yÃ¼k lÃ¼k
oy undaĠ
sun ulmaktadÄ±r
yetiÅŁk in
ĠÃĸÄŁr en
rast geleĠ
Ã§eÅŁit lilikĠ
ver imiĠ
Kon sey
at e
B azÄ±Ġ
ilm edenĠ
G B
lan malÄ±dÄ±r
Ġbo ya
Ġmev zu
etkiliĠ olanĠ
saÄŁlaya bilir
kullan makĠ
k up
Ä±lanĠ veĠ
n ciĠ
Ġh eĠ
an da
madd eler
G ar
Ġ Ã¶r
sp on
yem ek
iya tÄ±
ila Ã§Ġ
Ġik tis
sim um
gÃ¶rÃ¼ÅŁ melerĠ
saldÄ±r Ä±Ġ
Ġmaddes ininĠ
mesiĠ gerekir
Ġon un
DeÄŁer lendirmeĠ
ineĠ deĠ
faaliyet ler
sÄ±k lÄ±ÄŁÄ±Ġ
abilir ĠveĠ
Ġ kaynaÄŁÄ±Ġ
ĠÄ°nsan lar
yÃ¼z lerceĠ
H a
gerekÃ§ esiyleĠ
ĠÅŀim di
su yaĠ
gÃ¼n celĠ
lanÄ±r ĠveĠ
ĠB M
ĠK Ä±
Son uÃ§
ma alesef
lamadanĠ Ã¶nceĠ
ap ur
ileÅŁ meĠ
ann esiĠ
belir leyic
bilgiĠ sahibiĠ
muay en
ilir ken
ev Ġsahip
oku yanĠ
ett ekiĠ
emiz iĠ
aÃ§Ä±k lananĠ
Ġt en
konuĠ olanĠ
b Ä±Ã§
oh n
doy um
Ġyaz Ä±lÄ±m
lan maz
mÄ±ÅŁ ĠgibiĠ
lul lah
as p
Ġso kak
kas Ä±nÄ±Ġ
etik et
kullanÄ±l makĠÃ¼zereĠ
ĠolduÄŁ ununĠ
ĠÃľlkem iz
ĠDer n
b ekĠ
gÃ¶ster erekĠ
Ä±mÄ±Ġ iÃ§inĠ
iler inin
su lamaĠ
riv ayetĠ
dav asÄ±Ġ
Ġkavram Ä±nÄ±nĠ
ÃĩÄ°N DEK
y Ä±z
vi tam
art erĠ
ĠÃ§alÄ±ÅŁ anĠ
teĠ bulun
ku laÄŁ
ĠGeÃ§ enĠ
lerinĠ birĠ
y emeĠ
meyeĠÃ§alÄ±ÅŁ Ä±lmÄ±ÅŁtÄ±r
Ã ¾
iler imiz
ĠM c
ĠolduÄŁunuĠ veĠ
Ġm iner
F iz
birik im
ata tes
vurgu lamÄ±ÅŁtÄ±r
ep e
man tÄ±kĠ
ĠMÃ¼ÅŁter iĠ
m Ã¼st
enĠ eskiĠ
Or gan
Te or
Ã¼ks el
Ku vvet
yas akĠ
Ã§ in
sev giĠ
Ġs oy
d id
K ir
mesineĠ yÃ¶nelikĠ
dÃ¼ÅŁ tÃ¼
Ã¼ vey
ĠiÃ§er isindekiĠ
Ã¶nlem lerĠ
âĢ¦ ĊĊ
el leriĠ
T ak
list eĠ
izinĠ veril
kir eÃ§
ĠF aktÃ¶r
Ġ ÄŁ
denĠ veĠ
ĠF e
mah iyet
muhtemel enĠ
devr eyeĠgir
t iz
model leriĠ
tespitĠedil di
Ġol say
c ur
w ill
ĠÅŀ Ã¼p
m L
acak larÄ±Ġ
j i
Ã§Ä± larÄ±nĠ
zir v
Ġs osyo
Ã§Ä±k masÄ±Ġ
ĠdÃ¼zey lerininĠ
Ð µ
ol mayÄ±p
baÄŁÄ±m lÄ±lÄ±kĠ
Ġpazar lamaĠ
tÃ¶r en
ĠBir ĠdeĠ
ta ÄŁ
ĠgÃ¼c Ã¼Ġ
L Ä°
ĠK il
ko Ã§
mod eldeĠ
kontrol ĠaltÄ±naĠ
ĠbiÃ§im indeĠ
ĠM is
W hit
tem eliĠ
GÃ¼n eÅŁ
dik tenĠsonra
basit ĠbirĠ
oran la
m edir
Ġ eldeĠedilenĠ
ĠTas arÄ±m
Ġ Ùİ
duk Ã§aĠ
leriniĠ yerineĠgetir
Ġola caÄŁÄ±Ġ
S ey
inler ceĠ
ĠO lum
st eĠ
ĠyÄ±l larÄ±Ġ
man tar
tan siyon
mÃ¼ ellif
ger gin
Ã§ atÄ±Ġ
ÃĩÄ°NDEK Ä°LER
kullanÄ±l masÄ±
mak laĠ
s Ä±y
eng iz
Ã¶nemliĠbirĠ yereĠ
ĠyaĠ da
Ġkend isiĠ
ĠS Ä±k
n ehir
olojikĠ olarakĠ
lo gan
dÃ¼k tenĠsonraĠ
oluÅŁ masÄ±Ġ
V II
al dÄ±r
sonuc u
la yarak
meler eĠ
larĠ Ã¼zerineĠ
ĠÂµ g
ĠO smanĠ
kÄ±r kĠ
Ġgrup larÄ±nÄ±nĠ
avun maĠ
gÃ¶z Ġat
Ġkes inlikleĠ
durum larda
yÃ¼ksel enĠ
um uzunĠ
E A
k eÃ§
is yan
romb osit
ĠolmakĠÃ¼zereĠ ikiĠ
sal on
Ġ inceĠ
edil en
stratej ileriĠ
de der
Ġbir ik
Ġgru baĠ
r Ã¼zgar
emem ektedir
Ã¼retim inĠ
Ġmey veĠ
ĠdeÄŁil Ġmi
dÃ¼ÅŁÃ¼nc eleriĠ
ĠÄ° talya
grup lar
ĠUlus al
d ing
bÃ¶lg eselĠ
artÄ±ÅŁ aĠ
sub ay
Ġg ebel
ĠyaÅŁ ĠveĠ
konu lar
ayn enĠ
Ġik lim
Ġ( "
ĠâĢ ¢
kÃ¶t Ã¼yeĠ
it ĠveĠ
Ã¼ÄŁ Ã¼nÃ¼nĠ
ĠyÄ±lÄ±naĠ kadar
k l
kontrol Ã¼
Ġz atenĠ
yapÄ±l masÄ±naĠ
hasta lar
zihin selĠ
bab anÄ±nĠ
dav et
gereksin imĠ
Ã¼r ler
danÄ±ÅŁ man
Av ustur
hukuk uĠ
yÄ±l larÄ±ndaĠ
ulmuÅŁ ĠveĠ
kend indenĠ
Ġgel ecekĠ
ĠsaÄŁ lamaktadÄ±r
bir er
kontrol ĠgrubuĠ
olduÄŁ uncaĠ
ĠkÃ¶ tÃ¼Ġ
ett iÄŁi
H acÄ±Ġ
ART IÅŀMA
Ġ ilm
har i
mesineĠ yolĠaÃ§
ĠBilg ilerĠ
bunaĠ baÄŁlÄ±ĠolarakĠ
karar sÄ±z
anaĠ kadar
hareket le
ret ur
nedenĠ olmuÅŁtur
ĠM Ã¢
e lan
ihtiyaÃ§ larÄ±nÄ±nĠ
D anÄ±ÅŁ
Ġderec edeĠ
yÃ¶ntem lerleĠ
unaĠ veĠ
ĠD on
uÃ§ akĠ
cez asÄ±Ġ
yansÄ± tanĠ
ĠgeÃ§ iÅŁ
ĠP eygamberĠ
mas yonĠ
hom ojenĠ
ĠSonuÃ§ taĠ
z il
erĠ birĠ
zaman lÄ±Ġ
Ġs Ä±kĠ
Ä° letiÅŁim
ĠÃĩoc uÄŁunĠ
zan n
biÃ§im indeĠ
ĠEt kin
alt Ä±ndanĠ
ĠÃ¶zellikleĠ deĠ
abil meĠ
oran Ä±nÄ±Ġ
puan larÄ±nÄ±nĠ
iÅŁ ĠgÃ¶r
celen enĠ
ĠN ef
ifadeĠ etmekĠ
Ġbon us
faaliyet lerineĠ
hafta daĠ
Ã¶y ley
Ġpiya sas
Ġek lem
ĠAn neĠ
ÅŁer h
Ġ engel
uÄŁ ur
buĠ Ã§alÄ±ÅŁmadaĠ
n ur
sÃ¶zc Ã¼kĠ
yan gÄ±nĠ
Ġsp ektrum
dÃ¼ÅŁÃ¼nÃ¼l mÃ¼ÅŁtÃ¼r
ĠÃ§erÃ§ev esindeĠ
Ã§ esiĠ
p aĠ
suĠ ileĠ
olun caĠ
ĠÃ§alÄ±ÅŁma larÄ±ndaĠ
c Ã¼l
ĠS Ä±cak
R ek
Ġ alg
ĠGÃ¶r selĠ
yazar Ä±nĠ
H ey
gÃ¶r mektedir
EÄŁ itimĠ
ya j
ilmesiĠ ileĠ
dikkat Ġetm
hat alÄ±Ġ
Ġ yakÄ±n
karakter izeĠ
rak siyon
Ã¶neĠ Ã§Ä±kar
leriĠ arasÄ±ndakiĠ
derin lemesineĠ
un van
dola b
Ġteh dit
ag e
ĠoluÅŁtur ur
ĠÄ° y
cÄ±lÄ±ÄŁ Ä±nĠ
ĠÅŁekl indedir
iliÅŁk iyeĠ
Ġbel ediyeĠ
ĠF iyat
ĠÃľr Ã¼nĠ
hac im
kor elasyon
med im
kavram sal
meydanaĠ gelmektedir
ĠÃĸÄŁrenc iĠ
basÄ±n cÄ±Ġ
dÃ¶n Ã¼p
KÄ±z Ä±l
Ġm it
uÄŁr amÄ±ÅŁ
T Ãĸ
edd Ã¼t
ser g
ĠÅŁeh r
getir ilmiÅŁtir
Ġak l
Ġz iyaret
ĠM ic
aÅŁa masÄ±Ġ
Ä°slam iĠ
gan istan
hastalÄ±k larÄ±nĠ
say Ä±salĠ
Ġolduk larÄ±nÄ±Ġ
Ã§ ub
Ġf utbol
mÃ¼d det
say Ä±
h ed
sil indir
Ġden ilenĠ
ĠF otoÄŁraf
eÄŁitim i
Ã¼st esindenĠ
a tak
bil iyorum
oran Ä±ndaĠ
Ġa larakĠ
teb liÄŁ
acebo ok
pop Ã¼lasyon
ĠK iÅŁiĠ
Ġ kadÄ±nÄ±nĠ
bran ÅŁ
istem ez
iy enĠ
tar ikat
yoÄŁ un
st ok
gÃ¶rÃ¼n enĠ
Kom isyon
res imĠ
á¸ ¥
Ġ mesaf
kom p
unaĠ iliÅŁkinĠ
ma lat
Ġprote in
ĠA kadem
tem eldeĠ
mu hak
derec esiĠ
Ġ Ï
E ner
Ġdef ter
sÃ¶z Ã¼Ġ
eÄŁlenc eliĠ
Ã¶z Ġyeter
Gel iÅŁ
olduÄŁunaĠ inan
alan Ä±nÄ±Ġ
Ã¶nemliĠbirĠ rolĠoyn
Ġp encer
gid iÅŁ
sonuc aĠ
taĠ bulun
gerÃ§ek tir
al dÄ±m
Ġhayat Ä±Ġ
DeÄŁ iÅŁ
ÅŁ ev
oluÅŁ muÅŁ
ĠBuĠdurum da
ub lic
n eviĠ
Ġr ed
ĠbaÅŁlÄ±ÄŁÄ±Ġ altÄ±ndaĠ
ĠÃĸrn eklem
ĠgeliÅŁ imiĠ
r ib
top lulukĠ
taÅŁÄ±y Ä±cÄ±Ġ
Ã¢z Ä±m
enĠ gÃ¼zelĠ
ĠA lanĠ
ĠL ider
ĠC anlÄ±Ġ
S tandart
ifadeĠet ti
Ġto ĠtheĠ
tab anĠ
ogen ez
hÃ¼cr elerinĠ
ĠolanĠ veĠ
BÃ¶lg esi
doÄŁ alĠolarakĠ
la j
bur adakiĠ
ĠÎ ±
sistem iniĠ
alg az
ĠsÄ±cak lÄ±kĠ
ĠPar is
Ġal ternatif
kÃ¼t leĠ
led im
Ġan daĠ
yaz Ä±nĠ
ĠC a
ĠA ÄŁr
op laz
Ã¶nem ineĠ
ĠOy unĠ
deÄŁerlendir mesiĠ
yorum lar
met as
ĠF ar
zincir iĠ
ĠsÃ¼rec iniĠ
baÅŁtaĠ olmakĠÃ¼zereĠ
meyeĠ veĠ
yaz Ä±
silah lÄ±Ġ
on erĠ
Ã§okĠ zor
aralÄ±ÄŁ Ä±ndaĠ
Ġp iÅŁ
Ġdurum undaĠ
eÄŁitim indeĠ
M oÄŁol
Ġs Ã¼l
imetr ikĠ
im ur
ster ior
ender es
es cort
gem iĠ
ic alĠ
ĠÂµ m
ĠÃ¼lk elerdeĠ
ĠÃ§eÅŁ id
ĠÃĸlÃ§ eÄŁinĠ
ĠC ezaĠ
geÃ§ en
ĠyÄ±l Ä±ndakiĠ
psik iyatr
Z ey
g es
ĠI rak
Ġtekn olojikĠ
standart Ġsap
Ġhar iÃ§
lan Ä±kĠ
c ilik
leriyleĠ ilgiliĠ
ineĠ baÄŁlÄ±Ġ
ar j
Devlet iĠ
BÃ¼yÃ¼kĠ MilletĠMec
M Ã¼cad
deÄŁiÅŁik liÄŁeĠ
Ġ aday
etkinĠ birĠÅŁekildeĠ
Ä° P
iÅŁley iÅŁ
muÅŁ ĠgibiĠ
d Ã¼Ġ
uyum uĠ
ĠÄ°n an
sun uyor
hr ac
TÃ¼rk Ã§e
ĠN az
Ġkazan dÄ±r
diÄŁiĠ gibi
etmeyeĠ Ã§alÄ±ÅŁ
Y Ä±lmaz
Ġver meĠ
en de
iy ilikĠ
Ġkim s
diÄŁiniĠ veĠ
med eniĠ
P as
anak kaleĠ
ĠD em
aray Ã¼z
tanÄ±m lanmaktadÄ±r
ĠïĤ §
ĠÃĩ ok
mes indekiĠ
Ã§ab asÄ±Ġ
eler imiz
yaÅŁan tÄ±
Ġhaf talÄ±kĠ
c ol
baÅŁvur u
yap ama
Ġp rat
yer leriĠ
bu lama
Ġh Ã¼c
ĠifadeleriniĠ kullandÄ±
Ä±naĠ kadarĠ
dah a
ĠkÄ±r mÄ±zÄ±Ġ
mas Ä±n
AK P
Ä° talya
ele manĠ
et lerinĠ
Part isiĠ
C Ġ
Ġad Ä±naĠ
hep siniĠ
kaydet ti
V III
iliÅŁkiler indeĠ
bir ebirĠ
olduÄŁuĠ kadar
milletvekil leri
daĠ yapÄ±lanĠ
birĠ diziĠ
du dak
Ġsonuc unda
mesiniĠ saÄŁlar
ayrÄ±ntÄ±lÄ±Ġ olarakĠ
ul uk
Ġyen ilik
Ã¶nc esiĠveĠ
ĠkÄ± yas
kut up
arkaĠ plan
M in
becer ileriniĠ
edil iyor
r in
op ro
ĠYÃ¼z ey
DÃ¼n ya
ĠD est
ĠÅŀ Ã¶yleĠ
ÃĸrgÃ¼t Ã¼
azal mÄ±ÅŁtÄ±r
ĠE p
Ġn edir
Ġkon santr
sÄ±nÄ±r lÄ±dÄ±r
sÃ¼n net
ar Ä±ndÄ±r
dÃ¼zen siz
gelec ektekiĠ
g Ã¼mrÃ¼kĠ
geÃ§ tikÃ§eĠ
inhib eĠ
aÃ§Ä±sÄ±ndanĠ Ã¶nemlidir
ruh sat
! ..
kon umuĠ
Ã¶lÃ§ ekteĠ
karar larÄ±nĠ
Ġc ilt
Ġyok tu
oks id
tam Ġter
eyeĠ sahip
Ġ- ,
Ġzar ar
tÄ±ÄŁ Ä±nÄ±
istih bar
gÃ¶rÃ¼n mektedir
bir eĠ
m Ã®
ileriĠ deĠ
is yanĠ
olma mÄ±ÅŁtÄ±r
ley ip
ĠbaÄŁ lÄ±Ġ
Ġin hib
yaptÄ±ÄŁÄ±Ġ Ã§alÄ±ÅŁmadaĠ
unĠ daĠ
al it
K urt
Ã§a dÄ±r
Ã§okĠ yÃ¼ksekĠ
Ä±k lar
gÃ¶zlem len
an atom
ĠN ot
Ġc eph
N et
et Ã¼
adÄ±mĠ at
Ã¼lk eleriĠ
ĠyÃ¼z Ã¼ndenĠ
Ġb ula
dil ek
dÃ¶n Ã¼m
Ã¼nc Ã¼l
katsay Ä±sÄ±
lerineĠ ait
Ã§ekir dekĠ
mez un
ĠÃ§alÄ±ÅŁma larÄ±Ġ
M ic
etkinlik ler
antik or
ket bol
bula bil
tah miniĠ
ind istanĠ
ĠK en
anla makĠiÃ§inĠ
ed ĠonĠ
ul masÄ±
kay daĠ
deÄŁil im
yazÄ±kĠ kiĠ
ĠSan ayiĠ
deÄŁerlendir meyeĠ
ann elerinĠ
yap an
Ãĸz elĠ
ĠM arkaĠ
Ġmus un
iliÅŁk ilerdeĠ
ĠGelenek sel
sorum ludur
ĠBununĠ dÄ±ÅŁÄ±ndaĠ
sÄ±z ĠveĠ
ter min
sen sÃ¶r
len me
Ä°s tatist
bÃ¶lg esiĠ
uygula masÄ±nÄ±nĠ
ail esininĠ
ĠEn gel
Ġ uzak
muh teÅŁem
ĠS Ã¼leymanĠ
B B
Ġ askeriĠ
ĠsÃ¶zc Ã¼k
Ġsev g
y iz
Ġs ine
mesindenĠ sonraĠ
par makĠ
Ġson ras
alanĠ veĠ
ĠYineĠ deĠ
ĠH ollan
A Z
Ġh oc
kendiĠ iÃ§indeĠ
D ay
y ur
ĠAk tif
geÃ§miÅŁ teĠ
K O
ĠÅŁ ark
ust aĠ
kabul Ġet
Ġmil liĠ
Ġkal kÄ±n
hemÅŁir elerinĠ
ĠÄ°b nÃ¼
on arÄ±m
Ġb ay
Ã§ isiĠ
sermay eninĠ
ÅŁ Ã¶
o du
Ä° h
ma cer
daĠ kal
gÃ¶z leĠ
H ad
ver ilerekĠ
yaÅŁama yaĠ
banka larÄ±nĠ
oluÅŁtur ulur
tern ation
ilk eleriĠ
riv Ã¢yet
ĠveĠ dahaĠ
ma dakiĠ
fa il
ĠyÃ¶ntem leriĠ
kÃ¼ltÃ¼r Ã¼nÃ¼nĠ
Ã¼s lu
masÄ±naĠ raÄŁmen
ek ranĠ
Ã® h
ic al
Ġ eldeĠedil
larÄ±ndanĠ biridir
iya taĠ
ĠK imiĠ
kar g
al lÄ±Ġ
kurum ĠveĠkuruluÅŁ
lÄ±k laraĠ
Ġal Ä±r
acakĠ birĠ
gÃ¶rÃ¼l meĠ
l Ã¼z
Ġ Ã§oÄŁuĠ
gÃ¶rÃ¼ÅŁ lerininĠ
ĠB UL
eyeĠ veĠ
iyor dum
Ġzih in
Ġar alÄ±k
kar diy
ĠdahaĠ fazlaĠ
yapÄ±landÄ±r Ä±lmÄ±ÅŁ
mayanĠ birĠ
ĠE g
dost uĠ
c ininĠ
fazlas Ä±Ġ
gir di
ĠÃĸn emliĠ
. (
ĠY em
Ã¶zel liÄŁi
Ä±ÅŁ Ä±nĠ
A G
Ä° ST
Ä±lmaz ĠbirĠ
verim lilikĠ
Ã¼s Ã¼nÃ¼Ġ
ner edenĠ
tÃ¼ÄŁ Ã¼Ġ
ma mÄ±ÅŁtÄ±
Ġ enfeksiyon
ey erekĠ
Ã¼ j
ĠYer el
Ġz incir
ik eĠ
tespit ĠetmiÅŁlerdir
de diĠ
tu haf
tecrÃ¼b eĠ
Ġ resmiĠ
ĠBun laraĠ
to matikĠ
ileĠ iliÅŁkiliĠ
herĠÅŁey inĠ
savun anĠ
iya bet
tas Ä±nÄ±nĠ
Ġsorum luluk
isininĠ deĠ
alÄ±ÅŁ ver
rej im
Ã¶zellik leriĠveĠ
otur anĠ
A g
G eĠ
larÄ±ndanĠbiriĠ olanĠ
pop Ã¼lerĠ
dahaĠiyiĠ birĠ
emin ist
aÅŁaÄŁÄ±dakiĠ gibidir
en i
mey eceÄŁiĠ
fer ent
mÄ±ÅŁ tÄ±m
Ä±ÄŁ Ä±nÄ±Ġ
ĠS aray
iÄŁ iyleĠ
eler e
Ä±naĠ sahiptir
ĠK art
du yanĠ
si onĠ
f rom
yayÄ±n lan
deÄŁiÅŁk eninĠ
tarih tenĠ
dik Ã§eĠ
ĠbaÅŁ lat
yararlan Ä±lmÄ±ÅŁtÄ±r
D iÄŁerĠ
Ã¶ÄŁren me
uÃ§ ucuĠ
dayan Ä±ÅŁ
larla ĠkarÅŁÄ±laÅŁ
lerindeĠ veĠ
ĠU r
etk isiz
ayn Ä±dÄ±r
eb i
Ġs omut
amaĠ veĠ
Ġyan Ä±l
takip Ġedil
sa kat
Ġ elĠ
sÄ±nÄ±f taĠ
led iÄŁimiz
Ãľniversit esi
Ġsosyal ĠmedyaĠ
ilerĠ arasÄ±ndaĠ
tat b
miÅŁ ĠgibiĠ
Ġ Ã§Ä±kÄ±ÅŁ
eÅŁ Ġzaman
mÃ¼ÅŁter ilerinĠ
bilg ileriniĠ
indir im
muh temelĠ
a laÅŁÄ±m
gÃ¶ster dikleriĠ
kadÄ±n laraĠ
kab aĠ
ortam Ä±nĠ
heyec anĠ
ĠProj eĠ
araÅŁtÄ±rmacÄ±Ġ tarafÄ±ndanĠ
yaz arĠ
Ġko ordin
yÃ¶netim indeĠ
Ä±k larÄ±nĠ
Ġr ep
yorum Ġyap
Ġl ez
doÄŁruĠ veĠ
ĠYar at
ĠNeĠ var
ĠC om
oz a
mam ul
katk Ä±lar
anlÄ± ur
uygulama larÄ±ndaĠ
ĠPol is
Ġmiktar Ä±nÄ±nĠ
olma yacaktÄ±r
s Ã¼b
Ġâ Ĺ
Ġs up
ÅŁey lerinĠ
kaynak lardaĠ
ĠsaÄŁ layanĠ
s iĠveĠ
Ġsev er
AtatÃ¼r kĠ
ĠKend iniĠ
durum undadÄ±r
Ã¼zerindeĠ birĠ
kan ununĠ
dÃ¼zey leriniĠ
ĠK Ä±lÄ±Ã§
Ã¼nc Ã¼
F orm
ĠdiyeĠsor du
zorun lulukĠ
tel evizyon
ĠL at
med ikleriĠ
ĠF atih
zengin leÅŁtir
ĠT E
baÅŁ lÄ±ÄŁÄ±Ġ
hiÃ§ Ġ
ĠbirĠ iliÅŁkiĠ
kar n
oc k
gebel ikĠ
iyet ĠveĠ
Bir inciĠ
ÅŁar j
Ġtespit ĠedilmiÅŁtir
eder ĠveĠ
aĠ gel
rah met
ĠS Ã¼t
Ġwh ich
ĠsaÄŁ laya
ver imĠ
Ġs eyr
ilerĠ deĠ
R as
sÃ¶z leriĠ
rah imĠ
maksim umĠ
ðĿ ľ
ĠBas kÄ±
kiĠ veĠ
ĠBuĠ gÃ¶rÃ¼ÅŁ
Ġtedav isiĠ
elektro t
h op
top la
pr ol
vit ro
aÄŁ Ä±ndaĠ
Ġcez aĠ
ilgilendir enĠ
oran Ä±nĠ
lerimiz eĠ
bÄ±r aka
Ġs iteĠ
o x
ac Ä±nĠ
ĠC ez
Ã§ ekti
I Ġ
mesl eÄŁiĠ
dayalÄ±Ġ birĠ
Ġdest ekĠ
lama lÄ±Ġ
ur eĠ
Ġat om
ifad elerĠ
Ġn an
yÃ¼k lem
gazet eĠ
H indistan
ĠKar adeniz
sĠ inĠ
Ġyar g
birik tir
haf talÄ±kĠ
ĠB alÄ±k
med iÄŁi
O t
har am
Ġsen esindeĠ
ĠT av
Ġmal zemeĠ
gerektir diÄŁiĠ
su daĠ
ĠK um
kom ÅŁ
s alt
ĠdÃ¼zey i
katkÄ±Ġ saÄŁla
taÅŁ Ä±t
g et
gÃ¶Ã§ menĠ
hiÃ§ ĠbirĠ
l iyordu
problem lerinĠ
cu lar
B ayram
Ã® ler
ĠdoÄŁr u
ak sine
Ġhasta larÄ±ndaĠ
yenilik Ã§iĠ
tahr ip
Ä±naĠ ulaÅŁ
Mu h
indenĠ itibarenĠ
getir ir
dahaĠ uygunĠ
sÄ±nÄ±r larÄ±nÄ±Ġ
erk esiĠ
Ã¼s Ã¼nÃ¼
birĠÅŁey iĠ
ĠGel iÅŁtir
fes h
Ä°ngil tereĠ
Ġhey ec
dok tr
ĠÃĩ iz
aÃ§Ä±kĠ birĠÅŁekildeĠ
Ã§ im
Ġ incelem
olmas aĠdaĠ
Ġsit eleriĠ
us unĠ
gerÃ§ekleÅŁ mesiĠ
maruz ĠkalanĠ
Ġd iliĠ
Ġk Ã¼l
Ġy org
veren giĠ
ĠoluÅŁtur anĠ
Ġhid ro
st ur
sÃ¶ylem iÅŁ
Ġ verilenĠ
las s
it t
ÅŁif r
il emez
hidro jenĠ
Ġfark lÄ±
temel enĠ
yan g
ĠkiÅŁ idenĠ
ĠD olay
Ä±lÄ±Ġ birĠ
ders Ġkitap
Ġproj eĠ
yan i
T ev
zem in
Ġfinans al
Ġsistem iniĠ
kontrol Ã¼Ġ
kent selĠ
larÄ±Ġ birĠ
iler iyeĠ
par lament
fir malar
iz n
kat Ä±lmÄ±ÅŁtÄ±r
ĠR Ã¼
ĠBuĠamaÃ§ laĠ
Ġr is
Ġden etimĠ
lan Ä±nĠ
dÃ¼ÄŁ Ã¼nde
kabul ĠedenĠ
O G
S ad
Ä±naĠ ait
ĠDoÄŁ um
mu af
yo ur
daÄŁ Ä±
yas yon
Ã¶ÄŁretim indeĠ
ĠA teÅŁ
bulunanĠ birĠ
Ġak ÅŁam
ĠK er
kÃ¶pr Ã¼
olmadÄ±ÄŁÄ±Ġ iÃ§inĠ
ebilecekĠ birĠ
eyeĠ kadarĠ
ĠBuĠ nokta
Ġ eksik
Ġgel di
hid rol
Ġboyut uĠ
bÃ¼y Ã¼
larÄ±naĠ ulaÅŁ
eb iĠ
ĠâĪ Ī
Ġ etkisiĠ
ĠH ukukĠ
gen otip
Ã§ am
neĠ olduÄŁunuĠ
kay maĠ
mÃ¼r acaat
Y eÅŁil
kul Ã¼p
belirter ekĠ
deÄŁerlendiril di
op o
mÄ±ÅŁĠveĠ buĠ
Ġdok uĠ
ĠDevlet inĠ
Ġt anÄ±ÅŁ
hareket leriĠ
elik le
Ġ Ã§ocuÄŁ
Ġal dÄ±ÄŁÄ±Ġ
ortalama larÄ±nÄ±nĠ
ayr Ä±mĠ
Ġpay laÅŁÄ±m
dÄ±ÄŁ Ä±naĠ
iÃ§ indedir
uÄŁ aĠ
kÄ±sÄ±t lÄ±Ġ
masÄ±Ġ daĠ
Ġm Ã¼n
ĠÃĸÄŁr etim
ett iÄŁiniz
Ġseviy edeĠ
eh an
tÃ¼ÄŁ Ã¼
yerĠ deÄŁiÅŁtir
ĠR as
laf z
avantaj lÄ±Ġ
dolay lÄ±ĠolarakĠ
so kaÄŁ
Ã¢ let
Ġtarih i
adÄ±ÄŁ Ä±nÄ±Ġ
aÃ§Ä±k layanĠ
ĠBur sa
mah rum
yel paz
ĠinÅŁ aat
mal Ä±ydÄ±
masÄ±Ġ gerekmektedir
destek leyiciĠ
geÃ§ir diÄŁiĠ
Ki tap
mal Ä±nĠ
alar ak
B a
ihtiyaÃ§Ġ vardÄ±r
cin ayet
ilenĠ veĠ
uÄŁr at
kabul Ġeder
um u
Ã§okĠ Ã§eÅŁitliĠ
ineĠ kadar
M Ã¢
tas Ã¶z
ne w
Ġkim yasal
uÃ§ luĠ
il iÄŁi
savaÅŁ Ä±nĠ
belirg inĠbirĠ
ĠC ih
ĠDolayÄ±sÄ±yla ĠbuĠ
ĠiÃ§er iÄŁiĠ
s okul
ger eÃ§
Ġs tandard
yap Ä±yoruz
lardanĠ veĠ
ortak lÄ±kĠ
ĠsÄ±v Ä±Ġ
us h
Ġn em
il la
T or
katÄ±l dÄ±ÄŁÄ±Ġ
anneĠ veĠ
iv anĠ
gerÃ§ekĠ birĠ
ta dÄ±r
Ã§ ir
met ninĠ
Ã§evir iĠ
yoÄŁ unlukĠ
akadem isyen
Ġdurum dadÄ±r
ma makĠ
us eĠ
evv elĠ
ortayaĠkon muÅŁtur
gÃ¶rdÃ¼k leriĠ
takib enĠ
Ġpro fil
Ġm el
ĠL isans
S Ġ
it meĠ
yapÄ±l dÄ±ÄŁÄ±nÄ±Ġ
h ir
k uz
at Ã¶ly
F ener
ok ratikĠ
nam eĠ
Ä±Ġ iseĠ
kavram Ä±nĠ
say Ä±s
an lardaĠ
ek mekĠ
Ġed erkenĠ
inÅŁaĠ edil
ir del
takdir de
v iÅŁ
dÃ¼ÅŁÃ¼nÃ¼l dÃ¼ÄŁÃ¼ndeĠ
tÃ¼ketim iĠ
Ġk lor
= -
Ġkelim esininĠ
husu staĠ
kapsam Ä±naĠ
ĠMes elaĠ
ĠS ultan
T el
bÃ¶lg elerindeĠ
getir enĠ
Ġol masÄ±ndanĠ
el eÅŁ
lar ken
kaynaÄŁ Ä±nÄ±Ġ
Ġban kaĠ
al ev
Ä±labil eceÄŁiĠ
et erĠ
ĠBor Ã§
ĠD iyarbakÄ±r
K Ã¼Ã§Ã¼kĠ
ay daĠ
Ġy etkil
ĠÄ° ranĠ
Ġkelim eĠ
mod eleĠ
ĠBununĠ nedeniĠ
unsur lar
kÄ±s Ä±mĠ
ic s
ĠTem el
amac Ä±nÄ±Ġ
M el
m Ã¼slÃ¼
ĠMerkez iĠ
Ġkom pozit
Åŀ TIR
b Ã¢
ak larÄ±nĠ
karar Ä±nĠ
faktÃ¶r Ã¼
orta j
ebeveyn lerinĠ
ez ber
mahal leĠ
an Ä±n
proj eninĠ
D el
olmasÄ±Ġ gerekir
re aktif
ĠbaÅŁ la
k ilĠedenĠ
Ġk ereĠ
Ã¢ÅŁ Ä±kĠ
Ġn od
ed iÄŁiniz
Ã¼l Ã¼Ġ
baÄŁÄ±msÄ±z ĠbirĠ
Ġhas sas
ilmiÅŁ ĠbirĠ
al Ä±mÄ±Ġ
ism iniĠ
A la
D D
larÄ±nÄ±nĠ birĠ
sonĠ olarakĠ
Ġsay Ä±
hastan eyeĠ
paralel likĠ
il diktenĠsonraĠ
gÃ¶z lerĠ
emey ecekĠ
deÄŁil Ġmi
ĠD air
ĠT V
geliÅŁ mesiĠ
Ġv ol
arkas Ä±ndanĠ
otor iteĠ
k Ä±lmaktadÄ±r
mÃ¼n aseb
belir lemeĠ
sÃ¼r enĠ
ĠBelir t
dÃ¶nÃ¼ÅŁ Ã¼r
yÃ¶ntem leĠ
ĠyÃ¶netic ilerininĠ
uygulama larĠ
Ġgrup taĠ
Ġn am
bir indenĠ
kaynak larÄ±nÄ±Ġ
yaÅŁ ayan
ĠD an
oĠ zaman
g eb
C ovid
D iyarbakÄ±r
il mekĠ
tanÄ±n anĠ
Ã§ ukur
ĠÃľr Ã¼n
Ġkal kÄ±nmaĠ
iÅŁ lerdeĠ
ĠAbdÃ¼l ham
Or t
ĠaÄŁ Ä±z
P C
ak laĠ
im um
Ġp ir
gr ad
ĠdiyeĠ baÄŁÄ±r
Ġanlam Ä±ndaĠ
teĠ deĠ
enĠ iy
astr onom
edec ektir
iktid arĠ
baÄŁ Ä±Ġ
lanÄ±r ken
kÄ±s alt
a ut
NA TO
C ad
aÃ§Ä±l Ä±ÅŁ
asyon unuĠ
ot t
ler ĠhakkÄ±ndaĠ
Ã§ar ÅŁ
Ki tab
ikiĠ yÄ±l
gÃ¶ster ildiÄŁiĠ
Ã¼t fenĠ
aÅŁ ir
abil iyor
karar lÄ±Ġ
yuvar lakĠ
nes s
yar aĠ
ĠG Ã¶l
alan laraĠ
Ġgrup larÄ±Ġ
karÅŁÄ±laÅŁ tÄ±ÄŁÄ±Ġ
em zir
vatandaÅŁ larÄ±nĠ
ĠK onuĠ
K Y
meĠ gibiĠ
karÅŁÄ±laÅŁtÄ±r Ä±lmasÄ±Ġ
m iyordu
er kĠ
p el
neden sellikĠ
ĠolduÄŁ unuz
alg Ä±larÄ±Ġ
Ġkr onikĠ
rut inĠ
Ġgel iyor
olmasÄ±Ġ iÃ§inĠ
aĠ yÃ¶nelikĠ
iÄŁ inden
tut umuĠ
Azerbay canĠ
gen eĠ
ĠsÄ±nÄ±f landÄ±r
Ã ¡
Ġs olunum
lay Ä±pĠ
P V
el eyenĠ
Ġhasta daĠ
eldeĠ etmekĠ
gÄ± lananĠ
Ġ davran
film inĠ
p encereĠ
engel ler
Ġtoplam Ġ
dayan Ä±mÄ±Ġ
uygula dÄ±ÄŁÄ±Ġ
y ip
yaklaÅŁÄ±m Ä±nĠ
buĠdurum unĠ
olmas aĠ
iy edeĠ
rabz onĠ
oz yonĠ
n iyetiĠ
sonuÃ§ laraĠ
Ġb lok
Er k
Ã¶p ortaj
koÅŁul larÄ±ndaĠ
olduÄŁuĠ bulunmuÅŁtur
artÄ±r maktadÄ±r
S iz
m ede
) -
fa lanĠ
gel diĠ
" ;
sÃ¼r e
Ġherkes inĠ
kullanÄ±l masÄ±nÄ±nĠ
lerindenĠbiriĠ olanĠ
gÃ¶z etim
ann am
luÄŁ unaĠ
okul larÄ±nĠ
am iĠ
Ġl ig
tÄ±ÄŁ Ä±m
ĠS i
ĠolacakĠ ÅŁekildeĠ
gir iÅŁĠ
baÅŁar Ä±sÄ±nÄ±Ġ
deÄŁerlendir medeĠ
is iteĠ
diÄŁiĠ gÃ¶rÃ¼lmektedir
at uar
Ġk orumaĠ
sin in
Ġh and
ĠÃ¼st eĠ
kÄ± v
eÅŁ yaĠ
Mahkem esi
danĠ Ã¶nceĠ
bÃ¶lÃ¼m Ã¼nÃ¼nĠ
aÅŁaÄŁ Ä±
tarih selĠ
Ã¶l enĠ
araÅŁtÄ±rma cÄ±
un us
ĠK eÅŁ
konu dur
ran ÅŁ
H aber
L Ä°K
B oÄŁaz
Ġa kademikĠ
temiz likĠ
ĠgÃ¼n lerdeĠ
Ã§ iment
iler dir
um um
kararĠ veril
Ġkan unĠ
in siz
yap Ä±mÄ±Ġ
ic ilerinĠ
ĠHak k
Ġsiya sal
deÄŁiÅŁiklik lereĠ
bul muÅŁlardÄ±r
t etk
c umhur
istatistikselĠ aÃ§Ä±danĠ
herĠ neĠkadar
Ġolan larÄ±nĠ
kom pozisyon
adÄ±m larĠ
ev lat
Ġol duĠ
Ã¼lk elerdenĠ
Ġmet in
Ġbas kÄ±Ġ
Ġ eÄŁitimiĠ
Ä°n ternet
saÄŁlan malÄ±dÄ±r
s eks
est et
ent al
ep ey
ic iliÄŁiĠ
hayvan larÄ±nĠ
aÅŁ anĠ
ĠBun larÄ±Ġ
ĠveĠarkadaÅŁ larÄ±nÄ±nĠ
toplan tÄ±Ġ
c umhuriyet
ĠGen iÅŁ
tah s
kazan maĠ
ÅŁehir deĠ
of iz
tan Ä±kĠ
kullan Ä±cÄ±lar
caÄŁ Ä±
at al
eleĠalÄ±n maktadÄ±r
Ã¼zerindekiĠ etkisiĠ
hep sininĠ
oda sÄ±Ġ
ĠO ĠdaĠ
piyasa daĠ
bilgiĠ edin
MilliĠ EÄŁitim
ĠL i
ĠgÃ¼z elĠ
kud ret
Y eter
kurtul uÅŁ
Ç ¾
tek er
Tab lo
yolcul ukĠ
kol ektif
Ġh akĠveĠ
taraf lÄ±Ġ
efend im
gar ip
Ġtop lant
birbir lerindenĠ
edec eÄŁiĠ
ĠKÄ±z Ä±l
kend ilerininĠ
terc Ã¼meĠ
Ġ itibariyleĠ
ileĠ deĠ
Ġr et
s Ã¶k
Ġpro fesyon
co in
Ã¶zellik lereĠsahip
geliÅŁ meleriĠ
ec ikĠ
r if
gen likĠ
kazan Ã§Ġ
gÃ¼Ã§ lÃ¼kĠ
K Ã¢
izm iĠ
ĠÃľÃ§Ã¼nc Ã¼Ġ
hasta laraĠ
Ġ yay
yÃ¶ntem i
dayan Ä±m
doÄŁal ĠbirĠ
ĠRo man
kul Ã¼b
kitab Ä±nĠ
Ġal kol
oyunĠ oyn
kal Ä±Ġ
ĠÄ° ler
Ġsistem ineĠ
ĠenĠ iyiĠ
iktis at
serbest ĠbÄ±rak
ho uld
bulunanĠ veĠ
Ã» t
u at
mey leĠ
bilgiĠ ver
Ġtab a
cevap larĠ
vurgu layanĠ
MustafaĠ Kemal
Ġver ir
yolĠaÃ§ tÄ±ÄŁÄ±Ġ
Ġm Ã¼r
ĠiÅŁletm elerinĠ
S ivas
yumur taĠ
pro mos
Åŀ am
k ed
fak Ã¼lt
ta hakk
Ã» lullah
bek leyenĠ
v atan
sin om
aj ans
iÅŁ ĠbirliÄŁiĠ
bozuk luÄŁuĠ
ĠkarÅŁÄ±Ġ karÅŁÄ±yaĠ
Ã¼nc Ã¼Ġ
Ġto hum
iÄŁ imiĠ
Ġel ement
matemat iksel
ĠGÃ¶ ster
ĠkullanÄ±cÄ± larÄ±nĠ
r id
ih azÄ±r
Ã§alÄ±ÅŁma larÄ±nda
hÃ¼c res
C K
deÄŁiÅŁiklik lerinĠ
ĠhÃ¢ kim
sebeb i
geliÅŁtir diÄŁiĠ
ĠN ev
Ġy ans
kir aĠ
saÄŁlaya caÄŁÄ±Ġ
har ek
H ip
don dur
Ġ ihracat
Ä±ĠK er
u lasyon
ifadey le
larĠveĠ buĠ
sektÃ¶r Ã¼nÃ¼nĠ
Ġbul uÅŁ
Ã¢y etĠ
Ġgen otip
im tiyaz
Ã§oÄŁ undaĠ
tas Ä±nÄ±Ġ
g usuĠ
iseĠ birĠ
haber dar
madÄ±ÄŁ Ä±nÄ±
ĠolduÄŁuĠ gÃ¶rÃ¼lmÃ¼ÅŁtÃ¼r
iy alĠ
esiĠ birĠ
aras Ä±nÄ±Ġ
TC K
gayr etĠ
olan Ä±nĠ
liber al
ub eĠ
karÅŁÄ±laÅŁtÄ±r Ä±lmÄ±ÅŁtÄ±r
p ak
dÃ¼zen ley
ÅŁart Ä±Ġ
ĠYalnÄ±z caĠ
aÅŁ Ä±n
dey im
ĠK araĠ
Ġ Ã¼yeĠ
Ã® s
par kĠ
ĠF re
l Ġ
den t
sÃ¼r eninĠ
iy onuĠ
ko caĠ
pres yonĠ
Ġy emek
mesiniĠ saÄŁla
baÄŁlÄ±Ġ olarak
Ad alet
ÅŁ et
Ã§ Ã¶zel
Ġb uz
ht ev
A j
tit iz
d Ã¼s
Ġ yakÄ±nĠ
ortam Ä±nÄ±nĠ
ar saĠ
ol may
Ã¼m er
it lerinĠ
qu eĠ
hes abÄ±Ġ
l iydi
for mal
Ġbecer ileriĠ
Ä± ma
Ġal maĠ
dÄ±ÄŁ Ä±nÄ±nĠ
ĠRo maĠ
meler indeĠ
ma denĠ
ĠO ĠhaldeĠ
v aat
iĠ E
Ġp rop
meyiĠ amaÃ§
ĠB ayram
sah ibininĠ
mes eleĠ
kon gr
benz eyenĠ
e anĠ
yararlan arakĠ
say Ä±sÄ±ndaĠ
iyileÅŁtir meĠ
soÄŁ uk
c ek
Ġdok un
his siĠ
iyiĠ oluÅŁ
algÄ± lama
ĠÃ§ek ir
Ã§alÄ±ÅŁ anÄ±nĠ
haric indeĠ
Bir ey
keÅŁ if
ifa de
miktar Ä±
ĠkÃ¼ltÃ¼r Ã¼
tab anÄ±Ġ
yan Ä±sÄ±r
birĠ dahaĠ
hesap lan
ins id
a geĠ
uygunĠ ÅŁekildeĠ
K OBÄ°
ab leĠ
ĠKon gr
yetiÅŁk inĠ
aÃ§Ä±ÄŁaĠ Ã§Ä±kar
mekĠ zorundaĠkal
Ġger ilim
eÅŁ ikĠ
OÄŁ uz
y p
y etĠ
ikiĠ ayrÄ±Ġ
mon erĠ
ĠkÃ¼r eselĠ
kar maĠ
Ġsistem lerininĠ
uÄŁ la
tan rÄ±
tem in
A Ã§Ä±k
kapsam lÄ±ĠbirĠ
mek anĠ
ula caktÄ±r
d Ġ
i alĠ
iÅŁlem ininĠ
durum unaĠgÃ¶reĠ
umuz daĠ
sÃ¼rec i
eb Ã®
doÄŁ umĠ
larÄ±Ġ aÃ§Ä±sÄ±ndanĠ
mÄ±ÅŁ lardÄ±
tr aĠ
eldeĠedilenĠ verilerĠ
ortayaĠkon ulmuÅŁtur
vak f
Ġ uzman
kuÅŁ at
meyiĠ baÅŁar
dÄ±k larÄ±ndaĠ
duy ul
lerineĠ deĠ
taraf sÄ±z
eser lerindeĠ
yÃ¶netim inĠ
mal larÄ±nĠ
Hal k
ĠY Ã¼ksek
al dÄ±ÄŁÄ±nÄ±Ġ
Uygu lamaĠ
ayaĠ kadarĠ
sen ary
Ä±ÅŁ Ä±m
danÄ±ÅŁ manlÄ±kĠ
dÃ¶k Ã¼l
Ġanlam lÄ±Ġ
for maĠ
civar Ä±ndaĠ
aÃ§Ä±k lanmaktadÄ±r
ĠQ u
ĠkÄ±l Ä±n
F T
Ã¶nemliĠbirĠ yerĠ
ĠkullanÄ±m Ä±nÄ±nĠ
a i
Tar Ä±m
ĠbÃ¶lg esiĠ
etkinlik lerinĠ
diÄŁ ininĠ
yap Ä±ĠveĠ
p lat
MK Ġm
yo uĠ
f em
ĠBunaĠ karÅŁÄ±nĠ
Ġmad diĠ
ĠdiÄŁerĠ birĠ
Ã¼ks iyonĠ
Ġkim seninĠ
ma lardanĠ
mez unuĠ
aĠ iliÅŁkinĠ
miÅŁ Ġolup
ĠAmaĠ buĠ
D i
ir e
yok sun
ĠK O
Ġkor elasyonĠ
mey ecektir
Ġte mas
bÄ±rak Ä±p
viz yon
Ġs et
Ġ Ã¶rt
gel ince
Ä±l dÄ±ktanĠsonraĠ
ĠBunaĠ karÅŁÄ±lÄ±kĠ
kur umĠ
ter sineĠ
deĠ Ã§okĠ
gÃ¼ven c
ih ir
lerinden dir
Ä±mÄ±z danĠ
araÃ§ ĠolarakĠ
kÄ±r Ä±lmaĠ
ĠARA ÅŀTIR
M B
Ã¼Ã§ teĠ
mey in
alanĠ birĠ
baÅŁ larÄ±naĠ
gir diĠ
Ã§ok tanĠ
z Ã¢
u buĠ
Ä±lÄ±r saĠ
par anÄ±nĠ
Ä±r h
per ak
doÄŁruĠ birĠÅŁekildeĠ
ĠgeliÅŁ imĠ
kir let
Ġkullan anĠ
sal g
ĠÄ°n celenenĠ
say faĠ
ĠbuĠ ikiĠ
denĠ oluÅŁanĠ
am Ä±yor
yÃ¼ksekĠ dÃ¼zeydeĠ
nef retĠ
ĠI L
tedav iyeĠ
f id
ĠDeÄŁer lendir
beklent ileriĠ
ĠEfend iĠ
iliÅŁk iyiĠ
Ã¢ fi
hayat iĠ
ĠAfr ika
dÃ¶nem dekiĠ
Ġhal kaĠ
? '
P ost
ya f
Ã¶dÃ¼l lendir
muay eneĠ
konu larĠ
etk ininĠ
d ist
evren selĠ
Ã§ek ilenĠ
lop ed
gel inceĠ
T rans
yÃ¶ntem lerinĠ
ĠBel kiĠdeĠ
Z aman
ĠiÅŁ Ã§iĠ
bin a
Ġbirey sel
ĠsoÄŁ ukĠ
anlat tÄ±
Ġtemsil c
lÃ¼ÄŁ Ã¼nĠ
soh betĠ
sÄ±k Ä±ÅŁ
masÄ±nÄ±ĠsaÄŁla maktadÄ±r
á¸ «
ayr Ä±larakĠ
sÃ¶z Ġedil
ĠiÅŁ eĠ
hesap lamaĠ
Ġar ab
zey tin
y th
Ġka hr
R E
K orumaĠ
hÃ¼kÃ¼m etinĠ
ĠÃĸlÃ§ Ã¼m
ok er
Ġres eptÃ¶r
Ġg ol
ĠS Ã¶y
Ä±Ġ H
eser ler
Ã¼ tah
olur du
ĠĠĠĠĠĠĠĠ ĠĠĠĠĠĠĠĠ
eniĠ veĠ
TÃ¼rk men
yaĠdaĠ birĠ
in anÄ±ÅŁ
ayr Ä±mÄ±Ġ
Ä±k Ä±r
Ġn Ä±nĠ
Ġolma masÄ±Ġ
ĠBiz ans
Ġ daÄŁÄ±t
stat ikĠ
r asÄ±Ġ
kolay lÄ±kĠ
Ã¼zerindekiĠ etkisiniĠ
yÃ¼z den
ĠÃĸyleĠ kiĠ
s ib
hÃ¼r riyet
L a
baÄŁ layanĠ
ĠVÃ¼c ut
Ġbaz Ä±ndaĠ
incel ediÄŁimiz
ĠYÄ±l lÄ±kĠ
daĠ verilmiÅŁtir
v ahÅŁ
laz erĠ
sah aĠ
hik Ã¢yeĠ
belirlem iÅŁtir
ĠherĠ ÅŁeyiĠ
ti kam
Ġhar i
ĠB oÄŁaz
Ġm Ã¼l
hedef iĠ
ban a
Ġ alÄ±ÅŁveriÅŁ
mesiyleĠ birlikteĠ
ÃľR K
tanÄ±m aĠ
Ġtab anlÄ±Ġ
gÃ¼ven liÄŁiniĠ
geliÅŁ mesineĠ
lem iÅŁ
res s
Has tal
amaÃ§ lanmaktadÄ±r
G alatasaray
ĠdiyeĠsor duĠ
yas Ä±nÄ±nĠ
iz of
yol unĠ
ĠI t
varlÄ±k larÄ±nĠ
m ult
hizmet ler
is yenĠ
dÃ¶nÃ¼ÅŁ mÃ¼ÅŁtÃ¼r
katÄ±lÄ±mcÄ± larÄ±n
ĠM Ã¼f
Ġbil imĠ
ho mas
yaÅŁam daĠ
lem eninĠ
ĠTan rÄ±Ġ
uyru ÄŁ
ĠsonĠ dereceĠ
kazan Ä±r
. +
Ġbel kiĠdeĠ
masÄ±naĠ iliÅŁkinĠ
yapÄ±lacakĠ olanĠ
az dÄ±r
dikkateĠ al
k ot
h od
sÃ¼r tÃ¼n
lÄ±Ġ yÄ±llardaĠ
en str
hat tÄ±Ġ
ĠSoÄŁ ukĠ
leriĠ Ã¼zerindeĠ
Ã§ et
akÄ±ÅŁ Ä±Ġ
t ukĠ
kural laraĠ
birĠ sonrakiĠ
ĠsÃ¼r ek
p ikĠ
ol say
anlam sÄ±z
Ø ¨
olay larĠ
Ġb edenĠ
olan larĠ
davranÄ±ÅŁ Ä±nÄ±Ġ
olduÄŁunuĠ belirtmiÅŁtir
gÃ¶n l
ap art
ul e
olursaĠ olsun
ar alÄ±ÄŁÄ±Ġ
tik alĠ
inf lamas
yaptÄ±klarÄ±Ġ Ã§alÄ±ÅŁmadaĠ
Ġmem nun
eldeĠ edebil
fikr iniĠ
ger eÄŁinceĠ
oluÅŁ abilecekĠ
Analiz iĠ
o yaĠ
ar abaĠ
olmasÄ±Ġ gerekmektedir
kes inĠbirĠ
Ġsay Ä±Ġ
ĠyerineĠ getir
Ġist erĠ
zaman aĠ
fa j
mat if
m Ã»
suÃ§ uĠ
biriĠ olanĠ
ĠMilliĠ EÄŁitim
bilgilendir meĠ
H ollan
deĠ aynÄ±Ġ
gr amaĠ
bil iyoruz
anlam da
Ġmate mat
hes eĠ
deÄŁiÅŁken ineĠgÃ¶reĠ
neĠ ÅŁekildeĠ
titr eÅŁim
men in
anla ya
ant iĠ
ĠPsik olojikĠ
kuv vetĠ
op siyon
sistem lerinĠ
arac Ä±nĠ
rasyon el
dayanÄ±k lÄ±lÄ±kĠ
laÅŁ anĠ
daĠ yaÅŁayanĠ
Ġp il
Ġbar Ä±ndÄ±r
gÃ¶r Ã¼p
ĠB atÄ±
iÅŁit meĠ
ĠKan unĠ
ĠÃľ y
ĠÃ¶ dem
fiz ikĠ
Ġ araÅŁtÄ±rmanÄ±nĠ
Ġson uĠ
YÄ±l dÄ±z
tÃ¼r lerininĠ
ko operatif
esas lÄ±Ġ
ĠT ARTIÅŀMA
ĠolarakĠ deÄŁerlendir
ter ior
Ġdoy umuĠ
plaz maĠ
Ä±mĠ iÃ§inĠ
millet inĠ
ik rar
ĠB iliÅŁ
olumsuz ĠbirĠ
ĠPart i
ĠGelenek selĠ
belirlemekĠ amacÄ±ylaĠ
Ä±n Ã§
tab let
ĠkÃ¼t Ã¼phan
iÃ§ ĠveĠdÄ±ÅŁ
ĠoĠ daĠ
numun eĠ
ĠK oc
ĠKay Ä±t
gÃ¶rdÃ¼ÄŁ Ã¼mÃ¼z
ot ok
dÄ±ÄŁÄ±Ġ iÃ§inĠ
arttÄ±r Ä±r
ibaret tir
ihtiyaÃ§Ġduy ulanĠ
Ã§alÄ±ÅŁan larÄ±Ġ
vak aĠ
belir gin
ĠÄ°ngiliz ceĠ
fos for
im orf
EÄŁ itimiĠ
ĠF enĠ
sÄ±ras Ä±nda
endÃ¼str iyelĠ
so kakĠ
ihtiyac Ä±nÄ±nĠ
madÄ±ÄŁ Ä±ndanĠ
bir incil
Ġs ep
G al
mÃ¼z aker
yak Ä±ÅŁ
am uk
Ġ Ä±ÅŁÄ±n
hip o
onun laĠ
buĠ alandaĠ
y Ã¼ceĠ
ĠAr ab
ĠÅŀuĠ andaĠ
Ġdakika daĠ
Ã¶ÄŁrenimĠ gÃ¶renĠ
gres if
ĠkoÅŁul larÄ±Ġ
Ä° Ġ
ĠyÄ±l danĠ
ay gÄ±t
ĠÃ§alÄ±ÅŁ manÄ±nĠ
ebil ecek
enĠaz ĠbirĠ
Ġk oc
etkiliĠ olmuÅŁtur
dahaĠ kÃ¼Ã§Ã¼kĠ
deĠ yapÄ±lanĠ
bul du
E dir
isim leriĠ
ekst raĠ
ant ol
ak ciÄŁer
parametr eĠ
dur rah
ĠS atÄ±ÅŁ
kullan abilirsiniz
ĠdÄ±ÅŁ Ä±naĠ
ver siyon
Ã¼retic iĠ
yer de
T ip
doÄŁru yaĠ
yol cuĠ
un uzunĠ
Ã¶ÄŁretm enĠveĠ
ĠBunun laĠberaberĠ
gal ib
Ġde mekĠ
laÅŁ maĠveĠ
dÃ¶n enĠ
gÃ¶ster miÅŁlerdir
ĠbÃ¶lg eninĠ
Ġd Ã¶
alt Ä±
ĠÃĸÄŁr enmeĠ
ĠkÃ¶ pr
asker Ã®
k oyun
d l
lanĠ veĠ
ĠEn f
yacakĠ ÅŁekildeĠ
herĠ yerdeĠ
gÃ¶z enek
Ġb aÄŁÄ±r
Ġak Ä±m
in kÃ¼
Ġz ekÃ¢
P KK
Har eket
emekĠ iÃ§inĠ
Den ey
O VA
un lar
Ġfaz laĠ
dikkat leĠ
iĠileĠ birlikteĠ
gerÃ§ekleÅŁtir ilmesiĠ
ation s
Ġbu gÃ¼n
ĠsaÄŁ lam
Ġanaliz i
Ê »
Ġver ilerinĠ
ves ileĠ
ĠdikkateĠ alÄ±n
Ã¶ÄŁren meninĠ
ist ekliĠ
Ġan la
yapÄ±sÄ±Ġ veĠ
á¹ £
M or
liÄŁ in
Ġ ihtiyaÃ§
bul uc
ittif akĠ
o cak
eneĠ kadar
tanÄ±m la
l usuĠ
ab ey
Ġay Ä±Ġ
masÄ±naĠnedenĠ olur
m idir
ih la
H T
her e
deÄŁiÅŁim leriĠ
yapÄ± lama
ĠE N
Tas ar
em mel
baÅŁ layÄ±p
ilg iĠveĠ
ĠS ivas
yal Ä±t
kap asiteĠ
yolĠaÃ§ anĠ
gelir iĠ
der inĠbirĠ
ĠBan kasÄ±
iÃ§er ikleriĠ
Ġb oyun
kal maktadÄ±r
dÃ¼ÅŁÃ¼n erekĠ
mah rem
mey dan
azir an
Ã§alÄ±ÅŁan lar
hastal Ä±klarÄ±Ġ
lerineĠ ulaÅŁ
ikro biy
U kray
ot rop
ĠBuĠ araÅŁtÄ±rmadaĠ
Ä±labil mesiĠiÃ§inĠ
daĠ Ã§okĠ
V anĠ
iktid araĠ
ĠE mir
bed el
Ã§alÄ±ÅŁ maktadÄ±r
kala bil
mey eceÄŁiniĠ
ĠGir iÅŁim
Ġ ulusal
Ġkar ac
lerindenĠ biridir
ĠsektÃ¶r Ã¼nÃ¼nĠ
ĠBir az
Ġy eĠ
ĠE buĠ
ovas kÃ¼ler
ifer ikĠ
om b
ayakĠ uydur
Rec ep
kat alizÃ¶r
k is
ĠG e
ĠP ap
an at
Ġz iraĠ
H ukukĠ
Ġmil liyet
can lÄ±
yoÄŁunĠ birĠ
esiniĠ veĠ
Ġ duygusal
aday larÄ±nÄ±nĠ
yol la
hasta larĠ
yÃ¼z Ã¼Ġ
k Ä±lanĠ
birÃ§okĠ farklÄ±Ġ
barÄ±ndÄ±r anĠ
ner eyeĠ
arit metikĠ
ÅŁ ok
Ġkullan maĠ
kork unÃ§
mark anÄ±nĠ
devam Ä±ndaĠ
hÃ¼kÃ¼m leriĠ
olabil diÄŁinceĠ
ĠÃĩ evres
fer t
gÃ¼ dÃ¼l
Gel ir
parÃ§ asÄ±dÄ±r
gru bunaĠ
birlik tel
kesinĠ olarakĠ
otur maĠ
deney imĠ
ĠS ayÄ±Ġ
Ġpol imer
yaÅŁ ar
Ġgid erekĠ
Ã§alÄ±ÅŁma larÄ±
kelim elerinĠ
Ã¶n Ã¼mÃ¼zdekiĠ
bÃ¶l gelerĠ
Ġdikkat ĠÃ§ek
eldeĠ ettikleriĠ
yÃ¼k lemeĠ
Ãĸ ner
et iyleĠ
y r
DeÄŁ iÅŁk
ĠSÃ¼r eÃ§
etkil endiÄŁiĠ
der t
ĠO ku
y Ġ
baÄŁ daÅŁ
tÃ¼r kĠ
araÃ§ lar
larÄ±ndanĠ veĠ
V eriĠ
ĠA N
man n
dÃ¼ÅŁÃ¼n mektedir
sah teĠ
yargÄ± lamaĠ
Ġseviy esininĠ
Ã¶zellik leriĠileĠ
temsil Ġetmektedir
lardanĠbiriĠ deĠ
adap teĠ
Ġyan Ä±ndaĠ
Ġsek iz
D Y
Kaf kas
u larĠ
mÃ¼s tak
lanmÄ±ÅŁ ĠbirĠ
dag oj
ic kĠ
Ġya t
kat maĠ
seÃ§en eÄŁiĠ
ih at
hazÄ±r ladÄ±ÄŁÄ±Ġ
dahaĠ Ã¶ncekiĠ
dahaĠ Ã¶ncedenĠ
ĠgeliÅŁtir meĠ
dahaĠfazla dÄ±r
ĠDen klem
al Ä±ĠveĠ
leriĠ vardÄ±r
uy uÅŁturucuĠ
Kullan Ä±lanĠ
s n
m izah
ak Ä±Ġ
Whit ney
otur t
yer ler
konak lamaĠ
f el
ez id
ay Ä±nĠ
devam Ä±Ġ
ĠAs Ä±l
Ġbaz Ä±larÄ±Ġ
ĠÃ§ Ã¶k
H Ä±z
anlam lÄ±lÄ±kĠ
dÃ¼ÅŁ mÃ¼ÅŁ
ĠToplum salĠ
ĠÃ§ elikĠ
iniz m
ĠKurul u
ĠCumhur baÅŁkanÄ±Ġ
bah Ã§e
U sul
r azÄ±Ġ
anks iyeteĠ
Ã ³
Ġp ul
or iĠ
birlik t
j el
mer ham
tanÄ±m lama
baÄŁ lÄ±ĠbirĠ
iktidar Ä±nĠ
gÃ¼c Ã¼nĠ
ĠS izeĠ
m art
yÃ¶ntem lerininĠ
sorun larÄ±nÄ±Ġ
iÄŁ indedir
ĠdÃ¼z elt
aÃ§ Ä±lmÄ±ÅŁtÄ±r
boyut taĠ
sorun laraĠ
ab sorb
ĠS Ã¼n
pah alÄ±Ġ
ÃĸÄŁr etmen
rast lanmaktadÄ±r
mer teb
derec elendir
tut ulanĠ
K A
yerleÅŁ imĠ
ĠbÃ¼ny esindeĠ
ĠL is
ĠÃĸrgÃ¼t sel
ĠKÃ¶ pr
T rabzon
tut ulmasÄ±Ġ
Ġv as
gÃ¶sterg esiĠ
tarih ininĠ
deÄŁiÅŁken ler
evĠsahip liÄŁiĠ
Ã¼retim ininĠ
Ġp eÅŁ
ĠÃ§ ev
ĠL a
sonucunaĠ ulaÅŁ
ĠD iÅŁ
ik alÄ±kĠ
boyut larÄ±Ġ
of Ã¶r
Ġgru bu
O Ġ
eleÅŁtir iĠ
v anÄ±nĠ
E Ġ
Ä±sÄ±t maĠ
v iv
ÅŁuĠ anĠ
ic a
Ä ¥
internet Ġsit
ĠteÅŁ kilat
ses leĠ
kay dÄ±Ġ
konus unaĠ
Yar gÄ±tay
savun maktadÄ±r
? ĊĊ
ĠM aÄŁ
yol u
men kul
aÃ§ Ä±
l imiĠ
Ã¶rnek lerininĠ
man ip
lay Ä±c
sÃ¶yley erekĠ
Ã¼nÃ¼ ĠveĠ
Ġzeng in
ĠKay nakĠ
incelen miÅŁĠveĠ
poz yum
Ġs osy
oloj isi
ĠYap Ä±Ġ
deÄŁiÅŁ mez
leriĠ buĠ
ĠT Ãľ
ĠB on
ĠiÃ§inĠ birĠ
ifad eler
gÃ¼r Ã¼ltÃ¼
Ġc en
sektÃ¶r deĠ
eÄŁ iniz
alt Ä±ndadÄ±r
gn oz
ĠM ir
sÄ±cak lÄ±ÄŁÄ±ndaĠ
T ekĠ
Ġtekn olojiĠ
Ġ yanĠ
ĠÃ¼lk edeĠ
edenĠ sonraĠ
yaÅŁan mÄ±ÅŁtÄ±r
ĠDev letĠ
etk ilereĠ
mÃ¼ lakat
laf Ä±z
tes ti
ĠAv ustur
Ġak sineĠ
rastlan mamÄ±ÅŁtÄ±r
din dar
em peryal
p al
ret er
ĠTop rakĠ
Ġ usul
inÅŁaĠ edilenĠ
de part
taraf tan
N asÄ±l
ĠÃĩ ev
kend isiyleĠ
gÃ¶nder diÄŁiĠ
yiy ecekĠ
GenelĠ MÃ¼dÃ¼rlÃ¼ÄŁÃ¼
C u
ad Ä±ylaĠ
Ġb eklem
Ġkurum sal
ver ecekĠ
ĠMur at
ĠgÃ¼ven liÄŁiĠ
olgu larÄ±nĠ
iÃ§er ikliĠ
sah il
belirt ildi
sÃ¶z lÃ¼Ġ
den ilenĠ
landÄ±r Ä±lmÄ±ÅŁ
ĠKatÄ±lÄ±m cÄ±lar
G Ã¼zel
f o
isten ir
ur ken
ĠM imar
ĠBuĠ iÅŁlem
ek ibiĠ
ĠolmasÄ±Ġ nedeniyleĠ
Ã§ar esiz
Ġbil e
Ã¼ret il
deng esiz
ben imĠiÃ§inĠ
ĠBul gu
wit terĠ
tar la
Ġsat Ä±r
id rar
lik id
tat if
karac iÄŁerĠ
al im
Ã¶z lem
ĠÃ¶ f
Ġc ol
lerĠ vardÄ±r
Ġk ira
Ġa j
Ã¢h Ã®
doÄŁr usuĠ
ĠÃĸnc ekiĠ
Ġ u
iz e
Ġanlam daĠ
gerÃ§ekleÅŁtir enĠ
inc eler
ĠBUL GU
sÄ±nÄ±r Ä±Ġ
Ġka mu
es kidenĠ
dÃ¼ÅŁÃ¼nÃ¼l Ã¼r
sa lar
giy s
ken araĠ
Ġgel ec
R uh
Ġan ket
iÃ§ĠiÃ§ eĠ
G Ã¶l
model ininĠ
uygulan arakĠ
Ġar az
ĠMÃ¼slÃ¼ man
ĠU l
karÅŁÄ±laÅŁ tÄ±klarÄ±Ġ
ĠG ec
M F
inĠ enĠ
metab olikĠ
enĠÃ¶nem lisiĠ
ler ĠoluÅŁtur
kiÅŁ ilerdenĠ
kararĠ verir
tas yum
yol larÄ±nÄ±Ġ
ada ÄŁ
YÃ¶n etm
yiy ecek
Ġkend isininĠ
Ġsev gil
ĠbirĠ baÅŁkaĠ
ĠDoÄŁ al
Ġar tanĠ
deÄŁerlendir melerĠ
incelen erekĠ
baÅŁarÄ±lÄ±Ġ birĠ
mÃ¼kemm elĠ
h en
Ã¶nem eĠsahiptir
rahatsÄ±z lÄ±kĠ
ĠyÄ±l ĠsonraĠ
k Ã¼n
yeter lidir
g ib
bul duÄŁuĠ
yat Ä±ÅŁ
Ġd ileĠ
meslek taÅŁ
YÄ±l dÄ±rÄ±m
toplum larÄ±nĠ
Ġhal kÄ±Ġ
ĠH indistan
Ä±lÄ±r ken
bulun amamÄ±ÅŁtÄ±r
ter k
masÄ±nÄ±ĠsaÄŁla mÄ±ÅŁtÄ±r
lardanĠ oluÅŁanĠ
M ir
anaya saĠ
lerĠ iÃ§indeĠ
sÃ¼reÃ§ leriĠ
rum p
Ã¶ÄŁretim Ġkurum
Ġhar ita
Ã¼kle erĠ
is tir
mÃ¼t tef
Ã¼y Ã¼
ĠFinans al
Kan ununĠ
P CR
K er
ĠTedav iĠ
baÅŁlangÄ±Ã§ taĠ
zamanĠ iÃ§erisindeĠ
ĠS eb
Ġmodel ininĠ
Ãĸn c
r ey
katÄ±l Ä±mÄ±Ġ
li mat
sk y
o dunĠ
ĠbÃ¶lÃ¼m deĠ
ĠsÄ±r asÄ±yla
kul uĠ
v ilayet
han Ä±m
Ġde prem
lÃ¼ÄŁ Ã¼ndeĠ
ĠTel ef
Ġ* *
direnc iĠ
suz ĠbirĠ
bÄ±rakt Ä±ÄŁÄ±Ġ
j ikĠ
ger ilem
artÄ±r Ä±r
Ġs ik
b indeĠ
iyor lardÄ±
kazan dÄ±ÄŁÄ±Ġ
ĠyÃ¶ntem iyleĠ
du t
bitk ilerinĠ
Y urt
Program Ä±
or as
z iĠ
kalk Ä±ÅŁ
lid eriĠ
kararĠ verilmiÅŁtir
ĠâĹ ı
kabul len
durum da
ĠH Ã¢l
siyas etĠ
gel ecek
ĠSon ra
ĠyaÅŁ ĠarasÄ±Ġ
Alman yaĠ
luluÄŁ u
ist in
kims eyeĠ
ĠDen etim
ÅŁim diyeĠ
acakĠ ÅŁekildeĠ
masÄ±nÄ±Ġ saÄŁlayanĠ
oĠ ileĠ
F az
yetiÅŁtir meĠ
larÄ±ylaĠ birlikteĠ
ev leriĠ
ad en
Ù ĳ
sistem ineĠ
Ã¶ÄŁrenc ilerdenĠ
ĠsÄ±nÄ±r larÄ±Ġ
at it
arttÄ±r dÄ±ÄŁÄ±Ġ
ortaĠ dÃ¼zeydeĠ
i erĠ
yansÄ± masÄ±Ġ
g eninĠ
ĠTan r
aĠ bak
maddes ininĠ
ĠEnĠ yÃ¼ksekĠ
f uz
aÃ§ Ä±lmÄ±ÅŁ
dÃ¼ ler
ab art
kur ban
lam Ä±yor
iÅŁaretĠ eder
hid r
Ġy etmez
lerĠ veyaĠ
yap tÄ±m
ekonom isiĠ
onaĠ gÃ¶reĠ
â ī
larÄ±naĠ sahip
es inĠ
Ġde miÅŁtir
ann eninĠ
halk laĠ
dÃ¶n er
Ġar tÄ±r
obb ing
ĠyÃ¶ntem ininĠ
hÃ¢ kimĠ
Ġola s
G oogleĠ
uygulama lardaĠ
ev lilik
st enĠ
tam Ġ
yaÅŁa maktadÄ±r
olmaz saĠ
Ġ ~
etkin liÄŁininĠ
Kur uluĠ
Ġist er
di g
yÃ¼ksel miÅŁtir
Ġinsan lar
ulaÅŁ Ä±lanĠ
el la
ĠL ak
Ã¼stÃ¼n lÃ¼kĠ
ĠBaÅŁ vur
y os
baÅŁ lÄ±yor
azalt tÄ±ÄŁÄ±Ġ
Ġf arkĠ
um daĠ
ÅŁ Ã¶yleĠbirĠ
ĠenĠ Ã§okĠ
ĠSer mayeĠ
meyeĠ baÅŁlar
Ã§ iliÄŁiĠ
mey ecek
gÃ¶ster ilir
ĠCumhur baÅŁkan
ĠoluÅŁ anĠ
ayrÄ±c alÄ±k
gÃ¶rÃ¼l Ã¼yor
Ey lÃ¼l
Ġay n
coÄŁraf ya
Kor un
b leĠ
sonunaĠ kadar
larÄ±nĠ buĠ
SP SS
d unuz
s esiniĠ
ĠiÅŁ inĠ
eldeĠedilenĠ bulgu
ĠTab iĠ
Ã§ Ä±plakĠ
H D
y dÄ±
ist ler
t oksikĠ
Ġik incisiĠ
tespit ĠetmiÅŁtir
siz liÄŁinĠ
iĠ N
umuz uĠ
Ġh el
dÃ¼zen leyiciĠ
Å Ľ
Yak laÅŁÄ±m
gÄ± Ã§Ġ
larÄ±Ġ hakkÄ±ndaĠ
n os
ĠkarÅŁÄ±lÄ±ÄŁ Ä±ndaĠ
c ay
gÃ¶rÃ¼ÅŁ lerineĠ
Ã§ Ã¶
Ġ iliÅŁkiĠ
am inĠ
mayaĠÃ§alÄ±ÅŁ anĠ
memiÅŁ ti
ĠgeliÅŁ meĠ
devam Ġetm
ĠsÃ¶z leÅŁmeĠ
ĠH acÄ±Ġ
Azerbay can
c et
yapÄ±lanĠbirĠ Ã§alÄ±ÅŁmadaĠ
ĠSonĠ olarak
emey eceÄŁiniĠ
kas Ä±t
baÅŁka larÄ±nÄ±nĠ
grup larÄ±nÄ±nĠ
ver i
b lokĠ
ĠÃĩ iÃ§
larÄ±naĠ doÄŁruĠ
tÃ¼r et
Ã§ekt iÄŁiĠ
Ġbun larĠ
hik met
n ah
Ġbulun mamaktadÄ±r
HÄ±rist iyanĠ
sÄ±r a
haz in
yapÄ±lmÄ±ÅŁ ĠolanĠ
has arĠ
kum ar
ĠB Ã¶lgeĠ
ĠgÃ¶r sel
aÃ§ lÄ±Ġ
Ġed iyoruz
ĠH is
ta yaĠ
San ayiĠ
Ġelektr onikĠ
Ġoran Ä±nÄ±nĠ
Ġ Ã¶zellikleriĠ
Ãĩ evreĠ
s per
Ġv ir
Ġalt Ä±nĠ
kaynaÄŁ Ä±nÄ±nĠ
ĠBun lardanĠbir
ĠgÃ¼Ã§ lÃ¼
k las
yol uĠileĠ
asyon aĠ
Ã¼p Ã¼r
merkez eĠ
s etĠ
ul uyor
ĠS il
yat kÄ±n
oku ma
tÃ¼m Ã¼yleĠ
b ag
gelir ĠveĠ
ma tÃ¼r
Ġv a
mes inin
el op
gÃ¶rÃ¼l ebilmektedir
olmasÄ±naĠ raÄŁmen
andar maĠ
un luĠ
en ekĠ
ulaÅŁ anĠ
Ã¶ÄŁr etmeĠ
ĠSon undaĠ
mak aleĠ
dÃ¼zey i
hastan edeĠ
ĠF orm
ak Ä±mÄ±Ġ
mak s
esnek likĠ
bur ada
kay dÄ±r
kiÅŁ ilerdeĠ
uy ku
met niĠ
m Ä±yordu
ted birĠ
T BMM
gÃ¶nder meĠ
eriÅŁ ilebilir
Ġsig orta
E Ãĩ
nÃ¼kle erĠ
GÃ¼ven likĠ
ĠY Ã¼k
ind Ã¼k
Ġol manÄ±nĠ
K ul
Ã§eÅŁit liliÄŁiĠ
sonuc udur
k erĠ
in vaz
mesineĠ olanakĠ
is abet
sam imiĠ
Ġplan Ä±Ġ
tut maktadÄ±r
ir im
Ã¼r emeĠ
ak r
ĠBun danĠsonraĠ
ĠyÃ¼r Ã¼y
gÃ¶rÃ¼ntÃ¼l emeĠ
ĠYun anĠ
An tlaÅŁ
iÅŁletm elerdeĠ
ĠM otor
seb z
ey en
iÃ§ tenĠ
Ã¼ret ilmiÅŁ
aÃ§ Ä±lmasÄ±Ġ
soÄŁ utmaĠ
Ġr eng
luÄŁ undaĠ
ĠbaÅŁar Ä±sÄ±z
if Ã¼j
kam usal
laz Ä±ÄŁ
ĠsÃ¼r esinceĠ
ĠÃ¶ dÃ¼l
ĠG Ã¼nĠ
yeĠ gÃ¶re
s Ä±ndanĠ
ĠGen eldeĠ
lananĠ birĠ
Ã¼retim ĠveĠ
iÅŁletm eler
diplo mas
Ġpuan Ä±Ġ
C F
Ġ aÅŁaÄŁÄ±dakiĠ
ama dÄ±
vurgu lanmaktadÄ±r
liÄŁ indekiĠ
konuĠ ileĠilgiliĠ
destekĠ ver
ta cak
larÄ±Ġ ileĠilgiliĠ
yapmÄ±ÅŁ ĠolduklarÄ±Ġ
S uĠ
Ġt Ä±k
ĠM P
larÄ±ndaĠ iseĠ
la dÄ±Ġ
ĠdÃ¼n yayÄ±Ġ
gÃ¶zĠÃ¶nÃ¼neĠalÄ±n dÄ±ÄŁÄ±ndaĠ
ĠÄ° de
Ġg enĠ
ĠT ev
tahminĠ edilmektedir
s ki
uz unluk
lerĠ Ã¼zerineĠ
tr eĠ
ĠÃ¶ demeĠ
ih aleĠ
fonksiyon elĠ
kombin asyon
mekĠist iyorum
dÃ¼ÅŁÃ¼n dÃ¼ÄŁ
destek ler
lan manÄ±nĠ
Ġpar a
zorun ludur
anlamlÄ±Ġ derecedeĠ
miktar Ä±nÄ±Ġ
ĠiÃ§inĠ deĠ
hav a
Ġad Ä±m
etkilen mektedir
ĠV atandaÅŁ
Rab b
el b
Ġt iyatro
baÅŁvur anĠ
New ĠY
DÃ¼z ey
larÄ±ndanĠ olanĠ
buĠ durumuĠ
Ġbilg ilerinĠ
azalt Ä±lmasÄ±Ġ
ĠBiz ĠdeĠ
es anĠ
tabak aĠ
Ġd k
olaÄŁan Ã¼stÃ¼
olma yabilir
Ġg Ã¼
ĠO per
iÅŁlem lerininĠ
Ã¶zgÃ¼r lÃ¼ÄŁÃ¼
si vr
do laÅŁÄ±m
Bul gu
dep ola
Ġm eden
konum daĠ
Ġh ikay
Ã§Ä±k arakĠ
lÄ±k larÄ±
Ġs ta
duygus unuĠ
az arĠ
ĠKiÅŁ isel
ait ĠbirĠ
dÃ® nĠ
Ã§ em
G e
ĠÃ¶rgÃ¼t selĠ
ĠP op
tehlik eyeĠ
buĠdurum daĠ
Ä±ÄŁ Ä±nÄ±nĠ
Ãĸ Z
kÄ±s kan
ziya de
bulan Ä±kĠ
ser amikĠ
kayb edenĠ
rahat lÄ±kla
Ġkod luĠ
C r
Ar navut
ĠZ ih
Ġbilg iyeĠ
etk isindeĠ
ver eninĠ
Ã¼lk eyiĠ
ka bar
eh liyet
Ã¶zg Ã¼ĠbirĠ
sÃ¼r eleriĠ
mo daĠ
olur lar
etkisiĠ ileĠ
eylem iĠ
Ġdel il
ĠbaÅŁ Ä±nÄ±Ġ
c ed
baÄŁ layÄ±cÄ±Ġ
P ap
baÄŁ lÄ±
emem iÅŁ
kullan arak
m Ä±sÄ±r
ĠtÃ¼ketic iĠ
entelekt Ã¼el
men iziĠ
liÄŁ ini
ĠKaz an
div enĠ
Ġr akam
ĠsonuÃ§ lar
dÃ¼ÅŁ meĠ
ĠiÅŁlem iĠ
iyat if
birĠ iliÅŁkiĠ
dÃ¼ÅŁ mÃ¼ÅŁtÃ¼r
mon taj
ortayaĠÃ§Ä±k Ä±ÅŁ
pr ev
kanĠ veĠ
u arĠ
Ã¶ÄŁretmen likĠ
duy uĠ
masÄ±Ġ gibiĠ
iniz denĠ
Ã§Ã¶zÃ¼m eĠ
ĠkatÄ±lÄ±m cÄ±Ġ
ash ing
o ster
ak lÄ±kĠ
olay laraĠ
iht iyat
ĠL ond
taraf taĠ
sep t
ĠKurum sal
yÃ¼ksekĠ olmasÄ±Ġ
lÄ±lÄ±ÄŁ aĠ
uy arÄ±Ġ
ĠS c
azal mÄ±ÅŁ
ortala masÄ±nÄ±nĠ
Ã¶nemliĠ olduÄŁunuĠ
sÃ¶z lÃ¼
med ikĠ
adÄ±Ġ altÄ±ndaĠ
gÃ¶rÃ¼l mesiĠ
Ġh orm
tÄ±k an
saÄŁlÄ±kĠ hizmet
hareket inĠ
Ġola caÄŁÄ±nÄ±Ġ
olaÄŁ anĠ
kapsam Ä±ndakiĠ
uÄŁr unaĠ
ĠEb ev
Ã¼lk edekiĠ
ma larĠveĠ
kural lar
ikinciĠ birĠ
ro up
Ä±Ġ S
Ã§aÄŁ Ä±nĠ
anla makĠ
ĠA ta
Z or
Y et
Ġhayat taĠ
Ġre aksiyon
p Ã¼rÃ¼z
tespit ĠetmekĠ
karÄ±ÅŁ Ä±k
kendiĠ kendineĠ
R O
d k
saptan anĠ
Ġtop luluk
zar arÄ±Ġ
os iyan
Res miĠ
Ã§alÄ±ÅŁma lardanĠ
K uÅŁ
uÄŁr ayanĠ
savaÅŁ Ä±Ġ
olduÄŁuĠ iÃ§in
ik lereĠ
ĠC oÄŁraf
idir ĠveĠ
Bur sa
x y
ĠdÃ¼zen lemeĠ
felsef eĠ
ÄŁ Ä±
res sam
yerleÅŁ ikĠ
En stitÃ¼sÃ¼
dil ikĠ
elast ikĠ
tec avÃ¼z
bak anlÄ±kĠ
sonuÃ§ larÄ±naĠ
Ġb eyinĠ
g Ä±sÄ±Ġ
Ã¢ neĠ
Ã§ekir deÄŁ
bÃ¼tÃ¼n leÅŁ
ĠYÃ¼z yÄ±l
ekonomikĠ bÃ¼yÃ¼m
Ġ deÄŁiÅŁikĠ
beklen ir
kor um
ak lamaĠ
p eynir
Ġ deÄŁerlendirmeĠ
ay nĠ
bakter iĠ
ir ad
ĠKal iteĠ
test leriĠ
git t
alt Ġyap
vic dan
kes kinĠ
as e
matemat ikselĠ
par sel
bak ar
imm Ã¼nĠ
ĠDahaĠ sonrakiĠ
t ing
an Ä±t
Ġkullan Ä±labilir
ĠarasÄ±ndaĠdeÄŁiÅŁ mektedir
ĠS izinĠ
ĠYak Ä±nĠ
ebil diÄŁiĠ
ĠiÃ§ ineĠ
ĠÅŁ iÅŁ
ĠR ec
Jap onya
saÄŁlan abilir
Ġinsan larÄ±Ġ
zeng inĠbirĠ
gÃ¶rev ĠveĠ
ind ek
yay Ä±lanĠ
ĠSan kiĠ
Ġkar bonĠ
em Ġ
bilir ler
deÄŁiÅŁken lerĠ
ĠK anĠ
yaz arÄ±Ġ
Ġka bil
Ġfark lÄ±lÄ±k
ver ilerininĠ
ĠKom isyon
yasal ĠdÃ¼zenlem
Ġperforman sÄ±Ġ
bulun masÄ±
kÃ¼ltÃ¼r Ã¼Ġ
ak Ä±
hedef lenmiÅŁtir
K araĠ
ĠA D
iÃ§erisindeĠ yerĠalanĠ
if ic
eser deĠ
ĠMes lekĠ
BirleÅŁikĠDevlet leri
ĠveĠ V
meler deĠ
p aÅŁaĠ
dÃ¼ÄŁÃ¼ ĠgibiĠ
sÃ¼rek liĠbirĠ
ĠgÃ¼nĠ sonraĠ
rahat lÄ±klaĠ
kullan mÄ±ÅŁlardÄ±r
ĠeÄŁitim ĠveĠ
ĠAn ti
ĠN et
uc undaĠ
alÄ±ÅŁ tÄ±r
as s
k Ä±t
ros oft
Ġan ahtar
R ol
maĠ konusundaĠ
ĠMes lekiĠ
ĠÃ¶nc edenĠ
v in
baÅŁlang Ä±cÄ±Ġ
ulaÅŁ Ä±mĠ
ĠÃľniversit eĠ
Ġmet ot
gr iĠ
udiĠ Arab
kor idor
gÃ¶ster geĠ
dav anÄ±nĠ
us undanĠ
larÄ±mÄ±z daĠ
mÃ¼t ev
E ser
iÅŁlem leriniĠ
g lukoz
f amil
mek sizinĠ
etk ilerinĠ
gerek en
direnÃ§ liĠ
sorun larÄ±nÄ±nĠ
masÄ±Ġ gerekir
En gel
Ġo C
Ä±s Ä±ylaĠ
W h
ar tarakĠ
geÃ§ iyor
Ġg ibidir
Ã§ek iÅŁ
ac eĠ
deÄŁiÅŁ tiÄŁiĠ
yan a
Ä±Ġ gibiĠ
ĠdoÄŁr ult
S E
ek l
fazla dÄ±r
ÄŁ ur
a ult
LER Ä°N
ĠMustafaĠ Kemal
azalt makĠiÃ§inĠ
ĠveĠT er
ÅŁirket ler
Pro f
o maĠ
ĠKon ya
Ġs ter
Ġ izlen
il etkenĠ
davranÄ±ÅŁ larĠ
denĠ Ã§okĠ
un eĠ
lemekĠ veĠ
Gir iÅŁ
Ã¢b Ã®
N ez
Ġ Ã¼
ĠT TK
D an
yÃ¼zyÄ±l Ä±nĠ
larÄ±n caĠ
git tiÄŁiĠ
kayb Ä±
ya h
sel f
ĠolarakĠ tespitĠedilmiÅŁtir
BeÅŁ iktaÅŁ
in tr
makĠ yerineĠ
geÃ§er siz
ĠAK P
iyet ineĠ
v isk
muha tap
iy eninĠ
gÃ¼Ã§ len
ĠyÃ¶n lendir
ĠÃľ cret
En d
Ġy ediĠ
sÄ±nÄ±r sÄ±z
MÃ¼slÃ¼ manlarÄ±nĠ
ĠÅŀ ir
ett iÅŁ
dem ek
taray Ä±cÄ±yaĠ
ï Ģ
T i
n alĠ
mel isiniz
ic ininĠ
et miÅŁti
masÄ±Ġ nedeniyleĠ
Frans aĠ
var lÄ±ÄŁÄ±ndanĠ
den izeĠ
ĠdÃ¼ÅŁÃ¼n meĠ
ĠKurum uĠ
Ġsor usuĠ
kavram lar
mil lÃ®
dileĠgetir miÅŁtir
E mir
z av
ĠsÃ¼rec ineĠ
su f
p us
dest eÄŁiniĠ
as id
sonuÃ§ larÄ±
demokras ininĠ
bil eceÄŁiĠ
yabilir iz
aÃ§Ä±klama daĠ
res i
memnun iyetiĠ
al Ä±rkenĠ
kavram salĠ
Ġfinans alĠ
b lemeĠ
denĠ deĠ
ĠÃ¶ÄŁretmen lerininĠ
Ġ Ä±ÅŁÄ±kĠ
masÄ±Ġ gerektiÄŁiniĠ
lerdenĠ oluÅŁanĠ
il indeĠ
usta fa
ĠÃĸz gÃ¼r
a greg
Ãĸ merĠ
C T
model i
emek lilikĠ
tip ikĠ
Ġf ol
ĠveĠ s
Ban ka
ĠsÃ¼r esininĠ
uÅŁtur maĠ
Ġbit ir
on y
sahip ĠbirĠ
Ġ esnasÄ±ndaĠ
ĠB ol
bul guĠ
cr ipt
ef Ã®
o ol
varlÄ±ÄŁÄ±nÄ±Ġ sÃ¼rdÃ¼r
problem inĠ
az alÄ±ÅŁ
ĠV ol
g azÄ±Ġ
hedef ler
Ġbes inĠ
ĠK ilis
masÄ±naĠ gÃ¶reĠ
kas Ä±ndaĠ
Ã¶ÄŁretim inĠ
Ġsig ortaĠ
sÄ±z Ä±n
ot os
i Ã®
tutar lÄ±Ġ
ad Ä±nÄ±nĠ
ĠS orum
gÃ¶ster diÄŁiniĠ
ÅŁirket iĠ
Part isi
et lerininĠ
Ġkam pan
ayaÄŁ Ä±Ġ
hid rok
par ayÄ±Ġ
beklent ileriniĠ
kimiĠ zamanĠ
o mal
Ã¶rnek tir
ĠsÄ±k Ä±nt
birĠ grup
Ġolur lar
ĠOl uÅŁ
gÃ¶rÃ¼ÅŁ ler
lo kas
gÃ¶ster miÅŁ
Ġv aka
boÅŁ an
BaÄŁ dat
dur uyor
biÃ§im lendir
baÅŁar Ä±
spor cu
m evcud
ayr Ä±ldÄ±
Bek taÅŁ
edil miÅŁĠveĠ
Tut um
Ä±r saĠ
hav adaĠ
iyet Ã§iĠ
Ġkur tar
Ġner edeyseĠ
ĠE debiyat
iÃ§er iÄŁiniĠ
kÄ±sm Ä±
al s
ad d
Ġzaman Ä±ndaĠ
dÃ¼zenlen mesiĠ
O f
kap lÄ±Ġ
Ãĸ l
iz lenenĠ
ĠAn tlaÅŁ
Ã¶yk Ã¼sÃ¼
M ayÄ±s
faktÃ¶r lerdenĠ
K Ã¼tÃ¼phan
ost e
ĠE f
Ġ Ã¶lÃ§ek
Ġrez erv
Ġ Ã§alÄ±ÅŁmadaĠ
Ġk e
larĠ nedeniyleĠ
ond erĠ
birĠ tÃ¼r
ekonom isininĠ
ĠyÃ¶n Ã¼ndeĠ
Ġd Ã¢hil
ĠKaf kas
Ġb alÄ±k
yap arak
ĠC insiyet
yatÄ±rÄ±m cÄ±larÄ±nĠ
Pro blem
Ã¶nÃ¼neĠ ser
iÅŁletm eyeĠ
grup landÄ±r
Ar aÃ§
Ġprogram Ä±ndaĠ
makla Ġberaber
tah lil
aÃ§Ä±k lamayaĠ
C ol
lÃ¼kĠ veĠ
uy duĠ
Ġsaat teĠ
on ans
devlet eĠ
lardanĠ itibarenĠ
ĠiÃ§ inde
ĠÃĸrgÃ¼t selĠ
R ah
ĠÄ°k tis
ĠAÅŁ Ä±rÄ±Ġ
der eĠ
Ġbilim sel
eninĠ veĠ
da ki
konuÅŁ ma
karÅŁÄ±laÅŁtÄ±r Ä±ldÄ±ÄŁÄ±nda
Ġma hal
taÅŁ Ä±m
de dik
Ġm oreĠ
gÃ¼lÃ¼m s
ĠhÃ¼cr eleriĠ
ses len
olg unlaÅŁ
is indedir
ĠÃĸN ERÄ°LER
ren al
soruĠ sor
ol madÄ±
Ã¢ Ã®
yapÄ±labil mektedir
ban k
Ġn etic
ortayaĠko yanĠ
esas ĠalÄ±n
ĠDev am
Ġl imit
kon ul
ola yaĠ
ayr Ä±ca
iĠ ÅŁer
Ġ ortalama
dÃ¶nem eĠ
ĠT his
mÃ¼ÅŁter iler
Ġkom bin
ebilir ĠenerjiĠ
Ã¶zel leÅŁtir
Ã§ek mektedir
plan Ä±Ġ
ĠS elim
Ġmut lakaĠ
ĠSÃ¶z leÅŁ
ileriĠ iÃ§inĠ
Ġ log
Ġv s
Y Ã¼ksek
ĠA pp
ĠS at
iv meĠ
A dam
Ġbak Ä±mĠ
Ġp rens
yÃ¼ksek liÄŁiĠ
ortek iz
Ġ itibar
larÄ±nÄ±Ġ sÃ¼rdÃ¼r
Ġ ayrÄ±m
Ġekonom ik
Ġpiya sasÄ±ndaĠ
gerÃ§ eÄŁeĠ
Ġ alÄ±nanĠ
gÃ¶rÃ¼ldÃ¼ÄŁÃ¼Ġ Ã¼zereĠ
dÃ¼ÅŁÃ¼r Ã¼l
ilikĠ veĠ
ĠDeÄŁer liĠ
p df
ĠÃ¼retim iĠ
ĠH Ã¢
ĠEs kiÅŁehir
ÅŁeh reĠ
gÃ¶r ec
N ev
n iyetĠ
gÃ¶v deĠ
kaynak lan
gerÃ§ek likĠ
ĠB izeĠ
bey n
algÄ± larÄ±nÄ±nĠ
reh abil
etim iz
ĠdeÄŁil di
ĠR iskĠ
kahr amanĠ
net ĠbirĠÅŁekildeĠ
Ġp or
aydÄ±nlat maĠ
abil mesiĠ
say Ä±sal
ĠTan zimat
Ġy or
ĠPekĠ Ã§okĠ
bÄ±rak Ä±lmÄ±ÅŁtÄ±r
olsaĠ da
bil eÅŁim
Ġh Ã¢lÃ¢
ĠolarakĠadlandÄ±r Ä±lanĠ
iÅŁ gÃ¼cÃ¼
hakk Ä±
Ġm M
ĠAl Ä±nanĠ
ĠdeÄŁer iniĠ
ĠgÃ¼c Ã¼nÃ¼nĠ
Ġ eÄŁr
ah it
baÅŁ Ä±nda
tÃ¼r Ã¼nÃ¼nĠ
lah at
kim lik
incelen mektedir
ikat Ã¼r
r Ã¼ÅŁ
olarakĠ gÃ¶rÃ¼lmektedir
Ġd ijital
gen lerinĠ
ter cÃ¼m
Ã¼ manĠ
ed Ġby
ves il
ĠB asit
kaynak landÄ±ÄŁÄ±nÄ±Ġ
Ġkol on
c im
T F
Ġd iye
Ġtan Ä±n
yaz Ä±t
yas Ä±nÄ±Ġ
za deĠ
Ä±s Ä±yla
Ä±nd Ä±kĠ
lan mayaĠ
larÄ±ndaĠ birĠ
mam Ä±zÄ±Ġ
birey leriĠ
malzem elerĠ
seÃ§enek leriĠ
daÄŁ Ä±n
M Ã¼n
e ĉ
ist if
da yat
h iÅŁ
Ġ Ã¼nit
Ġ ada
ma caĠ
ik lerineĠ
egemen likĠ
b acak
Ã§evr esiĠ
isiĠ gibiĠ
ah Ã¼r
baÄŁÄ±m lÄ±lÄ±ÄŁÄ±Ġ
ac e
C or
oku laĠ
Ã§Ä±kar Ä±lmÄ±ÅŁtÄ±r
Ġ okumaĠ
ĠPer son
parametr eleriĠ
hal lerdeĠ
b arĠ
etkiliĠ birĠÅŁekildeĠ
ĠF en
istatist ikĠ
Ġh ukukiĠ
iy idir
etmek leĠ
Ġmo dern
ĠgÃ¶ ÄŁ
ex t
in test
lerindenĠ olanĠ
rak siyonĠ
ĠH D
gayr imenkul
in tern
ĠbuĠ ÅŁekildeĠ
Ġtop raÄŁ
Kar ab
inan cÄ±Ġ
tabiĠ tutul
Ã§okĠ bÃ¼yÃ¼kĠbirĠ
hasta yaĠ
Sur iyeliĠ
f al
dÃ¼zenlen miÅŁ
mayaĠÃ§alÄ±ÅŁ Ä±r
ĠBunaĠ raÄŁmenĠ
ver gilendir
Ġs ef
ĠD emekĠ
sÃ¶z Ã¼
ces s
Ġ oksijenĠ
ĠS av
Ġyer deĠ
Ã¼l Ã¼kĠ
tan Ä±r
per iyot
ĠAs ker
postaĠ adresim
ant ez
kap say
ener al
baÄŁ lanmÄ±ÅŁtÄ±r
Ã¶rnek lerdeĠ
Y atÄ±rÄ±m
to ĠtheĠ
S ol
a larÄ±ndanĠ
f akĠ
AvrupaĠ BirliÄŁiĠ
yÃ¶nelik tir
faaliyet iĠ
gÃ¶zĠÃ¶nÃ¼ndeĠbulundur ularakĠ
saÄŁ lÄ±ÄŁÄ±nÄ±Ġ
Kon ya
Ġkitab Ä±Ġ
var ĠmÄ±dÄ±r
op oz
larÄ±ĠileĠ birlikteĠ
es elĠbirĠ
Ġs ec
Ã¶ÄŁren enĠ
âĢ ²
kal kar
ber taraf
] ]
dÃ¶nem ininĠ
Ä± taĠ
ĠbaÄŁ lantÄ±Ġ
makĠiÃ§inĠ birĠ
olarakĠtanÄ±m lanabilir
eÄŁitim Ġdurum
siya sÃ®
Ã§okĠ dÃ¼ÅŁÃ¼kĠ
ĠBu gÃ¼n
Ã§Ä±kar dÄ±
ĠUy gunĠ
Ġsey ir
ĠsÄ±r asÄ±ylaĠ
hazÄ±r lanmasÄ±Ġ
Ġedec ekĠ
milyon larcaĠ
u eĠ
hi j
mÃ¼mkÃ¼nĠ olduÄŁuncaĠ
n y
Ġd ans
Ġan cak
Anaya sa
mak sat
ĠN es
r ent
ĠÎ ²
ĠbirĠ sÃ¼reĠ
Ġsorun larÄ±Ġ
iletiÅŁimĠ araÃ§
line erĠ
tic ar
w ood
b esiĠ
Ã¶nemliĠ olduÄŁuĠ
bununĠ iÃ§inĠ
Ġ kayÄ±p
Ã¼rÃ¼n leriniĠ
alt h
Ġolmak laĠbirlikteĠ
iÃ§er iÄŁininĠ
en ti
oluÅŁum undaĠ
Ġyard Ä±mĠ
Ġ organ
em it
kuÅŁ ak
Ã ª
ĠgeÃ§ iciĠ
bakÄ±m aĠ
sÄ±nÄ±f Ä±Ġ
Ġpolitika sÄ±Ġ
Ġtar amaĠ
bir ĉ
Ã¼zerineĠ yapÄ±lanĠ
geliÅŁmeler eĠ
ĠkÃ¼ltÃ¼r elĠveĠ
Ġ amacÄ±Ġ
Ġsah ibininĠ
gÃ¶rÃ¼ÅŁ Ã¼neĠ
Ġbilg isayarĠ
m ik
ĠÃ§okĠ sayÄ±daĠ
ĠEser inĠ
davranÄ±ÅŁ Ä±nĠ
Ġdo laÅŁ
ĠSan ay
arkas Ä±naĠ
uyr uk
i man
l Ä±c
boyut undaĠ
tak ibiĠ
Ġkes inĠ
SÄ±n Ä±r
Ã¶ÄŁrenc iyeĠ
Ġh anÄ±m
ard Ä±Ġ
n s
yÃ¼z eyiĠ
karmaÅŁÄ±kĠ birĠ
Ġy al
Ġ ic
Ġvak it
masÄ±naĠ yardÄ±mcÄ±Ġ
ĠÃ¼y esiĠ
ĠDeÄŁer lendirmeĠ
ĠI nĠ
Y K
terap iĠ
baÅŁarÄ±lÄ±Ġ birĠÅŁekildeĠ
akÃ¼l tes
ak sak
Ġtar if
Ro ma
Y ukar
L EN
Ġr ast
boÅŁ anmaĠ
ey iz
ĠB oy
ĠFiz ikselĠ
ĠsaÄŁ lÄ±ÄŁÄ±ĠveĠ
tÃ¼zel ĠkiÅŁ
Ġoran larÄ±Ġ
kayb Ä±naĠ
An d
Ġkans eriĠ
Ã§Ã¶zÃ¼m Ã¼ndeĠ
il ep
Ã§Ä±kar Ä±m
ĠsatÄ±nĠ almaĠ
istis na
ininĠ buĠ
Ġ deÄŁiÅŁkenĠ
K it
stat Ã¼
Ġbenz eriĠ
H ol
f Ã¼zyonĠ
Ġs alÄ±n
iz olas
f arz
af er
say Ä±lÄ±r
lÃ¼ÄŁ Ã¼nÃ¼Ġ
nitel iÄŁiniĠ
rut iyet
ĠK ahraman
d ineĠ
tÃ¼r Ã¼dÃ¼r
Ġsan atĠ
old ing
Ġs ist
Ä° ht
Ġkan at
Ġc es
C in
Ã§ok Ã§aĠ
gÃ¶r mÃ¼ÅŁtÃ¼r
Ã§ek er
ĠneĠ kadar
ÅŁiddet eĠ
tanÄ±m lar
TeÅŁ kilat
Ġodak lÄ±Ġ
aÃ§ tÄ±
ide s
alt Ä±ncÄ±Ġ
ĠI f
ninĠ birĠ
elerĠ tarafÄ±ndanĠ
tarz daĠ
ok Ã¼t
Ġay Ä±r
Ã¶lÃ¼m Ã¼ndenĠ
an j
ĠS eninĠ
d iÅŁiĠ
ĠBir leÅŁikĠ
bula bilirsiniz
ak lÄ±
ĠKr onikĠ
ĠDÃ¼ÅŁ Ã¼n
k Ä±yÄ±Ġ
ol masÄ±ndanĠdolayÄ±Ġ
ĠilkĠ olarakĠ
edil mesiniĠ
ĠH ol
yet eriĠ
taÅŁ Ä±yor
esn adaĠ
D H
Ġkavram Ä±nÄ±Ġ
! !
R a
yap Ä±lacaÄŁÄ±Ġ
yÃ¼rÃ¼tÃ¼l mÃ¼ÅŁtÃ¼r
ulaÅŁtÄ±r maĠ
Ġot om
ĠYunan istan
artÄ±r Ä±lmasÄ±Ġ
veĠ dahaĠ
gÃ¶nder il
al mak
z inc
eg z
bas amaÄŁ
ĠÃĸrn ek
iĠ F
enf ekteĠ
ĠSiya siĠ
ley en
ers inĠ
im mÃ¼n
Ġtelef onĠ
seÃ§ il
olan larÄ±Ġ
Ġma kam
deÄŁer ineĠ
Ġetm eyiĠ
rol Ã¼nÃ¼Ġ
b ro
istem iÅŁtir
yaz Ä±ndaĠ
enĠ gÃ¼zel
geliÅŁtir mekĠiÃ§inĠ
t otal
iv e
gÃ¼ ceĠ
gerÃ§ekleÅŁtir ilir
ĠK oca
Merkez i
Ġkans erĠ
iÄŁineĠ gÃ¶reĠ
Ã¶nlem leriĠ
insanĠ haklarÄ±Ġ
Ġhayat Ä±ndaĠ
Ġc h
al dÄ±k
terÃ¶r ĠÃ¶rgÃ¼t
sad Ä±kĠ
paz arĠ
aÅŁ Ä±nmaĠ
ĠG EN
seviy esineĠ
bilg isineĠ
zar araĠ
k indenĠ
durum larÄ±nĠ
hisseĠsen ediĠ
op art
P ay
aÃ§Ä±k lamasÄ±Ġ
anlamlÄ±Ġ iliÅŁkiĠ
gerekir seĠ
Ġbirey selĠ
unuz aĠ
ti j
Ä±l Ä±mÄ±Ġ
aÄŁr Ä±sÄ±Ġ
l ininĠ
deÄŁiÅŁim lerĠ
ĠSay faĠ
mem bran
ĠyaÅŁ Ä±ndanĠ
ĠKar deÅŁ
kala cak
D em
Ġbilg iyiĠ
Ġk Ã¶r
Ġ yakÄ±t
yem inĠ
S EM
kend iniziĠ
Ġ} Ċ
ĠgÃ¼nĠ iÃ§indeĠ
im es
alg Ä±sÄ±nÄ±nĠ
t ot
denĠ itibarenĠ
trans feriĠ
amaÃ§ lar
Kurul u
if e
Ġy ansÄ±
kur maĠ
getir mektedir
bak Ä±l
mekĠ zorundaĠ
doÄŁ asÄ±Ġ
ÅŁ aÅŁkÄ±n
bildir di
ka dir
Åŀ ey
L P
Ġb uÄŁday
saptan mamÄ±ÅŁtÄ±r
kolay lÄ±kla
yaÅŁ lardaĠ
ĠakÄ±l lÄ±Ġ
ĠO ĠyÃ¼zdenĠ
em beĠ
ĠS T
dam g
ĠD uvar
Ġt ev
iÅŁ lenmiÅŁ
y di
Ġb a
am mÃ¼l
Ġ etkileÅŁim
ĠS y
veril mesi
esas Ä±naĠ
ĠbenĠ deĠ
nÃ¶ tr
Ã¼Ġ iseĠ
person eliĠ
Ġmek Ã¢nĠ
dil deĠ
yap Ä±lacak
ĠO f
des ininĠ
kÄ±saĠ zamandaĠ
dÄ±ÄŁÄ±Ġ gÃ¶rÃ¼lmektedir
Ù ĩ
ĠbaÅŁ lÄ±kĠ
ĠKon ut
ileĠ yapÄ±lanĠ
an danĠ
olas Ä±lÄ±kĠ
in amikĠ
Ġmey v
ran d
eÄŁilim indeĠ
T am
or s
TÃ¼rk ler
Åŀ im
ĠiÅŁ iĠ
al em
devlet ler
ortayaĠÃ§Ä±kar mÄ±ÅŁtÄ±r
et liĠ
eÄŁitim ineĠ
anlat Ä±lanĠ
el iÄŁinĠ
K av
Ġg Ã¼nÃ¼nĠ
sĠ w
gÃ¶ster ebilir
Ġeks en
tÃ¼kenmiÅŁ likĠ
in tegr
mes iyle
( %
S elim
l iraĠ
ĠgÃ¼ven c
makĠ zorundadÄ±r
ap p
G M
ant im
Ġmu ay
Ġtab aka
CO VID
tam p
ĠK rediĠ
Ãľl k
GenelĠ MÃ¼dÃ¼r
baÄŁ lÄ±lÄ±k
ad Ä±na
belirlen mektedir
anlayÄ±ÅŁ Ä±nÄ±Ġ
Ã§ esi
is aĠ
kat lan
bÃ¼yÃ¼k lÃ¼ÄŁÃ¼
ĠD inĠ
saÄŁ lanmÄ±ÅŁ
ihtiyacÄ±Ġ olanĠ
deÄŁiÅŁken leriĠ
Ġol malÄ±
E ur
nef ret
yaygÄ±n laÅŁtÄ±r
eceÄŁineĠ inan
ĠV anĠ
harc amaĠ
iy os
ĠbirĠ yandanĠ
An aĠ
ÄŁ Ä±Ġ
merkez ineĠ
anlaÅŁ Ä±labilir
ĠolduÄŁ undan
siz ceĠ
O cakĠ
yolĠaÃ§ ar
iliÅŁk isineĠ
ĠKar ab
k c
Ã¼r ĠveĠ
Ġt Ä±p
Ġser g
Ġeder ek
tahr ib
sahip Ġolma
Et kil
el leriniĠ
M c
makĠ gibiĠ
ĠGÃ¶r ev
unĠ buĠ
Ġ iddi
Ġ eÄŁer
alan larĠ
karar Ä±nÄ±Ġ
kap sÃ¼l
mÃ¼ him
BaÅŁ bakanĠ
bar aj
ĠkarÅŁ Ä±lÄ±klÄ±Ġ
Ġ ibar
kÃ¼Ã§ Ã¼l
ĠL ig
Ġ ileriĠ
Ã§ ekĠ
ĠY Ä±lÄ±Ġ
geÃ§ tiÄŁimiz
m ikr
ekÃ¢ let
Ã¶ner ilerĠ
Ã§Ä±kar maĠ
deÄŁerlendir mekĠiÃ§inĠ
hizmetĠ verenĠ
ĠG Ã¶nÃ¼l
A Ġ
f Ä±sÄ±l
ow nĠ
gel eceÄŁiniĠ
ĠdÃ¼ÅŁ Ã¼r
ĠkÃ¼t l
iÅŁ birlik
ĠM ol
Afr ikaĠ
geliÅŁim indeĠ
kol eksiyon
ist ifaĠ
K ilis
iler ini
oluÅŁ masÄ±ndaĠ
ken teĠ
ist iyoruz
ad i
Ġrenk liĠ
al dÄ±ÄŁÄ±mÄ±z
Ġbas kÄ±
r Ã¼t
gÃ¼venilir likĠ
ala caktÄ±r
u larÄ±Ġ
ĠoluÅŁ ur
kom isyonĠ
plan la
Ã§ akĠ
y y
ĠBir incisi
Ã¢ il
tab ur
K ab
zor ĠbirĠ
deÄŁ ir
iler e
kullanÄ±labil ecekĠ
sor uyuĠ
ĠN or
ĠyardÄ±m Ä±ylaĠ
ul uÄŁ
ĠY Ã¶r
dÃ¼ÄŁ Ã¼nĠ
kaÃ§ akĠ
ov yetĠ
Ġand ĠtheĠ
diy al
gÃ¶rmez denĠ
red ded
la ĠbaÅŁ
dÄ±ÅŁÄ±ndaĠ kalanĠ
n iyeĠ
sanat Ã§Ä±Ġ
C Ä°
p i
yet in
Ġn et
ĠolmuÅŁ tu
makĠist iyorsanÄ±z
kur ucuĠ
Ġy irmiĠ
eb at
ĠkimiĠ zamanĠ
ileĠ birĠ
ĠBuĠ sÄ±radaĠ
eser lerĠ
mez heb
malzem eleriĠ
Ġak tar
F enĠ
eÄŁ imiz
geriĠ dÃ¶nÃ¼ÅŁÃ¼m
yansÄ± tÄ±r
Ä°n celen
on im
metas taz
bin anÄ±nĠ
Ġâī ¤
rÃ¼ ya
tanÄ±m lamaĠ
Ã§Ã¼n kÃ¼Ġ
Ġfor ĠtheĠ
ĠT ep
kelim eninĠ
Ġ egzersiz
Ġtarz Ä±Ġ
ĠB ed
in ant
dahaĠ uzunĠ
er iÅŁimĠ
Y em
ĠÃĩ Ã¶z
ĠÃĸÄŁrenc ilerĠ
bas yonĠ
ek ol
Ġ organizasyon
Ġ iliÅŁkisiĠ
iÃ§ ecekĠ
gerÃ§ ekteĠ
dÄ±ÅŁar Ä±daĠ
ta larÄ±nĠ
ĠD erg
ĠolmayanĠ birĠ
ĠF ener
Ġbun lardanĠ
ĠHay van
á¹ Ń
Ġ le
Ġr ehber
mar j
belirlem iÅŁlerdir
il ĠbirĠ
ham l
eyeĠ baÅŁla
Ġhipotez iĠ
on s
kurum lar
ifadeĠ edebil
yaÅŁ lÄ±
Ã§ocuk larĠiÃ§inĠ
Ar alÄ±kĠ
R F
zeminĠ hazÄ±r
l onĠ
ĠSayÄ±nĠ BaÅŁkan
ap t
h Ã¢n
Ġgerekt iÄŁiniĠ
aĠ geÃ§
ĠAn tikĠ
wit ch
eÅŁit lik
ĠÄ° sa
ĠedenĠ birĠ
ĠK ans
iĠ A
doy ur
N S
Ġyer elĠ
al is
sal ladÄ±
kitab Ä±ndaĠ
ilaÃ§ larÄ±nĠ
Ġrad yo
deÄŁiÅŁim ĠveĠ
deÄŁiÅŁim lerinĠ
elen enĠ
diÄŁ inden
sorun suz
M EB
Å ¡
" )
aÃ§Ä±klama larĠ
Ġinsan Ä±Ġ
etkil ed
Ġ may
oog le
Ġb i
ĠdaĠ buĠ
Ã¼mÃ¼z eĠ
ecekĠ kadarĠ
ĠyÄ±lÄ±ndaĠ iseĠ
on undaĠ
laya bilirsiniz
ĠToplam Ġ
ĠgÃ¶rÃ¼n tÃ¼l
U T
Ġf ar
ĠS Ã¼leyman
ÃĸÄŁretm enĠ
e maat
n eyiĠ
Ġmadd eninĠ
gerekt iÄŁindeĠ
bil mekĠ
an trop
bÃ¶lÃ¼m Ã¼nÃ¼
Ã¶f keĠ
LAR IN
kÄ±z Ä±l
inan dÄ±r
mekteĠveĠ buĠ
ticaret iĠ
yap Ä±lacaktÄ±r
ĠU n
ĠÃ§ ab
ĠD e
adlandÄ±r Ä±lanĠ
imzaĠ at
sonĠ veĠ
Ġm uĠ
lem edeĠ
hÃ¼kÃ¼m etiĠ
ĠS arÄ±
uz ant
ĠOrta kĠ
ĠV I
ĠBununĠ sonucundaĠ
tutum larÄ±Ġ
k Ä±lar
Ã§arp Ä±ÅŁ
ekonom iyeĠ
mÃ¼ esses
ĠH anÄ±m
sebep ĠolanĠ
ĠadÄ±Ġ verilenĠ
luluÄŁ unuĠ
seÃ§im indeĠ
ede mez
Ġyaz Ä±lÄ±Ġ
ĠD ijital
Ã¶lÃ§Ã¼m leriĠ
deÄŁerlendir ilir
olmak laĠbirlikte
ĠHerĠ neĠkadarĠ
gÃ¶rev Ġal
E f
emem esiĠ
gir er
bir eyeĠ
lerindeĠ iseĠ
etk iyiĠ
taĠ bulunanĠ
ÅŁekl iniĠ
ĠMÃ¼dÃ¼r lÃ¼ÄŁÃ¼
lerinĠ buĠ
mu v
iÅŁ te
karÄ±ÅŁ Ä±kĠ
Ġ dair
ĠT rabzon
n iÃ§inĠ
yetersiz liÄŁiĠ
az ĠsayÄ±daĠ
gÃ¶zlem lenmektedir
ĠAk ÅŁam
Ġbulun uyor
mekt ep
de la
bÃ¼tÃ¼n leÅŁmeĠ
mod ifiyeĠ
ÅŁark Ä±Ġ
sp ektro
Ġetm e
oluÅŁum unuĠ
ban kĠ
ĠgÃ¶ k
Ġbahis Ġsit
b elĠ
AN OVA
c uk
ib adetĠ
ĠdeÄŁer leri
enc y
ma larÄ±ndanĠ
ĠeÅŁ ya
ĠveĠarkadaÅŁ larÄ±Ġ
Ä°s kender
dÃ¼ÅŁ mektedir
Ġp ark
birĠtan esiĠ
Ġhak ikat
bilg isiniĠ
Ġs oyut
Ã¼y Ã¼Ġ
rapor ĠedilmiÅŁtir
tep e
ca iz
hal iyleĠ
Ã§iÃ§ ek
ede b
veril enĠbirĠ
sĠ aĠ
kayÄ±t ĠaltÄ±naĠ
yolĠaÃ§ maktadÄ±r
Ġtel evizyonĠ
Ã§ aÄŁÄ±Ġ
araÅŁtÄ±r Ä±lmasÄ±Ġ
mÃ¼kemm elĠbirĠ
ĠyardÄ±m cÄ±Ġ
mem branĠ
man adaĠ
al lim
teĠ verilmiÅŁtir
bÄ±rak mÄ±ÅŁtÄ±r
iÄŁ neĠ
y ut
ĠA yak
olun anĠ
ĠO b
vermiÅŁ ĠolduÄŁuĠ
yar arÄ±Ġ
yÄ±l Ġ
beb eÄŁinĠ
p u
ulaÅŁ tÄ±ÄŁÄ±Ġ
Ã§Ä±kar Ä±l
Ġt raf
ĠBuĠ aÅŁamadaĠ
mar aÅŁ
zaf er
Ġger eÄŁiĠ
konu laraĠ
Ġ Ã¼zereĠ
d Ã¶nemliĠ
Mac ar
laĠ birĠ
ans Ã¶r
ail e
itibar en
etm iyor
say Ä±sÄ±z
hedef leriĠ
yoksul lukĠ
parÃ§ alarÄ±Ġ
Ġr ec
aykÄ±r Ä±lÄ±kĠ
k lar
Ġtop luĠ
A Äŀ
us uz
bet te
farklÄ± laÅŁmaĠ
oterap iĠ
geriĠ Ã§ek
Ma lat
ĠOl uÅŁtur
kat Ä±
film iĠ
ĠKal p
ĠamaĠ buĠ
lem elerĠ
mutf akĠ
ĠV en
dr ama
az zam
karÅŁÄ±lÄ±kĠ gelenĠ
ĠolarakĠ kabulĠedil
bÃ¶lÃ¼m lerdeĠ
birdenĠ Ã§okĠ
okul larÄ±ndaĠ
sÃ¼reĠ iÃ§erisindeĠ
Ġola caÄŁ
oÄŁ lum
gÃ¶sterir ler
Ġh ow
gerÃ§ekleÅŁtir mekĠiÃ§inĠ
Ġyer liĠ
Ġf ik
usuĠ veĠ
artÄ±r makĠiÃ§inĠ
k Ä±lÄ±Ã§
sik loped
becer ilerininĠ
Hukuk u
ĠdÃ¼ÅŁ man
Ã¢v Ã®
Ġg Ä±da
dayan akĠ
sig ortal
miktar lardaĠ
it inĠ
kaynaÄŁÄ±Ġ olarakĠ
yapar lar
dahaĠyÃ¼ksekĠ olduÄŁuĠ
ek osistem
Ġyol undaĠ
erkek lerdeĠ
Ġtoplum daĠ
Ġkon usundakiĠ
birĠ miktar
ede biĠ
Ġse lam
ĠBÄ°L G
vÃ¼c udunĠ
Ġtelef onuĠ
n izam
ĠkararĠ ver
dik dÃ¶rtgenĠ
B anaĠ
ya vr
ĠBuĠ dÃ¶nem
Ã¼ret ilmiÅŁtir
ing ĠaĠ
oluÅŁtur makĠiÃ§inĠ
opart ikÃ¼l
yatÄ±rÄ±m larÄ±nĠ
metab oliz
Ġs tabil
in meĠ
al mayÄ±Ġ
ihtiyac Ä±nÄ±z
abor atuvar
v iĠ
ku man
sonuÃ§ larÄ±naĠgÃ¶re
S Ã¼leyman
ĠbaÅŁtaĠ olmakĠÃ¼zereĠ
Ver giĠ
cep heĠ
H el
ĠÃľniversit esi
ak ereĠ
ka fa
ĠtÃ¼ketic ilerinĠ
aktar Ä±lmÄ±ÅŁtÄ±r
anlat Ä±yor
Ì ħ
caz ip
lanmasÄ±Ġ ileĠ
Ġ[ [
ikleriĠ veĠ
ĠTay yip
say Ä±m
ĠHazÄ±r lananĠ
Ġkar aĠ
lac k
Ġbes lenmeĠ
beklen iyor
i dam
olma maktadÄ±r
dÃ¶n meĠ
Ġd iler
karac iÄŁer
Ġmerkez indeĠ
Ã§ap Ä±Ġ
g Ã¼zer
ĠkÄ±ya fet
ineĠ kadarĠ
Ġ etkiliĠ
ĠkarÅŁ Ä±la
imĠ deĠ
Ø ª
Ã§Ã¶zÃ¼m Ã¼
kr ip
hakk Ä±nĠ
ĠTek rar
TeÅŁ ekkÃ¼r
ar ap
Ã¶rn eÄŁin
ilk Ã¶ÄŁretim
eldeĠedil mektedir
ben denĠ
fayda sÄ±Ġ
eden ler
tÃ¼k en
ĠÄ°Ã§ indeĠ
ĠÃ¶nc esindeĠ
sÃ¼reĠ iÃ§indeĠ
dengel iĠ
lardanĠ dolayÄ±Ġ
ĠkÃ¼ltÃ¼r Ã¼nÃ¼nĠ
ekonom isineĠ
tar ak
Ġ Ã¶lÃ§Ã¼
iÅŁ Ġyer
Ġ alacak
ĠK linikĠ
ĠsÄ±r t
anaĠ kadarĠ
kazan mÄ±ÅŁ
Ġpuan larÄ±Ġ
kÄ±z Ä±nĠ
iÅŁ yeriĠ
ĠC or
Tekn olojiĠ
BK Ġm
kan lar
ÅŁiddet leĠ
Or du
mÃ¼ j
w ell
al fab
Ġgib iydi
yetiÅŁ enĠ
iletiÅŁim Ġteknoloj
ortayaĠÃ§Ä±k masÄ±Ġ
dÃ¼ÅŁÃ¼nc esiniĠ
de hit
B C
program larÄ±Ġ
ĠbaÅŁ lÄ±k
Ãĸzel likleriĠ
iÄŁ in
Ã® z
Ġifades iniĠ
ĠT artÄ±ÅŁ
Ġg ide
ĠO cak
Ã¶lÃ§ mekĠiÃ§inĠ
f ah
hakk Ä±nda
N as
ter eddÃ¼t
im iĠveĠ
unut ma
iht iyar
gir d
lik tir
tey it
ĠSur iyeĠ
ik lin
Ġay daĠ
Ġsiya salĠ
Mur at
Åŀ ir
gÃ¶zeĠÃ§arp maktadÄ±r
ilg isiz
ihtiyaÃ§Ġduy duÄŁuĠ
Ġp Ã¼rÃ¼z
? âĢĿ
ez z
em briy
ĠveĠ Ã¼st
bas amakĠ
kar Ä±nĠ
olmasÄ±Ġ durumundaĠ
aÅŁ Ä±
kal siyum
gÃ¶zlerĠ Ã¶nÃ¼neĠser
den k
ĠÄ°s viÃ§
H ep
Ã» f
itib arĠ
ÅŁart lardaĠ
katsay Ä±larÄ±Ġ
Y ok
saĠ buĠ
birĠ takÄ±mĠ
politika larÄ±nÄ±nĠ
Ã¶ner ilmiÅŁtir
l Ã¢l
larĠ Ã§erÃ§evesindeĠ
Or manĠ
sosyalĠ aÄŁ
anlat Ä±lmÄ±ÅŁtÄ±r
Ġpolit ikĠ
ay etiĠ
ĠolmasÄ±Ġ gerekir
ap ol
ĠSÃ¼r dÃ¼rÃ¼lebilir
deney sel
uygulan mÄ±ÅŁ
Ã¶l dÃ¼
ĠkÃ¶ tÃ¼l
dÃ¼zelt meĠ
ĠKon yaĠ
Es kiÅŁehir
ĠM Ã¼n
eÄŁitim iniĠ
ĠÃĩaÄŁ daÅŁ
sÄ± h
kaybet ti
olmadÄ±ÄŁ Ä±ndanĠ
Ä° Ã§er
hÃ¼km Ã¼nĠ
Ġon danĠ
kap Ä±sÄ±Ġ
Ġp ort
mu haseb
man tÄ±ÄŁ
Ġ Ã¶nem
ĠĠĠĠĠĠĠĠ ĠĠĠ
ĠÃ§ ar
ĠA NA
Ãĩ evr
kamer aĠ
ĠkiÅŁ iyiĠ
tut maĠ
s kÃ¼
S ak
ĠBey rut
haber leriĠ
art masÄ±ĠileĠ
Ã ł
temelĠ birĠ
da j
Ġb inlerceĠ
laÅŁ mayaĠ
yan Ä±ndakiĠ
birbir leriĠileĠ
yÃ¶nelikĠ olarakĠ
eĠ dayalÄ±Ġ
giriÅŁim cilikĠ
hareketĠ edenĠ
lerdenĠ sonraĠ
mekĠ isted
gÃ¼venilir ĠbirĠ
Ã¶rn ekteĠ
ĠBeÅŁ iktaÅŁ
ĠS end
ilmesiĠ gerekmektedir
Ġv entr
ur aĠ
BaÅŁkan lÄ±ÄŁÄ±Ġ
fÄ±k Ä±h
Ġar alÄ±ÄŁÄ±Ġ
acaÄŁ Ä±nÄ±z
olduÄŁunuĠ gÃ¶stermiÅŁtir
tec rÃ¼
birey lerin
Ġhep siĠ
ĠA p
ol dum
reh berĠ
liĠyÄ±l larÄ±nĠ
d og
yanĠ yanaĠ
kim liÄŁiĠ
tÄ±k Ã§a
yÃ¼ksekĠ orandaĠ
r asÄ±ndaĠ
Ġkil oĠ
kur g
terÃ¶r ist
cinsiyet eĠgÃ¶reĠ
ĠÃĸlÃ§ ekĠ
par maÄŁ
ecek on
op timal
Ã¼lat Ã¶r
Ã§oÄŁ unuĠ
biz lereĠ
S c
eder iz
ha iz
dikkateĠ alarakĠ
Ã§Ä±k arĠ
Ġden em
dileĠgetir enĠ
mah kum
Ã¶nemliĠ derecedeĠ
gid erkenĠ
Ġstratej ikĠ
kor kut
ĠG eceĠ
Åŀ en
mediÄŁiĠ iÃ§inĠ
ĠS ap
Mill Ã®
Ġs Ã¼n
ĠtÃ¼r Ã¼Ġ
l iyorum
kav g
B os
iliĠ birĠ
ĠG Ä±daĠ
st okĠ
ĠE c
anlaÅŁ Ä±ldÄ±ÄŁÄ±Ġ
Ġolun anĠ
kÄ±r Ä±kĠ
er alĠ
iliÅŁkiler Ġkur
ĠP h
Ġf ikr
oksi jen
Ġ unĠ
baÄŁÄ±msÄ±z lÄ±kĠ
y oz
edil diÄŁiniĠ
tel graf
mÄ±ÅŁ tÄ±Ġ
ĠF eder
larÄ±ndanĠ birisiĠ
ĠErk ek
yatÄ±rÄ±m cÄ±Ġ
ikler ini
ĠM Ã¼s
Ä±dÄ±r ĠveĠ
b ad
pat ent
sÄ±n Ä±n
enerj ininĠ
piya sas
d iye
kalit esininĠ
el indekiĠ
anest ez
ilmiÅŁ ĠolanĠ
Ġta bak
Ã§oÄŁ u
onĠ beÅŁ
leĠ birĠ
yÃ¶n Ã¼
ĠMed yaĠ
ser vet
ĠV el
ĠF elsef
aÄŁr Ä±
Ã¶ teĠ
ĠsÄ±cak lÄ±k
ĠhÃ¼cr elerininĠ
ÅŁ okĠ
In stagram
iÅŁ ininĠ
Ġbilim selĠ
ĠgeliÅŁ enĠ
ĠK Ä±ÅŁ
Ġso meĠ
ĠAlt Ä±nĠ
hÃ¼k meĠ
T anÄ±m
mu tasyon
say esinde
iÅŁtir akĠ
Ġperforman sĠ
meydanaĠ gelmiÅŁtir
felsef iĠ
noktas Ä±naĠ
zih niyet
Ã¶zellik lerineĠgÃ¶reĠ
kon t
aktar anĠ
Kon yaĠ
kas Ä±ndanĠ
ĠyÄ±l lardaĠ
ak ran
geÃ§ir enĠ
Ġb ranÅŁ
Ġolabil eceÄŁiniĠ
sistem ler
Ã¼m Ã¼nĠ
yansÄ±t maktadÄ±r
V D
ĠEnĠ az
ir seĠ
pro v
Ġede bilirsiniz
ilk eĠ
in kĠ
yay la
bahs etmekĠ
Gaz iantep
Ã¶ m
ĠKÄ±s acaĠ
d eninĠ
masÄ±ĠveĠ buĠ
Kon gr
Ġolabil mektedir
ĠveĠ Z
yÃ¶netm elik
Åŀ uĠ
Ġbiy olojikĠ
ĠH ur
Ġhakk Ä±nÄ±nĠ
Ä°s viÃ§
ĠP ark
birĠÅŁey ler
Ġbilg i
ĠolduÄŁuĠ tespitĠedilmiÅŁtir
u e
lat if
Ġm iy
ok erĠ
âĢ Ĳ
lardanĠ daĠ
ĠyÄ±lÄ±naĠ kadarĠ
bar Ä±n
ĠolduÄŁunuĠ gÃ¶stermektedir
Ġ yapÄ±lmÄ±ÅŁtÄ±r
ĠÄ°ht iya
doÄŁ muÅŁ
yetenek liĠ
kan dÄ±r
ufakĠ birĠ
Ä±ÅŁ Ä±l
deÄŁerlendiril mesi
Ġ. .
miÅŁ tim
bÃ¼t Ã¼ncÃ¼l
Tur izm
deÄŁerlendir enĠ
Ġka mer
kÃ¶ pek
mesel esiĠ
iber al
bul makĠiÃ§inĠ
hayal ĠkÄ±rÄ±k
K oca
Ġh iyerarÅŁ
kur ucusuĠ
hizmet leriniĠ
Ãĸ mer
Ġcih azÄ±Ġ
mekaniz masÄ±Ġ
Ġay et
Ã§alÄ±ÅŁ masÄ±nÄ±nĠ
alt ĠÃ¶lÃ§
zor luĠ
yakÄ±n lÄ±kĠ
Ø ¹
Ġbun laraĠ
av ir
Ä±naĠ baÄŁlÄ±ĠolarakĠ
at tÄ±ÄŁÄ±Ġ
Ġn ih
s ip
Ġder inĠ
kiÅŁ idenĠ
Ġan aya
op en
Ã¶nc Ã¼
incelen ecektir
Ġg Ã¼neĠ
grup takiĠ
tercih Ġetm
M eÅŁ
ĠDahaĠ sonra
ĠKar arĠ
B kz
tanÄ±t Ä±m
N er
ĠToplum sal
n eh
ard in
ĠtekĠ baÅŁÄ±naĠ
ĠÃĩalÄ±ÅŁ mada
on unaĠ
aÅŁa masÄ±naĠ
ÅŁ emeĠ
lu b
Ġâī ¥
ceh ennem
Ã¼ h
Bakan Ä±Ġ
lardan dÄ±r
ĠF i
if teĠ
ĠM Ã¼t
imĠ olarakĠ
Ġek st
meydanaĠ geldiÄŁiĠ
nez dindeĠ
is ĠveĠ
tanÄ±m lanÄ±r
ĠOr t
ĠyÄ±l ĠboyuncaĠ
o o
Ġgec ik
nasÄ±l Ġkullan
ĠJap onya
kaydedil di
var lÄ±ÄŁÄ±ndaĠ
li manĠ
genÃ§ likĠ
ĠS ub
bugÃ¼n kÃ¼
gel miÅŁti
gÃ¶rÃ¼l mÃ¼ÅŁ
gerekĠ kal
um artesiĠ
ĠbirĠ deĠ
lÄ±ÄŁ Ä±ndakiĠ
g ey
at ikĠ
ĠkarÅŁ Ä±lan
Ġd ist
ĠR os
ebil eceÄŁimiz
ort h
davranÄ±ÅŁ Ä±nÄ±nĠ
Ġgerek mektedir
Ã ¬
ĠMar x
ĠÃľl keĠ
ĠE dir
makĠ veyaĠ
Ġvar lÄ±ÄŁÄ±Ġ
Ġs aray
rit Ã¼el
kiÅŁ idir
ĠOÄŁ uz
Ġ Ã¼Ġ
ver enĠbirĠ
nic elĠ
an am
s uĠveĠ
sev iyeĠ
Ġâ ĨĴ
Ã§Ä±k maz
Ġsah ib
ĠÃĸ ÄŁ
dos yaĠ
kriter leriĠ
Äŀ ER
inĠ D
net ĠbirĠ
Ġk Ã¼Ã§
ĠE leÅŁtir
tamam layÄ±cÄ±Ġ
Ġkonu daĠ
politika larÄ±nĠ
ad Ä±yla
kurul duÄŁuĠ
Ġ aÅŁama
lan masÄ±nÄ±nĠ
ĠyatÄ±r Ä±mĠ
ayr Ä±lmasÄ±Ġ
Ã¶lÃ¼m Ã¼
a laĠ
fes ih
Ġdip lo
hastal Ä±ÄŁaĠ
denetim iĠ
Ã§alÄ±ÅŁ tÄ±klarÄ±Ġ
Ã§okĠ daĠ
gerekir se
Ġma hall
sÄ±y r
herĠ zaman
zaman lar
: :
naĠ gÃ¶reĠ
Ġ" "
alÄ±n tÄ±
ti ma
ĠKal kÄ±nmaĠ
ĠÃ§alÄ±ÅŁma mÄ±z
ĠT eh
sonaĠer dir
iÄŁ iniziĠ
ĠDoÄŁ alĠ
elen miÅŁ
Ġma liĠ
al kÄ±ÅŁ
rah atĠ
yapÄ±l masÄ±nÄ±nĠ
Ġkr al
len mesiĠveĠ
mamÄ±z daĠ
al Ã¼minyum
Ġm or
diÄŁiĠ Ã¼zereĠ
Ã¼l tÃ¼Ġ
m Ã¼m
di oksit
Ã¼Ã§ ĠboyutluĠ
ĠK ant
dÃ¼ÅŁÃ¼nc eler
n ec
hesap lama
birĠ diÄŁer
ley iĠ
ĠYÄ±l dÄ±rÄ±m
ĠbiliÅŁ sel
S oÄŁ
ĠF in
olduÄŁ unda
tad Ä±nÄ±Ġ
Ã§Ã¶zÃ¼m ĠÃ¶ner
masÄ±Ġ sonucuĠ
madÄ±k Ã§aĠ
ĠbaÅŁvur uĠ
ĠN ey
lakĠ veĠ
z Ä±Ġ
Ġ ilaveĠ
C S
ĠKurul uÅŁ
an cak
av vuf
ĠElektr onikĠ
aliz asyonĠ
olduÄŁuĠ belirtilmiÅŁtir
karar Ä±nÄ±nĠ
ĠolmasÄ±naĠ raÄŁmen
ĠD S
Ġp ayÄ±Ġ
Ġ organikĠ
ĠsonuÃ§ larÄ±naĠgÃ¶reĠ
ĠSam sun
tahminĠ edil
Ġgel mektedir
diya kĠ
oyun c
lat Ã¶r
hÃ¼cr elerĠ
ata kĠ
sektÃ¶r Ã¼
ders leriĠ
mamÄ±z aĠ
alÄ±n masÄ±
http s
dayan Ä±ÅŁmaĠ
Ġc iddiĠ
ĠBuĠ tip
uyum suz
ĠU nut
ĠkÃ¼ltÃ¼r Ã¼nĠ
istatist iksel
gÃ¼Ã§ sÃ¼z
EÄŁ erĠ
olduÄŁunuĠ belirt
alan larÄ±
Ġola maz
Ġ Ã¶ldÃ¼r
yol laĠ
Ä°k tis
fikir leriniĠ
ĠTer Ã¶r
z i
iv ilĠ
art Ä±Ġ
N i
par lak
ĠB os
yÃ¼z Ã¼nÃ¼nĠ
gÃ¶rÃ¼l memiÅŁtir
ĠbÃ¶l Ã¼n
ĠG Ã¼mÃ¼ÅŁ
yapÄ±lmasÄ±Ġ gerekenĠ
ĠÃ§evr im
deĠ kullanÄ±lanĠ
eksik siz
zor laÅŁ
oluÅŁ an
part ininĠ
lerden dir
larĠ iÃ§in
birĠ Ã¶ncekiĠ
faktÃ¶r dÃ¼r
Ġ nĠ
ear ch
C oÄŁraf
eb liÄŁ
ĠgeniÅŁ ĠbirĠ
Ã§ elik
zar ur
ref er
arttÄ±r Ä±lmasÄ±Ġ
gayr et
dir ekĠ
Ġkat k
tanÄ±m lanabilir
k Ã¼meĠ
uÄŁr adÄ±ÄŁÄ±Ġ
W e
alt Ä±n
etm edeĠ
ama menĠ
Uy gur
to lerans
B oyut
F I
bul muÅŁ
olarakĠkabulĠedil mektedir
ĠE mek
Ä±naĠ sahipĠol
sez g
Ã¶ mert
n iz
Ä± ĉ
Åŀ iir
Fa aliyet
sp ir
ÅŁart larÄ±nĠ
ĠÄ°ÅŁletm elerinĠ
des indeĠ
Ġ gÃ¶l
yÃ¼zey indeĠ
mesiĠ gerektiÄŁiniĠ
ren aj
Ab bas
Ã¶ÄŁren meyeĠ
Sam sun
Ãĩ ek
est erĠ
uygulama yÄ±Ġ
adam larÄ±Ġ
AÄŁ ustos
gÃ¶ÄŁ s
nÃ¢ me
diÄŁ inĠ
sistem ikĠ
Ġsay Ä±larÄ±Ġ
hoÅŁ lan
mu ameleĠ
diÄŁer lerindenĠ
bek ler
ĠC D
D ef
coÄŁraf yaĠ
birĠÅŁey Ġyap
Ġhis set
oluÅŁ tuÄŁ
dah i
kat liam
ĠÄ° ÃĩÄ°NDEKÄ°LER
bas kÄ±s
toplum dakiĠ
od oks
da fa
Ġt Ä±bbiĠ
al erj
den dir
ÅŁ arttÄ±r
ĠG alatasaray
yaÄŁ lÄ±Ġ
Ġbas amak
risk leriĠ
sÃ¶z ler
ow n
gÃ¼Ã§lÃ¼ ĠveĠ
Ġg o
ĠkarÄ±ÅŁ Ä±m
Ã¶rgÃ¼t eĠ
gru b
belirlen mesiĠveĠ
Ġyol cul
yolcul uÄŁ
MA SI
Ġoyun cu
mekleĠ birlikte
sÃ¼r gÃ¼nĠ
b azĠ
aĠ dÃ¶n
en izeĠ
p ik
oyn adÄ±ÄŁÄ±Ġ
ĠCev ap
gerek Ã§eĠ
bak Ä±mÄ±Ġ
Ä± Ä±
Ä° talyanĠ
plan lama
tarz Ä±Ġ
bÃ¼r okras
yerleÅŁtir ilmiÅŁtir
sÄ±r ada
gÃ¶rÃ¼ÅŁ Ã¼nÃ¼
ĠsayÄ±lÄ±Ġ Kanun
ĠsÃ¶y len
gÃ¶zĠardÄ±Ġ edil
Whitney ĠU
in it
Ã§evr edeĠ
Ġtes ti
Ġmu ha
may Ä±nĠ
D iyan
Ġb end
Ã¶zel liÄŁeĠ
mas k
korun masÄ±
ĠÅŁirket inĠ
Ġted bir
Ã¼n eĠveĠ
Ã¶ÄŁren meyiĠ
Ä±lmÄ±ÅŁ ĠolanĠ
lenf osit
ĠgeliÅŁtir ilmiÅŁtir
A it
Ġl iseĠ
Ġg Ã¼b
konum undaĠ
O b
H int
of il
baÅŁÄ±naĠ dÃ¼ÅŁenĠ
Ä±lar la
Ġbelir lenenĠ
kuvvet iĠ
g ayetĠ
Ä±y Ä±m
aÅŁaÄŁÄ±dakiĠ ÅŁekildeĠ
L ider
dik leri
ĠyÃ¶n lÃ¼Ġ
elikĠ veĠ
ĠN Ã¼fus
Ã§alÄ±ÅŁ masÄ±nÄ±Ġ
nokta larÄ±Ġ
Ġar an
yerleÅŁtir ilenĠ
millet vekiliĠ
parÃ§ alar
da aĠ
ĠEr meniĠ
KÄ±r gÄ±z
mesiniĠ saÄŁlayanĠ
inov asyonĠ
boyunĠ eÄŁ
ĠBir ĠsÃ¼reĠ
ekonomikĠ bÃ¼yÃ¼meĠ
ma masÄ±ĠiÃ§inĠ
iÅŁlev iniĠ
anlam lÄ±dÄ±r
f ig
Ã¼lk elerininĠ
s lot
yan Ä±ndanĠ
Ġminer al
gecik tir
Ġ Ä±r
an idenĠ
ta daĠ
ĠO da
ĠgÃ¶rÃ¼n Ã¼ÅŁ
yeniĠ veĠ
sonĠ zamanlardaĠ
T at
ĠT emiz
tÄ±ÄŁ Ä±mdaĠ
nak il
inĠ ileĠ
dÃ¼ÅŁÃ¼nc eninĠ
r Ã¶portaj
sonunaĠ kadarĠ
gerek iyordu
ĠkÃ¶ p
Ġr eh
Ġl ok
hoÅŁ nut
proj elerĠ
ĠO ran
tat ikĠ
bur unĠ
malar Ä±dÄ±r
ail esiĠ
k Ã¢m
l eb
veril melidir
finans eĠ
gÃ¼nlÃ¼kĠ yaÅŁam
ulaÅŁ abilirsiniz
olabil mesiĠiÃ§inĠ
Ġ Ã¶rgÃ¼tÃ¼nĠ
Ġal Ä±m
gÃ¼Ã§ tÃ¼r
rast lanmÄ±ÅŁtÄ±r
tay iniĠ
ta g
sizinĠ iÃ§inĠ
Hav aĠ
saÄŁla maktÄ±r
gayr iĠ
Ã¶n ley
mesiĠ deĠ
etkisiĠ vardÄ±r
Ġmez ar
Ãĩ ift
yolcul uk
al ity
met afiz
gel ebilir
sergil en
in ing
hÄ±z Ä±
ĠkÄ±s menĠ
o C
in Ã§Ġ
s ark
nadir enĠ
Ġem ek
aktivit esiĠ
el it
hukuk unĠ
et ro
Tem muz
Ã§at lak
birĠÅŁey inĠ
Ġt hem
Ġb and
ĠS up
gÃ¼r Ã¼lt
Ã¶ncÃ¼l Ã¼kĠ
oÄŁ uĠ
Ġl eh
F il
belirlem edeĠ
tÃ¼ f
yÃ¶ntem idir
ĠGaz iantep
T B
kabul ĠetmekĠ
B akÄ±m
Jap onĠ
Ãľr etim
opt imizeĠ
Ã§ ilereĠ
karÅŁÄ±mÄ±z aĠÃ§Ä±k
Ġmet alĠ
sor ulanĠ
lerdenĠ veĠ
ĠBULGU LAR
yor da
T Ä±p
m iz
la dÄ±ÄŁÄ±nÄ±Ġ
BÃ¼yÃ¼k ÅŁehirĠBelediy
bÃ¼tÃ¼n Ã¼yleĠ
ul eĠ
Ġ Ã¼zer
ĠmÃ¼mk Ã¼ndÃ¼r
mey iĠveĠ
M D
as aĠ
lardaĠ buĠ
ÅŁ ekĠ
ĠK aya
ĠBuĠ yaz
ver diÄŁiniĠ
lik lerineĠ
ĠH oc
sembol ikĠ
ĠS h
uygulama larÄ±nÄ±Ġ
orij inalĠ
propagan daĠ
ĠYen idenĠ
hak imĠ
ĠP ir
AraÅŁtÄ±r manÄ±nĠ
Ġeden ler
sayÄ±sÄ±Ġ veĠ
ev k
n eyeĠ
yan maĠ
farklÄ±Ġ olarak
lerĠveĠ buĠ
ulaÅŁ Ä±labilir
ĠbaÄŁÄ±m lÄ±Ġ
Ġkah v
bilin enĠbirĠ
dikkatĠÃ§ek icidir
ortala masÄ±
Ġyap Ä±nÄ±nĠ
ĠSeÃ§ im
Ġw ww
ĠyardÄ±m Ä±yla
Hal il
Ġgerek Ã§
C E
ĠAnaya sa
faaliyetĠ gÃ¶ster
ĠÃ§aÄŁ daÅŁ
Ġhal iĠ
fiz ik
getir di
Ġar alarÄ±ndaĠ
ĠÃĸz et
bunaĠ gÃ¶reĠ
katÄ±l dÄ±
it it
Ġtaraf tar
gerekt iÄŁini
ĠÃ¼rÃ¼n leriĠ
Kurum uĠ
if las
enz imĠ
Ã§alÄ±ÅŁan laraĠ
oluÅŁum unaĠ
id rakĠ
ĠDoÄŁr udanĠ
ĠÃ¶rgÃ¼t sel
Y aÄŁ
ĠI rakĠ
larÄ±naĠ dair
Ã¼r etir
grup laraĠ
ok ond
kal masÄ±Ġ
alÄ±n Ä±p
ĠÃ¼lk emizdeĠ
Ä ¯
bis iklet
bilin meyenĠ
kusur suz
D ik
Gel iÅŁim
ĠM Ã¼k
ĠK UR
ĠC ol
ders inĠ
iÅŁ Ġdoyum
makla ĠberaberĠ
aktar Ä±lanĠ
Ġ taÅŁÄ±
Ä±ÅŁ Ä±ÄŁÄ±nĠ
demokrat ik
s w
ind eksiĠ
T h
kim eĠ
bilim leriĠ
tasf iyeĠ
ÅŁef kat
gibiĠ Ã§eÅŁitliĠ
Ø ¯
Ġ iler
Ġ ameliyat
sah ih
lan acakĠ
oz aĠ
ÅŁ ak
ĠÃľzer ineĠ
tu ta
Bur saĠ
Ġver diÄŁiĠ
olarakĠ belirlenmiÅŁtir
gÃ¼nÃ¼mÃ¼z eĠkadar
piya sasÄ±Ġ
mah sus
ĠÄ°nsan larĠ
ann em
ĠBar Ä±ÅŁ
ĠStratej ikĠ
res ininĠ
lÄ±k tÄ±r
yap malarÄ±Ġ
K omut
Â ®
say gÄ±
herĠ anĠ
Ġkar an
M O
n el
M enderes
birĠ dÃ¶nem
verir kenĠ
Ġp eygamber
meĠ ileĠ
Etk isiĠ
j ant
istem ektedir
m ideĠ
it us
ĠTic ariĠ
ĠAl Ä±ÅŁ
otur up
ĠBuĠ gibiĠ
hafif Ã§eĠ
Ä± st
Ġak siĠ
edil melidir
ak siĠ
toplum ununĠ
Ä±lÄ±r lar
yard Ä±mÄ±Ġ
ro ugh
is a
D est
ann esininĠ
gerekt iÄŁi
el lerindeĠ
mekĠ suretiyleĠ
etm ediÄŁiĠ
ĠSab it
la d
a lardanĠ
Ġ Ä±rk
u larÄ±nĠ
man zar
ri ed
dil leĠ
Ġol mayaĠ
zamanĠ geÃ§ir
parametr elerĠ
var anĠ
ri j
Ġyap arakĠ
ab on
Ġpart iĠ
leriĠ Ã¼zerineĠ
y ek
mey ip
lob alĠ
danĠ fazlaĠ
ran dev
lan g
sef ereĠ
ĠN ik
sa g
opro te
Ġstandart Ġsap
lerindenĠ dolayÄ±Ġ
benlikĠ sayg
ĠBir ĠgÃ¼nĠ
y edekĠ
ip likĠ
ĠKatÄ±lÄ±m cÄ±Ġ
ð Ł
baz Ä±larÄ±nÄ±nĠ
S im
as l
fonksiyon larÄ±Ġ
C N
dahaĠ doÄŁruĠ
mesaj Ä±Ġ
ÅŁÃ¼p hesiz
bÃ¶yl elikleĠ
O da
Ġd Ã¼k
Y AL
ÅŁekl iyleĠ
ĠN etic
er yal
hassas iyet
rekabet Ã§iĠ
eldeĠedilenĠ sonuÃ§
aya tÄ±
vardÄ±r ĠveĠ
kÄ±ymet liĠ
belirlen mesiĠiÃ§inĠ
hemenĠ sonraĠ
deĠ gÃ¶rÃ¼lmektedir
getir il
enc iĠ
ett iĠ
lÃ¼ÄŁ Ã¼ĠveĠ
Ġtaraf Ä±ndaĠ
neĠ dereceĠ
B Ã¼t
belir sizlikĠ
ĠG ebel
g unlukĠ
bÄ±rak tÄ±
tÃ¼ketic ininĠ
em riĠ
ak ses
Ã¶n leyiciĠ
yararlan maĠ
dahaĠ baÅŁarÄ±lÄ±Ġ
b end
Y abancÄ±Ġ
denĠ gelenĠ
ĠElektr ikĠ
en ineĠ
gerek liliÄŁiniĠ
ĠMÃ¼z ikĠ
o ĠdÃ¶nem
yaptÄ±k larÄ±nÄ±Ġ
ulaÅŁ makĠiÃ§inĠ
gÃ¼neĠ kadar
antib iyotikĠ
V ol
ĠÃĩ ap
tut arakĠ
mÃ¼sa adeĠ
etk ilerineĠ
denĠ dolayÄ±Ġ
ĠKÃ¼r eselĠ
ger ilmeĠ
Ġ ama
Ã§alÄ±ÅŁ Ä±lanĠ
yaÅŁ Ġgrup
ver eceÄŁiĠ
ik lerindeĠ
ĠÄ°k incisiĠ
ĠAvrupaĠ BirliÄŁiĠ
S end
gÃ¶rÃ¼l eceÄŁiĠ
ĠGeÃ§ tiÄŁimiz
ĠÃĸlÃ§ eÄŁi
el imĠ
Ġmey dan
ĠmaÄŁ dur
indow s
belir sizlik
etk ileri
test Ġedil
los uz
Ġmate matikĠ
gel eniĠ
nak let
Ã» z
ev ininĠ
Ġdak ikalÄ±kĠ
ĠmaÄŁ az
ĠG Ã¼nc
hiÃ§ birĠÅŁekildeĠ
herĠ birininĠ
ĠkoÅŁul larÄ±ndaĠ
Ã¶ncelik liĠolarakĠ
iÃ§ selĠ
GSY Ä°H
ĠHak kÄ±Ġ
ĠÄ° p
pr imerĠ
ĠÃĸy ley
Ã¼lat if
alan larÄ±nÄ±Ġ
tat Ã¶r
ĠB eh
insan lÄ±ÄŁÄ±nĠ
= ,
Ã¶n esans
met r
ĠNis an
SayÄ±nĠ BaÅŁkan
al kal
R G
veĠ bununĠ
Ġdurum lardaĠ
Ã§ asÄ±Ġ
e ur
ĠyÄ±l Ġ
deÄŁil ĠaynÄ±ĠzamandaĠ
Ġ duyar
ayaÄŁaĠ kalk
ĠadlÄ±Ġ eser
Ã¢ met
belirtildiÄŁiĠ gibiĠ
Ġf es
ileĠ olanĠ
Ġon ay
ma leĠ
malzem eler
enĠÃ§okĠ kullanÄ±lanĠ
ÅŁ an
us Ã»l
ama mÄ±ÅŁ
Ã¶ner g
hedef lenenĠ
' -
Ġhafta daĠ
ĠM esel
Ġet ik
dÄ±ÅŁ Ġticaret
baÄŁÄ±msÄ±z ĠdeÄŁiÅŁken
duygu larÄ±nĠ
Ġtar Ä±mĠ
ĠsÄ±f Ä±r
ĠK Ä±y
okuryazar lÄ±kĠ
Ġgiz liĠ
anlaÅŁÄ±lacaÄŁÄ±Ġ Ã¼zereĠ
hrac at
ka larakĠ
katÄ±l mÄ±yorum
iÅŁ leyenĠ
yaz mÄ±ÅŁtÄ±r
Ð ¾
seÃ§ meĠ
dÄ±k tanĠ
Åŀ imdiĠ
olduÄŁuĠ bilinmektedir
Ġsaptan mÄ±ÅŁtÄ±r
DÃ¼nyaĠ SavaÅŁÄ±
bir iyleĠ
ĠSÃ¶z c
Ġ( -
gerÃ§ekleÅŁtir ildi
kullan ma
P E
Ġv asÄ±
Ġ- .
onun la
ar Ä±tmaĠ
Ã§ iÄŁ
Vak fÄ±Ġ
ad eliĠ
olmuÅŁ ĠveĠ
ĠKr iz
met a
E geĠ
G u
Ġ Ã¶nemliĠbirĠ
H S
Ã§Ä±ka cakĠ
Ã¶n gÃ¶rÃ¼lmÃ¼ÅŁtÃ¼r
od y
nÃ¼fus ununĠ
anks iyet
anest eziĠ
imiz dekiĠ
Ã İ
eÅŁ siz
yaÅŁan Ä±lanĠ
dikkateĠalÄ±n dÄ±ÄŁÄ±ndaĠ
gÃ¶r eceĠ
ĠdÃ¼nyas Ä±nÄ±nĠ
ik lerdeĠ
ĠAn talya
ĠyaÅŁ lÄ±Ġ
Ġmed eniĠ
Ġv ektÃ¶r
dep las
ekt en
YÃ¶netim iĠ
yeter lilikĠ
zek aĠ
B ol
onar meĠ
muhalef et
Ġar a
Ġyar gÄ±Ġ
ĠSaÄŁ lÄ±klÄ±Ġ
ĠH aziran
ant um
rek or
daĠ aynÄ±Ġ
J o
bak alÄ±m
var mÄ±ÅŁ
ĠT Ä±p
oskov a
Ġs ensÃ¶r
eklen t
eskiĠ birĠ
ĠÄ°ngil tereĠ
iÄŁiĠ veĠ
ĠC har
l s
sÃ¶zleÅŁ mesiĠ
Ġson aĠer
ad Ä±nĠ
ab out
eden lerinĠ
c inĠ
ĠKat Ä±l
ĠT h
Ä±l mayaĠÃ§alÄ±ÅŁ
ĠG oogleĠ
em edi
Ãĸz gÃ¼r
aÃ§Ä±k layÄ±cÄ±Ġ
zarar Ä±nĠ
zorun luluk
ĠolmasÄ±Ġ gerekmektedir
ap op
leÅŁ meyeĠ
lardaĠ bulunanĠ
ĠdÃ¼ÅŁ Ã¼ÅŁ
Ġuz ay
olog y
neĠ gibiĠ
S uÃ§
eklen erekĠ
Ġhizmet leriĠ
Ãĸ N
ĠÄ° laÃ§
azÄ±n lÄ±kĠ
ĠKad Ä±nÄ±nĠ
Ġcin selĠ
ĠR ah
iniĠ artÄ±r
T ic
ĠBur saĠ
durum larĠ
karÅŁÄ±Ġ Ã§Ä±k
Ġett iÄŁimiz
yararlan Ä±larakĠ
ĠÄ°lk okul
lardanĠ beriĠ
asyon ununĠ
ya tÃ¼r
ĠC al
kan undaĠ
ĠyÃ¶n denĠ
bÃ¶lg elereĠ
ant ikĠ
haleĠ gelmiÅŁtir
ĠÅŁÃ¼p hesiz
ic hard
ĠEl ektro
yarat maĠ
Ġger iyeĠ
edil erĠ
F re
gÃ¶ ml
ulaÅŁ maĠ
Y Ã¼r
ma ter
Ã¶yl esineĠ
a a
risk ininĠ
Ã§Ä±kar Ä±lmasÄ±Ġ
bÃ¶lÃ¼m Ã¼nĠ
ĠH el
av a
p iyan
deÄŁerlendir meleriĠ
f inal
ekip man
r adaĠ
bor cuĠ
Ġhis seĠsen
istat ikselĠolarakĠ
bil iyordu
kÄ± yaĠ
ĠbÃ¶lÃ¼m Ã¼
Ġp res
im Ã¼slim
Ã¶ tikĠ
ĠVeĠ buĠ
iÅŁletm elerininĠ
aÅŁa masÄ±nda
nefes Ġal
p Ã¼skÃ¼r
ey iĠveĠ
larlaĠ daĠ
t Ä±mĠ
on es
bÄ±rak Ä±r
C har
ĠBir Ġyan
may la
Bat Ä±lÄ±Ġ
Ġsorun larÄ±nĠ
in faz
ĠB ayanĠ
ĠD Ã¶rdÃ¼ncÃ¼
l uyor
yer Ġbul
nÄ±nĠ buĠ
pan demiĠ
L ey
ul up
YÃ¶n etmel
yapÄ±l dÄ±ÄŁÄ±ndaĠ
bilim inĠ
iĠ Bey
mel iyat
plan lÄ±Ġ
geliÅŁtir ilmesineĠ
ĠKÄ±r gÄ±z
mÃ¼cadel edeĠ
dil ĠveĠ
n eyinĠ
ĠStr es
ĠDiÄŁerĠ taraftan
am id
R os
teĠ bulunanĠ
[...]
