{"[PAD]": 0, "[UNK]": 1, "[BOS]": 2, "[EOS]": 3, "[CLS]": 4, "[SEP]": 5, "[MASK]": 6, "<RESERVED_TOKEN_1>": 7, "<RESERVED_TOKEN_2>": 8, "<RESERVED_TOKEN_3>": 9, "<RESERVED_TOKEN_4>": 10, "<RESERVED_TOKEN_5>": 11, "<RESERVED_TOKEN_6>": 12, "<RESERVED_TOKEN_7>": 13, "<RESERVED_TOKEN_8>": 14, "<RESERVED_TOKEN_9>": 15, "<RESERVED_TOKEN_10>": 16, "<RESERVED_TOKEN_11>": 17, "<RESERVED_TOKEN_12>": 18, "<RESERVED_TOKEN_13>": 19, "<RESERVED_TOKEN_14>": 20, "<RESERVED_TOKEN_15>": 21, "<RESERVED_TOKEN_16>": 22, "<RESERVED_TOKEN_17>": 23, "<RESERVED_TOKEN_18>": 24, "<RESERVED_TOKEN_19>": 25, "<RESERVED_TOKEN_20>": 26, "<RESERVED_TOKEN_21>": 27, "<RESERVED_TOKEN_22>": 28, "<RESERVED_TOKEN_23>": 29, "<RESERVED_TOKEN_24>": 30, "<RESERVED_TOKEN_25>": 31, "<RESERVED_TOKEN_26>": 32, "<RESERVED_TOKEN_27>": 33, "<RESERVED_TOKEN_28>": 34, "<RESERVED_TOKEN_29>": 35, "<RESERVED_TOKEN_30>": 36, "<RESERVED_TOKEN_31>": 37, "<RESERVED_TOKEN_32>": 38, "<RESERVED_TOKEN_33>": 39, "<RESERVED_TOKEN_34>": 40, "<RESERVED_TOKEN_35>": 41, "<RESERVED_TOKEN_36>": 42, "<RESERVED_TOKEN_37>": 43, "<RESERVED_TOKEN_38>": 44, "<RESERVED_TOKEN_39>": 45, "<RESERVED_TOKEN_40>": 46, "<RESERVED_TOKEN_41>": 47, "<RESERVED_TOKEN_42>": 48, "<RESERVED_TOKEN_43>": 49, "<RESERVED_TOKEN_44>": 50, "<RESERVED_TOKEN_45>": 51, "<RESERVED_TOKEN_46>": 52, "<RESERVED_TOKEN_47>": 53, "<RESERVED_TOKEN_48>": 54, "<RESERVED_TOKEN_49>": 55, "<RESERVED_TOKEN_50>": 56, "<RESERVED_TOKEN_51>": 57, "<RESERVED_TOKEN_52>": 58, "<RESERVED_TOKEN_53>": 59, "<RESERVED_TOKEN_54>": 60, "<RESERVED_TOKEN_55>": 61, "<RESERVED_TOKEN_56>": 62, "<RESERVED_TOKEN_57>": 63, "<RESERVED_TOKEN_58>": 64, "<RESERVED_TOKEN_59>": 65, "<RESERVED_TOKEN_60>": 66, "<RESERVED_TOKEN_61>": 67, "<RESERVED_TOKEN_62>": 68, "<RESERVED_TOKEN_63>": 69, "<RESERVED_TOKEN_64>": 70, "<RESERVED_TOKEN_65>": 71, "<RESERVED_TOKEN_66>": 72, "<RESERVED_TOKEN_67>": 73, "<RESERVED_TOKEN_68>": 74, "<RESERVED_TOKEN_69>": 75, "<RESERVED_TOKEN_70>": 76, "<RESERVED_TOKEN_71>": 77, "<RESERVED_TOKEN_72>": 78, "<RESERVED_TOKEN_73>": 79, "<RESERVED_TOKEN_74>": 80, "<RESERVED_TOKEN_75>": 81, "<RESERVED_TOKEN_76>": 82, "<RESERVED_TOKEN_77>": 83, "<RESERVED_TOKEN_78>": 84, "<RESERVED_TOKEN_79>": 85, "<RESERVED_TOKEN_80>": 86, "<RESERVED_TOKEN_81>": 87, "<RESERVED_TOKEN_82>": 88, "<RESERVED_TOKEN_83>": 89, "<RESERVED_TOKEN_84>": 90, "<RESERVED_TOKEN_85>": 91, "<RESERVED_TOKEN_86>": 92, "<RESERVED_TOKEN_87>": 93, "<RESERVED_TOKEN_88>": 94, "<RESERVED_TOKEN_89>": 95, "<RESERVED_TOKEN_90>": 96, "<RESERVED_TOKEN_91>": 97, "<RESERVED_TOKEN_92>": 98, "<RESERVED_TOKEN_93>": 99, "<RESERVED_TOKEN_94>": 100, "<RESERVED_TOKEN_95>": 101, "<RESERVED_TOKEN_96>": 102, "<RESERVED_TOKEN_97>": 103, "<RESERVED_TOKEN_98>": 104, "<RESERVED_TOKEN_99>": 105, "<RESERVED_TOKEN_100>": 106, "<RESERVED_TOKEN_101>": 107, "<RESERVED_TOKEN_102>": 108, "<RESERVED_TOKEN_103>": 109, "<RESERVED_TOKEN_104>": 110, "<RESERVED_TOKEN_105>": 111, "<RESERVED_TOKEN_106>": 112, "<RESERVED_TOKEN_107>": 113, "<RESERVED_TOKEN_108>": 114, "<RESERVED_TOKEN_109>": 115, "<RESERVED_TOKEN_110>": 116, "<RESERVED_TOKEN_111>": 117, "<RESERVED_TOKEN_112>": 118, "<RESERVED_TOKEN_113>": 119, "<RESERVED_TOKEN_114>": 120, "<RESERVED_TOKEN_115>": 121, "<RESERVED_TOKEN_116>": 122, "<RESERVED_TOKEN_117>": 123, "<RESERVED_TOKEN_118>": 124, "<RESERVED_TOKEN_119>": 125, "<RESERVED_TOKEN_120>": 126, "<RESERVED_TOKEN_121>": 127, "<RESERVED_TOKEN_122>": 128, "<RESERVED_TOKEN_123>": 129, "<RESERVED_TOKEN_124>": 130, "<RESERVED_TOKEN_125>": 131, "<RESERVED_TOKEN_126>": 132, "<RESERVED_TOKEN_127>": 133, "<RESERVED_TOKEN_128>": 134, "<RESERVED_TOKEN_129>": 135, "<RESERVED_TOKEN_130>": 136, "<RESERVED_TOKEN_131>": 137, "<RESERVED_TOKEN_132>": 138, "<RESERVED_TOKEN_133>": 139, "<RESERVED_TOKEN_134>": 140, "<RESERVED_TOKEN_135>": 141, "<RESERVED_TOKEN_136>": 142, "<RESERVED_TOKEN_137>": 143, "<RESERVED_TOKEN_138>": 144, "<RESERVED_TOKEN_139>": 145, "<RESERVED_TOKEN_140>": 146, "<RESERVED_TOKEN_141>": 147, "<RESERVED_TOKEN_142>": 148, "<RESERVED_TOKEN_143>": 149, "<RESERVED_TOKEN_144>": 150, "<RESERVED_TOKEN_145>": 151, "<RESERVED_TOKEN_146>": 152, "<RESERVED_TOKEN_147>": 153, "<RESERVED_TOKEN_148>": 154, "<RESERVED_TOKEN_149>": 155, "<RESERVED_TOKEN_150>": 156, "<RESERVED_TOKEN_151>": 157, "<RESERVED_TOKEN_152>": 158, "<RESERVED_TOKEN_153>": 159, "<RESERVED_TOKEN_154>": 160, "<RESERVED_TOKEN_155>": 161, "<RESERVED_TOKEN_156>": 162, "<RESERVED_TOKEN_157>": 163, "<RESERVED_TOKEN_158>": 164, "<RESERVED_TOKEN_159>": 165, "<RESERVED_TOKEN_160>": 166, "<RESERVED_TOKEN_161>": 167, "<RESERVED_TOKEN_162>": 168, "<RESERVED_TOKEN_163>": 169, "<RESERVED_TOKEN_164>": 170, "<RESERVED_TOKEN_165>": 171, "<RESERVED_TOKEN_166>": 172, "<RESERVED_TOKEN_167>": 173, "<RESERVED_TOKEN_168>": 174, "<RESERVED_TOKEN_169>": 175, "<RESERVED_TOKEN_170>": 176, "<RESERVED_TOKEN_171>": 177, "<RESERVED_TOKEN_172>": 178, "<RESERVED_TOKEN_173>": 179, "<RESERVED_TOKEN_174>": 180, "<RESERVED_TOKEN_175>": 181, "<RESERVED_TOKEN_176>": 182, "<RESERVED_TOKEN_177>": 183, "<RESERVED_TOKEN_178>": 184, "<RESERVED_TOKEN_179>": 185, "<RESERVED_TOKEN_180>": 186, "<RESERVED_TOKEN_181>": 187, "<RESERVED_TOKEN_182>": 188, "<RESERVED_TOKEN_183>": 189, "<RESERVED_TOKEN_184>": 190, "<RESERVED_TOKEN_185>": 191, "<RESERVED_TOKEN_186>": 192, "<RESERVED_TOKEN_187>": 193, "<RESERVED_TOKEN_188>": 194, "<RESERVED_TOKEN_189>": 195, "<RESERVED_TOKEN_190>": 196, "<RESERVED_TOKEN_191>": 197, "<RESERVED_TOKEN_192>": 198, "<RESERVED_TOKEN_193>": 199, "<RESERVED_TOKEN_194>": 200, "<RESERVED_TOKEN_195>": 201, "<RESERVED_TOKEN_196>": 202, "<RESERVED_TOKEN_197>": 203, "<RESERVED_TOKEN_198>": 204, "<RESERVED_TOKEN_199>": 205, "<RESERVED_TOKEN_200>": 206, "<RESERVED_TOKEN_201>": 207, "<RESERVED_TOKEN_202>": 208, "<RESERVED_TOKEN_203>": 209, "<RESERVED_TOKEN_204>": 210, "<RESERVED_TOKEN_205>": 211, "<RESERVED_TOKEN_206>": 212, "<RESERVED_TOKEN_207>": 213, "<RESERVED_TOKEN_208>": 214, "<RESERVED_TOKEN_209>": 215, "<RESERVED_TOKEN_210>": 216, "<RESERVED_TOKEN_211>": 217, "<RESERVED_TOKEN_212>": 218, "<RESERVED_TOKEN_213>": 219, "<RESERVED_TOKEN_214>": 220, "<RESERVED_TOKEN_215>": 221, "<RESERVED_TOKEN_216>": 222, "<RESERVED_TOKEN_217>": 223, "<RESERVED_TOKEN_218>": 224, "<RESERVED_TOKEN_219>": 225, "<RESERVED_TOKEN_220>": 226, "<RESERVED_TOKEN_221>": 227, "<RESERVED_TOKEN_222>": 228, "<RESERVED_TOKEN_223>": 229, "<RESERVED_TOKEN_224>": 230, "<RESERVED_TOKEN_225>": 231, "<RESERVED_TOKEN_226>": 232, "<RESERVED_TOKEN_227>": 233, "<RESERVED_TOKEN_228>": 234, "<RESERVED_TOKEN_229>": 235, "<RESERVED_TOKEN_230>": 236, "<RESERVED_TOKEN_231>": 237, "<RESERVED_TOKEN_232>": 238, "<RESERVED_TOKEN_233>": 239, "<RESERVED_TOKEN_234>": 240, "<RESERVED_TOKEN_235>": 241, "<RESERVED_TOKEN_236>": 242, "<RESERVED_TOKEN_237>": 243, "<RESERVED_TOKEN_238>": 244, "<RESERVED_TOKEN_239>": 245, "<RESERVED_TOKEN_240>": 246, "<RESERVED_TOKEN_241>": 247, "<RESERVED_TOKEN_242>": 248, "<RESERVED_TOKEN_243>": 249, "<RESERVED_TOKEN_244>": 250, "<RESERVED_TOKEN_245>": 251, "<RESERVED_TOKEN_246>": 252, "<RESERVED_TOKEN_247>": 253, "<RESERVED_TOKEN_248>": 254, "<RESERVED_TOKEN_249>": 255, "<RESERVED_TOKEN_250>": 256, "<RESERVED_TOKEN_251>": 257, "<RESERVED_TOKEN_252>": 258, "<RESERVED_TOKEN_253>": 259, "<RESERVED_TOKEN_254>": 260, "<RESERVED_TOKEN_255>": 261, "!": 262, "\"": 263, "#": 264, "$": 265, "%": 266, "&": 267, "'": 268, "(": 269, ")": 270, "*": 271, "+": 272, ",": 273, "-": 274, ".": 275, "/": 276, "0": 277, "1": 278, "2": 279, "3": 280, "4": 281, "5": 282, "6": 283, "7": 284, "8": 285, "9": 286, ":": 287, ";": 288, "<": 289, "=": 290, ">": 291, "?": 292, "@": 293, "A": 294, "B": 295, "C": 296, "D": 297, "E": 298, "F": 299, "G": 300, "H": 301, "I": 302, "J": 303, "K": 304, "L": 305, "M": 306, "N": 307, "O": 308, "P": 309, "Q": 310, "R": 311, "S": 312, "T": 313, "U": 314, "V": 315, "W": 316, "X": 317, "Y": 318, "Z": 319, "[": 320, "\\": 321, "]": 322, "^": 323, "_": 324, "`": 325, "a": 326, "b": 327, "c": 328, "d": 329, "e": 330, "f": 331, "g": 332, "h": 333, "i": 334, "j": 335, "k": 336, "l": 337, "m": 338, "n": 339, "o": 340, "p": 341, "q": 342, "r": 343, "s": 344, "t": 345, "u": 346, "v": 347, "w": 348, "x": 349, "y": 350, "z": 351, "{": 352, "|": 353, "}": 354, "~": 355, "¡": 356, "¢": 357, "£": 358, "¤": 359, "¥": 360, "¦": 361, "§": 362, "¨": 363, "©": 364, "ª": 365, "«": 366, "¬": 367, "®": 368, "¯": 369, "°": 370, "±": 371, "²": 372, "³": 373, "´": 374, "µ": 375, "¶": 376, "·": 377, "¸": 378, "¹": 379, "º": 380, "»": 381, "¼": 382, "½": 383, "¾": 384, "¿": 385, "À": 386, "Á": 387, "Â": 388, "Ã": 389, "Ä": 390, "Å": 391, "Æ": 392, "Ç": 393, "È": 394, "É": 395, "Ê": 396, "Ë": 397, "Ì": 398, "Í": 399, "Î": 400, "Ï": 401, "Ð": 402, "Ñ": 403, "Ò": 404, "Ó": 405, "Ô": 406, "Õ": 407, "Ö": 408, "×": 409, "Ø": 410, "Ù": 411, "Ú": 412, "Û": 413, "Ü": 414, "Ý": 415, "Þ": 416, "ß": 417, "à": 418, "á": 419, "â": 420, "ã": 421, "ä": 422, "å": 423, "æ": 424, "ç": 425, "è": 426, "é": 427, "ê": 428, "ë": 429, "ì": 430, "í": 431, "î": 432, "ï": 433, "ð": 434, "ñ": 435, "ò": 436, "ó": 437, "ô": 438, "õ": 439, "ö": 440, "÷": 441, "ø": 442, "ù": 443, "ú": 444, "û": 445, "ü": 446, "ý": 447, "þ": 448, "ÿ": 449, "Ā": 450, "ā": 451, "Ă": 452, "ă": 453, "Ą": 454, "ą": 455, "Ć": 456, "ć": 457, "Ĉ": 458, "ĉ": 459, "Ċ": 460, "ċ": 461, "Č": 462, "č": 463, "Ď": 464, "ď": 465, "Đ": 466, "đ": 467, "Ē": 468, "ē": 469, "Ĕ": 470, "ĕ": 471, "Ė": 472, "ė": 473, "Ę": 474, "ę": 475, "Ě": 476, "ě": 477, "Ĝ": 478, "ĝ": 479, "Ğ": 480, "ğ": 481, "Ġ": 482, "ġ": 483, "Ģ": 484, "ģ": 485, "Ĥ": 486, "ĥ": 487, "Ħ": 488, "ħ": 489, "Ĩ": 490, "ĩ": 491, "Ī": 492, "ī": 493, "Ĭ": 494, "ĭ": 495, "Į": 496, "į": 497, "İ": 498, "ı": 499, "Ĳ": 500, "ĳ": 501, "Ĵ": 502, "ĵ": 503, "Ķ": 504, "ķ": 505, "ĸ": 506, "Ĺ": 507, "ĺ": 508, "Ļ": 509, "ļ": 510, "Ľ": 511, "ľ": 512, "Ŀ": 513, "ŀ": 514, "Ł": 515, "ł": 516, "Ń": 517, "Ä±": 518, "nĠ": 519, "eĠ": 520, "la": 521, "er": 522, "ÅŁ": 523, "Ã¼": 524, "iĠ": 525, "aĠ": 526, "ir": 527, "il": 528, "ÄŁ": 529, "in": 530, "ar": 531, "Ä±Ġ": 532, "Ã§": 533, "kĠ": 534, "lar": 535, "ma": 536, "Ã¶": 537, "Ä±n": 538, "el": 539, "en": 540, "an": 541, "et": 542, "al": 543, "inĠ": 544, "ek": 545, "ler": 546, "uĠ": 547, "de": 548, "daĠ": 549, "Ä±r": 550, "veĠ": 551, "ya": 552, "da": 553, "deĠ": 554, "ol": 555, "es": 556, "iÅŁ": 557, "bir": 558, "em": 559, "or": 560, "un": 561, "ta": 562, "ka": 563, "Ä±nĠ": 564, "is": 565, "on": 566, "im": 567, "ur": 568, "ed": 569, "Ä±ÅŁ": 570, "enĠ": 571, "iy": 572, "birĠ": 573, "ik": 574, "Ä±l": 575, "ul": 576, "ey": 577, "lan": 578, "as": 579, "Ã¼r": 580, "ak": 581, "iz": 582, "it": 583, "Ġs": 584, "Ġb": 585, "ĠB": 586, "gÃ¶": 587, "Ġk": 588, "ay": 589, "Ã¼n": 590, "akĠ": 591, "at": 592, "Ã¶n": 593, "Ä±m": 594, "iÃ§": 595, "iÄŁ": 596, "um": 597, "bil": 598, "ikĠ": 599, "ĠveĠ": 600, "mas": 601, "aÅŁ": 602, "Ä±ndaĠ": 603, "aÄŁ": 604, "erĠ": 605, "ekĠ": 606, "du": 607, "dÄ±r": 608, "Ä±ÄŁ": 609, "danĠ": 610, "Ã¼z": 611, "Ä±k": 612, "tÄ±r": 613, "indeĠ": 614, "tir": 615, "denĠ": 616, "larÄ±Ġ": 617, "am": 618, "ineĠ": 619, "ĠA": 620, "iniĠ": 621, "larÄ±n": 622, "az": 623, "Ġt": 624, "ininĠ": 625, "Ġy": 626, "lanĠ": 627, "Ġd": 628, "gÃ¶r": 629, "Ä°": 630, "ekt": 631, "ev": 632, "leĠ": 633, "eÅŁ": 634, "yap": 635, "dir": 636, "st": 637, "Ġg": 638, "Ã¼l": 639, "ec": 640, "iler": 641, "unĠ": 642, "anĠ": 643, "maĠ": 644, "olar": 645, "ileĠ": 646, "Ġh": 647, "liĠ": 648, "miÅŁ": 649, "mÄ±ÅŁ": 650, "Ä±z": 651, "eler": 652, "uÅŁ": 653, "lÄ±Ġ": 654, "deÄŁ": 655, "Ä±s": 656, "yaĠ": 657, "mak": 658, "Ã¼m": 659, "olarakĠ": 660, "ver": 661, "Ġ(": 662, "mes": 663, "ah": 664, "len": 665, "ĠK": 666, "Ã¼ÅŁ": 667, "leriĠ": 668, "uy": 669, "us": 670, "Ã¶z": 671, "Ġol": 672, "ĠS": 673, "eÄŁ": 674, "man": 675, "iÃ§inĠ": 676, "ÄŁr": 677, "Ġm": 678, "Ã¢": 679, "Ä±kĠ": 680, "Ġ\"": 681, "ist": 682, "kiĠ": 683, "larÄ±nĠ": 684, "duÄŁ": 685, "ok": 686, "Ã¼k": 687, "ad": 688, "Ä±y": 689, "gel": 690, "ĠT": 691, "lem": 692, "buĠ": 693, "alÄ±ÅŁ": 694, "ib": 695, "ut": 696, "edir": 697, "kar": 698, "af": 699, "mekt": 700, "ĠBuĠ": 701, "ĠÃ": 702, "Ã§o": 703, "uz": 704, "ip": 705, "if": 706, "laÅŁ": 707, "Ã¶r": 708, "masÄ±Ġ": 709, "op": 710, "bul": 711, "lik": 712, "elĠ": 713, "Ä±nÄ±Ġ": 714, "Ä±naĠ": 715, "laĠ": 716, "Ä±ÄŁÄ±Ġ": 717, "ger": 718, "eÃ§": 719, "iÄŁiĠ": 720, "ĠD": 721, "edil": 722, "ĠM": 723, "ez": 724, "makta": 725, "ro": 726, "ullan": 727, "aÃ§": 728, "larĠ": 729, "onĠ": 730, "Ã§alÄ±ÅŁ": 731, "ab": 732, "son": 733, "mektedir": 734, "ih": 735, "ola": 736, "baÅŁ": 737, "dah": 738, "end": 739, "Ġp": 740, "Ä±ndanĠ": 741, "id": 742, "tar": 743, "Ã¶l": 744, "maktadÄ±r": 745, "Ä±nÄ±nĠ": 746, "kat": 747, "Ġ.": 748, "meĠ": 749, "miÅŁtir": 750, "ama": 751, "ĠÄ°": 752, "ic": 753, "ĠH": 754, "tur": 755, "Ã¼nĠ": 756, "mÄ±ÅŁtÄ±r": 757, "Ã¶nem": 758, "ap": 759, "olanĠ": 760, "lerinĠ": 761, "oy": 762, "dur": 763, "ĠY": 764, "ĠE": 765, "bilir": 766, "dahaĠ": 767, "etk": 768, "Ã¼y": 769, "om": 770, "kon": 771, "art": 772, "Ã¼Ġ": 773, "bel": 774, "ac": 775, "ark": 776, "kullan": 777, "var": 778, "dakiĠ": 779, "aras": 780, "lam": 781, "uk": 782, "gu": 783, "Ã§okĠ": 784, "yan": 785, "leÅŁ": 786, "Ä±c": 787, "ter": 788, "ĠG": 789, "duÄŁuĠ": 790, "taĠ": 791, "Ã¶ÄŁr": 792, "ĠbirĠ": 793, "ekiĠ": 794, "Ã¼kĠ": 795, "makĠ": 796, "orta": 797, "etm": 798, "Ã¼zer": 799, "inc": 800, "Ã¶y": 801, "oÄŁ": 802, "iya": 803, "etĠ": 804, "yÃ¶n": 805, "lerĠ": 806, "Ã¼t": 807, "indenĠ": 808, "ibiĠ": 809, "tan": 810, "av": 811, "esiĠ": 812, "yaÅŁ": 813, "tÃ¼r": 814, "os": 815, "uÅŁtur": 816, "kad": 817, "alĠ": 818, "unuĠ": 819, "imĠ": 820, "mesiĠ": 821, "eb": 822, "iyor": 823, "Ä±lanĠ": 824, "deÄŁer": 825, "kay": 826, "ru": 827, "sÃ¼r": 828, "teĠ": 829, "ÅŁek": 830, "belir": 831, "bulun": 832, "ot": 833, "Ġf": 834, "san": 835, "larÄ±nÄ±nĠ": 836, "yar": 837, "mal": 838, "di": 839, "mad": 840, "tem": 841, "iÅŁk": 842, "tr": 843, "dÃ¼ÅŁ": 844, "ilg": 845, "iseĠ": 846, "undaĠ": 847, "laraĠ": 848, "ep": 849, "ster": 850, "iyet": 851, "iyeĠ": 852, "Ã§Ä±k": 853, "iliĠ": 854, "Ã§ek": 855, "ĠO": 856, "yon": 857, "saÄŁ": 858, "likĠ": 859, "lÄ±kĠ": 860, "lardaĠ": 861, "alt": 862, "Ã®": 863, "gÃ¶ster": 864, "ĠP": 865, "kur": 866, "dÄ±": 867, "diÄŁ": 868, "karÅŁ": 869, "eninĠ": 870, "Ã¼Ã§": 871, "iyleĠ": 872, "ceĠ": 873, "dekiĠ": 874, "yanĠ": 875, "lama": 876, "edenĠ": 877, "eyeĠ": 878, "larÄ±nÄ±Ġ": 879, "isiĠ": 880, "geÃ§": 881, "der": 882, "ans": 883, "kal": 884, "gÃ¶reĠ": 885, "etim": 886, "vr": 887, "Åŀ": 888, "eniĠ": 889, "ĠÃĸ": 890, "..": 891, "ĠÃĩ": 892, "idir": 893, "âĢ": 894, "arĠ": 895, "ununĠ": 896, "cakĠ": 897, "top": 898, "yer": 899, "baÄŁ": 900, "alan": 901, "ti": 902, "ef": 903, "erk": 904, "Ã¼ks": 905, "Ã¼c": 906, "Ġn": 907, "uÃ§": 908, "ĠbuĠ": 909, "fark": 910, "den": 911, "uygu": 912, "Ã¶zel": 913, "sonr": 914, "lu": 915, "Ä±yor": 916, "met": 917, "oÄŁr": 918, "sah": 919, "durum": 920, "Ġedil": 921, "eh": 922, "olay": 923, "oz": 924, "tanĠ": 925, "ÅŁekil": 926, "iĠveĠ": 927, "kap": 928, "oj": 929, "uc": 930, "vey": 931, "Ġ%": 932, "gerek": 933, "let": 934, "lerininĠ": 935, "kend": 936, "ĠF": 937, "Ã¶ÄŁren": 938, "gen": 939, "say": 940, "veyaĠ": 941, "Ä±t": 942, "unaĠ": 943, "aÅŁtÄ±r": 944, "yaz": 945, "yak": 946, "lendir": 947, "ede": 948, "Ã¼rk": 949, "sor": 950, "Ã§alÄ±ÅŁma": 951, "od": 952, "deÄŁiÅŁ": 953, "dÃ¼z": 954, "dev": 955, "lÄ±k": 956, "Ġan": 957, "sa": 958, "lamaĠ": 959, "istem": 960, "iliÅŁk": 961, "Ä±dÄ±r": 962, "iÃ§er": 963, "leriniĠ": 964, "gibiĠ": 965, "dÄ±ÄŁÄ±Ġ": 966, "luĠ": 967, "gÃ¶rÃ¼l": 968, "ĠAn": 969, "tas": 970, "ĠyÄ±l": 971, "larÄ±naĠ": 972, "alÄ±n": 973, "siz": 974, "gr": 975, "ayr": 976, "Ġtar": 977, "ĠolarakĠ": 978, "hal": 979, "ĠĠ": 980, "mekĠ": 981, "tes": 982, "ĠC": 983, "yonĠ": 984, "Ä±lar": 985, "oloj": 986, "arasÄ±ndaĠ": 987, "te": 988, "iniz": 989, "olduÄŁuĠ": 990, "liÄŁ": 991, "Ġc": 992, "Ä±la": 993, "yal": 994, "Ã¼s": 995, "bak": 996, "ĠN": 997, "dÄ±ÄŁ": 998, "selĠ": 999, "ebilir": 1000, "veril": 1001, "sel": 1002, "Ã¼ÄŁ": 1003, "eden": 1004, "bÃ¼y": 1005, "geliÅŁ": 1006, "aman": 1007, "eceÄŁ": 1008, "larÄ±ndaĠ": 1009, "res": 1010, "lereĠ": 1011, "ilerinĠ": 1012, "ninĠ": 1013, "ĠÃ§": 1014, "kan": 1015, "afÄ±ndanĠ": 1016, "sahip": 1017, "ent": 1018, "ikiĠ": 1019, "Ä±ndakiĠ": 1020, "giĠ": 1021, "gÃ¶z": 1022, "has": 1023, "edeĠ": 1024, "yÃ¼ks": 1025, "lat": 1026, "yapÄ±l": 1027, "ÅŁekildeĠ": 1028, "Ġet": 1029, "Ġkon": 1030, "Ã¶nemliĠ": 1031, "ley": 1032, "lÄ±ÄŁ": 1033, "aya": 1034, "Ä±mĠ": 1035, "diÄŁiĠ": 1036, "par": 1037, "saĠ": 1038, "pro": 1039, "yet": 1040, "siy": 1041, "neĠ": 1042, "mayaĠ": 1043, "sal": 1044, "yÄ±l": 1045, "Ä±p": 1046, "larÄ±": 1047, "yerĠ": 1048, "anlam": 1049, "imiz": 1050, "mey": 1051, "ileriĠ": 1052, "eleriĠ": 1053, "dik": 1054, "Ä±ylaĠ": 1055, "rup": 1056, "dan": 1057, "olduÄŁ": 1058, "Ġ-": 1059, "nÄ±Ġ": 1060, "leÅŁtir": 1061, "ĠR": 1062, "sÄ±n": 1063, "dÃ¼r": 1064, "herĠ": 1065, "har": 1066, "tak": 1067, "deÄŁil": 1068, "eÄŁit": 1069, "etir": 1070, "Ã¼lk": 1071, "dÃ¼ÅŁÃ¼n": 1072, "Ä±f": 1073, "gÃ¼n": 1074, "muÅŁtur": 1075, "up": 1076, "Ä±sÄ±Ġ": 1077, "tek": 1078, "caĠ": 1079, "tal": 1080, "cak": 1081, "sonraĠ": 1082, "iyiĠ": 1083, "Ä±yla": 1084, "tÄ±": 1085, "zaman": 1086, "imiĠ": 1087, "indekiĠ": 1088, "inde": 1089, "oĠ": 1090, "ĠBir": 1091, "araÅŁtÄ±r": 1092, "lerdeĠ": 1093, "kiÅŁ": 1094, "ebil": 1095, "erekĠ": 1096, "Ä±nda": 1097, "taÅŁ": 1098, "ilgiliĠ": 1099, "oran": 1100, "doÄŁr": 1101, "Ã¼st": 1102, "dem": 1103, "Ãĸ": 1104, "Ã¶zellik": 1105, "ĠileĠ": 1106, "bÃ¶l": 1107, "cÄ±Ġ": 1108, "arakĠ": 1109, "faz": 1110, ".\"": 1111, "ecekĠ": 1112, "Ġka": 1113, "lum": 1114, "lerineĠ": 1115, "ilenĠ": 1116, "Ã¼v": 1117, "hak": 1118, "for": 1119, "insan": 1120, "akt": 1121, "birlik": 1122, "ifa": 1123, "Ä±mÄ±z": 1124, "kayn": 1125, "Ġv": 1126, "Ã§oc": 1127, "ortayaĠ": 1128, "lÄ±l": 1129, "sÄ±z": 1130, "yol": 1131, "eldeĠ": 1132, "oÅŁ": 1133, "han": 1134, "ÅŁey": 1135, "ukĠ": 1136, "Ġr": 1137, "ilerĠ": 1138, "Ã¶ÄŁrenc": 1139, "ĠV": 1140, "Ãĩ": 1141, "Ġkar": 1142, "duk": 1143, "mem": 1144, "Ġyap": 1145, "ser": 1146, "getir": 1147, "amanĠ": 1148, "gir": 1149, "hem": 1150, "mÃ¼ÅŁ": 1151, "ĠAr": 1152, "duy": 1153, "lardanĠ": 1154, "Ã¶lÃ§": 1155, "may": 1156, "masÄ±": 1157, "Ä±ĠveĠ": 1158, "elikĠ": 1159, "aliz": 1160, "elerĠ": 1161, "le": 1162, "yÃ¼z": 1163, "oluÅŁ": 1164, "leri": 1165, "ĠAy": 1166, "esindeĠ": 1167, "deÄŁerlendir": 1168, "tab": 1169, "liÄŁiĠ": 1170, "kor": 1171, "sun": 1172, "gerÃ§ek": 1173, "manÄ±nĠ": 1174, "incel": 1175, "sÄ±r": 1176, "eliĠ": 1177, "oluÅŁtur": 1178, "sÃ¶y": 1179, "eÅŁit": 1180, "evr": 1181, "neden": 1182, "ilkĠ": 1183, "kÄ±s": 1184, "Ġde": 1185, "mam": 1186, "bÃ¼yÃ¼kĠ": 1187, "uÄŁ": 1188, "adaĠ": 1189, "kaĠ": 1190, "etkil": 1191, "asÄ±Ġ": 1192, "elerinĠ": 1193, "Ġson": 1194, "farklÄ±Ġ": 1195, "âĢĻ": 1196, "zamanĠ": 1197, "aÃ§Ä±k": 1198, "ĠÅŀ": 1199, "ika": 1200, "ĠyÃ¶n": 1201, "sÃ¶z": 1202, "tenĠ": 1203, "masÄ±naĠ": 1204, "fa": 1205, "yÃ¼ksekĠ": 1206, "nÄ±nĠ": 1207, "eriĠ": 1208, "ulaÅŁ": 1209, "yapÄ±lanĠ": 1210, "iÅŁlem": 1211, "lananĠ": 1212, "Ġkur": 1213, "ben": 1214, "zan": 1215, "Ã¶nc": 1216, "siĠ": 1217, "caÄŁ": 1218, "Ä±mÄ±Ġ": 1219, "amaĠ": 1220, "iye": 1221, "kadar": 1222, "aynÄ±Ġ": 1223, "Ġgel": 1224, "diĠ": 1225, "doÄŁ": 1226, "abil": 1227, "mu": 1228, "lay": 1229, "seĠ": 1230, "zor": 1231, "Ã¼ven": 1232, "ĠÅŁ": 1233, "dÃ¶nem": 1234, "kullanÄ±l": 1235, "tat": 1236, "ĠgibiĠ": 1237, "iÃ§indeĠ": 1238, "ĠbaÅŁ": 1239, "ĠL": 1240, "med": 1241, "ĠdeĠ": 1242, "muÅŁ": 1243, "bilg": 1244, "TÃ¼rk": 1245, "yay": 1246, "ig": 1247, "birey": 1248, "tut": 1249, "Ã¼ndeĠ": 1250, "Ã§aĠ": 1251, "belirt": 1252, "saÄŁla": 1253, "Ġkullan": 1254, "dÄ±ÅŁ": 1255, "olma": 1256, "Ã¶rn": 1257, "ifadeĠ": 1258, "lerindeĠ": 1259, "Ġ'": 1260, "azÄ±Ġ": 1261, "ecek": 1262, "dÃ¶n": 1263, "ĠolanĠ": 1264, "Ġar": 1265, "las": 1266, "ett": 1267, "lÃ¼": 1268, "Ã¼zerindeĠ": 1269, "alanĠ": 1270, "birlikteĠ": 1271, "manĠ": 1272, "ĠolduÄŁuĠ": 1273, "),": 1274, "lah": 1275, "Ä±lÄ±Ġ": 1276, "Ġ,": 1277, "per": 1278, "Ġo": 1279, "esi": 1280, "Ã¼ltÃ¼r": 1281, "onom": 1282, "eg": 1283, "Ã§Ä±kar": 1284, "usuĠ": 1285, "ilmiÅŁtir": 1286, "inciĠ": 1287, "ada": 1288, "ĠI": 1289, "ala": 1290, "alg": 1291, "eÄŁitim": 1292, "Ġger": 1293, "uyg": 1294, "ins": 1295, "Ġver": 1296, "heĠ": 1297, "ĠsÃ¼r": 1298, "asyon": 1299, "kenĠ": 1300, "lÄ±ÄŁÄ±Ġ": 1301, "dav": 1302, "eĠveĠ": 1303, "etic": 1304, "est": 1305, "iÅŁim": 1306, "gÃ¶rÃ¼ÅŁ": 1307, "yas": 1308, "ing": 1309, "tÃ¼m": 1310, "laÅŁtÄ±r": 1311, "baÅŁla": 1312, "iv": 1313, "Ã»": 1314, "daÅŁ": 1315, "landÄ±r": 1316, "etr": 1317, "Ġed": 1318, "anÄ±ÅŁ": 1319, "Ä±caĠ": 1320, "tÄ±ÄŁÄ±Ġ": 1321, "lil": 1322, "maz": 1323, "yeniĠ": 1324, "iÅŁtir": 1325, "Ä±lÄ±m": 1326, ").": 1327, "isindeĠ": 1328, "Ä±klarÄ±Ġ": 1329, "mek": 1330, "azÄ±r": 1331, "bas": 1332, "Ä±cÄ±Ġ": 1333, "iyat": 1334, "Ġsay": 1335, "yaĠdaĠ": 1336, "sonuc": 1337, "kanĠ": 1338, "yaklaÅŁ": 1339, "tarafÄ±ndanĠ": 1340, "ĠU": 1341, "Ä±daĠ": 1342, "lerdenĠ": 1343, "davr": 1344, "devam": 1345, "ki": 1346, "elik": 1347, "kadarĠ": 1348, "ekonom": 1349, "re": 1350, "trol": 1351, "larÄ±ndanĠ": 1352, "eyiĠ": 1353, "dÃ¼zen": 1354, "uyor": 1355, "dÄ±m": 1356, "ilm": 1357, "oyun": 1358, "gram": 1359, "ĠdÃ¼z": 1360, "osyal": 1361, "eleĠ": 1362, "diÄŁerĠ": 1363, "seÃ§": 1364, "ken": 1365, "izmet": 1366, "ilĠ": 1367, "Ġkal": 1368, "ayat": 1369, "edilenĠ": 1370, "kabul": 1371, "ban": 1372, "olduÄŁunuĠ": 1373, "sit": 1374, "oyut": 1375, "dest": 1376, "masÄ±nÄ±Ġ": 1377, "makĠiÃ§inĠ": 1378, "ĠTÃ¼rk": 1379, "mat": 1380, "asÄ±l": 1381, "asÄ±ndaĠ": 1382, "sistem": 1383, "kaynak": 1384, "ĠiÅŁ": 1385, "hat": 1386, "karÅŁÄ±Ġ": 1387, "eks": 1388, "sev": 1389, "ĠAl": 1390, "cÄ±": 1391, "sonuÃ§": 1392, "urum": 1393, "sat": 1394, "lo": 1395, "aÃ§Ä±s": 1396, "Ã¼neĠ": 1397, "luÄŁ": 1398, "vur": 1399, "olojikĠ": 1400, "belirlen": 1401, "deceĠ": 1402, "kes": 1403, "erkez": 1404, "kr": 1405, "iht": 1406, "seb": 1407, "Ä±lmÄ±ÅŁtÄ±r": 1408, "usundaĠ": 1409, "Ġpro": 1410, "stan": 1411, "eket": 1412, "iÄŁiniĠ": 1413, "tanÄ±m": 1414, "yÃ¶ntem": 1415, "ber": 1416, "izm": 1417, "kazan": 1418, "vram": 1419, "ĠÃľ": 1420, "Al": 1421, "gÃ¶rÃ¼n": 1422, "kim": 1423, "led": 1424, "abilir": 1425, "lerdir": 1426, "aktÃ¶r": 1427, "Ġtop": 1428, "Ã¼nÃ¼nĠ": 1429, "ĠolduÄŁ": 1430, "eceĠ": 1431, "okul": 1432, "Ã¶ÄŁretm": 1433, "lardÄ±r": 1434, "orum": 1435, "pit": 1436, "An": 1437, "Ã¼tÃ¼nĠ": 1438, "Ã¶yleĠ": 1439, "ĠyaÅŁ": 1440, "kas": 1441, "Ġbul": 1442, "Ã§ocuk": 1443, "ĠtarafÄ±ndanĠ": 1444, "ĠAyr": 1445, "siyon": 1446, "lerindenĠ": 1447, "tam": 1448, "toplum": 1449, "iciĠ": 1450, "...": 1451, "gÃ¶rev": 1452, "sonĠ": 1453, "Ã¶nceĠ": 1454, "olan": 1455, "men": 1456, "Ã¼cr": 1457, "gan": 1458, "suz": 1459, "meyeĠ": 1460, "olit": 1461, "eklen": 1462, "Ġhal": 1463, "ini": 1464, "lÄ±": 1465, "her": 1466, "oc": 1467, "lul": 1468, "karÅŁÄ±": 1469, "ine": 1470, "uygunĠ": 1471, "lanmÄ±ÅŁtÄ±r": 1472, "likleĠ": 1473, "Ä±nÄ±z": 1474, "yeĠ": 1475, "daÄŁ": 1476, "Ã¼kÃ¼m": 1477, "davranÄ±ÅŁ": 1478, "ihtiya": 1479, "yen": 1480, "sam": 1481, "tah": 1482, "lÄ±ĠbirĠ": 1483, "mer": 1484, "bu": 1485, "Ġad": 1486, "dil": 1487, "enĠbirĠ": 1488, "gÃ¼Ã§": 1489, "aret": 1490, "hakk": 1491, "arasÄ±ndakiĠ": 1492, "Ã¼zereĠ": 1493, "ĠÄ°n": 1494, "rat": 1495, "tamam": 1496, "Ã¼zerineĠ": 1497, "Ġon": 1498, "emeĠ": 1499, "bah": 1500, "ĠZ": 1501, "ĠsaÄŁ": 1502, "Ġkend": 1503, "tu": 1504, "Ġa": 1505, "amaÃ§": 1506, "li": 1507, "arasÄ±Ġ": 1508, "dÃ¼n": 1509, "anÄ±nĠ": 1510, "ant": 1511, "ket": 1512, "dÃ¼ÄŁ": 1513, "tekn": 1514, "kaÃ§": 1515, "esininĠ": 1516, "si": 1517, "kÃ¶": 1518, "ov": 1519, "Ä±lmasÄ±Ġ": 1520, "gÃ¼t": 1521, "yÃ¶nelikĠ": 1522, "Ãľ": 1523, "idenĠ": 1524, "Ar": 1525, "ĠkiÅŁ": 1526, "konu": 1527, "kendiĠ": 1528, "aÃ§Ä±sÄ±ndanĠ": 1529, "Ã¼rkĠ": 1530, "alÄ±Ġ": 1531, "lerleĠ": 1532, "arÄ±Ġ": 1533, "hazÄ±r": 1534, "ĠyÄ±lÄ±ndaĠ": 1535, "Ã¢n": 1536, "ĠBun": 1537, "ait": 1538, "aat": 1539, "gÃ¼ven": 1540, "Ã¼p": 1541, "olum": 1542, "ÅŁekl": 1543, "hangiĠ": 1544, "dikkat": 1545, "devlet": 1546, "gÃ¼nĠ": 1547, "analiz": 1548, "Ã§Ä±": 1549, "doÄŁruĠ": 1550, "elim": 1551, "salĠ": 1552, "hes": 1553, "ĠAncakĠ": 1554, "lemeĠ": 1555, "Ã§ev": 1556, "liĠbirĠ": 1557, "ayaĠ": 1558, "Ã§Ã¶z": 1559, "tÄ±ÄŁ": 1560, "Ã§eÅŁit": 1561, "mesi": 1562, "Ġbil": 1563, "Ġden": 1564, "bÃ¶lg": 1565, "tasar": 1566, "cih": 1567, "isi": 1568, "nit": 1569, "eceÄŁiĠ": 1570, "Ġal": 1571, "ilmesiĠ": 1572, "araĠ": 1573, "vardÄ±r": 1574, "ĠyÃ¼z": 1575, "mod": 1576, "mez": 1577, "mÃ¼": 1578, "ĠĠĠĠ": 1579, "Ġbel": 1580, "kam": 1581, "tespit": 1582, "geliÅŁtir": 1583, "eÄŁiĠ": 1584, "luk": 1585, "Ġbir": 1586, "det": 1587, "gÃ¶rÃ¼lmektedir": 1588, "lÃ¼Ġ": 1589, "kÃ¼": 1590, "sp": 1591, "madÄ±ÄŁ": 1592, "esineĠ": 1593, "gerÃ§ekleÅŁtir": 1594, "sin": 1595, "isininĠ": 1596, "bun": 1597, "benz": 1598, "iÃ§im": 1599, "gil": 1600, "ĠiÃ§inĠ": 1601, "Ġhas": 1602, "larĠveĠ": 1603, "bulunanĠ": 1604, "Ã¼rÃ¼n": 1605, "me": 1606, "ard": 1607, "ise": 1608, "olduk": 1609, "dolay": 1610, "of": 1611, "Ã¢r": 1612, "uygulama": 1613, "sav": 1614, "iliÅŁkinĠ": 1615, "grup": 1616, "Ä±lmÄ±ÅŁ": 1617, "Ã§alÄ±ÅŁmaĠ": 1618, "ener": 1619, "aÄŁÄ±r": 1620, "iÃ§erisindeĠ": 1621, "hiÃ§": 1622, "enc": 1623, "Ġetm": 1624, "isiniĠ": 1625, "ektÃ¶r": 1626, "meler": 1627, "masÄ±ndaĠ": 1628, "Ã§oÄŁ": 1629, "Ġl": 1630, "kavram": 1631, "dÃ¼zey": 1632, "edef": 1633, "hÄ±z": 1634, "nedenĠ": 1635, "baÄŁlÄ±Ġ": 1636, "siniz": 1637, "fazla": 1638, "gelenĠ": 1639, "lÃ¼ÄŁ": 1640, "izeĠ": 1641, "ortam": 1642, "aber": 1643, "dak": 1644, "ub": 1645, "Ġtarih": 1646, "ĠdahaĠ": 1647, "uygulan": 1648, "masÄ±nÄ±nĠ": 1649, "hizmet": 1650, "larÄ±ĠveĠ": 1651, "sur": 1652, "ilet": 1653, "ĠbÃ¶l": 1654, "yaÅŁam": 1655, "iÅŁl": 1656, "nok": 1657, "gÃ¶re": 1658, "sen": 1659, "pr": 1660, "yeter": 1661, "iÃ§in": 1662, "Ã§eĠ": 1663, "uĠveĠ": 1664, "araÅŁtÄ±rma": 1665, "ĠâĢ": 1666, "plan": 1667, "Ġola": 1668, "ider": 1669, "rah": 1670, "Ġsistem": 1671, "yo": 1672, "anaĠ": 1673, "uzunĠ": 1674, "ĠdeÄŁer": 1675, "dayan": 1676, "yok": 1677, "iÄŁerĠ": 1678, "ĠÃĸz": 1679, "caktÄ±r": 1680, "Ġgen": 1681, "kÄ±r": 1682, "din": 1683, "tarih": 1684, "ide": 1685, "Ã¼mÃ¼z": 1686, "taraf": 1687, "Ġya": 1688, "baÅŁar": 1689, "ĠAyrÄ±caĠ": 1690, "enek": 1691, "aliyet": 1692, "Ã¼mk": 1693, "ilir": 1694, "aĠdaĠ": 1695, "bazÄ±Ġ": 1696, "mÃ¼ÅŁtÃ¼r": 1697, "mesineĠ": 1698, "Ä±lÄ±r": 1699, "olmasÄ±Ġ": 1700, "Ä±larakĠ": 1701, "ku": 1702, "isineĠ": 1703, "Ã¶yl": 1704, "ellikleĠ": 1705, "rak": 1706, "kontrol": 1707, "evc": 1708, "iĠileĠ": 1709, "malÄ±dÄ±r": 1710, "eder": 1711, "tekĠ": 1712, "kapsam": 1713, "etimĠ": 1714, "Ã¶rt": 1715, "Ġyer": 1716, "nasÄ±l": 1717, "lÄ±lÄ±kĠ": 1718, "azar": 1719, "Ä±lÄ±kĠ": 1720, "lukĠ": 1721, "bur": 1722, "test": 1723, "mekĠiÃ§inĠ": 1724, "madÄ±ÄŁÄ±Ġ": 1725, "iktar": 1726, "ĠgÃ¼n": 1727, "kurul": 1728, "bÃ¶lÃ¼m": 1729, "artÄ±ÅŁ": 1730, "kÃ¼ltÃ¼r": 1731, "anlaÅŁ": 1732, "ost": 1733, "his": 1734, "sÄ±nÄ±r": 1735, "ilmiÅŁ": 1736, "Ġbilg": 1737, "olur": 1738, "Ã¶rgÃ¼t": 1739, "hayat": 1740, "tern": 1741, "ekonomikĠ": 1742, "ilereĠ": 1743, "Ġel": 1744, "fazlaĠ": 1745, "amac": 1746, "inin": 1747, "ilerininĠ": 1748, "ikleriĠ": 1749, "faktÃ¶r": 1750, "ĠÄ°ÅŁ": 1751, "yerĠal": 1752, "esiniĠ": 1753, "aÄŁÄ±Ġ": 1754, "bet": 1755, "gÃ¶n": 1756, "tap": 1757, "baÅŁkaĠ": 1758, "ran": 1759, "ilikĠ": 1760, "bilin": 1761, "Ġz": 1762, "ris": 1763, "dÄ±k": 1764, "kÄ±": 1765, "\",": 1766, "ila": 1767, "mayÄ±Ġ": 1768, "Ã¶rnek": 1769, "ra": 1770, "ĠÃĩalÄ±ÅŁ": 1771, "birÃ§okĠ": 1772, "inan": 1773, "ehir": 1774, "tÃ¼": 1775, "altÄ±ndaĠ": 1776, "Ġhem": 1777, "Ã§Ġ": 1778, "stanbul": 1779, "ĠdÃ¼ÅŁ": 1780, "sĠ": 1781, "kadÄ±n": 1782, ".,": 1783, "Ã¼yor": 1784, "Ġay": 1785, "geĠ": 1786, "biriĠ": 1787, "ulanĠ": 1788, "ĠaÃ§": 1789, "arka": 1790, "Ã¼retim": 1791, "asyonĠ": 1792, "sÄ±k": 1793, "gÄ±": 1794, "evcut": 1795, "insanĠ": 1796, "ilen": 1797, "Ġyar": 1798, "miĠ": 1799, "Ġbulun": 1800, "nunĠ": 1801, "olarak": 1802, "larlaĠ": 1803, "rol": 1804, "Ã¶zellikleĠ": 1805, "deÄŁiÅŁk": 1806, "koy": 1807, "sadeceĠ": 1808, "ÅŁir": 1809, "blem": 1810, "ren": 1811, "mÃ¼mk": 1812, "Ġtek": 1813, "sil": 1814, "kÄ±Ġ": 1815, "ikselĠ": 1816, "Ã§evr": 1817, "menĠ": 1818, "azal": 1819, "rek": 1820, "bit": 1821, "ulus": 1822, "gelir": 1823, "ha": 1824, "mesiniĠ": 1825, "kem": 1826, "Ã¼Ã§Ã¼kĠ": 1827, "aĠveĠ": 1828, "Ġder": 1829, "ibar": 1830, "Ã¢l": 1831, "akat": 1832, "lÃ¼kĠ": 1833, "dÃ¶nÃ¼ÅŁ": 1834, "ĠbaÄŁ": 1835, "vet": 1836, "lerĠveĠ": 1837, "pay": 1838, "ej": 1839, "yapÄ±": 1840, "ideĠ": 1841, "Ġyan": 1842, "tÄ±k": 1843, "birbir": 1844, "hareket": 1845, "kullanÄ±lanĠ": 1846, "elerdeĠ": 1847, "Ġhak": 1848, "sÄ±nÄ±f": 1849, "ĠherĠ": 1850, "eser": 1851, "dÃ¼ÅŁÃ¼kĠ": 1852, "ekliĠ": 1853, "mel": 1854, "Ġser": 1855, "karar": 1856, "sik": 1857, "haf": 1858, "Ġkat": 1859, "ob": 1860, "inceĠ": 1861, "ĠtheĠ": 1862, "esn": 1863, "ĠsÃ¶z": 1864, "yÃ¼r": 1865, "deÄŁildir": 1866, "Ġsor": 1867, "tÃ¼k": 1868, "iteĠ": 1869, "makĠÃ¼zereĠ": 1870, "Ġdurum": 1871, "raÄŁ": 1872, "danaĠ": 1873, "zamandaĠ": 1874, "ileriniĠ": 1875, "ĠsÄ±n": 1876, "ibi": 1877, "unda": 1878, "zem": 1879, "elerininĠ": 1880, "Ä°s": 1881, "oyn": 1882, "umĠ": 1883, "ses": 1884, "ĠAraÅŁtÄ±r": 1885, "raĠ": 1886, "ras": 1887, "sÄ±Ġ": 1888, "Ã¼nc": 1889, "tÄ±Ġ": 1890, "etkin": 1891, "undanĠ": 1892, "se": 1893, "Ã¶ÄŁretmen": 1894, "sÃ¼rec": 1895, "hur": 1896, "engel": 1897, "ektedir": 1898, "Ġgru": 1899, "ĠÄ°l": 1900, "ÅŁeklindeĠ": 1901, "Ã¶nemliĠbirĠ": 1902, "anlat": 1903, "sebep": 1904, "enerj": 1905, "siya": 1906, "kolay": 1907, "ĠÃĸr": 1908, "sman": 1909, "iter": 1910, "Ä°n": 1911, "Ä±rak": 1912, "temel": 1913, "Ä±ldÄ±ÄŁ": 1914, "sap": 1915, "eyenĠ": 1916, "ĠedilmiÅŁtir": 1917, "Ġolma": 1918, "oÅŁul": 1919, "yardÄ±m": 1920, "organ": 1921, "min": 1922, "dar": 1923, "Ġak": 1924, "ektr": 1925, "rar": 1926, "aj": 1927, "Ã¼f": 1928, "ayÄ±r": 1929, "Ã¢h": 1930, "des": 1931, "Ġhar": 1932, "sÄ±": 1933, "kurum": 1934, "kom": 1935, "arkĠ": 1936, "hedef": 1937, "Ġmil": 1938, "ĠKar": 1939, "ĠkarÅŁ": 1940, "ileĠilgiliĠ": 1941, "geÃ§ir": 1942, "teÅŁ": 1943, "lidir": 1944, "atif": 1945, "Ã§eÅŁitliĠ": 1946, "lanmasÄ±Ġ": 1947, "Ã¶k": 1948, "Bir": 1949, "poz": 1950, "hesap": 1951, "Ġma": 1952, "taÅŁÄ±": 1953, "bilgiĠ": 1954, "ĠBaÅŁ": 1955, "eÅŁtir": 1956, "vrup": 1957, "II": 1958, "Ġtan": 1959, "ilim": 1960, "hasta": 1961, "deney": 1962, "yatÄ±r": 1963, "sosyal": 1964, "Ġsan": 1965, "sorun": 1966, "onunĠ": 1967, "olup": 1968, "ikaĠ": 1969, "oku": 1970, "dÃ¼": 1971, "etkiliĠ": 1972, "itibar": 1973, "yerĠalanĠ": 1974, "ĠgeÃ§": 1975, "lanmÄ±ÅŁ": 1976, "zar": 1977, "faaliyet": 1978, "iver": 1979, "hangiĠbirĠ": 1980, "larla": 1981, "Ä±lÄ±ÄŁ": 1982, "ham": 1983, "Ã¼nÃ¼": 1984, "ĠBununĠ": 1985, "maktaĠ": 1986, "Ã¶ner": 1987, "tel": 1988, "tiv": 1989, "dam": 1990, "ĠdÃ¼zey": 1991, "ĠBur": 1992, "asit": 1993, "forman": 1994, "eÄŁinĠ": 1995, "ĠkonusuĠ": 1996, "can": 1997, "konuÅŁ": 1998, "Ġin": 1999, "Ä±cÄ±": 2000, "cev": 2001, "git": 2002, "yaÅŁan": 2003, "tatist": 2004, "yarat": 2005, "Ġki": 2006, "TÃ¼rkiye": 2007, "uygula": 2008, "Ġ:": 2009, "dÄ±Ġ": 2010, "Ġsev": 2011, "Ã¼ret": 2012, "dair": 2013, "deÄŁiÅŁik": 2014, "osy": 2015, "biÃ§im": 2016, "ĠdiyeĠ": 2017, "kol": 2018, "leriĠveĠ": 2019, "incelen": 2020, "toplam": 2021, "nÄ±z": 2022, "bar": 2023, "enĠveĠ": 2024, "tay": 2025, "idar": 2026, "ortayaĠÃ§Ä±k": 2027, "biz": 2028, "Ġw": 2029, "iyorum": 2030, "ĠolduÄŁunuĠ": 2031, "mil": 2032, "mut": 2033, "gerekt": 2034, "oldukÃ§aĠ": 2035, "elereĠ": 2036, "araÃ§": 2037, "okĠ": 2038, "iliÅŁ": 2039, "ĠSon": 2040, "Ã§iĠ": 2041, "bÃ¼tÃ¼nĠ": 2042, "yerineĠ": 2043, "ask": 2044, "ĠOr": 2045, "Ä±nÄ±": 2046, "lis": 2047, "form": 2048, "anlamlÄ±Ġ": 2049, "onuĠ": 2050, "azĠ": 2051, "merkez": 2052, "larÄ±ĠileĠ": 2053, "tiÄŁiĠ": 2054, "miÅŁlerdir": 2055, "ilk": 2056, "og": 2057, "ĠEr": 2058, "bildir": 2059, "ecektir": 2060, "tercih": 2061, "konusundaĠ": 2062, "deÄŁiÅŁtir": 2063, "graf": 2064, "ÅŁuĠ": 2065, "arac": 2066, "ER": 2067, "ĠTÃ¼rkiye": 2068, "ĠolmasÄ±Ġ": 2069, "caÄŁÄ±Ġ": 2070, "bakÄ±m": 2071, "Ġvar": 2072, "ĠdÃ¶nem": 2073, "Ġoran": 2074, "ĠdÄ±ÅŁ": 2075, "alar": 2076, "acak": 2077, "eldeĠedilenĠ": 2078, "TÃ¼rkĠ": 2079, "yoÄŁ": 2080, "lemekĠ": 2081, "Ã§alÄ±ÅŁan": 2082, "olitika": 2083, "ecer": 2084, "gerÃ§ekleÅŁ": 2085, "etmekĠ": 2086, "ula": 2087, "onk": 2088, "gerÃ§": 2089, "kayb": 2090, "mesl": 2091, "por": 2092, "ner": 2093, "hav": 2094, "yÃ¶netim": 2095, "Ġyol": 2096, "van": 2097, "ĠHerĠ": 2098, "uan": 2099, "Ã¼nÃ¼Ġ": 2100, "oÄŁraf": 2101, "ĠYap": 2102, "ĠEÄŁ": 2103, "Ã§alÄ±ÅŁmadaĠ": 2104, "ch": 2105, "acakĠ": 2106, "uyum": 2107, "emiz": 2108, "ĠyaĠdaĠ": 2109, "ahaĠ": 2110, "iversit": 2111, "Ġ(%": 2112, "Ã¶zg": 2113, "temelĠ": 2114, "ĠveyaĠ": 2115, "ĠÃĩÃ¼n": 2116, "atÄ±Ġ": 2117, "lanÄ±r": 2118, "Ġis": 2119, "aka": 2120, "ret": 2121, "Ä±lmaktadÄ±r": 2122, "gÃ¶nder": 2123, "dolayÄ±Ġ": 2124, "unluÄŁ": 2125, "Ġbelir": 2126, "aÅŁaÄŁ": 2127, "fer": 2128, "naĠ": 2129, "atĠ": 2130, "hay": 2131, "ĠÃĸÄŁr": 2132, "dÄ±ÄŁÄ±nÄ±Ġ": 2133, "bor": 2134, "eng": 2135, "hakkÄ±ndaĠ": 2136, "Ã§Ã¶zÃ¼m": 2137, "sÃ¼reÃ§": 2138, "Ã§er": 2139, "kul": 2140, "Ã¶nĠ": 2141, "Ã¶lÃ¼m": 2142, "ĠÄ°s": 2143, "model": 2144, "ipĠ": 2145, "leriyleĠ": 2146, "geniÅŁ": 2147, "yum": 2148, "Ġsah": 2149, "suĠ": 2150, "iyetĠ": 2151, "olabil": 2152, "Ä±cak": 2153, "faĠ": 2154, "anla": 2155, "boyut": 2156, "tor": 2157, "ĠbÃ¼y": 2158, "gÃ¶stermektedir": 2159, "ĠBuĠdurum": 2160, "birĠÅŁey": 2161, "Ġfark": 2162, "fay": 2163, "unsur": 2164, "baÄŁÄ±m": 2165, "Ġik": 2166, "tedav": 2167, "katÄ±lÄ±m": 2168, "hastal": 2169, "Ã¶ÄŁrencilerinĠ": 2170, "meydanaĠ": 2171, "ĠGen": 2172, "deÄŁiÅŁim": 2173, "yarar": 2174, "Ä±labil": 2175, "yÄ±Ġ": 2176, "maĠveĠ": 2177, "Ġpar": 2178, "ilerineĠ": 2179, "yaklaÅŁÄ±m": 2180, "atan": 2181, "hÃ¼kÃ¼m": 2182, "malarÄ±Ġ": 2183, "ĠiÃ§": 2184, "Ġmad": 2185, "ud": 2186, "umhur": 2187, "inans": 2188, "artÄ±r": 2189, "birĠÅŁekildeĠ": 2190, "mo": 2191, "Ä±labilir": 2192, "ĠdÃ¼n": 2193, "Ã§Ä±kanĠ": 2194, "AR": 2195, "lin": 2196, "isted": 2197, "ĠKur": 2198, "ail": 2199, "elen": 2200, "Ġboyut": 2201, "boz": 2202, "lenenĠ": 2203, "dok": 2204, "eldeĠedil": 2205, "duyg": 2206, "nedeniyleĠ": 2207, "Ã¼zel": 2208, "madanĠ": 2209, "?\"": 2210, "Ä±sÄ±ndaĠ": 2211, "lararasÄ±Ġ": 2212, "arkadaÅŁ": 2213, "oluÅŁanĠ": 2214, "Ã¢m": 2215, "red": 2216, "mah": 2217, "ucuĠ": 2218, "Ã¶ÄŁretim": 2219, "Ġ=": 2220, "etkisiĠ": 2221, "ĠAk": 2222, "set": 2223, "Ġve": 2224, "osyalĠ": 2225, "farkĠ": 2226, "deÄŁiÅŁken": 2227, "tik": 2228, "ilmektedir": 2229, "ĠkÄ±s": 2230, "eceÄŁiniĠ": 2231, "gid": 2232, "aretĠ": 2233, "verilenĠ": 2234, "to": 2235, "iliÅŁkiĠ": 2236, "leyenĠ": 2237, "Kar": 2238, "ĠÃĸrn": 2239, "kabulĠedil": 2240, "Ġtoplum": 2241, "ĠoluÅŁtur": 2242, "Ã¼b": 2243, "ormal": 2244, "ĠsÄ±r": 2245, "rans": 2246, "ukuk": 2247, "lakĠ": 2248, "diÄŁer": 2249, "mesiĠiÃ§inĠ": 2250, "ve": 2251, "ikĠveĠ": 2252, "yaÄŁ": 2253, "bileĠ": 2254, "mevcut": 2255, "Ä±zÄ±Ġ": 2256, "sar": 2257, "indir": 2258, "siyonĠ": 2259, "sorum": 2260, "Ä°l": 2261, "tic": 2262, "nedenleĠ": 2263, "meninĠ": 2264, "Ã¼ndenĠ": 2265, "larĠiÃ§inĠ": 2266, "kÃ¼Ã§Ã¼kĠ": 2267, "bol": 2268, "adam": 2269, "Ã¼zerindenĠ": 2270, "unu": 2271, "fir": 2272, "beklen": 2273, "Ġbak": 2274, "verilmiÅŁtir": 2275, "sem": 2276, "problem": 2277, "arttÄ±r": 2278, "Ġsaat": 2279, "diÄŁiniĠ": 2280, "yakÄ±nĠ": 2281, "miktar": 2282, "parÃ§": 2283, "Ġter": 2284, "sak": 2285, "su": 2286, "Ä±lÄ±k": 2287, "Er": 2288, "zer": 2289, "leriĠileĠ": 2290, "dÃ¼ÅŁÃ¼nÃ¼l": 2291, "alÄ±kĠ": 2292, "dÄ±klarÄ±Ġ": 2293, "madaĠ": 2294, "program": 2295, "bek": 2296, "masÄ±dÄ±r": 2297, "inĠveĠ": 2298, "iyordu": 2299, "ĠW": 2300, "ĠEl": 2301, "Ì§": 2302, "sim": 2303, "bin": 2304, "olumsuz": 2305, "elĠolarakĠ": 2306, "pekĠ": 2307, "iletiÅŁim": 2308, "asÄ±": 2309, "ĠJ": 2310, "uÄŁr": 2311, "fik": 2312, "ĠKon": 2313, "iÅŁletm": 2314, "olmayanĠ": 2315, "layanĠ": 2316, "eleriniĠ": 2317, "lerin": 2318, "ag": 2319, "Ġmod": 2320, "Ä±dakiĠ": 2321, "masÄ±ĠveĠ": 2322, "Ġyet": 2323, "minĠ": 2324, "Ä±ÅŁtÄ±r": 2325, "Ġsit": 2326, "isyon": 2327, "olmuÅŁtur": 2328, "ukar": 2329, "aÃ§Ä±kĠ": 2330, "ayanĠ": 2331, "orm": 2332, "ĠdaĠ": 2333, "Ä±danĠ": 2334, "izinĠ": 2335, "umaĠ": 2336, "hemĠdeĠ": 2337, "meĠveĠ": 2338, "ĠancakĠ": 2339, "fiz": 2340, "mar": 2341, "Or": 2342, "and": 2343, "lenmiÅŁtir": 2344, "layÄ±ÅŁ": 2345, "ĠyÃ¶ntem": 2346, "pat": 2347, "oluĠ": 2348, "ilerekĠ": 2349, "ÅŁart": 2350, "Ä±maĠ": 2351, "elerindeĠ": 2352, "apor": 2353, "larÄ±mÄ±z": 2354, "adanĠ": 2355, "geriĠ": 2356, "ind": 2357, "ayrÄ±Ġ": 2358, "matikĠ": 2359, "âĢĿ": 2360, "gerekir": 2361, "nokta": 2362, "Ġede": 2363, "AB": 2364, "istatist": 2365, "Ġinsan": 2366, "dÃ¼ÅŁÃ¼nc": 2367, "erkenĠ": 2368, "ĠenĠ": 2369, "kÄ±sm": 2370, "ayÄ±Ġ": 2371, "doÄŁru": 2372, "ĠDahaĠ": 2373, "azet": 2374, "olabilir": 2375, "ĠBunaĠ": 2376, "yorum": 2377, "aktar": 2378, "Ä±sÄ±": 2379, "ult": 2380, "lanmaktadÄ±r": 2381, "Ġtekn": 2382, "Ã¼dÃ¼r": 2383, "alet": 2384, "smanlÄ±Ġ": 2385, "evlet": 2386, "usu": 2387, "urt": 2388, "aberĠ": 2389, "devamĠet": 2390, "gru": 2391, "yaptÄ±ÄŁÄ±Ġ": 2392, "Ġte": 2393, "kent": 2394, "iÄŁindeĠ": 2395, "kararĠ": 2396, "bÄ±rak": 2397, "elt": 2398, "BaÅŁ": 2399, "Ġolur": 2400, "onksiyon": 2401, "uzak": 2402, "bulunmaktadÄ±r": 2403, "Ã¼ksekĠ": 2404, "katÄ±l": 2405, "ko": 2406, "avaÅŁ": 2407, "kaldÄ±r": 2408, "yenidenĠ": 2409, "herhangiĠbirĠ": 2410, "lÄ±lÄ±k": 2411, "ders": 2412, "ĠkiĠ": 2413, "olayÄ±s": 2414, "elĠbirĠ": 2415, "ĠÃ¼lk": 2416, "mesindeĠ": 2417, "ĠâĢľ": 2418, "ĠiseĠ": 2419, "oyuncaĠ": 2420, "uyar": 2421, "gÃ¼c": 2422, "gerekliĠ": 2423, "atÄ±ÅŁ": 2424, "Ġalt": 2425, "Ã¶yleceĠ": 2426, "enĠÃ¶nemliĠ": 2427, "kadÄ±nĠ": 2428, "Ä±sÄ±nÄ±nĠ": 2429, "miÅŁĠveĠ": 2430, "ĠamaĠ": 2431, "gar": 2432, "adeceĠ": 2433, "ĠbÃ¶lg": 2434, "cevap": 2435, "lÃ¼k": 2436, "alÄ±nanĠ": 2437, "ĠarasÄ±ndaĠ": 2438, "Ä±ĠileĠ": 2439, "ann": 2440, "taj": 2441, "Ġand": 2442, "ektir": 2443, "ĠGÃ¼n": 2444, "fiyat": 2445, "gibi": 2446, "sahiptir": 2447, "bab": 2448, "sef": 2449, "hep": 2450, "Ã¼cad": 2451, "isten": 2452, "kil": 2453, "ortalamaĠ": 2454, "destek": 2455, "sÃ¼reĠ": 2456, "ÅŁirket": 2457, "mÃ¼mkÃ¼nĠ": 2458, "maliyet": 2459, "duklarÄ±Ġ": 2460, "madÄ±ÄŁÄ±nÄ±Ġ": 2461, "suÃ§": 2462, "kullanÄ±m": 2463, "iziĠ": 2464, "dey": 2465, "meyiĠ": 2466, "devr": 2467, "ĠÃ§ek": 2468, "yapÄ±lmÄ±ÅŁtÄ±r": 2469, "ĠseÃ§": 2470, "esas": 2471, "tart": 2472, "laya": 2473, "yayg": 2474, "ihtiyaÃ§": 2475, "dart": 2476, "ift": 2477, "malzem": 2478, "leÅŁmeĠ": 2479, "ĠBel": 2480, "baÄŁlan": 2481, "yayÄ±n": 2482, "sÃ¼rdÃ¼r": 2483, "ettiÄŁiĠ": 2484, "aÅŁa": 2485, "Ġyaz": 2486, "akter": 2487, "sebeb": 2488, "iÄŁi": 2489, "Ġben": 2490, "aÄŁr": 2491, "tep": 2492, "Ġtem": 2493, "genel": 2494, "maya": 2495, "bes": 2496, "ĠFakat": 2497, "aynÄ±ĠzamandaĠ": 2498, "ortaĠ": 2499, "Ġmu": 2500, "vvet": 2501, "Ä±yorum": 2502, "Ġprogram": 2503, "Ġeder": 2504, "uÄŁuĠ": 2505, "gÃ¶rÃ¼lmÃ¼ÅŁtÃ¼r": 2506, "olumluĠ": 2507, "kÃ¼Ġ": 2508, "br": 2509, "saptan": 2510, "ÅŁehir": 2511, "karÅŁÄ±laÅŁtÄ±r": 2512, "koÅŁul": 2513, "bÃ¼t": 2514, "liÄŁi": 2515, "masÄ±ndanĠ": 2516, "gÃ¶zlem": 2517, "Ã§iz": 2518, "duĠ": 2519, "elerineĠ": 2520, "kÃ¼r": 2521, "emekĠ": 2522, "ĠgÃ¶r": 2523, "sonucuĠ": 2524, "Ġgrup": 2525, "yanÄ±Ġ": 2526, "iyoruz": 2527, "bununĠ": 2528, "mÄ±ÅŁĠveĠ": 2529, "ĠÃ¶n": 2530, "ĠTop": 2531, "tav": 2532, "ikinciĠ": 2533, "ĠTÃ¼rkĠ": 2534, "mÄ±ÅŁlardÄ±r": 2535, "Ġolup": 2536, "aktif": 2537, "Kur": 2538, "deÅŁ": 2539, "ulmuÅŁtur": 2540, "otor": 2541, "mesininĠ": 2542, "Ġper": 2543, "araÅŁtÄ±rmaĠ": 2544, "performan": 2545, "Ä±lacakĠ": 2546, "ĠdoÄŁr": 2547, "tip": 2548, "Ġtut": 2549, "Ġ/": 2550, "ĠÂ": 2551, "Ġkim": 2552, "Ġmet": 2553, "eÄŁitimĠ": 2554, "iddet": 2555, "kÄ±z": 2556, "lÃ¼l": 2557, "acaÄŁ": 2558, "ell": 2559, "akan": 2560, "lilikĠ": 2561, "lÄ±klÄ±Ġ": 2562, "paylaÅŁ": 2563, "veĠbuĠ": 2564, "savaÅŁ": 2565, "alÄ±k": 2566, "eylem": 2567, "liÄŁiniĠ": 2568, "iir": 2569, "ifadeĠet": 2570, "ĠdoÄŁ": 2571, "Ġkan": 2572, "Ä±larÄ±Ġ": 2573, "isim": 2574, "baz": 2575, "Ġof": 2576, "ĠsonuÃ§": 2577, "ilik": 2578, "lus": 2579, ".)": 2580, "derec": 2581, "ruh": 2582, "raÄŁmenĠ": 2583, "hemenĠ": 2584, "erkes": 2585, "madd": 2586, "ĠÄ°stanbul": 2587, "lÄ±ÄŁÄ±": 2588, "deÄŁerĠ": 2589, "lÄ±dÄ±r": 2590, "teh": 2591, "dÃ¶rt": 2592, "ata": 2593, "fÄ±r": 2594, "etiĠ": 2595, "gerekmektedir": 2596, "biy": 2597, "rahat": 2598, "pozit": 2599, "Ġhakk": 2600, "istan": 2601, "inĠbirĠ": 2602, "itim": 2603, "cu": 2604, "boÅŁ": 2605, "kir": 2606, "nak": 2607, "kÄ±saĠ": 2608, "eketĠ": 2609, "strat": 2610, "sey": 2611, "lim": 2612, "sonucundaĠ": 2613, "bulunmuÅŁtur": 2614, "izmetĠ": 2615, "raf": 2616, "ayar": 2617, "ri": 2618, "sab": 2619, "proj": 2620, "atÃ¼r": 2621, "ĠYan": 2622, "Ġalan": 2623, "uylaĠ": 2624, "Ġkes": 2625, "ortakĠ": 2626, "tÄ±klarÄ±Ġ": 2627, "int": 2628, "ĠkÃ¼ltÃ¼r": 2629, "onaĠ": 2630, "ikro": 2631, "ĠAynÄ±Ġ": 2632, "yadaĠ": 2633, "sol": 2634, "ust": 2635, "mayaĠÃ§alÄ±ÅŁ": 2636, "tartÄ±ÅŁ": 2637, "Avrup": 2638, "Kan": 2639, "AN": 2640, "yatÄ±rÄ±m": 2641, "po": 2642, "Ã¼zerindekiĠ": 2643, "Ġat": 2644, "etikĠ": 2645, "geÃ§er": 2646, "yanÄ±ndaĠ": 2647, "eskiĠ": 2648, "bÃ¼yÃ¼kĠbirĠ": 2649, "Ġgerek": 2650, "kÄ±n": 2651, "artÄ±kĠ": 2652, "onikĠ": 2653, "ĠTar": 2654, "ĠÄ°k": 2655, "ekilĠ": 2656, "olojiĠ": 2657, ",\"": 2658, "gerekenĠ": 2659, "Ã§ar": 2660, "baÅŁvur": 2661, "tanĠsonraĠ": 2662, "ĠkendiĠ": 2663, "iÄŁinĠ": 2664, "Ã¼rÃ¼nĠ": 2665, "bilim": 2666, "rakĠ": 2667, "Ġ[": 2668, "dÃ¶nemdeĠ": 2669, "cez": 2670, "enerjiĠ": 2671, "kayÄ±t": 2672, "Ã¼ler": 2673, "ĠAmaĠ": 2674, "farklÄ±lÄ±kĠ": 2675, "yanÄ±nĠ": 2676, "riĠ": 2677, "eniz": 2678, "yineĠ": 2679, "Ä±ndan": 2680, "lak": 2681, "sayÄ±sÄ±Ġ": 2682, "otur": 2683, "ĠsÄ±nÄ±f": 2684, "yanÄ±ĠsÄ±r": 2685, "larda": 2686, "sÃ¶ylen": 2687, "dÄ±ÅŁÄ±ndaĠ": 2688, "ediĠ": 2689, "ex": 2690, "Ġkor": 2691, "Ġmed": 2692, "ĠHas": 2693, "Ä°ÅŁ": 2694, "takip": 2695, "savun": 2696, "rom": 2697, "meleriĠ": 2698, "seviy": 2699, "bey": 2700, "deÄŁerlendiril": 2701, "Ġdedi": 2702, "Ã¶lÃ§Ã¼m": 2703, "ile": 2704, "Allah": 2705, "ancakĠ": 2706, "mesiĠveĠ": 2707, "best": 2708, "BuĠ": 2709, "ĊĊ": 2710, "iÅŁĠ": 2711, "elikleĠ": 2712, "yiĠ": 2713, "anĠveĠ": 2714, "Ä±yordu": 2715, "amaz": 2716, "esel": 2717, "geÃ§enĠ": 2718, "laĠbirlikteĠ": 2719, "dahil": 2720, "eÅŁim": 2721, "oper": 2722, "yaban": 2723, "Ã§ocukĠ": 2724, "sanat": 2725, "ikt": 2726, "ĠdiÄŁerĠ": 2727, "atandaÅŁ": 2728, "ĠBuĠnedenleĠ": 2729, "dim": 2730, "Ä±lan": 2731, "Ã§erÃ§ev": 2732, "eleri": 2733, "pol": 2734, "azalt": 2735, "ĠPro": 2736, "incelend": 2737, "ca": 2738, "mayanĠ": 2739, "ortayaĠkoy": 2740, "paraĠ": 2741, "Ä±nÄ±n": 2742, "yaÅŁad": 2743, "anlayÄ±ÅŁ": 2744, "ow": 2745, "baÄŁlam": 2746, "sÃ¶ylem": 2747, "yÃ¼rÃ¼t": 2748, "elektr": 2749, "Ġas": 2750, "ht": 2751, "iteratÃ¼r": 2752, "ref": 2753, "mir": 2754, "cÄ±larÄ±nĠ": 2755, "verim": 2756, "ĠedenĠ": 2757, "part": 2758, "be": 2759, "ifadeĠedil": 2760, "Ġhat": 2761, "ĠDiÄŁerĠ": 2762, "ĠOn": 2763, "larÄ±ĠarasÄ±ndaĠ": 2764, "ariĠ": 2765, "umuz": 2766, "haber": 2767, "mÃ¼ÅŁter": 2768, "mÄ±ÅŁtÄ±": 2769, "ĠfarklÄ±Ġ": 2770, "ayet": 2771, "yalnÄ±z": 2772, "saÄŁlan": 2773, "liÄŁinĠ": 2774, "psik": 2775, "gam": 2776, "ĠÃ¶ÄŁrenc": 2777, "ĠÃ§okĠ": 2778, "Ġyok": 2779, "Ã§ab": 2780, "becer": 2781, "aktiv": 2782, "ĠtÃ¼m": 2783, "sahipĠol": 2784, "hi": 2785, "Ä±ĠolarakĠ": 2786, "kav": 2787, "pan": 2788, "maÅŁ": 2789, "Ã¢nĠ": 2790, "yolĠaÃ§": 2791, "stratej": 2792, "inÅŁ": 2793, "dikleriĠ": 2794, "Ġanlam": 2795, "ĠveĠbuĠ": 2796, "sÄ±cak": 2797, "Ġseviy": 2798, "ndeĠ": 2799, "iÅŁiĠ": 2800, "yaklaÅŁÄ±kĠ": 2801, "iÄŁimiz": 2802, "ĠDolayÄ±s": 2803, "ĠgerÃ§ek": 2804, "bulunduÄŁuĠ": 2805, "belirlenmiÅŁtir": 2806, "unuz": 2807, "ĠMu": 2808, "Ġev": 2809, "kapsamÄ±ndaĠ": 2810, "soru": 2811, "ĠyeniĠ": 2812, "tikĠ": 2813, "dahaĠÃ§okĠ": 2814, "sÄ±kĠ": 2815, "Ä±sÄ±nÄ±Ġ": 2816, "larĠarasÄ±ndaĠ": 2817, "Ä±yaĠ": 2818, "Ä±nt": 2819, "Ã¼meĠ": 2820, "aÅŁÄ±r": 2821, "uyuĠ": 2822, "cid": 2823, "fes": 2824, "umuĠ": 2825, "sektÃ¶r": 2826, "lamasÄ±Ġ": 2827, "arz": 2828, "ĠiÃ§er": 2829, "uygulamaĠ": 2830, "air": 2831, "uluslararasÄ±Ġ": 2832, "beÅŁ": 2833, "lÄ±ĠveĠ": 2834, "vaz": 2835, "incelem": 2836, "ĠÃ¶": 2837, "medenĠ": 2838, "kÄ±nĠ": 2839, "ðĿ": 2840, "loĠ": 2841, "Ġto": 2842, "Ãĸz": 2843, "hus": 2844, "hÃ¼cr": 2845, "spor": 2846, "bahs": 2847, "ĠBu": 2848, "dum": 2849, "ĠtÃ¼r": 2850, "tasarÄ±m": 2851, "Ã¶nemlidir": 2852, "ĠEn": 2853, "lÄ±ÄŁÄ±nĠ": 2854, "Ġkr": 2855, "Ġbirey": 2856, "ĠsÃ¼rec": 2857, "yÃ¼k": 2858, "Ã¶rnekĠ": 2859, "Ã¶zgÃ¼r": 2860, "letĠ": 2861, "Ã¶lÃ§Ã¼": 2862, "iddi": 2863, "Ã¢t": 2864, "ĠÃ¶nc": 2865, "Ä°stanbul": 2866, "erg": 2867, "ĠAs": 2868, "iĠolarakĠ": 2869, "net": 2870, "vurgu": 2871, "Ġbun": 2872, "fi": 2873, "cin": 2874, "politika": 2875, "bulgu": 2876, "saÄŁlÄ±kĠ": 2877, "lÄ±ÄŁÄ±nÄ±Ġ": 2878, "konuĠ": 2879, "kez": 2880, "liĠveĠ": 2881, "larĠdaĠ": 2882, "ĠyÃ¶netim": 2883, "Ä±ldÄ±ÄŁÄ±Ġ": 2884, "lÄ±ÅŁ": 2885, "ce": 2886, "larÄ±ndakiĠ": 2887, "Ã¼mÃ¼zdeĠ": 2888, "Ä±sÄ±naĠ": 2889, "ĠgÃ¼nĠ": 2890, "baÄŁÄ±msÄ±z": 2891, "mekteĠ": 2892, "malar": 2893, "ĠdÃ¼zen": 2894, "lerĠiÃ§inĠ": 2895, "arak": 2896, "yardÄ±mcÄ±Ġ": 2897, "baÄŁlÄ±ĠolarakĠ": 2898, "laz": 2899, "lÃ§": 2900, "koru": 2901, "erkek": 2902, "enf": 2903, "Ġkap": 2904, "arkaĠ": 2905, "gÃ¶Ã§": 2906, "eĠgÃ¶reĠ": 2907, "Ġor": 2908, "aday": 2909, "ĠkÃ¶": 2910, "ekteĠ": 2911, "finans": 2912, "larĠileĠ": 2913, "anlamlÄ±ĠbirĠ": 2914, "bunaĠ": 2915, "avan": 2916, "korun": 2917, "lasyonĠ": 2918, "eviĠ": 2919, "ĠKat": 2920, "eli": 2921, "gider": 2922, "takiĠ": 2923, "ara": 2924, "tenĠsonraĠ": 2925, "Ä±yÄ±Ġ": 2926, "lÄ±lÄ±ÄŁ": 2927, "enĠÃ§okĠ": 2928, "lulukĠ": 2929, "yÃ¼ksel": 2930, "eleĠalÄ±n": 2931, "ĠBiz": 2932, "YÃ¶n": 2933, "eleÅŁtir": 2934, "makĠist": 2935, "Ã¼cret": 2936, "iniziĠ": 2937, "ternet": 2938, "ĠKan": 2939, "pazar": 2940, "erkekĠ": 2941, "ne": 2942, "film": 2943, "ĠgÃ¼ven": 2944, "piya": 2945, "Ġbas": 2946, "lÄ±ndaĠ": 2947, "reĠ": 2948, "mÃ¼z": 2949, "kalit": 2950, "destekĠ": 2951, "mayaĠbaÅŁla": 2952, "kab": 2953, "Kon": 2954, "TÃ¼rkiyeĠ": 2955, "ati": 2956, "dÄ±n": 2957, "kanÄ±Ġ": 2958, "umhuriyet": 2959, "dÃ¼l": 2960, "makĠveĠ": 2961, "oyunĠ": 2962, "ekim": 2963, "ĠÃ§alÄ±ÅŁ": 2964, "ge": 2965, "so": 2966, "verenĠ": 2967, "yarakĠ": 2968, "fil": 2969, "ĠneĠ": 2970, "caÄŁÄ±nÄ±Ġ": 2971, "Ã§ocuÄŁ": 2972, "Ä±ldÄ±ÄŁÄ±ndaĠ": 2973, "emez": 2974, "sosyalĠ": 2975, "meyenĠ": 2976, "Ä±na": 2977, "Ġsun": 2978, "miÅŁti": 2979, "Ã¼slÃ¼": 2980, "esindenĠ": 2981, "iyil": 2982, "nitelik": 2983, "lasyon": 2984, "esiĠveĠ": 2985, "ĠÃĩÃ¼nkÃ¼": 2986, "ĠaĠ": 2987, "ograf": 2988, "saÄŁlaya": 2989, "Ã¶yleĠbirĠ": 2990, "imk": 2991, "tif": 2992, "lerimiz": 2993, "tez": 2994, "enlerinĠ": 2995, "Ġhayat": 2996, "aÅŁama": 2997, "ĠÃĸzellikleĠ": 2998, "fonksiyon": 2999, "yakÄ±n": 3000, "Ġkurul": 3001, "Ã¼ĠveĠ": 3002, "etkinlik": 3003, "itibarenĠ": 3004, "Ä±ldÄ±": 3005, "baÅŁlan": 3006, "ill": 3007, "bunuĠ": 3008, "sunĠ": 3009, "istatistikselĠ": 3010, "Ġek": 3011, "iÄŁineĠ": 3012, "ĠTÃ¼rkiyeĠ": 3013, "enz": 3014, "Ã¢y": 3015, "kiÅŁiĠ": 3016, "ametr": 3017, "ĠgeliÅŁ": 3018, "sÃ¼rekliĠ": 3019, "cuĠ": 3020, "ilendir": 3021, "ileri": 3022, "mekan": 3023, "dahaĠfazla": 3024, "lamayaĠ": 3025, "Ġmerkez": 3026, "oksi": 3027, "mamÄ±z": 3028, "Ġbur": 3029, "yazar": 3030, "ela": 3031, "kuruluÅŁ": 3032, "giriÅŁ": 3033, "yeterliĠ": 3034, "gerÃ§ekĠ": 3035, "avantaj": 3036, "amacÄ±yla": 3037, "tespitĠedilmiÅŁtir": 3038, "larÄ±ylaĠ": 3039, "likĠveĠ": 3040, "tamamenĠ": 3041, "hr": 3042, "duygus": 3043, "all": 3044, "hiss": 3045, "sas": 3046, "yÃ¼zey": 3047, "laraĠgÃ¶reĠ": 3048, "benzerĠ": 3049, "Ġkom": 3050, "ĠGel": 3051, "anlamdaĠ": 3052, "olmadÄ±ÄŁÄ±Ġ": 3053, "Ġbu": 3054, "ĠbÃ¶lÃ¼m": 3055, "ardÄ±ndanĠ": 3056, "demeĠ": 3057, "Ä±lÄ±ÄŁÄ±Ġ": 3058, "ĠEnĠ": 3059, "hizmetĠ": 3060, "elerdenĠ": 3061, "ĠiÃ§indeĠ": 3062, "oÄŁlu": 3063, "fet": 3064, "Ak": 3065, "eygam": 3066, "ba": 3067, "mamÄ±ÅŁ": 3068, "dÃ¼k": 3069, "eÄŁer": 3070, "ĠsadeceĠ": 3071, "ĠDÃ¼n": 3072, "ifad": 3073, "ÅŁiddet": 3074, "etkiĠ": 3075, "rapor": 3076, "zorun": 3077, "aÃ§Ä±kla": 3078, "unluk": 3079, "dal": 3080, "MA": 3081, "kÃ¶y": 3082, "uĠileĠ": 3083, "sÃ¶zĠkonusuĠ": 3084, "ektenĠ": 3085, "desiĠ": 3086, "iÄŁer": 3087, "NA": 3088, "Devlet": 3089, "ĠSÃ¶z": 3090, "olmaktadÄ±r": 3091, "ĠbinĠ": 3092, "mÃ¼r": 3093, "Ã¼fus": 3094, "ĠsektÃ¶r": 3095, "aleĠ": 3096, "Ã¶v": 3097, "ele": 3098, "konudaĠ": 3099, "yans": 3100, "oda": 3101, "Ã¼niversit": 3102, "Ġsonr": 3103, "ĠGÃ¶r": 3104, "bakÄ±mÄ±ndanĠ": 3105, "ĠÅŁeklindeĠ": 3106, "ĠSay": 3107, "takÄ±m": 3108, "Ã¶ÄŁrenmeĠ": 3109, "lardÄ±": 3110, "maÄŁ": 3111, "imdiĠ": 3112, "erek": 3113, "temsil": 3114, "EÄŁ": 3115, "aÃ§Ä±danĠ": 3116, "normal": 3117, "tekrar": 3118, "iyle": 3119, "ted": 3120, "anĠbirĠ": 3121, "kelim": 3122, "puan": 3123, "ĠTab": 3124, "veriĠ": 3125, "ometr": 3126, "eyn": 3127, "amacÄ±ylaĠ": 3128, "luluk": 3129, "tutum": 3130, "kendiniĠ": 3131, "kut": 3132, "sÃ¶yled": 3133, "duvar": 3134, "enler": 3135, "pres": 3136, "benim": 3137, "hÃ¢": 3138, "ĠSonĠ": 3139, "karÅŁÄ±laÅŁ": 3140, "ediy": 3141, "dahaĠfazlaĠ": 3142, "ĠÃĸn": 3143, "dinĠ": 3144, "doÄŁrudanĠ": 3145, "biÃ§imdeĠ": 3146, "ĠedilenĠ": 3147, "geliÅŁim": 3148, "ĠgÃ¶ster": 3149, "hareketĠ": 3150, "hiÃ§birĠ": 3151, "talep": 3152, "ĠyÃ¼zyÄ±l": 3153, "Ã¼ndÃ¼r": 3154, "konum": 3155, "iksel": 3156, "kullanÄ±lmÄ±ÅŁtÄ±r": 3157, "Ã¶zelĠ": 3158, "melidir": 3159, "ilgiĠ": 3160, "ĠhemĠdeĠ": 3161, "kop": 3162, "rast": 3163, "Ġbit": 3164, "uf": 3165, "genÃ§": 3166, "kitap": 3167, "isel": 3168, "birim": 3169, "egor": 3170, "lif": 3171, "tec": 3172, "yararlan": 3173, "ort": 3174, "sonra": 3175, "ektif": 3176, "Ġtest": 3177, "ereĠ": 3178, "Ġi": 3179, "sul": 3180, "larÄ±naĠgÃ¶reĠ": 3181, "anÄ±m": 3182, "oÄŁluĠ": 3183, "del": 3184, "taz": 3185, "Ġdiy": 3186, "dol": 3187, "ĠoluÅŁ": 3188, "Ġhaf": 3189, "duygu": 3190, "ĠBunun": 3191, "Pro": 3192, "otoÄŁraf": 3193, "Ġtaraf": 3194, "tekiĠ": 3195, "iÃ§iĠ": 3196, "day": 3197, "edeniĠ": 3198, "maktanĠ": 3199, "birlikte": 3200, "Ġsosyal": 3201, "theĠ": 3202, "ayÄ±f": 3203, "Rus": 3204, "ayrÄ±caĠ": 3205, "yanÄ±ĠsÄ±raĠ": 3206, "baÅŁÄ±naĠ": 3207, "larÄ±ĠdaĠ": 3208, "aĠgÃ¶reĠ": 3209, "yeniĠbirĠ": 3210, "Mu": 3211, "alÄ±m": 3212, "ikĠbirĠ": 3213, "cÄ±lar": 3214, "risk": 3215, "dernĠ": 3216, "indedir": 3217, "he": 3218, "Ġanaliz": 3219, "andaĠ": 3220, "dis": 3221, "dÃ¼zenlem": 3222, "undakiĠ": 3223, "toplan": 3224, "vak": 3225, "kural": 3226, "eneĠ": 3227, "ineĠgÃ¶reĠ": 3228, "dikkateĠ": 3229, "sanĠ": 3230, "ĠSan": 3231, "olmakĠÃ¼zereĠ": 3232, "ildiÄŁiĠ": 3233, "uyla": 3234, "Ä±pĠ": 3235, "santr": 3236, "ĠBuradaĠ": 3237, "ildi": 3238, "Ġkurum": 3239, "ĠÃĩoc": 3240, "letm": 3241, "cel": 3242, "ĠTÃ¼m": 3243, "kamuĠ": 3244, "ĠSonuÃ§": 3245, "olacaktÄ±r": 3246, "cil": 3247, "uzey": 3248, "Ġmiktar": 3249, "edec": 3250, "sÄ±rasÄ±ndaĠ": 3251, "Ã§evres": 3252, "mamÄ±ÅŁtÄ±r": 3253, "ĠHal": 3254, "yerleÅŁ": 3255, "ilebilir": 3256, "gÄ±Ġ": 3257, "tasyon": 3258, "Ġkontrol": 3259, "ilerdenĠ": 3260, "dayal": 3261, "oldu": 3262, "liÄŁininĠ": 3263, "birkaÃ§": 3264, "iÄŁininĠ": 3265, "mÃ¼cad": 3266, "gÃ¼zel": 3267, "haleĠ": 3268, "kala": 3269, "ĠÄ°lkĠ": 3270, "edekiĠ": 3271, "Ã¶zellikleriĠ": 3272, "iĠbirĠ": 3273, "diy": 3274, "diÄŁindeĠ": 3275, "deÄŁiÅŁiklik": 3276, "fikir": 3277, "ĠAÄŁ": 3278, "pozitif": 3279, "imeĠ": 3280, "Ġtes": 3281, "ilerdeĠ": 3282, "muh": 3283, "ihr": 3284, "Ġgir": 3285, "tansiy": 3286, "hey": 3287, "iÅŁlev": 3288, "Ġzaman": 3289, "ulmasÄ±Ġ": 3290, "deniz": 3291, "dÃ¼zeydeĠ": 3292, "pl": 3293, "ediÄŁiĠ": 3294, "qu": 3295, "ebilmektedir": 3296, "bakÄ±ÅŁ": 3297, "do": 3298, "larÄ±nda": 3299, "lardakiĠ": 3300, "Ä°ngil": 3301, "diz": 3302, "fayda": 3303, "Ä±yoruz": 3304, "--": 3305, "ĠAllah": 3306, "yÃ¼zdeĠ": 3307, "alandaĠ": 3308, "sunuz": 3309, "ÌĨ": 3310, "iraĠ": 3311, "adÄ±naĠ": 3312, "birĠar": 3313, "str": 3314, "verdiÄŁiĠ": 3315, "edin": 3316, "asÄ±nÄ±nĠ": 3317, "Ġmek": 3318, "organiz": 3319, "bÃ¼yÃ¼k": 3320, "ith": 3321, "Ã§alÄ±ÅŁanĠ": 3322, "laÅŁmaĠ": 3323, "mesiyleĠ": 3324, "ĠYapÄ±lanĠ": 3325, "Ġâ": 3326, "gÃ¼": 3327, "ij": 3328, "aÅŁaÄŁÄ±dakiĠ": 3329, "deĠbuĠ": 3330, "Ġï": 3331, "ĠBey": 3332, "ĠdÃ¶n": 3333, "algÄ±": 3334, "aĠÃ§Ä±k": 3335, "emir": 3336, "rarĠ": 3337, "kaz": 3338, "kuvvet": 3339, "rad": 3340, "bilirsiniz": 3341, "nes": 3342, "ĠKal": 3343, "yapÄ±Ġ": 3344, "onlarÄ±nĠ": 3345, "ĠBÃ¶yleceĠ": 3346, "niĠ": 3347, "eksik": 3348, "Ġolan": 3349, "karakter": 3350, "Ä±ca": 3351, "Ã¼yleĠ": 3352, "yem": 3353, "Ä±lmaz": 3354, "alÄ±ÄŁ": 3355, "insiyet": 3356, "tÃ¼Ġ": 3357, "izlen": 3358, "demok": 3359, "kalanĠ": 3360, "aileĠ": 3361, "ortayaĠÃ§Ä±kar": 3362, "ĠYÃ¶n": 3363, "ziy": 3364, "Ã§ocuklarÄ±nĠ": 3365, "kiÅŁininĠ": 3366, "gÃ¶rÃ¼lenĠ": 3367, "Ġkavram": 3368, "ĠÄ°b": 3369, "Â±": 3370, "uanĠ": 3371, "ÌĪ": 3372, "OsmanlÄ±Ġ": 3373, "Ġstr": 3374, "boy": 3375, "ĠKend": 3376, "geÃ§miÅŁ": 3377, "dÃ¼ÄŁÃ¼": 3378, "uygulananĠ": 3379, "Ã¶ÄŁretmenĠ": 3380, "asÄ±naĠ": 3381, "yÃ¶netic": 3382, "ĠKad": 3383, "mec": 3384, "vatandaÅŁ": 3385, "Ã¢b": 3386, "ram": 3387, "yaygÄ±nĠ": 3388, "asker": 3389, "co": 3390, "mayeĠ": 3391, "ers": 3392, "dahaĠyÃ¼ksekĠ": 3393, "udur": 3394, "Ġmodel": 3395, "iÅŁeĠ": 3396, "etkilen": 3397, "gÃ¶zĠÃ¶n": 3398, "teknoloj": 3399, "Ġber": 3400, "Tab": 3401, "daĠbirĠ": 3402, "Ã¼Ã§Ã¼nc": 3403, "altÄ±Ġ": 3404, "ĠsayÄ±lÄ±Ġ": 3405, "zeng": 3406, "akiĠ": 3407, "durumuĠ": 3408, "abet": 3409, "adlandÄ±r": 3410, "eÄŁi": 3411, "Ġil": 3412, "ÅŁah": 3413, "Gen": 3414, "ĠetmekĠ": 3415, "mÄ±z": 3416, "Ã¼ÅŁter": 3417, "Ã§oÄŁuĠ": 3418, "tÃ¼l": 3419, "odak": 3420, "ĠtÃ¼k": 3421, "hip": 3422, "yapanĠ": 3423, "yÄ±llardaĠ": 3424, "En": 3425, "ĠX": 3426, "ĠAB": 3427, "lanmaĠ": 3428, "ÅŁeh": 3429, "benzer": 3430, "yerĠalmaktadÄ±r": 3431, "gÃ¶sterenĠ": 3432, "EM": 3433, "num": 3434, "tanÄ±": 3435, "akÄ±l": 3436, "ÅŁiir": 3437, "ens": 3438, "yapÄ±lmasÄ±Ġ": 3439, "dÄ±ÄŁÄ±ndaĠ": 3440, "yoÄŁunĠ": 3441, "Ġsiya": 3442, "maktÄ±r": 3443, "ĠDoÄŁ": 3444, "Ã§aÄŁ": 3445, "ĠbÃ¼yÃ¼kĠ": 3446, "tim": 3447, "ĠyaniĠ": 3448, "gerektir": 3449, "Ġkazan": 3450, "genellikleĠ": 3451, "verir": 3452, "yabancÄ±Ġ": 3453, "leyiciĠ": 3454, "tÄ±ÄŁÄ±nÄ±Ġ": 3455, "Ġbiz": 3456, "ulmuÅŁ": 3457, "Ġdak": 3458, "ĠhÃ¼cr": 3459, "ciĠ": 3460, "don": 3461, "ĠÃ¼st": 3462, "nitel": 3463, "ndaĠ": 3464, "duyar": 3465, "dahaĠiyiĠ": 3466, "ĠgÃ¼Ã§": 3467, "ast": 3468, "ww": 3469, "hid": 3470, "maddeĠ": 3471, "Ã¼yeĠ": 3472, "ĠhakkÄ±ndaĠ": 3473, "ĠsÄ±nÄ±r": 3474, "acÄ±Ġ": 3475, "dÃ¼nyaĠ": 3476, "mot": 3477, "layÄ±cÄ±Ġ": 3478, "yasal": 3479, "lenmeĠ": 3480, "liÄŁeĠ": 3481, "sanÄ±z": 3482, "ĠeÄŁitim": 3483, "Ä±sÄ±r": 3484, "enĠbÃ¼yÃ¼kĠ": 3485, "Ã¶lÃ§Ã¼deĠ": 3486, "memiÅŁ": 3487, "ĠbiÃ§im": 3488, "ĠGer": 3489, "kuÅŁ": 3490, "Ä±mdaĠ": 3491, "Ġnok": 3492, "Ay": 3493, "yanlÄ±ÅŁ": 3494, "ĠkÄ±r": 3495, "Ä°slam": 3496, "Ã¼sÃ¼": 3497, "Ġdil": 3498, "Ġhareket": 3499, "vÃ¼c": 3500, "Ä±rkenĠ": 3501, "genelĠ": 3502, "Ġoyn": 3503, "ĠDen": 3504, "elsef": 3505, "ĠAvrup": 3506, "Ġhizmet": 3507, "com": 3508, "na": 3509, "karÄ±ÅŁ": 3510, "Ã¶ÄŁ": 3511, "lor": 3512, "insanlarÄ±nĠ": 3513, "luluÄŁ": 3514, "niversit": 3515, "mev": 3516, "ihtiyaÃ§Ġ": 3517, "had": 3518, "arasÄ±nda": 3519, "lerĠileĠ": 3520, "ekil": 3521, "mÃ¼mkÃ¼ndÃ¼r": 3522, "iyetiĠ": 3523, "almaĠ": 3524, "hukuk": 3525, "ĠAb": 3526, "ultusundaĠ": 3527, "Ã¶ldÃ¼r": 3528, "ĠikiĠ": 3529, "ĠsÃ¶y": 3530, "alanÄ±ndaĠ": 3531, "lider": 3532, "seÃ§im": 3533, "rit": 3534, "yoktur": 3535, "durumundaĠ": 3536, "Ġfor": 3537, "manÄ±z": 3538, "ekn": 3539, "yokĠ": 3540, "deneyim": 3541, "baÅŁarÄ±lÄ±Ġ": 3542, "olsaĠ": 3543, "letmeĠ": 3544, "itir": 3545, "pekĠÃ§okĠ": 3546, "tedaviĠ": 3547, "altÄ±naĠ": 3548, "aÃ§Ä±klama": 3549, "gÃ¶sterir": 3550, "beĠ": 3551, "akÄ±ÅŁ": 3552, "bileÅŁ": 3553, "gelmektedir": 3554, "Ã¶lÃ§Ã¼l": 3555, "abaĠ": 3556, "Ġhasta": 3557, "Ä±ncaĠ": 3558, "etkileÅŁim": 3559, "oks": 3560, "saldÄ±r": 3561, "masÄ±ĠiÃ§inĠ": 3562, "tanÄ±nĠ": 3563, "mamaktadÄ±r": 3564, "Ã®Ġ": 3565, "halineĠ": 3566, "performans": 3567, "eÄŁin": 3568, "Ġkelim": 3569, "mi": 3570, "olduÄŁuĠgibiĠ": 3571, "ular": 3572, "ĠEs": 3573, "yerineĠgetir": 3574, "ilaÃ§": 3575, "va": 3576, "Ġ*": 3577, "last": 3578, "larÄ±nÄ±": 3579, "ĠYineĠ": 3580, "teor": 3581, "Ã§ok": 3582, "dit": 3583, "kaynakĠ": 3584, "bahis": 3585, "deĠbirĠ": 3586, "bireylerinĠ": 3587, "standart": 3588, "As": 3589, "ĠgÃ¶z": 3590, "lÃ¼ÄŁÃ¼": 3591, "leriĠarasÄ±ndaĠ": 3592, "Tan": 3593, "yanÄ±t": 3594, "ĠdÃ¼ÅŁÃ¼n": 3595, "ĠAnkar": 3596, "noktas": 3597, "Ġhav": 3598, "etkilem": 3599, "eygamber": 3600, "ortayaĠÃ§Ä±kanĠ": 3601, "ĠKay": 3602, "olun": 3603, "uzman": 3604, "dereceĠ": 3605, "fÄ±rsat": 3606, "ciddiĠ": 3607, "trans": 3608, "usta": 3609, "saÄŁlar": 3610, "Ġtab": 3611, "Ġmm": 3612, "asyonuĠ": 3613, "melerĠ": 3614, "alnÄ±z": 3615, "ortadanĠ": 3616, "baÅŁkaĠbirĠ": 3617, "ĠÃ¶zellikleĠ": 3618, "yat": 3619, "ĠÃĸÄŁrenc": 3620, "ĠÃ§alÄ±ÅŁma": 3621, "ĠÄ°nsan": 3622, "malarÄ±nĠ": 3623, "Ġcm": 3624, "AS": 3625, "biyat": 3626, "ĠTem": 3627, "Ġsonuc": 3628, "dÃ¼zenlen": 3629, "saÄŁlayanĠ": 3630, "ĠYaÅŁ": 3631, "cÄ±lÄ±kĠ": 3632, "Bakan": 3633, "nam": 3634, "iÅŁimĠ": 3635, "Ä±ndÄ±r": 3636, "ĠSer": 3637, "lÄ±ĠolarakĠ": 3638, "gerekĠ": 3639, "demir": 3640, "neĠkadar": 3641, "Ã¶neĠ": 3642, "larÄ±nÄ±n": 3643, "edi": 3644, "yandanĠ": 3645, "dikkatĠÃ§ek": 3646, "istanĠ": 3647, "enĠiyiĠ": 3648, "guĠ": 3649, "ĠmilyonĠ": 3650, "deÄŁeriĠ": 3651, "amacÄ±Ġ": 3652, "LER": 3653, "Ġkol": 3654, "ĠyÃ¼ksekĠ": 3655, "ĠdeÄŁil": 3656, "gerektiÄŁiniĠ": 3657, "maktaĠveĠ": 3658, "Tar": 3659, "bon": 3660, "taÅŁÄ±n": 3661, "gelenek": 3662, "ĠiÅŁlem": 3663, "Ġist": 3664, "ĠSaÄŁ": 3665, "Ã¶ÄŁretimĠ": 3666, "diyeĠ": 3667, "ĠĠĠĠĠĠĠĠ": 3668, "halindeĠ": 3669, "mesidir": 3670, "ikler": 3671, "isindenĠ": 3672, "larÄ±ĠiÃ§inĠ": 3673, "liÄŁineĠ": 3674, "aray": 3675, "ator": 3676, "sÃ¶zleÅŁ": 3677, "ygu": 3678, "ortalama": 3679, "ĠYaniĠ": 3680, "iceĠ": 3681, "boyuncaĠ": 3682, "vaÅŁ": 3683, "zayÄ±f": 3684, "isayar": 3685, "biĠ": 3686, "Ä°N": 3687, "ĠEv": 3688, "ĠolmakĠÃ¼zereĠ": 3689, "hatÄ±r": 3690, "ðĿĳ": 3691, "liliÄŁiĠ": 3692, "Ġdin": 3693, "Ã§ift": 3694, "ci": 3695, "ediyeĠ": 3696, "herkes": 3697, "eksiyon": 3698, "lerĠarasÄ±ndaĠ": 3699, "edilmiÅŁtir": 3700, "ĠhiÃ§": 3701, "Ã§a": 3702, "adÄ±m": 3703, "ĠAh": 3704, "iĠiÃ§inĠ": 3705, "lÄ±kĠveĠ": 3706, "sonundaĠ": 3707, "gÄ±Ã§": 3708, "elerleĠ": 3709, "bÃ¼tÃ¼n": 3710, "farklÄ±lÄ±k": 3711, "resim": 3712, "ektro": 3713, "yerleÅŁtir": 3714, "yaÅŁayanĠ": 3715, "yaÅŁananĠ": 3716, "eselĠ": 3717, "ilerleĠ": 3718, "renk": 3719, "sig": 3720, "sonrakiĠ": 3721, "gec": 3722, "ĠbazÄ±Ġ": 3723, "bat": 3724, "elidir": 3725, "iliÅŁkiliĠ": 3726, "ebilecekĠ": 3727, "edebil": 3728, "Ã¼lkeĠ": 3729, "Ġett": 3730, "Ġetmektedir": 3731, "istatistikselĠolarakĠ": 3732, "masÄ±ylaĠ": 3733, "tĠ": 3734, "Ġher": 3735, "sÃ¼z": 3736, "yetersiz": 3737, "Ġbah": 3738, "lÄ±ÄŁÄ±nÄ±nĠ": 3739, "ĠkarÅŁÄ±": 3740, "DoÄŁ": 3741, "zih": 3742, "etkinĠ": 3743, "ĠOy": 3744, "asÄ±nÄ±Ġ": 3745, "Ã§arp": 3746, "gÃ¶sterilmiÅŁtir": 3747, "ital": 3748, "ĠbirĠÅŁekildeĠ": 3749, "larÄ±yla": 3750, "iÃ§ineĠ": 3751, "deÄŁerlendirmeĠ": 3752, "olmuÅŁ": 3753, "ukukĠ": 3754, "nun": 3755, "ĠÃ§Ã¼n": 3756, "iÃ§erenĠ": 3757, "ĠÃĩÃ¼nkÃ¼Ġ": 3758, "yapÄ±lmÄ±ÅŁ": 3759, "emey": 3760, "egatif": 3761, "EN": 3762, "Ah": 3763, "Bel": 3764, "Ġ+": 3765, "gÃ¼l": 3766, "daÄŁÄ±t": 3767, "mon": 3768, "Ã¢yet": 3769, "lÄ±ÄŁaĠ": 3770, "lanabilir": 3771, "zat": 3772, "ĠhÄ±z": 3773, "ÅŀekilĠ": 3774, "kit": 3775, "uvar": 3776, "Ã§ap": 3777, "AL": 3778, "ĠVeĠ": 3779, "dÃ¼ÄŁÃ¼Ġ": 3780, "emem": 3781, "Ġsat": 3782, "kararĠver": 3783, "Ġkalit": 3784, "olas": 3785, "adet": 3786, "fend": 3787, "ÅŁer": 3788, "Ã¶ncekiĠ": 3789, "cÃ¼m": 3790, "imz": 3791, "person": 3792, "Ġhastal": 3793, "arÅŁ": 3794, "sek": 3795, "kus": 3796, "katkÄ±Ġ": 3797, "ET": 3798, "ew": 3799, "Ġfakat": 3800, "saat": 3801, "AT": 3802, "Ġban": 3803, "lerineĠgÃ¶reĠ": 3804, "ĠTan": 3805, "lÄ±ÄŁÄ±naĠ": 3806, "zarar": 3807, "cam": 3808, "alĠveĠ": 3809, "Ã§e": 3810, "ĠYeniĠ": 3811, "adÄ±Ġ": 3812, "satÄ±nĠ": 3813, "arkenĠ": 3814, "Hz": 3815, "Ġdeney": 3816, "Mah": 3817, "ternatif": 3818, "merika": 3819, "ĠsonraĠ": 3820, "sayÄ±daĠ": 3821, "satÄ±ÅŁ": 3822, "sonrasÄ±Ġ": 3823, "dileĠ": 3824, "irket": 3825, "vir": 3826, "Ã§evir": 3827, "ĠEk": 3828, "ÃĸÄŁr": 3829, "enĠyÃ¼ksekĠ": 3830, "mekteĠveĠ": 3831, "olu": 3832, "Ġsanat": 3833, "gÃ¼z": 3834, "bay": 3835, "riskĠ": 3836, "isk": 3837, "giz": 3838, "buradaĠ": 3839, "ikas": 3840, "ĠgeliÅŁtir": 3841, "ĠNit": 3842, "elerindenĠ": 3843, "tÃ¼ketic": 3844, "tÄ±m": 3845, "eÄŁiniĠ": 3846, "dayalÄ±Ġ": 3847, "lediÄŁiĠ": 3848, "acaktÄ±r": 3849, "nem": 3850, "imar": 3851, "alÄ±r": 3852, "yÃ¼zdenĠ": 3853, "Anad": 3854, "millet": 3855, "Ã§Ä±Ġ": 3856, "ĠkoÅŁul": 3857, "unut": 3858, "Ġbaz": 3859, "ĠHem": 3860, "ĠĠĠ": 3861, "yansÄ±": 3862, "Ġdik": 3863, "lamaktadÄ±r": 3864, "sÃ¶ylenebilir": 3865, "Bey": 3866, "gÃ¶tÃ¼r": 3867, "ĠinĠ": 3868, "davran": 3869, "mÃ¼dah": 3870, "ĠgÃ¶rÃ¼n": 3871, "yukar": 3872, "ĠÃľl": 3873, "ES": 3874, "vb": 3875, "ima": 3876, "mikro": 3877, "hoÅŁ": 3878, "benĠ": 3879, "ĠYar": 3880, "meÅŁ": 3881, "iÅŁÃ§": 3882, "Ġdok": 3883, "iydi": 3884, "siyasiĠ": 3885, "ĠHat": 3886, "lamÄ±ÅŁtÄ±r": 3887, "ladÄ±": 3888, "belirlem": 3889, "iminĠ": 3890, "ÅŁÃ¶yleĠ": 3891, "Ġyen": 3892, "ia": 3893, "org": 3894, "deÄŁerleriĠ": 3895, ".'": 3896, "ulur": 3897, "Ġdevlet": 3898, "detay": 3899, "duÄŁunuĠ": 3900, "parametr": 3901, "eÄŁilim": 3902, "Ab": 3903, "ĠtarihindeĠ": 3904, "iÅŁaretĠ": 3905, "devletĠ": 3906, "daÄŁÄ±lÄ±m": 3907, "vardÄ±": 3908, "Hal": 3909, "enÃ¼z": 3910, "giriÅŁim": 3911, "malÄ±": 3912, "esiyleĠ": 3913, "mediÄŁiĠ": 3914, "aktivit": 3915, "niyet": 3916, "gelen": 3917, "iselĠ": 3918, "katk": 3919, "iyan": 3920, "onlarÄ±Ġ": 3921, "ira": 3922, "esiĠileĠ": 3923, "ĠilkĠ": 3924, "yayÄ±l": 3925, "Ã§Ä±ka": 3926, "idi": 3927, "inden": 3928, "Ġnum": 3929, "serbest": 3930, "ĠolmuÅŁtur": 3931, "oto": 3932, "Ä±lmasÄ±": 3933, "ĠsonĠ": 3934, "Ġhes": 3935, "oranÄ±Ġ": 3936, "emal": 3937, "tahminĠ": 3938, "mis": 3939, "yaniĠ": 3940, "ĠyÄ±lÄ±Ġ": 3941, "Ġyeter": 3942, "oh": 3943, "ĠBÃ¼y": 3944, "husus": 3945, "Top": 3946, "AvrupaĠ": 3947, "soÄŁ": 3948, "inÃ§": 3949, "Ġgetir": 3950, "baĠ": 3951, "akÄ±m": 3952, "eÄŁitimiĠ": 3953, "nef": 3954, "amp": 3955, "ayÄ±n": 3956, "eter": 3957, "ĠveĠS": 3958, "Ã¼nde": 3959, "ĠBenĠ": 3960, "EK": 3961, "Ã¼ndekiĠ": 3962, "takdir": 3963, "Ġtip": 3964, "inanÃ§": 3965, "GÃ¼n": 3966, "tehlik": 3967, "medeĠ": 3968, "our": 3969, "ihti": 3970, "aÅŁÄ±rÄ±Ġ": 3971, "gelmiÅŁtir": 3972, "ĠDolayÄ±sÄ±yla": 3973, "dÄ±ĠveĠ": 3974, "ĠAyrÄ±ca": 3975, "kullanÄ±larakĠ": 3976, "cer": 3977, "karÅŁÄ±la": 3978, "nÃ¼fus": 3979, "Ġe": 3980, "polit": 3981, "ABD": 3982, "ĠolmayanĠ": 3983, "Ġpiya": 3984, "ĠyÃ¼k": 3985, "AK": 3986, "potansiy": 3987, "Ä±sÄ±z": 3988, "dek": 3989, "aldÄ±ÄŁÄ±Ġ": 3990, "madÄ±": 3991, "enĠaz": 3992, "ĠMil": 3993, "gerektiÄŁiĠ": 3994, "Ġmak": 3995, "ĠaÄŁ": 3996, "kz": 3997, "bulundur": 3998, "kazandÄ±r": 3999, "ĠVer": 4000, "leyic": 4001, "ikat": 4002, "mesaj": 4003, "EL": 4004, "hÄ±zlÄ±Ġ": 4005, "ker": 4006, "Ġmey": 4007, "sahipĠolduÄŁuĠ": 4008, "lÃ¢m": 4009, "mesel": 4010, "sÄ±ras": 4011, "ly": 4012, "iÄŁeĠ": 4013, "zararĠ": 4014, "kendisineĠ": 4015, "ĠzamanĠ": 4016, "ahtar": 4017, "toplamĠ": 4018, "olek": 4019, "ĠTarih": 4020, "tespitĠedil": 4021, "tÄ±ÄŁÄ±mÄ±z": 4022, "yÄ±k": 4023, "ĠbaÅŁkaĠ": 4024, "Ġtel": 4025, "ĠÄ°Ã§": 4026, "ĠboyuncaĠ": 4027, "Ã§atÄ±ÅŁ": 4028, "oid": 4029, "literatÃ¼r": 4030, "ĠbÃ¼tÃ¼nĠ": 4031, "ten": 4032, "ho": 4033, "oluÅŁmaktadÄ±r": 4034, "masÄ±yla": 4035, "etkileriĠ": 4036, "Has": 4037, "anlÄ±Ġ": 4038, "Ä±lÄ±": 4039, "ĠÃ§Ã¶z": 4040, "kapasit": 4041, "ment": 4042, "mektey": 4043, "ĠÃ¶rgÃ¼t": 4044, "alarÄ±Ġ": 4045, "!\"": 4046, "nedeniĠ": 4047, "memiÅŁtir": 4048, "yalnÄ±zcaĠ": 4049, "ĠEy": 4050, "anÄ±Ġ": 4051, "eyh": 4052, "ĠBil": 4053, "olmak": 4054, "ĠAÅŁ": 4055, "Ã¶nlem": 4056, "Ã¶ÄŁretmenlerinĠ": 4057, "gazet": 4058, "iÄŁiniz": 4059, "tiĠ": 4060, "izĠ": 4061, "Hak": 4062, "birinciĠ": 4063, "ĠmÃ¼": 4064, "ĠÄ°kinciĠ": 4065, "kadÄ±nlarÄ±nĠ": 4066, "lerĠdeĠ": 4067, "âĢ¦": 4068, "obil": 4069, "leriĠdeĠ": 4070, "sÃ¶yley": 4071, "iyon": 4072, "yereĠ": 4073, "yabil": 4074, "Ġhis": 4075, "arasÄ±ndakiĠiliÅŁk": 4076, "basÄ±n": 4077, "klem": 4078, "kaÃ§Ä±n": 4079, "maruz": 4080, "ĠEÄŁerĠ": 4081, "ratikĠ": 4082, "ĠonunĠ": 4083, "kin": 4084, "istikĠ": 4085, "acaÄŁÄ±Ġ": 4086, "veriÅŁ": 4087, "daĠbuĠ": 4088, "Ã§Ä±kÄ±ÅŁ": 4089, "dÃ¶nÃ¼ÅŁtÃ¼r": 4090, "post": 4091, "atej": 4092, "ladÄ±ÄŁÄ±Ġ": 4093, "Ġbor": 4094, "kiÅŁilerinĠ": 4095, "ĠoĠ": 4096, "olarakĠtanÄ±m": 4097, "yurt": 4098, "dÄ±ktanĠsonraĠ": 4099, "baÅŁÄ±ndaĠ": 4100, "Ġtic": 4101, "sonucunaĠ": 4102, "ĠÃĩokĠ": 4103, "Ġplan": 4104, "alarÄ±nĠ": 4105, "ayak": 4106, "inal": 4107, "anlarÄ±nĠ": 4108, "landÄ±ÄŁÄ±Ġ": 4109, "kendineĠ": 4110, "dahaĠdaĠ": 4111, "alanÄ±Ġ": 4112, "beriĠ": 4113, "__": 4114, "ĠBen": 4115, "esinde": 4116, "kÄ±yas": 4117, "Ã§alÄ±ÅŁmada": 4118, "ded": 4119, "lereĠgÃ¶reĠ": 4120, "ĠkÄ±z": 4121, "ikleriniĠ": 4122, "dileĠgetir": 4123, "lÃ¼ĠbirĠ": 4124, "ĠhaleĠ": 4125, "hastalÄ±k": 4126, "Ġpuan": 4127, "eviz": 4128, "eyleĠ": 4129, "tion": 4130, "Ġhay": 4131, "ĠtekĠ": 4132, "dÃ¼ÅŁÃ¼r": 4133, "ikr": 4134, "ĠAraÅŁtÄ±rmaĠ": 4135, "roman": 4136, "ĠUz": 4137, "kapat": 4138, "ĠÃ¶z": 4139, "landÄ±": 4140, "Ġyarat": 4141, "sabit": 4142, "Ġem": 4143, "ĠMes": 4144, "sÄ±nÄ±flandÄ±r": 4145, "ediyor": 4146, "irĠveĠ": 4147, "sineĠ": 4148, "Ġdur": 4149, "mesaf": 4150, "ticaret": 4151, "tÃ¶r": 4152, "gÃ¼nlÃ¼kĠ": 4153, "bulunur": 4154, "dÄ±mĠ": 4155, "ĠgÃ¼c": 4156, "bundaĠ": 4157, "saptanmÄ±ÅŁtÄ±r": 4158, "maktay": 4159, "Ġsp": 4160, "oluÅŁturanĠ": 4161, "malÄ±Ġ": 4162, "anlamÄ±naĠ": 4163, "lÄ±yor": 4164, "yaĠveĠ": 4165, "zorundaĠ": 4166, "yaptÄ±r": 4167, "eklem": 4168, "Ġsin": 4169, "Ġman": 4170, "Ġtedav": 4171, ".Ċ": 4172, "Frans": 4173, "gÃ¼venilir": 4174, "hakĠ": 4175, "sonrasÄ±ndaĠ": 4176, "ĠBazÄ±Ġ": 4177, "herĠÅŁey": 4178, "Ã¼retimĠ": 4179, "psikolojikĠ": 4180, "Ġfa": 4181, "Ġoldu": 4182, "neĠkadarĠ": 4183, "cul": 4184, "Gel": 4185, "uzakĠ": 4186, "ĠgrubuĠ": 4187, "lerde": 4188, "Ã¼lebilir": 4189, "dÄ±ÄŁÄ±": 4190, "kullanÄ±lmaktadÄ±r": 4191, "ĠyerĠ": 4192, "inÅŁaĠ": 4193, "unluÄŁuĠ": 4194, "ĠÃ§eÅŁit": 4195, "etkiley": 4196, "Ä°K": 4197, "Ġkarar": 4198, "dat": 4199, "yetiÅŁtir": 4200, "yerdeĠ": 4201, "toprak": 4202, "Ä±ÄŁÄ±nĠ": 4203, "Ä±lmaĠ": 4204, "ĠII": 4205, "Cumhuriyet": 4206, "tÃ¼mĠ": 4207, "IN": 4208, "th": 4209, "Ã¶lg": 4210, "anlar": 4211, "etmeĠ": 4212, "kork": 4213, "masÄ±ĠileĠ": 4214, "ĠadlÄ±Ġ": 4215, "vanĠ": 4216, "ĠbakÄ±m": 4217, "yaptÄ±klarÄ±Ġ": 4218, "GÃ¶r": 4219, "netic": 4220, "biraz": 4221, "eÄŁeĠ": 4222, "Kat": 4223, "malarĠ": 4224, "sahibiĠ": 4225, "mÄ±Ġ": 4226, "endÃ¼st": 4227, "istih": 4228, "temiz": 4229, "ĠsÃ¼reÃ§": 4230, "ces": 4231, "Ġsen": 4232, "nasÄ±lĠ": 4233, "ĠiÃ§erisindeĠ": 4234, "alÄ±": 4235, "pop": 4236, "sizlikĠ": 4237, "ebilirsiniz": 4238, "ĠsÄ±k": 4239, "etkisiniĠ": 4240, "ilmesi": 4241, "insanÄ±nĠ": 4242, "fotoÄŁraf": 4243, "ĠbulunmaktadÄ±r": 4244, "belliĠ": 4245, "yÃ¶nlendir": 4246, "larÄ±nÄ±z": 4247, "yÃ¼rÃ¼tÃ¼l": 4248, "etmektedir": 4249, "alÄ±narakĠ": 4250, "lÄ±lÄ±ÄŁÄ±Ġ": 4251, "lÄ±kla": 4252, "Mil": 4253, "giy": 4254, "olmasÄ±": 4255, "dÄ±ÄŁÄ±mÄ±z": 4256, "sÄ±nÄ±z": 4257, "ĠkiÅŁiĠ": 4258, "isiyleĠ": 4259, "parator": 4260, "incir": 4261, "ĠSÃ¼r": 4262, "kasÄ±Ġ": 4263, "doÄŁrul": 4264, "Et": 4265, "Ä±ntÄ±": 4266, "buĠdurum": 4267, "lenmesiĠ": 4268, "list": 4269, "Yap": 4270, "tÄ±kĠ": 4271, "Ġsorun": 4272, "toplumsal": 4273, "Ġsal": 4274, "ĠHar": 4275, "bo": 4276, "Ä±nĠveĠ": 4277, "ĠBan": 4278, "teryal": 4279, "ĠaynÄ±Ġ": 4280, "ĠNeĠ": 4281, "karÅŁÄ±lÄ±kĠ": 4282, "dalg": 4283, "ortak": 4284, "lenmiÅŁ": 4285, "sir": 4286, "ĠYÄ±l": 4287, "ON": 4288, "olanĠbirĠ": 4289, "El": 4290, "Ġediyor": 4291, "ĠBuĠbaÄŁlam": 4292, "esidir": 4293, "Ã¶zelliÄŁiĠ": 4294, "ug": 4295, "rab": 4296, "ĠOsmanlÄ±Ġ": 4297, "luÄŁuĠ": 4298, "Ã§evreĠ": 4299, "ayiĠ": 4300, "DÃ¼n": 4301, "kÃ¢r": 4302, "meyeĠÃ§alÄ±ÅŁ": 4303, "hac": 4304, "meydanaĠgelenĠ": 4305, "ĠTL": 4306, "hÃ¢l": 4307, "bakÄ±ldÄ±ÄŁÄ±ndaĠ": 4308, "ikÃ¢y": 4309, "egem": 4310, "ĠSosyal": 4311, "ister": 4312, "maÃ§": 4313, "edey": 4314, "ĠEt": 4315, "reklam": 4316, "eyinĠ": 4317, "beraber": 4318, "ginĠ": 4319, "MÃ¼slÃ¼": 4320, "SS": 4321, "ĠoranÄ±ndaĠ": 4322, "baÅŁkan": 4323, "dÄ±z": 4324, "kategor": 4325, "olmaĠ": 4326, "internet": 4327, "iber": 4328, "laf": 4329, "belirtilmiÅŁtir": 4330, "latform": 4331, "abilirsiniz": 4332, "Ġiz": 4333, "ye": 4334, "Ä°b": 4335, "demikĠ": 4336, "tom": 4337, "tasyonĠ": 4338, "ĠÃĸrneÄŁinĠ": 4339, "ĠdediĠ": 4340, "limĠ": 4341, "ĠÄ°ngil": 4342, "uv": 4343, "iÅŁaret": 4344, "ĠÃĸrneÄŁin": 4345, "EÄŁitim": 4346, "Ã¼zere": 4347, "deÄŁin": 4348, "ĠÃ§evr": 4349, "vergiĠ": 4350, "vis": 4351, "ĠHz": 4352, "kadaÅŁ": 4353, "basit": 4354, "eÅŁil": 4355, "lasikĠ": 4356, "beklent": 4357, "ÅŁekilde": 4358, "laĠilgiliĠ": 4359, "hammed": 4360, "dep": 4361, "birleÅŁ": 4362, "hÃ¼k": 4363, "Ã¢z": 4364, "konus": 4365, "Ġolabilir": 4366, "meyeĠbaÅŁla": 4367, "ĠÃĸÄŁretm": 4368, "ĠÄ°z": 4369, "irkenĠ": 4370, "ĠgerÃ§": 4371, "yapÄ±lacakĠ": 4372, "olumsuzĠ": 4373, "ĠyÃ¼r": 4374, "borÃ§": 4375, "yanaĠ": 4376, "kullanÄ±mÄ±Ġ": 4377, "gaz": 4378, "diĠveĠ": 4379, "iyer": 4380, "danĠsonraĠ": 4381, "lisans": 4382, "Ġboz": 4383, "muz": 4384, "kullanarakĠ": 4385, "herĠzamanĠ": 4386, "uyordu": 4387, "olduÄŁu": 4388, "birik": 4389, "mesindenĠ": 4390, "havaĠ": 4391, "imliĠ": 4392, "yÃ¼ksek": 4393, "yasalĠ": 4394, "gÃ¶sterg": 4395, "ĠaynÄ±ĠzamandaĠ": 4396, "ĠbÄ±rak": 4397, "vikĠ": 4398, "ranĠ": 4399, "tandart": 4400, "laÅŁÄ±m": 4401, "alÄ±nmÄ±ÅŁtÄ±r": 4402, "Har": 4403, "eleman": 4404, "Ġgelir": 4405, "tarz": 4406, "diÅŁ": 4407, "eminĠ": 4408, "omut": 4409, "farklÄ±": 4410, "kÄ±sÄ±t": 4411, "ederekĠ": 4412, "harc": 4413, "mor": 4414, "halk": 4415, "dÃ¼nya": 4416, "Ġteknoloj": 4417, "imizeĠ": 4418, "imi": 4419, "ĠhazÄ±r": 4420, "gez": 4421, "elendir": 4422, "iliÄŁiĠ": 4423, "akl": 4424, "dern": 4425, "nesn": 4426, "toplumsalĠ": 4427, "elÃ§": 4428, "iaĠ": 4429, "katÄ±lanĠ": 4430, "resmiĠ": 4431, "ĠkonuÅŁ": 4432, "Ã§ocuÄŁunĠ": 4433, "Ġadet": 4434, "def": 4435, "ĠYÃ¼z": 4436, "ĠKas": 4437, "lok": 4438, "lardanĠbir": 4439, "tanÄ±n": 4440, "unlukĠ": 4441, "dÃ®": 4442, "telef": 4443, "yapÄ±lÄ±r": 4444, "Ã¼sÃ¼Ġ": 4445, "cep": 4446, "ĠÃ§ocuk": 4447, "bal": 4448, "gÃ¶rÃ¼lÃ¼r": 4449, "sayesindeĠ": 4450, "ĠKor": 4451, "kapsa": 4452, "dahaĠaz": 4453, "dÃ¼ÅŁÃ¼nÃ¼lmektedir": 4454, "orandaĠ": 4455, "ars": 4456, "maliĠ": 4457, "Ã§alÄ±ÅŁanlarÄ±nĠ": 4458, "incelendiÄŁindeĠ": 4459, "incelenmiÅŁtir": 4460, "hastaĠ": 4461, "Ã§erÃ§evesindeĠ": 4462, "ebeĠ": 4463, "Kay": 4464, "ĠHan": 4465, "ĠyaÄŁ": 4466, "ĠbununĠ": 4467, "Ġpolitika": 4468, "edilmiÅŁ": 4469, "inler": 4470, "metĠ": 4471, "teknikĠ": 4472, "elĠveĠ": 4473, "rez": 4474, "geÃ§iÅŁ": 4475, "ihrac": 4476, "Ġtur": 4477, "yapÄ±s": 4478, "Ro": 4479, "aydÄ±n": 4480, "iÄŁindenĠ": 4481, "oluÅŁturmaktadÄ±r": 4482, "ĠeÅŁ": 4483, "tionĠ": 4484, "itr": 4485, "saÃ§": 4486, "ileriĠsÃ¼r": 4487, "negatif": 4488, "diÄŁimiz": 4489, "yÃ¶nel": 4490, "dÃ¶nÃ¼ÅŁÃ¼m": 4491, "ĠRo": 4492, "ĠÃ¼zerindeĠ": 4493, "larcaĠ": 4494, "iĠS": 4495, "riv": 4496, "ĠyÃ¼ks": 4497, "inaĠ": 4498, "ĠettiÄŁiĠ": 4499, "ĠveĠT": 4500, "kurt": 4501, "olmakĠ": 4502, "meslekĠ": 4503, "Ġokul": 4504, "artanĠ": 4505, "keĠ": 4506, "bÃ¶yleĠ": 4507, "kitab": 4508, "usul": 4509, "gÃ¶nÃ¼l": 4510, "rolĠoyn": 4511, "okur": 4512, "ism": 4513, "keÅŁ": 4514, "Arap": 4515, "linikĠ": 4516, "Ġbecer": 4517, "Ã§alÄ±ÅŁmalardaĠ": 4518, "ĠyÃ¶netic": 4519, "birbirineĠ": 4520, "ĠÃĸlÃ§": 4521, "ĠKap": 4522, "Ġmevcut": 4523, "sÃ¼t": 4524, "sahipĠolanĠ": 4525, "ron": 4526, "suret": 4527, "lÄ±klarÄ±Ġ": 4528, "ihtiyac": 4529, "paral": 4530, "ĠKatÄ±lÄ±m": 4531, "bitk": 4532, "gÃ¶stermiÅŁtir": 4533, "jenĠ": 4534, "aykÄ±r": 4535, "yÃ¶net": 4536, "Ä±lama": 4537, "ĠyaÅŁam": 4538, "eÄŁlen": 4539, "yapabil": 4540, "ilgil": 4541, "uzur": 4542, "verilerĠ": 4543, "ĠMah": 4544, "ĠhÃ¼kÃ¼m": 4545, "diler": 4546, "sta": 4547, "Ä±rlar": 4548, "memektedir": 4549, "Ġtal": 4550, "etraf": 4551, "dahiĠ": 4552, "Ä±ydÄ±": 4553, "ĠÃľr": 4554, "LAR": 4555, ".ĊĊ": 4556, "Ä±rÄ±m": 4557, "Ġkam": 4558, "BÃ¼y": 4559, "Ġolduk": 4560, "ton": 4561, "ĠEÄŁitim": 4562, "onay": 4563, "Äŀ": 4564, "itikĠ": 4565, "ĠGeÃ§": 4566, "ST": 4567, "ilerindenĠ": 4568, "ral": 4569, "ĠBirĠ": 4570, "Ã§alÄ±ÅŁmanÄ±nĠ": 4571, "TabloĠ": 4572, "etmekĠiÃ§inĠ": 4573, "ĠOl": 4574, "Ġmg": 4575, "alternatif": 4576, "mÃ¼k": 4577, "Ġgibi": 4578, "cinsiyet": 4579, "uluĠ": 4580, "saf": 4581, "mekte": 4582, "ĠsavaÅŁ": 4583, "yapmÄ±ÅŁ": 4584, "ÅŁam": 4585, "bÃ¼yÃ¼m": 4586, "yapar": 4587, "amel": 4588, "adakiĠ": 4589, "Ġdir": 4590, "ilÃ§": 4591, "Ä±ÅŁÄ±kĠ": 4592, "Ã¼venĠ": 4593, "Ġ...": 4594, "Ġsahip": 4595, "iÄŁinde": 4596, "mektedirler": 4597, "lerdekiĠ": 4598, "Ã§alÄ±ÅŁmalar": 4599, "lerindekiĠ": 4600, "ĠAncak": 4601, "aracÄ±lÄ±ÄŁ": 4602, "ĠbÃ¼t": 4603, "bilgilerĠ": 4604, "taneĠ": 4605, "ihtiyaÃ§Ġduy": 4606, "Ġuz": 4607, "Ä±mÄ±nĠ": 4608, "Ã¶rneklem": 4609, "stat": 4610, "kaynaÄŁ": 4611, "ĠOrta": 4612, "olacak": 4613, "laĠbirlikte": 4614, "zorunluĠ": 4615, "Ġit": 4616, "alarakĠ": 4617, "Ä°R": 4618, "gem": 4619, "ĠsonrasÄ±Ġ": 4620, "tok": 4621, "sorunĠ": 4622, "AraÅŁtÄ±r": 4623, "Ġmem": 4624, "rÄ±": 4625, "masÄ±naĠnedenĠ": 4626, "Ġedec": 4627, "yapÄ±sÄ±Ġ": 4628, "lerini": 4629, "daÄŁÄ±l": 4630, "haldeĠ": 4631, "ation": 4632, "tuÄŁ": 4633, "sÄ±f": 4634, "canĠ": 4635, "Ã§alÄ±ÅŁmalarĠ": 4636, "ĠÃĩalÄ±ÅŁmaĠ": 4637, "dÃ¶nemindeĠ": 4638, "Say": 4639, "kÄ±smÄ±Ġ": 4640, "mekĠveĠ": 4641, "gÃ¼nÃ¼mÃ¼z": 4642, "olupĠol": 4643, "sed": 4644, "banaĠ": 4645, "Ã¶ÄŁrenciĠ": 4646, "entez": 4647, "Ġhan": 4648, "ĠHer": 4649, "rekans": 4650, "leriĠiÃ§inĠ": 4651, "ikal": 4652, "masÄ±nda": 4653, "gal": 4654, "olg": 4655, "Ã¢hil": 4656, "ĠsÃ¶zleÅŁ": 4657, "Ġses": 4658, "ilerin": 4659, "doÄŁal": 4660, "berĠ": 4661, "Ġkitap": 4662, "belirtmiÅŁtir": 4663, "askeriĠ": 4664, "ketĠ": 4665, "olmadÄ±ÄŁÄ±nÄ±Ġ": 4666, "etinĠ": 4667, "kayÄ±p": 4668, "iyileÅŁtir": 4669, "Ġkonu": 4670, "ĠmÃ¼ÅŁter": 4671, "oyuĠ": 4672, "ullah": 4673, "Ġmi": 4674, "varsay": 4675, "bunlarÄ±nĠ": 4676, "ks": 4677, "lÃ¢": 4678, "lal": 4679, "diren": 4680, "ĠDer": 4681, "ĠkonusundaĠ": 4682, "nin": 4683, "ĠbilgiĠ": 4684, "kalk": 4685, "mamasÄ±Ġ": 4686, "belg": 4687, "pas": 4688, "kah": 4689, "imizinĠ": 4690, "belirliĠ": 4691, "ĠRus": 4692, "Yun": 4693, "Ã¼yorum": 4694, "ananĠ": 4695, "kĠveĠ": 4696, "isyonĠ": 4697, "tasÄ±Ġ": 4698, "gÃ¶renĠ": 4699, "durumlardaĠ": 4700, "tÃ¼ÄŁ": 4701, "coÄŁraf": 4702, "ond": 4703, "ĠÄ°kiĠ": 4704, "denetim": 4705, "//": 4706, "lamakĠ": 4707, "otel": 4708, "etmeyeĠ": 4709, "tutar": 4710, "ĠSÄ±n": 4711, "Ġkent": 4712, "ĠABD": 4713, "beb": 4714, "maktadÄ±rlar": 4715, "fizikselĠ": 4716, "ĠinsanĠ": 4717, "banka": 4718, "ustafaĠ": 4719, "uh": 4720, "yaka": 4721, "ĠÃľÃ§": 4722, "selĠveĠ": 4723, "abr": 4724, "raÄŁmen": 4725, "etken": 4726, "mate": 4727, "yayÄ±m": 4728, "modernĠ": 4729, "derecedeĠ": 4730, "tp": 4731, "eriÅŁ": 4732, "ĠBaÄŁ": 4733, "Ä°liÅŁk": 4734, "olacakĠ": 4735, "durumdaĠ": 4736, "ateÅŁ": 4737, "dÄ±ÅŁÄ±Ġ": 4738, "reh": 4739, "Ġku": 4740, "ĠVE": 4741, "etkileyenĠ": 4742, "ÃĩalÄ±ÅŁ": 4743, "rem": 4744, "tabiĠ": 4745, "iiĠ": 4746, "orit": 4747, "Ġsap": 4748, "web": 4749, "Ġproblem": 4750, "miyor": 4751, "ĠsonucundaĠ": 4752, "teb": 4753, "ord": 4754, "tÃ¼ketim": 4755, "Ġseb": 4756, "ĠPer": 4757, "ĠÃ¼retim": 4758, "ĠaÄŁÄ±r": 4759, "gÃ¶l": 4760, "sonuÃ§larÄ±Ġ": 4761, "iyiĠbirĠ": 4762, "Ġkil": 4763, "yonuĠ": 4764, "usal": 4765, "Ã¶nĠplan": 4766, "Ä°z": 4767, "ĠmedyaĠ": 4768, "lara": 4769, "saĠdaĠ": 4770, "ĠveĠM": 4771, "esindekiĠ": 4772, "tekrarĠ": 4773, "imiziĠ": 4774, "ĠDahaĠsonraĠ": 4775, "ĠteÅŁ": 4776, "otez": 4777, "ihtiyacÄ±Ġ": 4778, "mÃ¼l": 4779, "hafif": 4780, "sert": 4781, "lemekĠiÃ§inĠ": 4782, "Ä°ngiliz": 4783, "mÄ±yor": 4784, "lÄ±klaĠ": 4785, "Ä±naĠgÃ¶reĠ": 4786, "lakaĠ": 4787, "aliyetĠ": 4788, "iliÅŁkiler": 4789, "ivil": 4790, "HP": 4791, "yansÄ±t": 4792, "deÄŁiÅŁikĠ": 4793, "Ġbilim": 4794, "herĠtÃ¼r": 4795, "Ġolabil": 4796, "kendisiniĠ": 4797, "iliÅŁkisiĠ": 4798, "mÃ¼t": 4799, "ĠBilg": 4800, "ĠsuÃ§": 4801, "ruf": 4802, "isindekiĠ": 4803, "kÄ±l": 4804, "edeyseĠ": 4805, "ĠyÃ¼zey": 4806, "fak": 4807, "Yar": 4808, "ucu": 4809, "ĠUlus": 4810, "ĠKÄ±s": 4811, "ĠKullan": 4812, "aÅŁaÄŁÄ±daĠ": 4813, "ileĠbirlikteĠ": 4814, "kaynaÄŁÄ±Ġ": 4815, "uyan": 4816, "sÃ¼recindeĠ": 4817, "birleÅŁtir": 4818, "ĠZiraĠ": 4819, "...\"": 4820, "tegr": 4821, "uku": 4822, "konom": 4823, "Kal": 4824, "lamaĠveĠ": 4825, "Ã¶nÃ¼neĠ": 4826, "ĠkiÅŁininĠ": 4827, "ĠDÃ¼nyaĠ": 4828, "bÃ¶lÃ¼mdeĠ": 4829, "Ã§alÄ±ÅŁmalarÄ±Ġ": 4830, "baÅŁlar": 4831, "gayr": 4832, "lerinin": 4833, "MS": 4834, "Ġproj": 4835, "Ã¶nemĠ": 4836, "ayÄ±s": 4837, "fen": 4838, "rÃ¼b": 4839, "oluÅŁum": 4840, "giliĠ": 4841, "ortadanĠkaldÄ±r": 4842, "utbol": 4843, "ĠdeÄŁildir": 4844, "Ġhedef": 4845, "ikay": 4846, "imer": 4847, "kanÄ±t": 4848, "Ä±ÅŁÄ±Ġ": 4849, "Ġpay": 4850, "herĠikiĠ": 4851, "iĠM": 4852, "ĠPar": 4853, "Â°": 4854, "lev": 4855, "Ãĸr": 4856, "lenir": 4857, "ĠparaĠ": 4858, "Ġmez": 4859, "geldi": 4860, "ĠÄ°slam": 4861, "aslÄ±ndaĠ": 4862, "ĠÃĩocuk": 4863, "amikĠ": 4864, "tih": 4865, "felsef": 4866, "inlikleĠ": 4867, "fr": 4868, "ĠetmiÅŁtir": 4869, "ĠonuĠ": 4870, "yacakĠ": 4871, "ekĠveĠ": 4872, "olmasÄ±naĠ": 4873, "á¸": 4874, "iddiaĠ": 4875, "ĠkullanÄ±m": 4876, "ity": 4877, "ĠBÃ¼tÃ¼nĠ": 4878, "ĠgerÃ§ekleÅŁtir": 4879, "iĠdeĠ": 4880, "alĠolarakĠ": 4881, "azir": 4882, "lÄ±caĠ": 4883, "konusuĠ": 4884, "canlÄ±Ġ": 4885, "meslekiĠ": 4886, "ĠTe": 4887, "Ġpol": 4888, "stres": 4889, "larÄ±nÄ±ĠveĠ": 4890, "tef": 4891, "yoluĠ": 4892, "ĠKiÅŁ": 4893, "kullanÄ±lÄ±r": 4894, "eÄŁininĠ": 4895, "doldur": 4896, "bireyinĠ": 4897, "ita": 4898, "ĠdakikaĠ": 4899, "cihaz": 4900, "lilik": 4901, "Ġbar": 4902, "ĠyalnÄ±z": 4903, "ĠyardÄ±m": 4904, "SavaÅŁ": 4905, "kardeÅŁ": 4906, "bilinÃ§": 4907, "Ġre": 4908, "Ä±cakĠ": 4909, "hayvan": 4910, "etti": 4911, "ebev": 4912, "Ġortam": 4913, "iÃ§indekiĠ": 4914, "rÃ¼": 4915, "Ä±ntÄ±lÄ±Ġ": 4916, "eÄŁerĠ": 4917, "Ã¼Ã§Ã¼ncÃ¼": 4918, "ekler": 4919, "birliÄŁiĠ": 4920, "Ã¼retic": 4921, "sizeĠ": 4922, "sebebiyleĠ": 4923, "kod": 4924, "yaÅŁadÄ±ÄŁÄ±Ġ": 4925, "Ä±lmasÄ±naĠ": 4926, "dÃ¼m": 4927, "hastalarÄ±nĠ": 4928, "birdenĠ": 4929, "ayn": 4930, "ifadeĠetmektedir": 4931, "yavaÅŁ": 4932, "aksiyon": 4933, "gres": 4934, "ĠÄ°ÅŁteĠ": 4935, "birĠarayaĠ": 4936, "mekaniz": 4937, "Ä±ÅŁÄ±k": 4938, "lÄ±ktaĠ": 4939, "AD": 4940, "etkisininĠ": 4941, "Ġ<": 4942, "iletiÅŁimĠ": 4943, "ĠTur": 4944, "ÃĸlÃ§": 4945, "okun": 4946, "hib": 4947, "fesyon": 4948, "esnasÄ±ndaĠ": 4949, "amakĠ": 4950, "materyal": 4951, "Ã§oÄŁunluk": 4952, "altĠboyut": 4953, "Ã¶lÃ§ek": 4954, "araz": 4955, "devletinĠ": 4956, "prote": 4957, ")'": 4958, "varlÄ±ÄŁÄ±Ġ": 4959, "beyaz": 4960, "kel": 4961, "ĠDevlet": 4962, "ĠbileÅŁ": 4963, "lineĠ": 4964, "kinĠ": 4965, "gÃ¼venlikĠ": 4966, "Ġorta": 4967, "Es": 4968, "yardÄ±mĠ": 4969, "rahatsÄ±z": 4970, "ĠAraÅŁtÄ±rmanÄ±nĠ": 4971, "ĠdÃ¼ÅŁÃ¼nc": 4972, "ografikĠ": 4973, "zu": 4974, "das": 4975, "Ã¼lkemiz": 4976, "key": 4977, "ekip": 4978, "deÄŁiÅŁiklikĠ": 4979, "Ġtoplam": 4980, "kims": 4981, "Bur": 4982, "kÃ¼t": 4983, "Ġoyun": 4984, "Ã¼ĠileĠ": 4985, "enk": 4986, "lant": 4987, "osit": 4988, "taleb": 4989, "ĠÃĸnc": 4990, "Ġfir": 4991, "ĠÎ": 4992, "doÄŁrultusundaĠ": 4993, "analiziĠ": 4994, "Sur": 4995, "dolayÄ±s": 4996, "gÃ¶zĠÃ¶nÃ¼ndeĠ": 4997, "endÃ¼str": 4998, "verg": 4999, "Ã¶ncedenĠ": 5000, "AP": 5001, "lanabil": 5002, "kurtar": 5003, "ĠbaÄŁÄ±m": 5004, "izel": 5005, "diÄŁi": 5006, "mÄ±zÄ±Ġ": 5007, "edilir": 5008, "asin": 5009, "dahaĠÃ¶nceĠ": 5010, "lenmektedir": 5011, "Ã¶nemiĠ": 5012, "ziya": 5013, "lendirmeĠ": 5014, "pozisyon": 5015, "olmadÄ±ÄŁ": 5016, "noktadaĠ": 5017, "ebiliriz": 5018, "giderekĠ": 5019, "diniĠ": 5020, "In": 5021, "log": 5022, "ĠBunuĠ": 5023, "ĠBakan": 5024, "silah": 5025, "baÅŁlat": 5026, "ĠbaÅŁar": 5027, "ĠsuĠ": 5028, "liÄŁindeĠ": 5029, "manÄ±Ġ": 5030, "Ġuygulama": 5031, "ĠBul": 5032, "San": 5033, "almÄ±ÅŁtÄ±r": 5034, "mos": 5035, "ĠBuĠsebep": 5036, "kans": 5037, "Ġhip": 5038, "Ġmut": 5039, "ĠAd": 5040, "ÅŁÃ¼p": 5041, "bilinmektedir": 5042, "ilah": 5043, "mahal": 5044, "ĠOkul": 5045, "ĠYaz": 5046, "mit": 5047, "ĠtanÄ±m": 5048, "evres": 5049, "usudur": 5050, "ayrÄ±l": 5051, "aĠer": 5052, "enĠbuĠ": 5053, "rinĠ": 5054, "ĠMad": 5055, "ortayaĠkon": 5056, "erans": 5057, "larÄ±dÄ±r": 5058, ");": 5059, "rop": 5060, "Ġsab": 5061, "ĠolduklarÄ±Ġ": 5062, "val": 5063, "ayataĠ": 5064, "ion": 5065, "karÅŁÄ±lÄ±k": 5066, "motor": 5067, "ĠBÃ¶yl": 5068, "cÃ¼": 5069, "kriter": 5070, "OS": 5071, "zemeĠ": 5072, "les": 5073, "lÄ±ÄŁÄ±ndaĠ": 5074, "lanarakĠ": 5075, "ĠBah": 5076, "varlÄ±k": 5077, "ĠbunuĠ": 5078, "bÃ»": 5079, "derin": 5080, "ke": 5081, "ekÃ¢": 5082, "Ġmilyar": 5083, "Ġsorum": 5084, "imleriĠ": 5085, "Ã©": 5086, "ĠKurum": 5087, "karmaÅŁ": 5088, "yeriĠ": 5089, "ach": 5090, "not": 5091, "Der": 5092, "ĠYÃ¼ksekĠ": 5093, "kÃ¼ltÃ¼relĠ": 5094, "etrol": 5095, "baÅŁlayanĠ": 5096, "Ġdikkat": 5097, "sÃ¶yledi": 5098, "elem": 5099, "etmiÅŁtir": 5100, "ĠBunaĠgÃ¶reĠ": 5101, "iÅŁleriĠ": 5102, "Ùİ": 5103, "://": 5104, "lerceĠ": 5105, "makla": 5106, "ĠKom": 5107, "gereksin": 5108, "ukukiĠ": 5109, "Ã§okĠdahaĠ": 5110, "ĠMet": 5111, "ÅŁun": 5112, "Ä°Ã§": 5113, "henÃ¼z": 5114, "manya": 5115, "ĠonĠ": 5116, "toplumunĠ": 5117, "leĠilgiliĠ": 5118, "herĠbirĠ": 5119, "Ġhesap": 5120, "sonuÃ§larĠ": 5121, "ĠgÃ¶rÃ¼ÅŁ": 5122, "ĠBunlar": 5123, "arÄ±m": 5124, "Ġifa": 5125, "ĠhalindeĠ": 5126, "ekkÃ¼r": 5127, "ebileceÄŁiĠ": 5128, "ĠveĠB": 5129, "tanÄ±t": 5130, "kÄ±y": 5131, "takÄ±mĠ": 5132, "mahkem": 5133, "layarakĠ": 5134, "ĠTer": 5135, "olekÃ¼l": 5136, "ĠAlt": 5137, "ĠÄ°bnĠ": 5138, "olgu": 5139, "kanun": 5140, "gÃ¼r": 5141, "vas": 5142, "Ä±rĠveĠ": 5143, "Ã¶mÃ¼r": 5144, "isiĠveĠ": 5145, "yÃ¼kÃ¼m": 5146, "ĠdeÄŁeriĠ": 5147, "anlÄ±kĠ": 5148, "bizeĠ": 5149, "taÅŁÄ±yanĠ": 5150, "yolaĠ": 5151, "ich": 5152, "ĠAnkara": 5153, "aÅŁaĠ": 5154, "liĠolarakĠ": 5155, "ĠgenellikleĠ": 5156, "ĠsaÄŁlÄ±kĠ": 5157, "mekĠist": 5158, "larĠtarafÄ±ndanĠ": 5159, "ĠâĢĵ": 5160, "\".": 5161, "sermayeĠ": 5162, "ĠAvrupaĠ": 5163, "ĠyoÄŁ": 5164, "saÄŁlÄ±klÄ±Ġ": 5165, "atÃ¶r": 5166, "tasarruf": 5167, "edilmesiĠ": 5168, "Ġfiyat": 5169, "masÄ±nÄ±ĠsaÄŁla": 5170, "olmaz": 5171, "ĠMart": 5172, "genĠ": 5173, "diktenĠsonraĠ": 5174, "dedil": 5175, "teÅŁvikĠ": 5176, "tarihiĠ": 5177, "itibariyleĠ": 5178, "santrasyon": 5179, "vel": 5180, "ĠedilmesiĠ": 5181, "sinĠ": 5182, "ĠÃ¶lÃ§": 5183, "memnun": 5184, "mÃ¼n": 5185, ".-": 5186, "Ġkit": 5187, "imkÃ¢n": 5188, "kadÄ±nÄ±nĠ": 5189, "yerel": 5190, "belirliĠbirĠ": 5191, "Ã¼retilenĠ": 5192, "kÃ¼l": 5193, "ĠYukar": 5194, "Ġtarz": 5195, "Ġmal": 5196, "Ä±mÄ±zaĠ": 5197, "sizinĠ": 5198, "kiÅŁilerĠ": 5199, "oksit": 5200, "kÃ¢": 5201, "mur": 5202, "inizeĠ": 5203, "genelĠolarakĠ": 5204, "almÄ±ÅŁ": 5205, "daĠdaĠ": 5206, "ĠÃ¼y": 5207, "etik": 5208, "yahat": 5209, "iÅŁlemiĠ": 5210, "Ã¼rt": 5211, "ĠKam": 5212, "Ã¶ncelikleĠ": 5213, "Ser": 5214, "tamĠolarakĠ": 5215, "ĠDolayÄ±sÄ±ylaĠ": 5216, "osyo": 5217, "Ã¼ny": 5218, "tutul": 5219, "mÃ¼cadel": 5220, "ikĠolarakĠ": 5221, "alandÄ±r": 5222, "turizm": 5223, "erken": 5224, "Ġim": 5225, "onlaraĠ": 5226, "cevapĠver": 5227, "tin": 5228, "likleriĠ": 5229, "oranÄ±": 5230, "halkĠ": 5231, "Ġmer": 5232, "dost": 5233, "Ä±ĠdaĠ": 5234, "kuram": 5235, "ĠkatÄ±lÄ±m": 5236, "ĠekonomikĠ": 5237, "irler": 5238, "ĠPeygamber": 5239, "gelecekĠ": 5240, "ry": 5241, "gerÃ§ekleÅŁtirilenĠ": 5242, "sorgu": 5243, "gÃ¼Ã§lÃ¼": 5244, "yerindeĠ": 5245, "ĠÃ¼rÃ¼n": 5246, "belirlenenĠ": 5247, "yapÄ±ldÄ±ÄŁÄ±Ġ": 5248, "ĠFark": 5249, "sonĠdereceĠ": 5250, "malarÄ±nÄ±Ġ": 5251, "tehdit": 5252, "ĠKi": 5253, "ultanĠ": 5254, "ozit": 5255, "ĠmÃ¼z": 5256, "aÄŁaÃ§": 5257, "hattaĠ": 5258, "iniĠveĠ": 5259, "ĠMar": 5260, "ĠsÄ±cak": 5261, "ĠveĠK": 5262, "ĠKÄ±r": 5263, "edebiyat": 5264, "ĠBuĠyÃ¼zdenĠ": 5265, "mevcuttur": 5266, "udanĠ": 5267, "sayg": 5268, "eldeĠedilmiÅŁtir": 5269, "Ġspor": 5270, "AM": 5271, "belirtilenĠ": 5272, "seĠdeĠ": 5273, "ĠBununlaĠbirlikteĠ": 5274, "istihdam": 5275, "kurulanĠ": 5276, "iÅŁletmeĠ": 5277, "bozuk": 5278, "Ol": 5279, "):": 5280, "Ä±ldÄ±ÄŁÄ±nda": 5281, "SaÄŁ": 5282, "koÅŁ": 5283, "ĠyerineĠ": 5284, "yaygÄ±n": 5285, "luluÄŁuĠ": 5286, "yeten": 5287, "sad": 5288, "eleriĠveĠ": 5289, "Ġpart": 5290, "olduÄŁunaĠ": 5291, "hastalardaĠ": 5292, "ml": 5293, "Ä±larÄ±": 5294, "aba": 5295, "iat": 5296, "vazgeÃ§": 5297, "iyorlar": 5298, "ĠsahibiĠ": 5299, "tere": 5300, "III": 5301, "ilerĠveĠ": 5302, "ĠsayÄ±sÄ±Ġ": 5303, "iÅŁinĠ": 5304, "eĠgir": 5305, "yapmakĠ": 5306, "Ã¶den": 5307, "gÃ¶sterdiÄŁiĠ": 5308, "Ġhep": 5309, "Ã¼ley": 5310, "oluÅŁturul": 5311, "Bul": 5312, "alabil": 5313, "Ġolay": 5314, "aket": 5315, "Ġperforman": 5316, "gin": 5317, "isp": 5318, "encer": 5319, "tesis": 5320, "dÃ¶k": 5321, "liy": 5322, "terĠ": 5323, "kÃ¶tÃ¼": 5324, "vide": 5325, "abÄ±Ġ": 5326, "ayetĠ": 5327, "Ġbes": 5328, "ihracat": 5329, "Ä±nĠbirĠ": 5330, "kendisiĠ": 5331, "Ġnit": 5332, "aÃ§Ä±kÃ§aĠ": 5333, "ĠyineĠ": 5334, "ĠToplum": 5335, "ĠaÅŁ": 5336, "Ä°L": 5337, "BaÅŁkan": 5338, "birbirindenĠ": 5339, "ĠYer": 5340, "ilmeĠ": 5341, "demokras": 5342, "ĠAynÄ±ĠzamandaĠ": 5343, "Ä°m": 5344, "personel": 5345, "Ġolarak": 5346, "emek": 5347, "kolaylaÅŁtÄ±r": 5348, "undadÄ±r": 5349, "Ġes": 5350, "Ġdiz": 5351, "bÃ¶yleĠbirĠ": 5352, "Meh": 5353, "CO": 5354, "araÅŁtÄ±rmanÄ±nĠ": 5355, "sÄ±v": 5356, "Ġtemel": 5357, "baÅŁarÄ±Ġ": 5358, "desteklen": 5359, "ĠBuĠbaÄŁlamdaĠ": 5360, "kaf": 5361, "yasak": 5362, "seniz": 5363, "Ġuygula": 5364, "Ã¼cÃ¼": 5365, "eĠgeÃ§": 5366, "yÃ¶ndeĠ": 5367, "baÄŁlant": 5368, "hadis": 5369, "ĠBirey": 5370, "lÄ±ÄŁÄ±ĠveĠ": 5371, "istik": 5372, "ĠdiÄŁer": 5373, "unlaÅŁ": 5374, "etmek": 5375, "lemektedir": 5376, "ĠBas": 5377, "yeriniĠ": 5378, "anti": 5379, "tatÃ¼r": 5380, "Ä±lÄ±yor": 5381, "Ã¼lkeninĠ": 5382, "olarakĠdaĠ": 5383, "Ġbe": 5384, "Ġer": 5385, "hend": 5386, "sÃ¼reciĠ": 5387, "Ġac": 5388, "ĠsistemiĠ": 5389, "bed": 5390, "arkas": 5391, "binĠ": 5392, "ĠdeÄŁerleriĠ": 5393, "ĠFrans": 5394, "ilgilen": 5395, "oluyor": 5396, "ĠEÅŁ": 5397, "haberĠ": 5398, "hÃ¼creĠ": 5399, "Ã®r": 5400, "Ġmekan": 5401, "vad": 5402, "aliĠ": 5403, "Ġolun": 5404, "birininĠ": 5405, "faaliyetĠ": 5406, "olduÄŁuĠgÃ¶rÃ¼lmektedir": 5407, "makam": 5408, "iklerinĠ": 5409, "lÄ±ĠbirĠÅŁekildeĠ": 5410, "alacak": 5411, "Ã»r": 5412, "bilinenĠ": 5413, "gÃ¼zelĠ": 5414, "ticariĠ": 5415, "Ã¶p": 5416, "lÃ¼ÄŁÃ¼Ġ": 5417, "ĠiÅŁletm": 5418, "Ġj": 5419, "gÃ¶rÃ¼ntÃ¼": 5420, "ĠGÃ¼nÃ¼mÃ¼zdeĠ": 5421, "Ã¢s": 5422, "ÅŁans": 5423, "Ġmaddes": 5424, "ĠÃľst": 5425, "teklif": 5426, "araÅŁtÄ±rmadaĠ": 5427, "Ġfaz": 5428, "ilmesineĠ": 5429, "abilecekĠ": 5430, "elektrikĠ": 5431, "beniĠ": 5432, "ĠYak": 5433, "yazÄ±lÄ±Ġ": 5434, "sistemiĠ": 5435, "layÄ±p": 5436, "kendileriniĠ": 5437, "ĠdÄ±ÅŁÄ±ndaĠ": 5438, "ayrÄ±m": 5439, "katsay": 5440, "ros": 5441, "Ġsu": 5442, "ĠsÃ¶zĠkonusuĠ": 5443, "ziyaret": 5444, "zincir": 5445, "ĠolmasÄ±": 5446, "Ä±nÄ±zÄ±Ġ": 5447, "gi": 5448, "okuy": 5449, "con": 5450, "iner": 5451, "kum": 5452, "Tarih": 5453, "car": 5454, "hazÄ±rlananĠ": 5455, "ĠMer": 5456, "Ġkay": 5457, "ĠMayÄ±s": 5458, "ĠUygu": 5459, "larakĠ": 5460, "Ġfiz": 5461, "ĠGrup": 5462, "Ġkaynak": 5463, "ĠTekn": 5464, "Ġtak": 5465, "Ġ;": 5466, "farklÄ±ĠbirĠ": 5467, "madÄ±k": 5468, "mekleĠ": 5469, "dahaĠsonraĠ": 5470, "Ġres": 5471, "ulaÅŁtÄ±r": 5472, "ĠgeliÅŁim": 5473, "dÄ±lar": 5474, "Ã¶ÄŁret": 5475, "ĠIn": 5476, "algorit": 5477, "Ankar": 5478, "beraberĠ": 5479, "tiÄŁiniĠ": 5480, "tekĠbirĠ": 5481, "ĠEylÃ¼l": 5482, "lerinde": 5483, "isidir": 5484, "alÄ±nmasÄ±Ġ": 5485, "Ã¶dem": 5486, "ĠBuĠdaĠ": 5487, "out": 5488, "fiil": 5489, "geldiÄŁiĠ": 5490, "ĠÅŁirket": 5491, "Ä±ÅŁÄ±ÄŁ": 5492, "mÃ¼cadeleĠ": 5493, "Ġgit": 5494, "ecekleriĠ": 5495, "Ġail": 5496, "deĠdeĠ": 5497, "sÃ¶zc": 5498, "oluÅŁturur": 5499, "ĠbenĠ": 5500, "doktor": 5501, "ĠgeniÅŁ": 5502, "Ä±ndadÄ±r": 5503, "mektenĠ": 5504, "hanĠ": 5505, "Ã¼lt": 5506, "zersiz": 5507, "rekabet": 5508, "haleĠgetir": 5509, "yÄ±llÄ±kĠ": 5510, "ĠHak": 5511, "ĠÃ§Ã¼nkÃ¼": 5512, "Ver": 5513, "leyerekĠ": 5514, "sininĠ": 5515, "larÄ±nĠveĠ": 5516, "kendilerineĠ": 5517, "makin": 5518, "kullanÄ±cÄ±": 5519, "ĠyÄ±llÄ±kĠ": 5520, "rut": 5521, "los": 5522, "kuĠ": 5523, "Ġen": 5524, "Ġthat": 5525, "defaĠ": 5526, "ĠboÅŁ": 5527, "ĠÃ¼Ã§": 5528, "oluÅŁur": 5529, "medi": 5530, "ĠRes": 5531, "elasyonĠ": 5532, "esiz": 5533, "haĠ": 5534, "gÃ¶zĠÃ¶nÃ¼ndeĠbulundur": 5535, "ĠtaÅŁ": 5536, "yÄ±": 5537, "dij": 5538, "Mar": 5539, "anneĠ": 5540, "usunaĠ": 5541, "sizlik": 5542, "ĠkuÅŁ": 5543, "gur": 5544, "memesiĠ": 5545, "iÅŁlerdir": 5546, "senĠ": 5547, "Ġhukuk": 5548, "Ã§alÄ±ÅŁmayaĠ": 5549, "ĠOnunĠ": 5550, "SA": 5551, "Ġda": 5552, "ĠarkadaÅŁ": 5553, "Ġpazar": 5554, "kullanÄ±lmasÄ±Ġ": 5555, "ĠdÃ¶nemindeĠ": 5556, "Ã¶demeĠ": 5557, "Ġta": 5558, "Ġdest": 5559, "Ġot": 5560, "mobil": 5561, "danÄ±ÅŁ": 5562, "aiĠ": 5563, "Ø§": 5564, "elerĠveĠ": 5565, "almaktadÄ±r": 5566, "dadÄ±r": 5567, "sakĠ": 5568, "tarÄ±m": 5569, "konut": 5570, "arÄ±": 5571, "muÅŁlardÄ±r": 5572, "ĠhattaĠ": 5573, "soy": 5574, "alÄ±ÅŁveriÅŁ": 5575, "Ġsiz": 5576, "Ġx": 5577, "ĠgeÃ§ir": 5578, "bÃ¼r": 5579, "usalĠ": 5580, "taÅŁÄ±maktadÄ±r": 5581, "birĠsÃ¼reĠ": 5582, "Ä°T": 5583, "yleĠ": 5584, "kavr": 5585, "sÃ¼reÃ§teĠ": 5586, "bozul": 5587, "Ġso": 5588, "ĠsÄ±rasÄ±ndaĠ": 5589, "ettikleriĠ": 5590, "Res": 5591, "gÃ¼Ã§lendir": 5592, "sez": 5593, "TÃ¼rkÃ§eĠ": 5594, "hafaz": 5595, "ĠDÃ¼ÅŁ": 5596, "sÄ±radaĠ": 5597, "ĠkÄ±sm": 5598, "Ã¶zet": 5599, "vÃ¼cut": 5600, "ĠTheĠ": 5601, "alÄ±ÅŁkan": 5602, "ĠdÄ±ÅŁÄ±Ġ": 5603, "lav": 5604, "ĠMa": 5605, "raz": 5606, "ÅŁim": 5607, "toz": 5608, "acaĠ": 5609, "evren": 5610, "ĠkÄ±": 5611, "laraĠkarÅŁÄ±Ġ": 5612, "uyumluĠ": 5613, "yapÄ±lmaktadÄ±r": 5614, "eksiyonĠ": 5615, "hastan": 5616, "ĠBuĠneden": 5617, "Ã¼zerindeĠdur": 5618, "enlerĠ": 5619, "karÅŁÄ±sÄ±ndaĠ": 5620, "Avrupa": 5621, "ĠberaberĠ": 5622, "dÃ¼zelt": 5623, "olanakĠ": 5624, "parÃ§asÄ±Ġ": 5625, "dÃ¼nyanÄ±nĠ": 5626, "lamÄ±ÅŁ": 5627, "dÃ¢hil": 5628, "Ã§okĠsayÄ±daĠ": 5629, "sorumluĠ": 5630, "Ġrek": 5631, "inf": 5632, "ĠDeÄŁ": 5633, "ĠAncakĠbuĠ": 5634, "olduÄŁuĠiÃ§inĠ": 5635, "BaÄŁ": 5636, "ĠAnad": 5637, "cÄ±nÄ±nĠ": 5638, "larÄ±na": 5639, "Ġstratej": 5640, "ĠsayesindeĠ": 5641, "faiz": 5642, "otikĠ": 5643, "Ã¼niversiteĠ": 5644, "ĠÃ¶ÄŁretmen": 5645, "Ġtr": 5646, "Ġuy": 5647, "verilerinĠ": 5648, "bula": 5649, "sergil": 5650, "ilaveĠ": 5651, "fazlas": 5652, "deng": 5653, "DeÄŁer": 5654, "oluÅŁturulanĠ": 5655, "terap": 5656, "sÃ¶yler": 5657, "send": 5658, "eceÄŁiniz": 5659, "Kor": 5660, "ÅŁuĠÅŁekildeĠ": 5661, "ĠkÃ¼Ã§Ã¼kĠ": 5662, "MÃ¼dÃ¼r": 5663, "olanĠveĠ": 5664, "gÃ¼neĠ": 5665, "baÅŁlangÄ±Ã§": 5666, "imĠiÃ§inĠ": 5667, "yatÄ±rÄ±mĠ": 5668, "hum": 5669, "mÃ¼ÅŁteriĠ": 5670, "doÄŁalĠ": 5671, "ilerlem": 5672, "eÄŁineĠ": 5673, "pir": 5674, "atanĠ": 5675, "unun": 5676, "Ã§iÃ§": 5677, "ekti": 5678, "atÄ±": 5679, "ĠÃ§Ä±k": 5680, "saÄŁlanmasÄ±Ġ": 5681, "numun": 5682, "ĠEfend": 5683, "uÄŁraÅŁ": 5684, "dalÄ±Ġ": 5685, "oluÅŁturduÄŁuĠ": 5686, "imĠveĠ": 5687, "isiz": 5688, "ĠyatÄ±r": 5689, "adalet": 5690, "ĠÃĩalÄ±ÅŁmamÄ±z": 5691, "Ġdo": 5692, "ahÅŁ": 5693, "organikĠ": 5694, "hÃ¢kim": 5695, "ĠyÃ¶ndeĠ": 5696, "Ġdolar": 5697, "ĠSÃ¶zĠkonusuĠ": 5698, "liÄŁiĠveĠ": 5699, "olmas": 5700, "Amerika": 5701, "Ä±cÄ±lar": 5702, "ĠdÃ¶nÃ¼ÅŁ": 5703, "ĠEm": 5704, "Ġneden": 5705, "vi": 5706, "selĠolarakĠ": 5707, "TK": 5708, "ĠMerkez": 5709, "olikĠ": 5710, "kak": 5711, "sÃ¼redeĠ": 5712, "zengin": 5713, "Par": 5714, "sup": 5715, "vekil": 5716, "vermektedir": 5717, "Per": 5718, "ifadeĠeder": 5719, "hÃ¼kÃ¼met": 5720, "ĠGÃ¶z": 5721, "abetĠ": 5722, "sÄ±nÄ±rlÄ±Ġ": 5723, "Ã¶ncesiĠ": 5724, "bÃ¼yÃ¼meĠ": 5725, "odernĠ": 5726, "ED": 5727, "iktidar": 5728, "olduÄŁundanĠ": 5729, "ĠÅŀekilĠ": 5730, "adiĠ": 5731, "olanak": 5732, "kÄ±ÅŁ": 5733, "ĠEldeĠ": 5734, "ĠÃĸrgÃ¼t": 5735, "imler": 5736, "ĠÅŁart": 5737, "piyasa": 5738, "Ã¼lenĠ": 5739, "algÄ±la": 5740, "aÃ§Ä±l": 5741, "ĠÅŀimdiĠ": 5742, "ortayaĠÃ§Ä±kmÄ±ÅŁtÄ±r": 5743, "biridir": 5744, "old": 5745, "Ġart": 5746, "gÃ¼neÅŁ": 5747, "ĠBuĠdurumdaĠ": 5748, "baÅŁka": 5749, "puanĠ": 5750, "sÄ±ÄŁ": 5751, "ikÃ¼l": 5752, "baÅŁtaĠ": 5753, "makal": 5754, "Ġbelirt": 5755, "acÄ±": 5756, "doz": 5757, "kullanÄ±ldÄ±ÄŁÄ±Ġ": 5758, "edilmektedir": 5759, "Ã¶rdÃ¼n": 5760, "ven": 5761, "kabil": 5762, "ĠBaÅŁkaĠ": 5763, "ĠhalineĠ": 5764, "ĠHav": 5765, "krediĠ": 5766, "ĠSistem": 5767, "miniĠ": 5768, "vd": 5769, "ĠkullanÄ±larakĠ": 5770, "Kom": 5771, "ĠBuĠÃ§alÄ±ÅŁmadaĠ": 5772, "alanlardaĠ": 5773, "Ġgazet": 5774, "kÃ¼Ã§": 5775, "IR": 5776, "Ġpsik": 5777, "ĠMak": 5778, "disip": 5779, "Ġfaaliyet": 5780, "gÃ¼ncel": 5781, "geliÅŁmiÅŁ": 5782, "ĠMan": 5783, "liyor": 5784, "kriz": 5785, "izelgeĠ": 5786, "geliyor": 5787, "neredeyseĠ": 5788, "toprakĠ": 5789, "ĠkÃ¶y": 5790, "Ã¼phan": 5791, "ĠMeh": 5792, "Ġmetr": 5793, "ĠtoĠ": 5794, "katÄ±lÄ±mcÄ±larÄ±nĠ": 5795, "dez": 5796, "kalÄ±n": 5797, "ĠÂ±": 5798, "Ġders": 5799, "baÄŁlÄ±dÄ±r": 5800, "yargÄ±": 5801, "bez": 5802, "Ã¶zellikleriniĠ": 5803, "okumaĠ": 5804, "ĠMod": 5805, "doÄŁum": 5806, "siyetĠ": 5807, "Kad": 5808, "kÄ±nmaĠ": 5809, "cÄ±lÄ±ÄŁ": 5810, "imdeĠ": 5811, "sÃ¼resiĠ": 5812, "und": 5813, "incelendiÄŁinde": 5814, "malarÄ±naĠ": 5815, "rej": 5816, "dÄ±ndanĠ": 5817, "Ã¼lasyon": 5818, "ulusal": 5819, "ĠburadaĠ": 5820, "ortamdaĠ": 5821, "Orta": 5822, "imat": 5823, "lisiĠ": 5824, "dayanÄ±k": 5825, "betĠ": 5826, "Ä±larÄ±nÄ±nĠ": 5827, "mekÃ¢n": 5828, "ukluĠ": 5829, "selĠbirĠ": 5830, "deÄŁiÅŁkenĠ": 5831, "karÄ±ÅŁtÄ±r": 5832, "ii": 5833, "ĠSadeceĠ": 5834, "ferĠ": 5835, "Merkez": 5836, "istek": 5837, "ĠgrubundaĠ": 5838, "ĠÃľniversit": 5839, "ĠaralÄ±ÄŁ": 5840, "areĠ": 5841, "anlaÅŁÄ±lmaktadÄ±r": 5842, "go": 5843, "ĠÃ¶zel": 5844, "Ġha": 5845, "ĠKr": 5846, "Ã¼lerĠ": 5847, "Ulus": 5848, "ĠKaz": 5849, "unc": 5850, "ĠdavranÄ±ÅŁ": 5851, "gÃ¶revĠyap": 5852, "ĠÄ°st": 5853, "SÃ¶z": 5854, "siyeĠ": 5855, "ĠfaktÃ¶r": 5856, "davaĠ": 5857, "Ã¶nÃ¼ndeĠ": 5858, "idiĠ": 5859, "Ã§alÄ±ÅŁmalarÄ±nĠ": 5860, "ĠNitekim": 5861, "mÄ±": 5862, "akademikĠ": 5863, "ĠÃ§alÄ±ÅŁmaĠ": 5864, "ĠolmaktadÄ±r": 5865, "Ġderec": 5866, "ĠÃ¶ÄŁrencilerinĠ": 5867, "Ã¼stÃ¼": 5868, "yÃ¶nÃ¼ndeĠ": 5869, "etmiÅŁ": 5870, "hassas": 5871, "deÄŁiÅŁenĠ": 5872, "iÄŁini": 5873, "dunĠ": 5874, "duygusal": 5875, "ayaÄŁ": 5876, "ici": 5877, "ÅŁair": 5878, "Ġfilm": 5879, "Ġmev": 5880, "lig": 5881, "ekĠolarakĠ": 5882, "Ġse": 5883, "haftaĠ": 5884, "amaÃ§lÄ±Ġ": 5885, "lerdi": 5886, "Ä±zaĠ": 5887, "gelmiÅŁ": 5888, "olduklarÄ±Ġ": 5889, "esiĠolarakĠ": 5890, "sub": 5891, "Kemal": 5892, "belliĠbirĠ": 5893, "kahr": 5894, "huzur": 5895, "fat": 5896, "Ã¶dÃ¼l": 5897, "terÃ¶r": 5898, "olmalÄ±dÄ±r": 5899, "ĠarasÄ±ndakiĠ": 5900, "fiziksel": 5901, "elindeĠ": 5902, "lardanĠbiriĠ": 5903, "liyet": 5904, "tÄ±kÃ§aĠ": 5905, "bi": 5906, "lerĠtarafÄ±ndanĠ": 5907, "biliÅŁ": 5908, "kaÄŁ": 5909, "yaparakĠ": 5910, "sis": 5911, "hendis": 5912, "bÄ±r": 5913, "fe": 5914, "kÃ¶tÃ¼Ġ": 5915, "ilt": 5916, "unaĠgÃ¶reĠ": 5917, "ĠSor": 5918, "vermiÅŁtir": 5919, "ternetĠ": 5920, "stit": 5921, "Ä±sÄ±ndanĠ": 5922, "Ġtam": 5923, "elektro": 5924, ".âĢĿ": 5925, "Ġsem": 5926, "kuzey": 5927, "bilgisayar": 5928, "ayram": 5929, "ĠdÃ¼nyas": 5930, "kanal": 5931, "Ġ)": 5932, "Ġkir": 5933, "kÄ±sÄ±m": 5934, "farklÄ±laÅŁ": 5935, "ĠHattaĠ": 5936, "doÄŁanĠ": 5937, "kaynaklananĠ": 5938, "Ã¼kle": 5939, "yakÄ±t": 5940, "gÃ¶rÃ¼nÃ¼m": 5941, "ilmesiĠveĠ": 5942, "kullanÄ±labil": 5943, "gerekÃ§": 5944, "Ä±ĠK": 5945, "Ã¶viz": 5946, "leridir": 5947, "ince": 5948, "aitĠ": 5949, "www": 5950, "ĠDÄ±ÅŁ": 5951, "barÄ±ndÄ±r": 5952, "ĠÄ°nsanĠ": 5953, "yetenek": 5954, "alarĠ": 5955, "Ã¶zelt": 5956, "maddiĠ": 5957, "mekteĠolanĠ": 5958, "yapÄ±labil": 5959, "ĠNis": 5960, "geliÅŁmeler": 5961, "zamanlardaĠ": 5962, "dekĠ": 5963, "Ġyorum": 5964, "diya": 5965, "prem": 5966, "hom": 5967, "Ä±lmasÄ±ĠveĠ": 5968, "ustos": 5969, "maktaydÄ±": 5970, "kiÅŁisel": 5971, "ĠMec": 5972, "ĠDeÄŁer": 5973, "ordin": 5974, "saÄŁlamaktadÄ±r": 5975, "ĠKim": 5976, "bugÃ¼nĠ": 5977, "cen": 5978, "kararÄ±Ġ": 5979, "yabilir": 5980, "tabil": 5981, "ilebil": 5982, "ĠolarakĠtanÄ±m": 5983, "Ä±rken": 5984, "taraftanĠ": 5985, "verilir": 5986, "ĠalÄ±n": 5987, "melerinĠ": 5988, "ong": 5989, "igÃ¼r": 5990, "sÄ±zÄ±nĠ": 5991, "Ġgrubun": 5992, "ĠadetĠ": 5993, "birisiĠ": 5994, "ĠGÃ¼ven": 5995, "ilmelidir": 5996, "kÃ¶k": 5997, "inlerinĠ": 5998, "Ã¼yordu": 5999, "Sosyal": 6000, "imininĠ": 6001, "motiv": 6002, "renkĠ": 6003, "yayÄ±Ġ": 6004, "rÄ±Ġ": 6005, "geceĠ": 6006, "merkeziĠ": 6007, "iliÅŁkileriĠ": 6008, "uygulanmÄ±ÅŁtÄ±r": 6009, "lez": 6010, "olursaĠ": 6011, "ayrÄ±ntÄ±lÄ±Ġ": 6012, "Ad": 6013, "Ã¢d": 6014, "Ġcez": 6015, "ĠAliĠ": 6016, "DA": 6017, "fakat": 6018, "tahr": 6019, "maksim": 6020, "layabil": 6021, "ordu": 6022, "bÃ¶lgedeĠ": 6023, "ĠSonraĠ": 6024, "Ġcih": 6025, "ilmesiniĠ": 6026, "ecekĠbirĠ": 6027, "istatistikselĠolarakĠanlamlÄ±Ġ": 6028, "Mec": 6029, "aban": 6030, "olsunĠ": 6031, "Ä±lacaÄŁÄ±Ġ": 6032, "Ã¶ÄŁrencilerĠ": 6033, "kilat": 6034, "ĠKa": 6035, "etmez": 6036, "eki": 6037, "yacak": 6038, "odaĠ": 6039, "kurtul": 6040, "sÄ±ralan": 6041, "aÅŁamasÄ±ndaĠ": 6042, "duyur": 6043, "ĠTemmuz": 6044, "Ä±ndaĠbirĠ": 6045, "ĠveĠark": 6046, "Tur": 6047, "ahat": 6048, "adÄ±ÄŁÄ±Ġ": 6049, "ĠAnaliz": 6050, "sonaĠer": 6051, "gÃ¶rÃ¼r": 6052, "ĠkarÅŁÄ±laÅŁ": 6053, "ĠbirÃ§okĠ": 6054, "uyur": 6055, "avun": 6056, "verilmesiĠ": 6057, "beden": 6058, "ayakĠ": 6059, "ĠMuhammed": 6060, "ĠÃĸteĠ": 6061, "ilerindeĠ": 6062, "ĠSur": 6063, "beÄŁ": 6064, "istediÄŁiĠ": 6065, "formas": 6066, "kadem": 6067, "ear": 6068, "rev": 6069, "ÅŁeyiĠ": 6070, "matr": 6071, "za": 6072, "bilgileriĠ": 6073, "elerdir": 6074, "dahaĠdÃ¼ÅŁÃ¼kĠ": 6075, "DÃ¼nyaĠ": 6076, "Ma": 6077, "tercihĠedil": 6078, "yÃ¼kselt": 6079, "Ġarz": 6080, "dÃ¼ÅŁÃ¼nceĠ": 6081, "gÃ¶zĠÃ¶nÃ¼neĠ": 6082, "ĠederekĠ": 6083, "Ġtercih": 6084, "AÄŁ": 6085, "ves": 6086, "Ġïĥ": 6087, "enin": 6088, "ibidir": 6089, "Ä±b": 6090, "leÅŁikĠ": 6091, "ĠPart": 6092, "italĠ": 6093, "ĠBÃ¼yÃ¼kĠ": 6094, "paz": 6095, "tepk": 6096, "enĠazĠ": 6097, "Ġteor": 6098, "Ã§at": 6099, "olsun": 6100, "atom": 6101, "haz": 6102, "ĠTek": 6103, "ĠKÄ±z": 6104, "lit": 6105, "denet": 6106, "tarif": 6107, "hap": 6108, "bulundu": 6109, "ileriĠveĠ": 6110, "Ġkg": 6111, "BM": 6112, "deĠveĠ": 6113, "laÄŁ": 6114, "korumaĠ": 6115, "Mes": 6116, "hastalÄ±kĠ": 6117, "kov": 6118, "ĠÃ¶ncesiĠ": 6119, "ĠSaÄŁlÄ±kĠ": 6120, "larÄ±ĠtarafÄ±ndanĠ": 6121, "Ġko": 6122, "ĠkuruluÅŁ": 6123, "lÄ±klar": 6124, "ĠmÄ±": 6125, "ikenĠ": 6126, "ĠBunlarÄ±nĠ": 6127, "Ġolum": 6128, "yiy": 6129, "maruzĠkal": 6130, "Ġkitab": 6131, "kalp": 6132, "Ã§al": 6133, "Den": 6134, "kesinĠ": 6135, "platform": 6136, "leme": 6137, "rum": 6138, "iktis": 6139, "uzunĠsÃ¼r": 6140, "ĠÃ¶nceĠ": 6141, "Ġsig": 6142, "abilmektedir": 6143, "tÄ±lar": 6144, "sermay": 6145, "ĠGir": 6146, "ĠBundanĠ": 6147, "olduÄŁunu": 6148, "UR": 6149, "Ġkez": 6150, "ĠHiÃ§": 6151, "Han": 6152, "Ã§Ã¶k": 6153, "markaĠ": 6154, "macÄ±Ġ": 6155, "Ä±mĠveĠ": 6156, "ĠmeydanaĠ": 6157, "kaybet": 6158, "alardaĠ": 6159, "yÃ¶ntemiĠ": 6160, "birerĠ": 6161, "hazÄ±rlan": 6162, "kavramÄ±Ġ": 6163, "iyileÅŁ": 6164, "ÃĤ": 6165, "iliÅŁkilendir": 6166, "Ġise": 6167, "ĠTabloĠ": 6168, "Ä°M": 6169, "Ġkonusudur": 6170, "olanĠbuĠ": 6171, "ies": 6172, "tablo": 6173, "dÃ¼zeyiĠ": 6174, "ĠbÃ¼yÃ¼k": 6175, "neticesindeĠ": 6176, "anket": 6177, "Ġtespit": 6178, "ĠÃĸzel": 6179, "gÄ±nĠ": 6180, "Ã¼mÃ¼ÅŁ": 6181, "ĠÃľlkem": 6182, "Ãľniversit": 6183, "suy": 6184, "Ġedebil": 6185, "Ġhac": 6186, "kiĠdeĠ": 6187, "yetiÅŁ": 6188, "eceÄŁineĠ": 6189, "til": 6190, "Ġkolay": 6191, "gÃ¶reviĠ": 6192, "ĠMal": 6193, "yapÄ±landÄ±r": 6194, "malarÄ±nÄ±nĠ": 6195, "ĠAv": 6196, "inalĠ": 6197, "ĠkadÄ±n": 6198, "Ä±nÄ±ĠveĠ": 6199, "aziranĠ": 6200, "ĠBar": 6201, "Ä±lmÄ±ÅŁĠveĠ": 6202, "hayataĠ": 6203, "KK": 6204, "ĠGerÃ§": 6205, "EC": 6206, "deyiÅŁ": 6207, "polis": 6208, "ĠolmuÅŁ": 6209, "verdi": 6210, "ĠpuanĠ": 6211, "Ã¼nÃ¼z": 6212, "ulmaktadÄ±r": 6213, "arlar": 6214, "Osman": 6215, "madde": 6216, "insanlar": 6217, "frekans": 6218, "eĠdeĠ": 6219, "katkÄ±daĠ": 6220, "hayal": 6221, "sine": 6222, "Ä±nd": 6223, "gÃ¼ney": 6224, "cerrah": 6225, "organizasyon": 6226, "ĠolmasÄ±naĠ": 6227, "ĠÂµ": 6228, "low": 6229, "Ġtelef": 6230, "ĠEldeĠedilenĠ": 6231, "nÃ¶": 6232, "Ä°slÃ¢m": 6233, "enleriĠ": 6234, "ĠKÃ¼ltÃ¼r": 6235, "malarÄ±": 6236, "ĠdÃ¼nyaĠ": 6237, "ĠbakÄ±mÄ±ndanĠ": 6238, "eciĠ": 6239, "ĠsosyalĠ": 6240, "sÄ±ndaĠ": 6241, "ĠsonucuĠ": 6242, "ularakĠ": 6243, "Ġam": 6244, "olog": 6245, "Ġkural": 6246, "Ġstandart": 6247, "belirtenĠ": 6248, "saÄŁlam": 6249, "gÃ¼cÃ¼": 6250, "ĠtarihliĠ": 6251, "ĠkÃ¼r": 6252, "ĠBit": 6253, "linĠ": 6254, "ĠanaĠ": 6255, "leh": 6256, "Ã¼ĠbirĠ": 6257, "Ġbiy": 6258, "yaÅŁama": 6259, "ayÄ±nlarÄ±": 6260, "devamĠedenĠ": 6261, "ĠalanĠ": 6262, "geÃ§erliĠ": 6263, "dÃ¼nyadaĠ": 6264, "hemÅŁir": 6265, "iyim": 6266, "Ä±ĠbirĠ": 6267, "adiÅŁ": 6268, "sembol": 6269, "kÃ¼m": 6270, "ĠmÃ¼cad": 6271, "nan": 6272, "dikkateĠalÄ±n": 6273, "mÃ¼dahal": 6274, "ĠdeÄŁiÅŁken": 6275, "----": 6276, "Ġbey": 6277, "Ä±sal": 6278, "**": 6279, "netĠ": 6280, "ĠyaĠ": 6281, "Ä°Åŀ": 6282, "mesiĠileĠ": 6283, "zir": 6284, "ĠgÃ¼nlÃ¼kĠ": 6285, "Ġform": 6286, "ziyaretĠ": 6287, "yÃ¼kÃ¼mlÃ¼l": 6288, "ĠikinciĠ": 6289, "ĠPol": 6290, "tecrÃ¼b": 6291, "TL": 6292, "emiĠ": 6293, "sayedeĠ": 6294, "dÄ±ÄŁÄ±nda": 6295, "nelerĠ": 6296, "dokun": 6297, "Ã§aÄŁr": 6298, "ĠMat": 6299, "tarakĠ": 6300, "egzersiz": 6301, "Ã¼lkelerinĠ": 6302, "tuÄŁuĠ": 6303, "Ã¢ÅŁ": 6304, "Ä±ÄŁaĠ": 6305, "ĠBor": 6306, "baÅŁÄ±Ġ": 6307, "ahir": 6308, "ĠDav": 6309, "hukukĠ": 6310, "ĠDeney": 6311, "tinĠ": 6312, "Ä±lacaktÄ±r": 6313, "soruĠ": 6314, "tedir": 6315, "ptom": 6316, "Ä±larÄ±nĠ": 6317, "Ä±ntÄ±Ġ": 6318, "ĠÄ°m": 6319, "AnadoluĠ": 6320, "dÃ¼ÅŁÃ¼ÅŁ": 6321, "Ã¢nÃ®": 6322, "ary": 6323, "hukukiĠ": 6324, "suretiyleĠ": 6325, "For": 6326, "balÄ±kĠ": 6327, "Ä±lmasÄ±nÄ±Ġ": 6328, "mektir": 6329, "gÃ¼nÃ¼mÃ¼zdeĠ": 6330, "varlÄ±ÄŁÄ±nÄ±Ġ": 6331, "geniÅŁĠbirĠ": 6332, "ledi": 6333, "sÃ¼s": 6334, "eff": 6335, "dos": 6336, "Ġyo": 6337, "Âł": 6338, "demektir": 6339, "IL": 6340, "mail": 6341, "edebilir": 6342, "pek": 6343, "kast": 6344, "Ġrad": 6345, "ĠBirinciĠ": 6346, "lÄ±lar": 6347, "Biz": 6348, "lÃ®": 6349, "Part": 6350, "dÄ±klarÄ±nÄ±Ġ": 6351, "zev": 6352, "siyaset": 6353, "evreĠ": 6354, "irken": 6355, "tedbir": 6356, "Ã¶lÃ§Ã¼t": 6357, "Ġhaber": 6358, "Ban": 6359, "Ä±cÄ±nÄ±nĠ": 6360, "bunĠ": 6361, "bkz": 6362, "Ġcon": 6363, "uyorum": 6364, "ĠAnaya": 6365, "operatif": 6366, "itĠ": 6367, "Ä±naĠgir": 6368, "laraĠveĠ": 6369, "verilmektedir": 6370, "nÃ¶r": 6371, "lamanÄ±nĠ": 6372, "ĠetmeĠ": 6373, "hakkÄ±Ġ": 6374, "OR": 6375, "katÄ±lÄ±mcÄ±": 6376, "Ey": 6377, "Ġberaber": 6378, "aran": 6379, "ĠBuĠnedenle": 6380, "ĠSÄ±nÄ±f": 6381, "rail": 6382, "Ġbanka": 6383, "endiÅŁ": 6384, "otip": 6385, "mutlakaĠ": 6386, "ĠBak": 6387, "teknolojiĠ": 6388, "dip": 6389, "lamadaĠ": 6390, "Ä±v": 6391, "yapÄ±lanĠbirĠ": 6392, "Ġbirbir": 6393, "isay": 6394, "karÅŁÄ±nĠ": 6395, "Ã§el": 6396, "gidenĠ": 6397, "ĠBÃ¶lg": 6398, "Ġcev": 6399, "eĠileĠ": 6400, "profesyon": 6401, "ĠÅŁekl": 6402, "leÅŁmiÅŁ": 6403, "ĠherhangiĠbirĠ": 6404, "ikliĠ": 6405, "Ä±yorlar": 6406, "Ġelektr": 6407, "iÃ§ermektedir": 6408, "evi": 6409, "ĠdÃ¼zeyiĠ": 6410, "ilanĠ": 6411, "belirtmiÅŁlerdir": 6412, "terkĠ": 6413, "iminiĠ": 6414, "sÄ±nÄ±nĠ": 6415, "ĠaÃ§Ä±s": 6416, "yÃ¶netimiĠ": 6417, "ĠÃĤ": 6418, "sinir": 6419, "Ġkem": 6420, "klinikĠ": 6421, "sÄ±nav": 6422, "adlÄ±Ġ": 6423, "Ġticaret": 6424, "Ġmadd": 6425, "eyr": 6426, "vasÄ±": 6427, "somut": 6428, "ĠStr": 6429, "lastikĠ": 6430, "gereÄŁiĠ": 6431, "deÄŁiÅŁimĠ": 6432, "Ä°k": 6433, "iÅŁlen": 6434, "uygunĠolarakĠ": 6435, "ali": 6436, "edildiÄŁiĠ": 6437, "tis": 6438, "FransÄ±z": 6439, "Ġbahis": 6440, "tonĠ": 6441, "IS": 6442, "Ã§eÅŁ": 6443, "ĠToplam": 6444, "ĠayrÄ±caĠ": 6445, "olacaÄŁÄ±Ġ": 6446, "belirginĠ": 6447, "elerin": 6448, "fenĠ": 6449, "betteĠ": 6450, "mÃ¼dahaleĠ": 6451, "inat": 6452, "ĠgÃ¶": 6453, "enfeksiyon": 6454, "dÃ¼ÅŁÃ¼k": 6455, "izasyonĠ": 6456, "diÄŁinde": 6457, "Ã¶rg": 6458, "ĠBuĠsebepleĠ": 6459, "ĠGaz": 6460, "doy": 6461, "malzemeĠ": 6462, "bulunmasÄ±Ġ": 6463, "mÃ¼s": 6464, "ergisi": 6465, "Ġfonksiyon": 6466, "ebeveyn": 6467, "ĠDÃ¼z": 6468, "tems": 6469, "Ġkabul": 6470, "iyel": 6471, "erv": 6472, "YÃ¶netim": 6473, "faydaĠ": 6474, "amacÄ±": 6475, "sÃ¼l": 6476, "ĠAt": 6477, "hy": 6478, "lerinĠveĠ": 6479, "yapÄ±nÄ±nĠ": 6480, "bildirilmiÅŁtir": 6481, "idariĠ": 6482, "iÅŁler": 6483, "stil": 6484, "sist": 6485, "iyar": 6486, "ĠBenz": 6487, "DE": 6488, "bilgilendir": 6489, "biliyor": 6490, "orf": 6491, "DeÄŁ": 6492, "no": 6493, "adres": 6494, "doÄŁur": 6495, "Ä±mÄ±zÄ±nĠ": 6496, "larĠiseĠ": 6497, "ojenĠ": 6498, "fÄ±k": 6499, "Uygu": 6500, "ineĠveĠ": 6501, "Ġtep": 6502, "uzaklaÅŁ": 6503, "seÃ§enek": 6504, "ĠgeriĠ": 6505, "yacaÄŁ": 6506, "iÃ§inĠbirĠ": 6507, "eceÄŁiz": 6508, "usununĠ": 6509, "Ġbin": 6510, "enmiÅŁ": 6511, "finansal": 6512, "yakÄ±ndanĠ": 6513, "piÅŁ": 6514, "iciĠbirĠ": 6515, "ĠÃ§eÅŁitliĠ": 6516, "keÅŁf": 6517, "ihtimal": 6518, "Ã¼stÃ¼n": 6519, "Ġkarakter": 6520, "getirdiÄŁiĠ": 6521, "zorluk": 6522, "ĠSavaÅŁ": 6523, "teknolojikĠ": 6524, "ĠKurul": 6525, "aralÄ±Ġ": 6526, "SÃ¼r": 6527, "mayaĠbaÅŁ": 6528, "io": 6529, "ĠbeÅŁ": 6530, "ĠÃ¼zerineĠ": 6531, "ĠdoÄŁruĠ": 6532, "ojen": 6533, "port": 6534, "TÃ¼rkÃ§": 6535, "kÃ¶ÅŁ": 6536, "ĠolmaĠ": 6537, "izdeĠ": 6538, "traf": 6539, "mutluĠ": 6540, "ifadeĠetmiÅŁtir": 6541, "otom": 6542, "Ev": 6543, "temsilc": 6544, "Ġdis": 6545, "doÄŁan": 6546, "etkilemektedir": 6547, "otiv": 6548, "isans": 6549, "yor": 6550, "hizmetiĠ": 6551, "ior": 6552, "ĠKÃ¶": 6553, "varĠolanĠ": 6554, "ĠÃĩalÄ±ÅŁmadaĠ": 6555, "lere": 6556, "nitelendir": 6557, "ĠÅŀub": 6558, "kamu": 6559, "doÄŁuĠ": 6560, "azalmaĠ": 6561, "kompl": 6562, "hikÃ¢y": 6563, "dÃ¼zenlemeĠ": 6564, "doÄŁrultu": 6565, "hata": 6566, "Ġbeklen": 6567, "ĠdÃ¼ÅŁÃ¼kĠ": 6568, "Ã¶ÄŁrend": 6569, "gelerĠ": 6570, "kullanÄ±mĠ": 6571, "bÃ¶lÃ¼n": 6572, "Ã¢nÄ±Ġ": 6573, "Ġ{": 6574, "aĠbirĠ": 6575, "aĠileĠ": 6576, "aracÄ±Ġ": 6577, "Ã¼lkedeĠ": 6578, "gÃ¶rsel": 6579, "ĠbileĠ": 6580, "ilmez": 6581, "usunuĠ": 6582, "kullanÄ±labilir": 6583, "Yah": 6584, "imaj": 6585, "taban": 6586, "yolaĠÃ§Ä±k": 6587, "izlem": 6588, "ĠkullanÄ±lmÄ±ÅŁtÄ±r": 6589, "isiĠileĠ": 6590, "ĠveĠC": 6591, "BatÄ±Ġ": 6592, "kapalÄ±Ġ": 6593, "gerÃ§ekleÅŁtirilmiÅŁtir": 6594, "varlÄ±kĠ": 6595, "etkinlikĠ": 6596, "VI": 6597, "yarÄ±ÅŁ": 6598, "iÃ§inde": 6599, "ĠSev": 6600, "merĠ": 6601, "siniĠ": 6602, "yaÅŁa": 6603, "hÃ¼km": 6604, "ileÅŁ": 6605, "eÄŁindeĠ": 6606, "ĠyÄ±lÄ±ndanĠ": 6607, "Ä±br": 6608, "vek": 6609, "anal": 6610, "ipt": 6611, "iyatro": 6612, "ekimĠ": 6613, "hareketleĠ": 6614, "Ä±mÄ±": 6615, "ilem": 6616, "Ġsergil": 6617, "yÃ¼zyÄ±l": 6618, "sÃ¶ylemekĠ": 6619, "ikteĠ": 6620, "larÄ±ndanĠbiriĠ": 6621, "gibiĠbirĠ": 6622, "gÃ¶rdÃ¼ÄŁ": 6623, "ematikĠ": 6624, "itesiĠ": 6625, "Tem": 6626, "kaynaklÄ±Ġ": 6627, "iÃ§inĠdeĠ": 6628, "ikasyon": 6629, "iÅŁĠveĠ": 6630, "bÃ¶lgeĠ": 6631, "Ġ>": 6632, "ediÄŁiniĠ": 6633, "aradaĠ": 6634, "gÃ¶zlenmiÅŁtir": 6635, "geliÅŁtirilenĠ": 6636, "istis": 6637, "ĠTas": 6638, "yemekĠ": 6639, "yerĠaldÄ±ÄŁÄ±Ġ": 6640, "verileriĠ": 6641, "Ġhad": 6642, "gÃ¼venĠ": 6643, "Ä±brÄ±s": 6644, "Ã§Ã¶zÃ¼l": 6645, "boÄŁ": 6646, "Ġkuvvet": 6647, "bitkiĠ": 6648, "Ã§alÄ±ÅŁmamÄ±z": 6649, "sÄ±zlÄ±kĠ": 6650, "Ġpo": 6651, "iÄŁim": 6652, "sÄ±cakĠ": 6653, "olduÄŁuĠveĠ": 6654, "iĠK": 6655, "bis": 6656, "Anadolu": 6657, "ludur": 6658, "nih": 6659, "almakĠ": 6660, "delil": 6661, "ĠkarÅŁÄ±sÄ±ndaĠ": 6662, "Ġla": 6663, "sayÄ±sÄ±nÄ±nĠ": 6664, "eklerinĠ": 6665, "Ã¼yoruz": 6666, "tavsiyeĠ": 6667, "imlerinĠ": 6668, "ni": 6669, "Ä°S": 6670, "belirlenmesiĠ": 6671, "ĠGenel": 6672, "kiÅŁiler": 6673, "Ã§alÄ±ÅŁmasÄ±Ġ": 6674, "ney": 6675, "kart": 6676, "Son": 6677, "zorundaĠkal": 6678, "buĠkonudaĠ": 6679, "Ä±Ã§": 6680, "ĠolacaktÄ±r": 6681, "MK": 6682, "ĠDoÄŁr": 6683, "potansiyel": 6684, "oradaĠ": 6685, "cÄ±lÄ±k": 6686, "``": 6687, "ight": 6688, "etkileriniĠ": 6689, "ĠveĠD": 6690, "Ã¼cretsiz": 6691, "Ã§alÄ±ÅŁmasÄ±ndaĠ": 6692, "mÃ¼kem": 6693, "efend": 6694, "bazenĠ": 6695, "ĠyapÄ±lanĠ": 6696, "bakter": 6697, "bÃ®": 6698, "unĠveĠ": 6699, "yapÄ±yaĠ": 6700, "sonuÃ§lar": 6701, "buĠtÃ¼r": 6702, "manlarÄ±nĠ": 6703, "ĠKadÄ±n": 6704, "ĠyÄ±llarÄ±ĠarasÄ±ndaĠ": 6705, "Uz": 6706, "geliÅŁmeĠ": 6707, "Ġaz": 6708, "arttÄ±ÄŁÄ±Ġ": 6709, "yapÄ±ldÄ±": 6710, "etkileÅŁ": 6711, "atuvar": 6712, "gerÃ§ektenĠ": 6713, "bitir": 6714, "lazÄ±m": 6715, "ozitif": 6716, "ziyadeĠ": 6717, "devamĠettir": 6718, "ĠCumhuriyet": 6719, "adiÅŁah": 6720, "harcama": 6721, "olarakĠkabulĠedil": 6722, "Ä±nÄ±zaĠ": 6723, "Man": 6724, "ĠFarklÄ±Ġ": 6725, "Ã§izg": 6726, "halat": 6727, "ĠdÃ¼zenlem": 6728, "olmadanĠ": 6729, "oyuncu": 6730, "Ġmalzem": 6731, "omp": 6732, "eleriyleĠ": 6733, "yasa": 6734, "Ä±larak": 6735, "lamakĠiÃ§inĠ": 6736, "Ä±mÄ±zÄ±Ġ": 6737, "meden": 6738, "ÅŁimdiĠ": 6739, "benzeriĠ": 6740, "ĠUy": 6741, "liliÄŁiniĠ": 6742, "yarg": 6743, "ece": 6744, "lamaz": 6745, "cezaĠ": 6746, "ahla": 6747, "ĠBelir": 6748, "ĠHasta": 6749, "deÄŁerlendirilmesiĠ": 6750, "talya": 6751, "Ġmus": 6752, "Ġekonom": 6753, "Ġile": 6754, "ĠArap": 6755, "ĠkalÄ±n": 6756, "ĠAmerika": 6757, "ĠhaftaĠ": 6758, "entegr": 6759, "ĠsonrasÄ±ndaĠ": 6760, "olasÄ±Ġ": 6761, "Ġkod": 6762, "ilecekĠ": 6763, "oca": 6764, "eleriĠileĠ": 6765, "yayaĠ": 6766, "Mer": 6767, "AY": 6768, "Ã¶ncelik": 6769, "leriniĠveĠ": 6770, "Ġtah": 6771, "ĠkardeÅŁ": 6772, "etkenĠ": 6773, "Kanun": 6774, "Ġsol": 6775, "dolar": 6776, "Ġgid": 6777, "yÃ¼rÃ¼r": 6778, "Ġgelenek": 6779, "Ä±lma": 6780, "Cumhur": 6781, "akÅŁam": 6782, "Ġpr": 6783, "ĠLiteratÃ¼r": 6784, "kaynaklarÄ±Ġ": 6785, "tuz": 6786, "ĠÃ§Ã¼nkÃ¼Ġ": 6787, "ĠÃ¶rn": 6788, "Ġmas": 6789, "ĠgenÃ§": 6790, "ĠÅŁuĠ": 6791, "YaÅŁ": 6792, "ĠHam": 6793, "eliĠbirĠ": 6794, "aldÄ±": 6795, "Ã¶ÄŁrencilereĠ": 6796, "Ã¶zelĠbirĠ": 6797, "ĠRe": 6798, "Av": 6799, "baÅŁkanÄ±Ġ": 6800, "lerindenĠbiriĠ": 6801, "Ġbenz": 6802, "hit": 6803, "bakanĠ": 6804, "denklem": 6805, "aÅŁamadaĠ": 6806, "koruy": 6807, "Ġedin": 6808, "ĠdoÄŁrultusundaĠ": 6809, "bundanĠ": 6810, "Ġbek": 6811, "ulaÅŁÄ±lmÄ±ÅŁtÄ±r": 6812, "Ã¼stÃ¼nĠ": 6813, "sÃ¼rek": 6814, "ĠYun": 6815, "etkiler": 6816, "ĠaÃ§Ä±sÄ±ndanĠ": 6817, "una": 6818, "Ġgenel": 6819, "Ãĩoc": 6820, "ĠveĠH": 6821, "tiÄŁimiz": 6822, "ĠileĠilgiliĠ": 6823, "uÅŁakĠ": 6824, "depres": 6825, "larĠarasÄ±ndakiĠ": 6826, "sorumluluk": 6827, "onlar": 6828, "iÅŁley": 6829, "Ġpan": 6830, "tikÃ§eĠ": 6831, "veren": 6832, "sentez": 6833, "ĠHay": 6834, "kullandÄ±ÄŁÄ±Ġ": 6835, "ĠYen": 6836, "sorunuĠ": 6837, "omuz": 6838, "adÄ±ÄŁ": 6839, "teminĠ": 6840, "ĠEkonom": 6841, "Ã¼mr": 6842, "fiĠ": 6843, "aÄŁÄ±": 6844, "tasav": 6845, "Ġ&": 6846, "Ä±mÄ±ĠileĠ": 6847, "meleriniĠ": 6848, "laÅŁtÄ±rmaĠ": 6849, "Ġdiyor": 6850, "zerbay": 6851, "banĠ": 6852, "Ġprote": 6853, "YeniĠ": 6854, "ilip": 6855, "Ã¶de": 6856, "gÃ¶zlen": 6857, "Ġdoy": 6858, "zeminĠ": 6859, "ĠÃ¶rnek": 6860, "utan": 6861, "ĠinsanlarÄ±nĠ": 6862, "dÄ±ÅŁar": 6863, "Efend": 6864, "ĠaraÃ§": 6865, "Ġbab": 6866, "ĠolmakĠ": 6867, "nikĠ": 6868, "erim": 6869, "uzat": 6870, "ĠonlarÄ±nĠ": 6871, "hesab": 6872, "bonĠ": 6873, "Ġwith": 6874, "belirtilmektedir": 6875, "ĠgeÃ§miÅŁ": 6876, "cilikĠ": 6877, "istenenĠ": 6878, "leÅŁtirmeĠ": 6879, "sisteminĠ": 6880, "yÃ¼ksektir": 6881, "Ä±larÄ±ndaĠ": 6882, "tÃ¼rÃ¼": 6883, "DoÄŁuĠ": 6884, "kÃ¼ltÃ¼rel": 6885, "Ġdalg": 6886, "kiÅŁilikĠ": 6887, "operasyon": 6888, "mÃ¼lk": 6889, "ĠBugÃ¼nĠ": 6890, "nÃ¢": 6891, "ĠgÃ¼zel": 6892, "ĠAÃ§": 6893, "eleĠgeÃ§ir": 6894, "hekim": 6895, "larÄ±ndan": 6896, "testiĠ": 6897, "inizinĠ": 6898, "hut": 6899, "ĠdiyeĠsor": 6900, "baÅŁarÄ±sÄ±z": 6901, "umut": 6902, "akar": 6903, "zihin": 6904, "detĠ": 6905, "sanay": 6906, "ĠÃľÃ§Ã¼nc": 6907, "Ä±rist": 6908, "aykÄ±rÄ±Ġ": 6909, "Bar": 6910, "gerekiyor": 6911, "ideal": 6912, "Ġbozuk": 6913, "GS": 6914, "ĠMed": 6915, "karÅŁÄ±yaĠ": 6916, "yÃ¶r": 6917, "Ġbenim": 6918, "kusur": 6919, "iliÅŁkilerĠ": 6920, "UL": 6921, "yarÄ±Ġ": 6922, "olabileceÄŁiĠ": 6923, "iriĠ": 6924, "Ġfi": 6925, "eyeĠÃ§alÄ±ÅŁ": 6926, "ĠdahaĠsonraĠ": 6927, "karmaÅŁÄ±kĠ": 6928, "ĠseÃ§im": 6929, "Ã¶neĠsÃ¼r": 6930, "Bas": 6931, "ebel": 6932, "artmaktadÄ±r": 6933, "futbol": 6934, "Ġbitk": 6935, "Ä°H": 6936, "AliĠ": 6937, "Ġeser": 6938, "ĠTÃ¼k": 6939, "isinde": 6940, "cÃ¼ml": 6941, "ĠnasÄ±l": 6942, "heyec": 6943, "ĠdiyerekĠ": 6944, "ĠkÄ±l": 6945, "ĠdÃ¼zeyindeĠ": 6946, "ĠÅŀuĠ": 6947, "yasÄ±Ġ": 6948, "temas": 6949, "talÄ±kĠ": 6950, "Ġkans": 6951, "zatenĠ": 6952, "grubuĠ": 6953, "Ġkm": 6954, "belirtmektedir": 6955, "daĠveĠ": 6956, "mÃ¼zikĠ": 6957, "ĠGÃ¶": 6958, "biriniĠ": 6959, "ili": 6960, "Ġilk": 6961, "Ã§Ä±ktÄ±": 6962, "Ä±sÄ±t": 6963, "serv": 6964, "uygulanmasÄ±Ġ": 6965, "yayÄ±nĠ": 6966, "bunlarÄ±Ġ": 6967, "teslimĠ": 6968, "Ġaktiv": 6969, "Ã¼lkelerdeĠ": 6970, "ĠSiz": 6971, "uar": 6972, "yerĠverilmiÅŁtir": 6973, "ĠEÄŁer": 6974, "Ġnokta": 6975, "muhafaz": 6976, "ĠSanat": 6977, "Gaz": 6978, "Ek": 6979, "ĠgerÃ§ekleÅŁ": 6980, "ĠKol": 6981, "ilmiÅŁĠveĠ": 6982, "olaÄŁ": 6983, "iyonĠ": 6984, "Ã»m": 6985, "akanĠ": 6986, "Ã§alÄ±ÅŁmalarÄ±ndaĠ": 6987, "ĠAslÄ±ndaĠ": 6988, "ĠTaÅŁ": 6989, "ameliyat": 6990, "ortalamasÄ±Ġ": 6991, "Devleti": 6992, "ĠuzunĠ": 6993, "yenilik": 6994, "Ġpolit": 6995, "ĠaileĠ": 6996, "ettiÄŁiniĠ": 6997, "Ġkut": 6998, "Ġtekrar": 6999, "seninĠ": 7000, "atenĠ": 7001, "Ã¼ĠolarakĠ": 7002, "ometrikĠ": 7003, "dÄ±ÄŁÄ±nÄ±z": 7004, "ikĠasit": 7005, "ĠyÃ¼rÃ¼t": 7006, "tev": 7007, "malaraĠ": 7008, "ĠyÄ±lÄ±naĠ": 7009, "uzmanĠ": 7010, "Em": 7011, "kazanÃ§": 7012, "otorit": 7013, "ĠÄ°ngiliz": 7014, "aÃ§Ä±klamaĠ": 7015, "Ġnot": 7016, "geliÅŁenĠ": 7017, "ĠSÄ±r": 7018, "Ġeks": 7019, "ĠBilim": 7020, "belirtir": 7021, "modeliĠ": 7022, "ĠtÃ¼ketic": 7023, "ĠsÃ¶ylem": 7024, "inĠdeĠ": 7025, "geleneksel": 7026, "salĠveĠ": 7027, "Ġetti": 7028, "ĠÃĩalÄ±ÅŁmanÄ±nĠ": 7029, "TC": 7030, "imaĠ": 7031, "ĠbirĠÅŁey": 7032, "ĠBaz": 7033, "saÄŁlÄ±k": 7034, "sÃ¼rdÃ¼rÃ¼lebilir": 7035, "ĠUluslararasÄ±Ġ": 7036, "Ġpat": 7037, "Ã§oÄŁunluÄŁ": 7038, "ĠKes": 7039, "ĠdÃ¼zeydeĠ": 7040, "Ã¼rÃ¼nÃ¼nĠ": 7041, "reaksiyon": 7042, "sÃ®": 7043, "memur": 7044, "altÄ±nĠ": 7045, "kavuÅŁ": 7046, "MÄ±sÄ±r": 7047, "gresyonĠ": 7048, "onya": 7049, "nez": 7050, "halkÄ±nĠ": 7051, "Ã¶ÄŁretmenĠaday": 7052, "faydalan": 7053, "evizyonĠ": 7054, "zenginĠ": 7055, "Ġkred": 7056, "finansalĠ": 7057, "saÄŁladÄ±ÄŁÄ±Ġ": 7058, "Alt": 7059, "larÄ±nÄ±zÄ±Ġ": 7060, "ĠSeÃ§": 7061, "lÄ±klarÄ±nĠ": 7062, "ĠparÃ§": 7063, "ĠkendiniĠ": 7064, "Ġdon": 7065, "ester": 7066, "deÄŁerlendirilmiÅŁtir": 7067, "ĠÅŁey": 7068, "muhal": 7069, "arp": 7070, "izinĠver": 7071, "meydanaĠgel": 7072, "sÄ±nĠ": 7073, "kahraman": 7074, "incisiĠ": 7075, "amam": 7076, "ĠGenelĠ": 7077, "DÃ¼z": 7078, "Ã¶nemĠver": 7079, "sus": 7080, "Amer": 7081, "gÃ¼Ã§lÃ¼Ġ": 7082, "adÄ±mĠ": 7083, "fikr": 7084, "IM": 7085, "elerdekiĠ": 7086, "ĠkadÄ±nĠ": 7087, "enĠdÃ¼ÅŁÃ¼kĠ": 7088, "iyi": 7089, "Kaz": 7090, "ung": 7091, "ifadeĠedenĠ": 7092, "deÄŁiÅŁimiĠ": 7093, "Ġvd": 7094, "Ð°": 7095, "aralarÄ±ndaĠ": 7096, "yonunĠ": 7097, "ĠbunaĠ": 7098, "zararĠver": 7099, "peÅŁ": 7100, "ipar": 7101, "Ġht": 7102, "leĠbirlikteĠ": 7103, "Ä°LER": 7104, "Kullan": 7105, "ÙĦ": 7106, "duygusalĠ": 7107, "Ġsak": 7108, "ĠolduÄŁu": 7109, "ĠOnaĠ": 7110, "irmiĠ": 7111, "ĠsatÄ±ÅŁ": 7112, "ect": 7113, "mada": 7114, "langÄ±Ã§": 7115, "gÃ¶rÃ¼ldÃ¼ÄŁÃ¼": 7116, "projeĠ": 7117, "saÄŁlayacakĠ": 7118, "ĠetmiÅŁ": 7119, "ters": 7120, "OrtaĠ": 7121, "luĠbirĠ": 7122, "rastlan": 7123, "alÄ±p": 7124, "ĠBuĠtÃ¼r": 7125, "aldÄ±klarÄ±Ġ": 7126, "ĠiÃ§iĠ": 7127, "Ã§alÄ±ÅŁtÄ±r": 7128, "teknik": 7129, "nÃ¼nĠ": 7130, "etmem": 7131, "On": 7132, "tazmin": 7133, "olabilmektedir": 7134, "Ã¶ngÃ¶r": 7135, "edildi": 7136, "ndenĠ": 7137, "uzan": 7138, "kÃ¼resel": 7139, "durdur": 7140, "yolojikĠ": 7141, "diÄŁerĠbirĠ": 7142, "yapmÄ±ÅŁtÄ±r": 7143, "arken": 7144, "siyah": 7145, "yaptÄ±ÄŁ": 7146, "gecik": 7147, "acaÄŁÄ±nÄ±Ġ": 7148, "dullah": 7149, "ĠhastaĠ": 7150, "gÄ±n": 7151, "takdirdeĠ": 7152, "uylaĠilgiliĠ": 7153, "sÃ¶yl": 7154, "ĠIII": 7155, "dÄ±nĠ": 7156, "belirlemekĠ": 7157, "ĠBaÅŁkaĠbirĠ": 7158, "mediÄŁiniĠ": 7159, "ĠAz": 7160, "ĠMillet": 7161, "beraberindeĠ": 7162, "ĠartÄ±ÅŁ": 7163, "geler": 7164, "ĠÄ°ÅŁletm": 7165, "YÄ±l": 7166, "landÄ±rmaĠ": 7167, "figÃ¼r": 7168, "ĠVar": 7169, "yoksul": 7170, "ihlal": 7171, "yazÄ±lÄ±m": 7172, "faydalÄ±Ġ": 7173, "dÃ¶neminĠ": 7174, "yÃ¶netm": 7175, "ahr": 7176, "yapÄ±yor": 7177, "iÃ§erir": 7178, ".).": 7179, "Kurum": 7180, "hesaplanmÄ±ÅŁtÄ±r": 7181, "dr": 7182, "aÄŁÄ±z": 7183, "ĠTekĠ": 7184, "./": 7185, "yapmaĠ": 7186, "gruptaĠ": 7187, "Genel": 7188, "ĠkamuĠ": 7189, "taÅŁÄ±y": 7190, "lanmasÄ±": 7191, "larĠarasÄ±Ġ": 7192, "ÅŁar": 7193, "Ġhttp": 7194, "lamalarÄ±Ġ": 7195, "kesinlikleĠ": 7196, "marka": 7197, "ĠdolayÄ±s": 7198, "ĠMÃ¼": 7199, "Ġth": 7200, "gÃ¶zdenĠ": 7201, "RA": 7202, "deÄŁerliĠ": 7203, "iyetiniĠ": 7204, "emaĠ": 7205, "iĠolanĠ": 7206, "lamayÄ±Ġ": 7207, "Ġtez": 7208, "sapta": 7209, "Ä±lmasÄ±ndaĠ": 7210, "ĠuÃ§": 7211, "BÃ¼yÃ¼kĠ": 7212, "luÄŁu": 7213, "sÃ¼": 7214, "Ã¼stÃ¼ndeĠ": 7215, "endir": 7216, "eÄŁr": 7217, "ĠÃ¶ÄŁren": 7218, "uygunĠbirĠ": 7219, "onun": 7220, "enĠfazlaĠ": 7221, "bakÄ±r": 7222, "ĠErk": 7223, "gide": 7224, "ĠenerjiĠ": 7225, "ĠgerÃ§ekĠ": 7226, "jektif": 7227, "eĠsahip": 7228, "ĠÃ§Ä±kar": 7229, "Ä±sÄ±ĠileĠ": 7230, "yaptÄ±k": 7231, "dÃ¼ÅŁÃ¼nÃ¼r": 7232, "ĠSiya": 7233, "ortayaĠÃ§Ä±kmaktadÄ±r": 7234, "Ã¶neminiĠ": 7235, "Ġbildir": 7236, "Ġtrans": 7237, "ĠÅŁeh": 7238, "kanunĠ": 7239, "eliĠveĠ": 7240, "ĠadÄ±Ġ": 7241, "Ben": 7242, "dÃ¶nemlerdeĠ": 7243, "Ä±lÄ±p": 7244, "ĠÃ§ap": 7245, "anahtar": 7246, "DP": 7247, "bÃ¼ny": 7248, "lid": 7249, "Ger": 7250, "Ġsoru": 7251, "Ä±larÄ±nÄ±Ġ": 7252, "noktaĠ": 7253, "sivil": 7254, "ĠyalnÄ±zcaĠ": 7255, "ĠSab": 7256, "seyr": 7257, "sosyo": 7258, "Ġedilir": 7259, "baÄŁÄ±r": 7260, "ilkĠolarakĠ": 7261, "katÄ±Ġ": 7262, "larĠolarakĠ": 7263, "Ġvi": 7264, "Ã§Ã¶zÃ¼n": 7265, "ĠSal": 7266, "Kap": 7267, "Ġifad": 7268, "ĠFor": 7269, "ĠOrtaĠ": 7270, "ĠÃĸÄŁrencilerinĠ": 7271, "Ä±nĠdaĠ": 7272, "rakam": 7273, "tren": 7274, "aÄŁz": 7275, "alog": 7276, "ĠolarakĠadlandÄ±r": 7277, "matemat": 7278, "ĠsaldÄ±r": 7279, "mekteyiz": 7280, "ĠBenzerĠ": 7281, "ĠAnkaraĠ": 7282, "ĠhaleĠgetir": 7283, "ĠdÃ¶rt": 7284, "imkan": 7285, "Ġgider": 7286, "undan": 7287, "Ġteh": 7288, "iÅŁÃ§iĠ": 7289, "cinsiyetĠ": 7290, "tÄ±ĠveĠ": 7291, "Ã¼rÃ¼nlerinĠ": 7292, "lerĠolarakĠ": 7293, "lek": 7294, "ÅŁark": 7295, "ininĠbirĠ": 7296, "gÃ¶revl": 7297, "alakal": 7298, "konuÅŁtu": 7299, "likteĠ": 7300, "Ä±sÄ±ĠveĠ": 7301, "iÅŁlet": 7302, "deÄŁerler": 7303, "kenar": 7304, "sekiz": 7305, "hakim": 7306, "sunulanĠ": 7307, "Ä±nmaĠ": 7308, "konulardaĠ": 7309, "kabulĠetm": 7310, "uzaklaÅŁtÄ±r": 7311, "ĠanlayÄ±ÅŁ": 7312, "aÄŁÄ±rlÄ±kĠ": 7313, "tepkiĠ": 7314, "sÄ±rasÄ±ylaĠ": 7315, "gelin": 7316, "IV": 7317, "ĠonaĠ": 7318, "hab": 7319, "larÄ±m": 7320, "devir": 7321, "lot": 7322, "varsaĠ": 7323, "jiĠ": 7324, "Anaya": 7325, "eÄŁil": 7326, "ifadey": 7327, "icaret": 7328, "olacaÄŁ": 7329, "Ä±ĠolanĠ": 7330, "nas": 7331, "mr": 7332, "ĠmÃ¼mk": 7333, "tit": 7334, "veriler": 7335, "Ã¼rÃ¼nleriĠ": 7336, "ĠolmadÄ±ÄŁÄ±Ġ": 7337, "ayrÄ±ĠbirĠ": 7338, "ettir": 7339, "ĠarasÄ±Ġ": 7340, "ĠolsaĠ": 7341, "mark": 7342, "ilkĠkez": 7343, "meliĠ": 7344, "ĠSayÄ±nĠ": 7345, "hayÄ±r": 7346, "iÅŁteĠ": 7347, "gereklidir": 7348, "Ã¢lÃ¢": 7349, "Ġolacak": 7350, "doku": 7351, "eĠgÃ¶re": 7352, "Ġoluyor": 7353, "ĠYÃ¶netim": 7354, "bÃ¶yleceĠ": 7355, "yoÄŁunlaÅŁ": 7356, "Ã¢v": 7357, "EB": 7358, "eman": 7359, "ĠÃ¶ner": 7360, "ĠsÃ¶zc": 7361, "yeterinceĠ": 7362, "ondanĠ": 7363, "bÃ¶": 7364, "seÃ§en": 7365, "devamĠediyor": 7366, "Ã¶tes": 7367, "tokol": 7368, "pH": 7369, "Program": 7370, "yacaktÄ±r": 7371, "kaydedil": 7372, "ucuz": 7373, "Ã¼zg": 7374, "ert": 7375, "hasebeĠ": 7376, "ivar": 7377, "istenilenĠ": 7378, "elektronikĠ": 7379, "Rusya": 7380, "ationĠ": 7381, "incelemeĠ": 7382, "uygun": 7383, "ĠBirÃ§okĠ": 7384, "Ã¶nce": 7385, "hayatÄ±nÄ±Ġ": 7386, "oneĠ": 7387, "trav": 7388, "ĠÃ§iz": 7389, "osuĠ": 7390, "Ä±salĠ": 7391, "abileceÄŁiĠ": 7392, "bulunmamaktadÄ±r": 7393, "molekÃ¼l": 7394, "biri": 7395, "ganĠ": 7396, "eteĠ": 7397, "duĠveĠ": 7398, "kiÅŁiselĠ": 7399, "MÃ¼slÃ¼manĠ": 7400, "sok": 7401, "eveĠ": 7402, "larlaĠilgiliĠ": 7403, "ekst": 7404, "inĠbuĠ": 7405, "karÅŁÄ±mÄ±z": 7406, "ONU": 7407, "TheĠ": 7408, "ĠKÃ¼r": 7409, "seyahat": 7410, "erĠveĠ": 7411, "prens": 7412, "dolaÅŁ": 7413, "aĠgir": 7414, "Ġduy": 7415, "dikĠ": 7416, "kg": 7417, "ferans": 7418, "yetikĠ": 7419, "ĠTez": 7420, "indeĠbirĠ": 7421, "TS": 7422, "ĠBay": 7423, "mm": 7424, "aydÄ±nlat": 7425, "mekteydi": 7426, "ĠAralÄ±kĠ": 7427, "span": 7428, "atÄ±nĠ": 7429, "politikĠ": 7430, "olmayan": 7431, "nedir": 7432, "ĠsÃ¼rekliĠ": 7433, "Ã¶ÄŁrenciler": 7434, "nic": 7435, "',": 7436, "Ã¶zellikĠ": 7437, "Ġolmak": 7438, "DS": 7439, "erler": 7440, "Ġsebeb": 7441, "melerineĠ": 7442, "referans": 7443, "vef": 7444, "yapÄ±larakĠ": 7445, "vakit": 7446, "metin": 7447, "ĠArtÄ±kĠ": 7448, "ood": 7449, "Ġken": 7450, "ĠkÄ±saĠ": 7451, "sÄ±caklÄ±kĠ": 7452, "Ä±pkÄ±Ġ": 7453, "Ã¼lkelerĠ": 7454, "iÅŁbirliÄŁiĠ": 7455, "demografikĠ": 7456, "lardan": 7457, "ateĠ": 7458, "arttÄ±kÃ§aĠ": 7459, "hÃ¼r": 7460, "Ä±naĠsahip": 7461, "ĠtartÄ±ÅŁ": 7462, "ĠAÄŁustos": 7463, "izasyon": 7464, "ispat": 7465, "ĠBeÅŁ": 7466, "Î±": 7467, "Ä°bnĠ": 7468, "Ã¼stÃ¼Ġ": 7469, "Dav": 7470, "ĠtaneĠ": 7471, "we": 7472, "eceÄŁim": 7473, "anaya": 7474, "lerdenĠbiriĠ": 7475, "geriĠdÃ¶n": 7476, "Ġmah": 7477, "ĠbeĠ": 7478, "izah": 7479, "lanma": 7480, "Ġfinans": 7481, "Te": 7482, "Bu": 7483, "gerÃ§ekleÅŁenĠ": 7484, "dÃ¼zenlenenĠ": 7485, "emr": 7486, "yazÄ±Ġ": 7487, "davranÄ±ÅŁlarÄ±Ġ": 7488, "imerĠ": 7489, "ĠTam": 7490, "alarÄ±nÄ±nĠ": 7491, "ayrÄ±ĠayrÄ±Ġ": 7492, "gelec": 7493, "ĠKent": 7494, "klasikĠ": 7495, "....": 7496, "ĠNisanĠ": 7497, "ĠyÃ¼zyÄ±lÄ±nĠ": 7498, "bakÄ±ldÄ±ÄŁÄ±nda": 7499, "Re": 7500, "Ġarac": 7501, "baÅŁladÄ±": 7502, "ĠOcakĠ": 7503, "KÄ±r": 7504, "zam": 7505, "ĠoldukÃ§aĠ": 7506, "Ä±cÄ±lÄ±kĠ": 7507, "sebebiĠ": 7508, "Ä°zmir": 7509, "sÃ¼n": 7510, "Ġkonum": 7511, "Ãĸn": 7512, "yanÄ±naĠ": 7513, "aĠkarÅŁÄ±Ġ": 7514, "ĠÃ§ocukĠ": 7515, "yacaÄŁÄ±Ġ": 7516, "devamĠedec": 7517, "meslek": 7518, "ĠdurumuĠ": 7519, "Mahkem": 7520, "larĠÃ¼zerindeĠ": 7521, "EÅŁ": 7522, "wit": 7523, "Ä±lardanĠ": 7524, "ĠgÃ¼venlikĠ": 7525, "____": 7526, "Ã§Ä±kart": 7527, "ĠanlaÅŁ": 7528, "aralÄ±k": 7529, "uyu": 7530, "haneĠ": 7531, "hataĠ": 7532, "Ã¶yk": 7533, "barÄ±ÅŁ": 7534, "PS": 7535, "Ä°Y": 7536, "istey": 7537, "dÃ¼ÅŁenĠ": 7538, "ĠborÃ§": 7539, "amaÃ§la": 7540, "Yunan": 7541, "ĠMÃ¼slÃ¼": 7542, "vermiÅŁ": 7543, "rob": 7544, "iskĠ": 7545, "ĠbanaĠ": 7546, "yerĠveril": 7547, "yanÄ±ĠsÄ±ra": 7548, "ĠTest": 7549, "emin": 7550, "eti": 7551, "ĠvardÄ±r": 7552, "imizdeĠ": 7553, "ĠanaliziĠ": 7554, "deĠverilmiÅŁtir": 7555, "meniĠ": 7556, "Ä°liÅŁkinĠ": 7557, "gÃ¼ndemeĠ": 7558, "Ä±cÄ±ĠbirĠ": 7559, "evlen": 7560, "Mod": 7561, "otomatikĠ": 7562, "merakĠ": 7563, "Ä±lmalÄ±dÄ±r": 7564, "ĠmÃ¼dÃ¼r": 7565, "nazar": 7566, "ĠNo": 7567, "bireysel": 7568, "bask": 7569, "casin": 7570, "Cam": 7571, "bireyselĠ": 7572, "delikĠ": 7573, "Ã¼zeriĠ": 7574, "ecekĠveĠ": 7575, "Ã¶f": 7576, "amur": 7577, "aĠÃ§Ä±kmaktadÄ±r": 7578, "egemen": 7579, "harf": 7580, "uncaĠ": 7581, "aÃ§Ä±klan": 7582, "eĠkadar": 7583, "olmasÄ±nÄ±Ġ": 7584, "bizim": 7585, "Ġdar": 7586, "isiĠdeĠ": 7587, "noktasÄ±ndaĠ": 7588, "Ã»l": 7589, "ĠkÄ±y": 7590, "toplamaĠ": 7591, "ĠDok": 7592, "metal": 7593, "yeÅŁil": 7594, "ĠhiÃ§birĠ": 7595, "ayÄ±rt": 7596, "Ġrenk": 7597, "ĠDev": 7598, "ĠveĠarkadaÅŁ": 7599, "buluÅŁ": 7600, ".;": 7601, "mensup": 7602, "ĠkullanÄ±lanĠ": 7603, "Ã¼nit": 7604, "ĠbunlarÄ±nĠ": 7605, "baskÄ±Ġ": 7606, "dÃ¼ÅŁÃ¼nÃ¼yorum": 7607, "Ġnoktas": 7608, "ÅŁÄ±": 7609, "GÃ¼ney": 7610, "denĠsonraĠ": 7611, "Ġtat": 7612, "ĠAnahtar": 7613, "diziĠ": 7614, "ezaĠ": 7615, "oleĠ": 7616, "Ä±cÄ±ĠveĠ": 7617, "miktarÄ±Ġ": 7618, "Bil": 7619, "takipĠ": 7620, "Ġab": 7621, "ĠyenidenĠ": 7622, "ayan": 7623, "yitir": 7624, "aĠulaÅŁ": 7625, "afir": 7626, "Ġoy": 7627, "lÄ±lÄ±ÄŁÄ±nĠ": 7628, "Ġvb": 7629, "Ġayr": 7630, "ĠOysaĠ": 7631, "ÅŁekillendir": 7632, "yanÄ±nda": 7633, "gelenekselĠ": 7634, "piyasaĠ": 7635, "maksimum": 7636, "naz": 7637, "verimliĠ": 7638, "istal": 7639, "KÃ¼ltÃ¼r": 7640, "Ter": 7641, "aksiyonĠ": 7642, "Ġbo": 7643, "ĠHerĠikiĠ": 7644, "Ã¶rgÃ¼tselĠ": 7645, "yapÄ±m": 7646, "ĠyatÄ±rÄ±m": 7647, "emed": 7648, "manlÄ±kĠ": 7649, "ĠBununlaĠbirlikte": 7650, "ifer": 7651, "gÃ¶rÃ¼ntÃ¼l": 7652, "ĠEskiĠ": 7653, "aracÄ±lÄ±ÄŁÄ±ylaĠ": 7654, "Ä±h": 7655, "Ã®m": 7656, "Ãĩin": 7657, "derinĠ": 7658, "incil": 7659, "icil": 7660, "ĠveĠP": 7661, "OB": 7662, "utmaĠ": 7663, "rahim": 7664, "Ġhiss": 7665, "iĠH": 7666, "mekĠÃ¼zereĠ": 7667, "ÅŁÃ¼ph": 7668, "ĠkarÅŁÄ±laÅŁtÄ±r": 7669, "adÄ±": 7670, "aÃ§Ä±lanĠ": 7671, "gÃ¶rÃ¼lebilir": 7672, "Ġkoy": 7673, "pazarlamaĠ": 7674, "mahk": 7675, "gaĠ": 7676, "oÄŁul": 7677, "ĠfÄ±r": 7678, "metinĠ": 7679, "Ä±ĠiÃ§inĠ": 7680, "biyolojikĠ": 7681, "ric": 7682, "kurumsal": 7683, "mus": 7684, "eceÄŁimiz": 7685, "Ġboy": 7686, "oreĠ": 7687, "evdeĠ": 7688, "tavÄ±r": 7689, "teÅŁekkÃ¼r": 7690, "ilmesindeĠ": 7691, "sanayiĠ": 7692, "gÃ¶rdÃ¼k": 7693, "ĠsistemininĠ": 7694, "bakÄ±ÅŁĠaÃ§": 7695, "ĠkullanÄ±cÄ±": 7696, "Okul": 7697, "Mal": 7698, "uygulamayaĠ": 7699, "damar": 7700, "Tekn": 7701, "emok": 7702, "bÃ¶lÃ¼mÃ¼ndeĠ": 7703, "NT": 7704, "ĠÄ°zmir": 7705, "yata": 7706, "Ġyaban": 7707, "hidro": 7708, "anlamlÄ±ĠbirĠfarklÄ±lÄ±kĠ": 7709, "Millet": 7710, "milliĠ": 7711, "enĠuygunĠ": 7712, "bilgiyeĠ": 7713, "deprem": 7714, "aracÄ±lÄ±ÄŁÄ±yla": 7715, "ĠHaziranĠ": 7716, "ĠBelediy": 7717, "Bat": 7718, "Ãĸzel": 7719, "kullananĠ": 7720, "zet": 7721, "Ã¼mÃ¼": 7722, "Ã¼retimiĠ": 7723, "nÄ±n": 7724, "kÃ¼Ã§Ã¼kĠbirĠ": 7725, "tib": 7726, "meniz": 7727, "GeÃ§": 7728, "ifadeĠedilmektedir": 7729, "yolcul": 7730, "madanĠÃ¶nceĠ": 7731, "kÃ¶ken": 7732, "ndanĠ": 7733, "ÅŁikay": 7734, "Ġmadde": 7735, "ibr": 7736, "ilgilidir": 7737, "yÃ¶netimĠ": 7738, "uygulamalarÄ±Ġ": 7739, "ĠÃ¼zerindenĠ": 7740, "maddes": 7741, "araÅŁtÄ±rmayaĠ": 7742, "ebilmekĠiÃ§inĠ": 7743, "PaÅŁa": 7744, "iyeteĠ": 7745, "larÄ±mÄ±zÄ±nĠ": 7746, "aÄŁrÄ±Ġ": 7747, "derg": 7748, "ĠOsman": 7749, "iyot": 7750, "Ġdu": 7751, "zikr": 7752, "SÄ±n": 7753, "isayarĠ": 7754, "ifadeĠedilmiÅŁtir": 7755, "artar": 7756, "Ġyum": 7757, "sunulmuÅŁtur": 7758, "tÃ¼ket": 7759, "yoluylaĠ": 7760, "tuk": 7761, "spektif": 7762, "kitl": 7763, "birĠbaÅŁkaĠ": 7764, "rekabetĠ": 7765, "olacaÄŁÄ±nÄ±Ġ": 7766, "ĠiÃ§in": 7767, "durumunĠ": 7768, "baÅŁlang": 7769, "inter": 7770, "modern": 7771, "eriÅŁim": 7772, "uyuÅŁ": 7773, "ĠbÃ¼tÃ¼n": 7774, "hisset": 7775, "CR": 7776, "bilgiĠveĠ": 7777, "kiÅŁiyeĠ": 7778, "SayÄ±nĠ": 7779, "yediĠ": 7780, "Ġdevr": 7781, "Ã¶zelliklerininĠ": 7782, "birĠaradaĠ": 7783, "ebo": 7784, "lereĠkarÅŁÄ±Ġ": 7785, "ulukĠ": 7786, "ĠÃ§ift": 7787, "inÅŁaat": 7788, "ĠAraÅŁtÄ±rmadaĠ": 7789, "ilan": 7790, "kimseĠ": 7791, "diÄŁiniz": 7792, "ĠÄ°lk": 7793, "adeniz": 7794, "eliÄŁiĠ": 7795, "ĠSa": 7796, "ĠtestiĠ": 7797, "Ġgaz": 7798, "edecekĠ": 7799, "AH": 7800, "iÅŁlemeĠ": 7801, "ebilmesiĠiÃ§inĠ": 7802, "ĠSp": 7803, "ĠEser": 7804, "Ä±lacak": 7805, "Ġsar": 7806, "muyor": 7807, "riskiĠ": 7808, "Ã§ekir": 7809, "tasvir": 7810, "kaÃ§Ä±r": 7811, "vadeliĠ": 7812, "yaptÄ±": 7813, "ĠDeniz": 7814, "BenĠ": 7815, "ĠKelim": 7816, "baÅŁlÄ±caĠ": 7817, "Ġcivar": 7818, "Ä±lmasÄ±ĠiÃ§inĠ": 7819, "Ġcihaz": 7820, "ĠAÅŁaÄŁ": 7821, "iÃ§erikĠ": 7822, "sÄ±raĠ": 7823, "udaĠ": 7824, "ĠBab": 7825, "iseĠbuĠ": 7826, "yetk": 7827, "ikiliĠ": 7828, "GenelĠ": 7829, "yukarÄ±daĠ": 7830, "kolaycaĠ": 7831, "tamamlan": 7832, "ĠaraÅŁtÄ±rma": 7833, "cem": 7834, "ĠsaÃ§": 7835, "ĠkaÃ§": 7836, "bile": 7837, "Ġkas": 7838, "Ä±ldÄ±ÄŁÄ±nÄ±Ġ": 7839, "liÄŁindenĠ": 7840, "acil": 7841, "deÄŁildi": 7842, "daÄŁÄ±lÄ±mÄ±Ġ": 7843, "ĠiliÅŁk": 7844, "ĠsoÄŁ": 7845, "ebilenĠ": 7846, "sorumlulukĠ": 7847, "isyen": 7848, "larÄ±naĠveĠ": 7849, "Ġcin": 7850, "BÃ¶lg": 7851, "Ġmikro": 7852, "Gir": 7853, "Ã¼el": 7854, "uygulamasÄ±Ġ": 7855, "kazanÄ±m": 7856, "Ġkadar": 7857, "deÄŁerlerĠ": 7858, "kaya": 7859, "lenebilir": 7860, "Ġparametr": 7861, "madan": 7862, "istikrar": 7863, "aĠgÃ¶re": 7864, "ortala": 7865, "opt": 7866, "lÄ±klarĠ": 7867, "ihtiyaÃ§larÄ±nÄ±Ġ": 7868, "esinceĠ": 7869, "petrol": 7870, "kampan": 7871, "mimar": 7872, "efer": 7873, "ĠsonuÃ§larÄ±Ġ": 7874, "arasÄ±ndanĠ": 7875, "ĠKo": 7876, "namaz": 7877, "liĠbirĠÅŁekildeĠ": 7878, "servis": 7879, "iveĠ": 7880, "ĠKontrol": 7881, "ifaĠ": 7882, "kÄ±ya": 7883, "Ä°mparator": 7884, "iÅŁimiĠ": 7885, "gÄ±daĠ": 7886, "ĠDiÄŁerĠbirĠ": 7887, "ĠvÃ¼c": 7888, "gÃ¼Ã§lÃ¼ĠbirĠ": 7889, "luÄŁunĠ": 7890, "Ã¶rgÃ¼tsel": 7891, "Ġturizm": 7892, "direnÃ§": 7893, "ĠyokĠ": 7894, "ettik": 7895, "ĠhangiĠ": 7896, "avram": 7897, "Yak": 7898, "jen": 7899, "ĠAvrupa": 7900, "Ä±larĠ": 7901, "lÄ±ktanĠ": 7902, "Ġtemiz": 7903, "ÅŁekliĠ": 7904, "ortayaĠÃ§Ä±ka": 7905, "ĠHep": 7906, "ĠsÃ¼recindeĠ": 7907, "fos": 7908, "eksikĠ": 7909, "Ġyukar": 7910, "yaÅŁamaĠ": 7911, "hafta": 7912, "kayg": 7913, "mayan": 7914, "yaygÄ±nĠolarakĠ": 7915, "bulunduÄŁ": 7916, "ĠGÃ¼l": 7917, "icraĠ": 7918, "Ä±naĠiliÅŁkinĠ": 7919, "ĠUzunĠ": 7920, "Ã¼d": 7921, "lanmÄ±ÅŁĠveĠ": 7922, "alarÄ±ndaĠ": 7923, "TA": 7924, "esir": 7925, "ÅŁem": 7926, "ĠbÃ¶yleĠ": 7927, "kemikĠ": 7928, "Ġtalep": 7929, "Ġbilin": 7930, "itÃ¶r": 7931, "Ġifades": 7932, "uÄŁday": 7933, "kimiĠ": 7934, "Ä±lÄ±Ã§": 7935, "ĠpekĠ": 7936, "iyelĠ": 7937, "evrim": 7938, "Ġkul": 7939, "iÅŁit": 7940, "akĠveĠ": 7941, "ĠyÄ±lÄ±nda": 7942, "bran": 7943, "ĠaltÄ±ndaĠ": 7944, "ĠMÃ¼z": 7945, "ĠDemir": 7946, "vekiliĠ": 7947, "inceley": 7948, "eĠkarÅŁÄ±Ġ": 7949, "alanlarÄ±Ġ": 7950, "lÄ±lÄ±klarÄ±Ġ": 7951, "ĠyÃ¼ksek": 7952, "ĠhÃ¼k": 7953, "suyuĠ": 7954, "maÄŁdur": 7955, "kok": 7956, "etrafÄ±ndaĠ": 7957, "ataĠ": 7958, "lip": 7959, "ovyet": 7960, "betim": 7961, "yerlerdeĠ": 7962, "SP": 7963, "iliyor": 7964, "Ġdenetim": 7965, "mayÄ±p": 7966, "arab": 7967, "ĠhastalÄ±k": 7968, "kapsamdaĠ": 7969, "Ġkanal": 7970, "sk": 7971, "sorp": 7972, "likler": 7973, "yenĠ": 7974, "bilgiler": 7975, "lerinden": 7976, "eo": 7977, "iyerĠ": 7978, "ellef": 7979, "Ã¶nemĠarz": 7980, "geÃ§iciĠ": 7981, "abrika": 7982, "ang": 7983, "ĠaltÄ±naĠ": 7984, "Var": 7985, "oÄŁl": 7986, "yaÅŁlÄ±Ġ": 7987, "Ġherkes": 7988, "ĠartÄ±kĠ": 7989, "SaÄŁlÄ±kĠ": 7990, "kÄ±rmÄ±zÄ±Ġ": 7991, "anlamlÄ±ĠbirĠfarkĠ": 7992, "demokratikĠ": 7993, "lekĠ": 7994, "aktiviteĠ": 7995, "olduÄŁuĠgÃ¶rÃ¼lmÃ¼ÅŁtÃ¼r": 7996, "At": 7997, "geniÅŁlet": 7998, "balÄ±k": 7999, "opat": 8000, "iÅŁletmelerinĠ": 8001, "anlamÄ±Ġ": 8002, "anak": 8003, "Ä±ndaĠdaĠ": 8004, "MustafaĠ": 8005, "Med": 8006, "cinselĠ": 8007, "arĠveĠ": 8008, "GÃ¼ven": 8009, "kaliteliĠ": 8010, "esif": 8011, "prat": 8012, "iyorsunuz": 8013, "ĠbaÅŁvur": 8014, "ÅŁÄ±kĠ": 8015, "sabah": 8016, "Ä±nÄ±ĠdaĠ": 8017, "etkisiyleĠ": 8018, "nÃ¼f": 8019, "put": 8020, "insanlarÄ±Ġ": 8021, "land": 8022, "ĠKendiĠ": 8023, "yaÅŁaya": 8024, "asÄ±ndanĠ": 8025, "gerekseĠ": 8026, "onu": 8027, "yarattÄ±ÄŁÄ±Ġ": 8028, "ĠSah": 8029, "hang": 8030, "liderlikĠ": 8031, "kaybÄ±Ġ": 8032, "Hav": 8033, "iÃ§erisindekiĠ": 8034, "beklenenĠ": 8035, "labor": 8036, "ĠBunaĠgÃ¶re": 8037, "Ã§ilikĠ": 8038, "ĠbasÄ±n": 8039, "Ã¼lmÃ¼ÅŁtÃ¼r": 8040, "beslen": 8041, "Ġolg": 8042, "ebek": 8043, "tayinĠ": 8044, "dilĠ": 8045, "ĠSonuÃ§ĠolarakĠ": 8046, "okim": 8047, "dolayÄ±sÄ±ylaĠ": 8048, "makĠistem": 8049, "Ã¶zellikler": 8050, "idareĠ": 8051, "genelindeĠ": 8052, "ĠÃ§evres": 8053, "gÃ¶rmekĠ": 8054, "Ã¢f": 8055, "Ä±sÄ±nÄ±z": 8056, "edilebilir": 8057, "mav": 8058, "ĠnumaralÄ±Ġ": 8059, "ahÅŁap": 8060, "altÄ±ndakiĠ": 8061, "ĠveriĠ": 8062, "rehber": 8063, "tekĠbaÅŁÄ±naĠ": 8064, "Hakk": 8065, "TO": 8066, "ĠtarihiĠ": 8067, "larĠgibiĠ": 8068, "uyumĠsaÄŁ": 8069, "doÄŁrultudaĠ": 8070, "sonucunda": 8071, "endiÄŁiĠ": 8072, "kakĠ": 8073, "buĠyanaĠ": 8074, "ĠbeniĠ": 8075, "bahÃ§": 8076, "ĠAmer": 8077, "sÄ±rasÄ±yla": 8078, "ortamÄ±ndaĠ": 8079, "eĠkadarĠ": 8080, "rabz": 8081, "alkol": 8082, "Ġ\"...": 8083, "udiĠ": 8084, "birĠtan": 8085, "sunul": 8086, "sÃ¶zleÅŁmeĠ": 8087, "etmesiĠ": 8088, "mÄ±yorum": 8089, "ĠÃĸyleĠ": 8090, "memnunĠ": 8091, "ÅŁaÅŁÄ±r": 8092, "faat": 8093, "ĠbireyinĠ": 8094, "edip": 8095, "saÄŁlamakĠ": 8096, "hizmetleriĠ": 8097, "sÃ¶zĠkonusudur": 8098, "eĠait": 8099, "Etk": 8100, "BK": 8101, "eri": 8102, "reform": 8103, "Ġerkek": 8104, "dard": 8105, "Ġgec": 8106, "hakkÄ±ndakiĠ": 8107, "kapsayanĠ": 8108, "performansĠ": 8109, "itiraz": 8110, "sosyalĠmedyaĠ": 8111, "yetiÅŁk": 8112, "siyasal": 8113, "acaÄŁÄ±z": 8114, "ĠProj": 8115, "larÄ±ĠarasÄ±ndakiĠ": 8116, "kaliteĠ": 8117, "ont": 8118, "ettiÄŁimiz": 8119, "AC": 8120, "IÅŀ": 8121, "verdikleriĠ": 8122, "ĠhÃ¼creĠ": 8123, "alaraĠ": 8124, "hayattaĠ": 8125, "webĠsit": 8126, "seĠsen": 8127, "sanÄ±nĠ": 8128, "anmaĠ": 8129, "Ã¼ÄŁÃ¼": 8130, "Ä±nday": 8131, "edilerekĠ": 8132, "faaliyetleriĠ": 8133, "lac": 8134, "yenilen": 8135, "Ã¼lmÃ¼ÅŁ": 8136, "ĠkiÅŁilikĠ": 8137, "ulabil": 8138, "elinĠ": 8139, "ineĠsahip": 8140, "iÃ§imiĠ": 8141, "yÃ¼rÃ¼y": 8142, "pp": 8143, "ledik": 8144, "larÄ±nĠdaĠ": 8145, "hayr": 8146, "ĠBal": 8147, "ĠortaĠ": 8148, "ÃĩizelgeĠ": 8149, "ĠtemelĠ": 8150, "Kurul": 8151, "Ġenerj": 8152, "uld": 8153, "ĠHayat": 8154, "ĠgrubunaĠ": 8155, "ahlakiĠ": 8156, "modelĠ": 8157, "oranlaĠ": 8158, "bilimĠ": 8159, "olmasÄ±ĠveĠ": 8160, "ĠMÃ¼ÅŁter": 8161, "MilliĠ": 8162, "ĠÅŁekildeĠ": 8163, "Ġdal": 8164, "ĠKadÄ±nĠ": 8165, "Ã¼min": 8166, "eptÃ¶r": 8167, "Ä±ÅŁÄ±n": 8168, "Kr": 8169, "ÅŁeyeĠ": 8170, "larÄ±nÄ±ĠdaĠ": 8171, "gÃ¶rmÃ¼ÅŁ": 8172, "ĠYukarÄ±daĠ": 8173, "herĠtÃ¼rlÃ¼Ġ": 8174, "iyerarÅŁ": 8175, "ĠisimliĠ": 8176, "ansÄ±z": 8177, "anlamaĠ": 8178, "lereĠsahip": 8179, "ĠsatÄ±nĠ": 8180, "mayÄ±n": 8181, "lamadanĠ": 8182, "ĠbazenĠ": 8183, "ĠBunlardanĠ": 8184, "mÃ¼mkÃ¼nĠdeÄŁildir": 8185, "ĠBuĠkonudaĠ": 8186, "ĠDÃ¶nem": 8187, "iyiceĠ": 8188, "Ġkaz": 8189, "sizĠbirĠ": 8190, "korelasyonĠ": 8191, "ĠDr": 8192, "sasÄ±Ġ": 8193, "Ġpiyasa": 8194, "leket": 8195, "Ġanlat": 8196, "ineĠiliÅŁkinĠ": 8197, "minim": 8198, "estetikĠ": 8199, "dahaĠkolay": 8200, "baktÄ±ÄŁÄ±mÄ±z": 8201, "Ġzar": 8202, "tÄ±b": 8203, "esnek": 8204, "yaralan": 8205, "idekiĠ": 8206, "eziĠ": 8207, "Ġyoktur": 8208, "ĠÃĸl": 8209, "yaÅŁadÄ±klarÄ±Ġ": 8210, "mac": 8211, "Ã§i": 8212, "hasar": 8213, "sorunlarÄ±Ġ": 8214, "gÃ¢h": 8215, "sÃ¼receĠ": 8216, "ihmal": 8217, "stratejikĠ": 8218, "alanaĠ": 8219, "eleĠal": 8220, "Ã¶nemliĠÃ¶lÃ§Ã¼deĠ": 8221, "yaparkenĠ": 8222, "sonunaĠ": 8223, "lanmasÄ±ĠveĠ": 8224, "maneviĠ": 8225, "ĠĠĠĠĠĠĠ": 8226, "makĠisteyenĠ": 8227, "Ġml": 8228, "ĠinsanÄ±nĠ": 8229, "ĠiyiĠ": 8230, "bakan": 8231, "Ã¶zgÃ¼rlÃ¼k": 8232, "Ġby": 8233, "ĠyavaÅŁ": 8234, "daĠbulunanĠ": 8235, "usuf": 8236, "gÃ¼cÃ¼Ġ": 8237, "vasÄ±tas": 8238, "bilimselĠ": 8239, "gÃ¼ndem": 8240, "akla": 8241, "Ġyem": 8242, "yÃ¼kĠ": 8243, "Af": 8244, "aletĠ": 8245, "nÃ¼": 8246, "gÃ¶rÃ¼ÅŁleriĠ": 8247, "letiÅŁim": 8248, "gizliĠ": 8249, "ĠÃ¶lÃ§Ã¼m": 8250, "irÃ¼s": 8251, "Ã§ay": 8252, "Ki": 8253, "vermekĠ": 8254, "dÃ¼nyayaĠ": 8255, "yaygÄ±nlaÅŁ": 8256, "hepsiĠ": 8257, "soyut": 8258, "Ġsek": 8259, "karÅŁÄ±lÄ±klÄ±Ġ": 8260, "ĠâĢĺ": 8261, "ilĠedenĠ": 8262, "ifeĠ": 8263, "olamaĠ": 8264, "Analiz": 8265, "ÅŁiÅŁ": 8266, "enĠsÄ±kĠ": 8267, "aylÄ±kĠ": 8268, "Ã¼nlÃ¼": 8269, "yazmaĠ": 8270, "Ġdeng": 8271, "aramaĠ": 8272, "ÅŁid": 8273, "gibidir": 8274, "buĠÅŁekildeĠ": 8275, "Ã§il": 8276, "ĠBe": 8277, "Ġmillet": 8278, "baÄŁlantÄ±Ġ": 8279, "geliÅŁimiĠ": 8280, "ÅŁe": 8281, "vol": 8282, "Ġstres": 8283, "leÅŁmeninĠ": 8284, "hakkÄ±ndaĠbilgiĠ": 8285, "yoluyla": 8286, "Ã§ilerinĠ": 8287, "vurguĠ": 8288, "hil": 8289, "ĠBununĠiÃ§inĠ": 8290, "Ã¶ncesindeĠ": 8291, "ĠÃĩocukĠ": 8292, "Ġgiy": 8293, "evir": 8294, "Ã§aÄŁÄ±r": 8295, "baÅŁlamÄ±ÅŁtÄ±r": 8296, "dakĠ": 8297, "Bilg": 8298, "iÅŁlemleriĠ": 8299, "ĠolmasÄ±dÄ±r": 8300, "ikir": 8301, "ĠgerekĠ": 8302, "Ġmen": 8303, "sorumluluÄŁ": 8304, "kÄ±smenĠ": 8305, "Ġhayvan": 8306, "ibininĠ": 8307, "ĠGenÃ§": 8308, "ĠbireylerinĠ": 8309, "IC": 8310, "miktardaĠ": 8311, "ĠYazar": 8312, "sÄ±fÄ±r": 8313, "Ã§okĠiyiĠ": 8314, "viz": 8315, "Ġuygulan": 8316, "bilgilerinĠ": 8317, "Ä±sÄ±ndakiĠ": 8318, "Ã¶ÄŁrencilerininĠ": 8319, "mevzu": 8320, "Ġmekaniz": 8321, "Ä±nar": 8322, "larĠbuĠ": 8323, "sÄ±nÄ±rlarÄ±Ġ": 8324, "ebb": 8325, "imariĠ": 8326, "ĠÃĸteĠyandanĠ": 8327, "ideoloj": 8328, "ĠMustafaĠ": 8329, "Ġveril": 8330, "Ã¢lem": 8331, "yeĠgÃ¶reĠ": 8332, "uyoruz": 8333, "ĠedilmiÅŁ": 8334, "lup": 8335, "birĠdiÄŁerĠ": 8336, "filtr": 8337, "gÃ¶ÄŁ": 8338, "Ä±naĠveĠ": 8339, "bugÃ¼n": 8340, "onĠveĠ": 8341, "ĠeÅŁit": 8342, "evÃ®": 8343, "ite": 8344, "eceÄŁi": 8345, "Ġvak": 8346, "ĠyouĠ": 8347, "etmey": 8348, "lament": 8349, "Rum": 8350, "manĠveĠ": 8351, "eserĠ": 8352, "bilinc": 8353, "kalÄ±p": 8354, "ĠÙ": 8355, "Ä±mÄ±zdaĠ": 8356, "adÄ±nÄ±Ġ": 8357, "ĠSe": 8358, "yapÄ±labilir": 8359, "ĠgÃ¼l": 8360, "direnc": 8361, "ĠProgram": 8362, "ilerek": 8363, "caÄŁÄ±z": 8364, "aÅŁaÄŁÄ±Ġ": 8365, "ĠeldeĠ": 8366, "ĠprogramÄ±Ġ": 8367, "Ã¼ceĠ": 8368, "OL": 8369, "roz": 8370, "meydanaĠgetir": 8371, "Ä±sÄ±l": 8372, "Ġtutar": 8373, "lendiÄŁiĠ": 8374, "ina": 8375, "haklarÄ±Ġ": 8376, "algÄ±lan": 8377, "ĠetmiÅŁlerdir": 8378, "olmamasÄ±Ġ": 8379, "layÄ±n": 8380, "ĠerkekĠ": 8381, "mesineĠnedenĠ": 8382, "anlatÄ±m": 8383, "indeĠdeĠ": 8384, "devamĠetmektedir": 8385, "Ġhey": 8386, "Ġ$": 8387, "kelimeĠ": 8388, "ĠSultanĠ": 8389, "UN": 8390, "isinĠ": 8391, "Met": 8392, "mÃ¼dÃ¼r": 8393, "tÃ¼mÃ¶r": 8394, "ĠdÃ¼nyadaĠ": 8395, "ĠoranÄ±Ġ": 8396, "yaklaÅŁÄ±k": 8397, "Ġhid": 8398, "ĠMayÄ±sĠ": 8399, "duyguĠ": 8400, "ĠTah": 8401, "dikleriniĠ": 8402, "Ġduvar": 8403, "uzaktanĠ": 8404, "kasÄ±": 8405, "ĠtoplumunĠ": 8406, "ĠDil": 8407, "ÃĸrgÃ¼t": 8408, "ĠolduÄŁundanĠ": 8409, "ĠKÃ¶y": 8410, "ĠgiriÅŁim": 8411, "larÄ±nÄ±nĠveĠ": 8412, "hÄ±zlaĠ": 8413, "yÃ¶nelt": 8414, "hikay": 8415, "Bal": 8416, "ĠaÃ§Ä±kĠ": 8417, "Ã§ocuÄŁuĠ": 8418, "Ã¼lasyonĠ": 8419, "KÄ±z": 8420, "batÄ±Ġ": 8421, "konsantrasyon": 8422, "Ã¶zn": 8423, "ĠyapÄ±l": 8424, "Ġkad": 8425, "asÄ±ndakiĠ": 8426, "Ġtemsil": 8427, "ilidir": 8428, "Ä±klÄ±kĠ": 8429, "muhtemel": 8430, "ĠsÃ¼rdÃ¼r": 8431, "Bilim": 8432, "Str": 8433, "ĠkÃ¼t": 8434, "Ã§alÄ±ÅŁmalaraĠ": 8435, "ĠBat": 8436, "kullanmaĠ": 8437, "ĠgÃ¶rev": 8438, "Ġhalk": 8439, "anlÄ±": 8440, "adeĠ": 8441, "ininĠdeĠ": 8442, "ĠCam": 8443, "sahn": 8444, "hor": 8445, "parÃ§aĠ": 8446, "malardaĠ": 8447, "ĠAtatÃ¼r": 8448, "kanaat": 8449, "ĠeskiĠ": 8450, "artmasÄ±Ġ": 8451, "ĠÃĩin": 8452, "ĠbaÄŁÄ±msÄ±z": 8453, "etkiyeĠ": 8454, "lÄ±ÄŁÄ±ndanĠ": 8455, "ĠbugÃ¼nĠ": 8456, "mektup": 8457, "Ġgraf": 8458, "madÄ±klarÄ±Ġ": 8459, "amÄ±z": 8460, "daĠiseĠ": 8461, "ĠkarÅŁÄ±Ġ": 8462, "Co": 8463, "Ġeden": 8464, "doluĠ": 8465, "iktid": 8466, "Ä±naĠdair": 8467, "garant": 8468, "biziĠ": 8469, "iÃ§eriÄŁiĠ": 8470, "basÄ±nÃ§": 8471, "ĠBer": 8472, "Demir": 8473, "Ãľr": 8474, "Ġpozitif": 8475, "Ġperson": 8476, "Ġolmaz": 8477, "Ã¼lerekĠ": 8478, "soÄŁukĠ": 8479, "gÃ¶zeĠ": 8480, "ONUÃĩ": 8481, "kimĠ": 8482, "ĠBÃ¶ylelikleĠ": 8483, "ĠBatÄ±Ġ": 8484, "sayaĠ": 8485, "Ã¼stÃ¼neĠ": 8486, "sÄ±fat": 8487, "ana": 8488, "ĠPaÅŁa": 8489, "cm": 8490, "ionĠ": 8491, "bazÄ±larÄ±Ġ": 8492, "eĠbirĠ": 8493, "dedir": 8494, "Ġvitam": 8495, "nisp": 8496, "eĠulaÅŁ": 8497, "uyandÄ±r": 8498, "saygÄ±Ġ": 8499, "unÃ§": 8500, "taÅŁÄ±maĠ": 8501, "Ġend": 8502, "ess": 8503, "gÃ¶rÃ¼nt": 8504, "ĠonlarÄ±Ġ": 8505, "kÃ¼ler": 8506, "mutlakĠ": 8507, "ĠGazet": 8508, "ĠKatÄ±lÄ±mcÄ±larÄ±nĠ": 8509, "indey": 8510, "Ġcam": 8511, "prop": 8512, "umĠveĠ": 8513, "bakÄ±mĠ": 8514, "ĠÂ°": 8515, "ĠâĪ": 8516, "iklim": 8517, "sistemininĠ": 8518, "Cem": 8519, "manÄ±zĠgerek": 8520, "gÃ¼venir": 8521, "bizimĠ": 8522, "yoktu": 8523, "Ġsinir": 8524, "anlarĠ": 8525, "tÃ¼rÃ¼Ġ": 8526, "uydu": 8527, "ĠhemenĠ": 8528, "dalgaĠ": 8529, "halkaĠ": 8530, "Ġruh": 8531, "Ä±sÄ±n": 8532, "ĠÃĩoÄŁ": 8533, "birĠdurum": 8534, "Ã®ĠveĠ": 8535, "Ġey": 8536, "masÄ±nÄ±": 8537, "ĠbaÄŁlam": 8538, "bedenĠ": 8539, "itimĠ": 8540, "ukat": 8541, "kabulĠgÃ¶r": 8542, "Ã¶nÃ¼neĠgeÃ§": 8543, "olarakĠadlandÄ±r": 8544, "takv": 8545, "mahall": 8546, "ilmesiĠiÃ§inĠ": 8547, "ayrÄ±lÄ±r": 8548, "ĠTel": 8549, "erit": 8550, "ileriĠileĠ": 8551, "eop": 8552, "lerĠiseĠ": 8553, "iken": 8554, "firmaĠ": 8555, "Ġsaf": 8556, "Ġdel": 8557, "kesit": 8558, "baÄŁÄ±mlÄ±Ġ": 8559, "eÄŁitiminĠ": 8560, "sonucunaĠvar": 8561, "Yen": 8562, "yÄ±ldÄ±z": 8563, "Sa": 8564, "meĠbecer": 8565, "pen": 8566, "turist": 8567, "ĠsermayeĠ": 8568, "yayÄ±nlananĠ": 8569, "sÄ±naĠ": 8570, "ĠdÃ¶nÃ¼ÅŁÃ¼m": 8571, "Bor": 8572, "yapay": 8573, "uncuĠ": 8574, "davranÄ±ÅŁÄ±Ġ": 8575, "Ġ?": 8576, ")\"": 8577, "amil": 8578, "rasyon": 8579, "oluÅŁturulmuÅŁtur": 8580, "hiÃ§birĠÅŁey": 8581, "gÃ¶sterilenĠ": 8582, "atih": 8583, "refah": 8584, "gÃ¶zlemlenmiÅŁtir": 8585, "Ã¶rdÃ¼ncÃ¼": 8586, "karÅŁÄ±t": 8587, "etkilediÄŁiĠ": 8588, "ĠAK": 8589, "oog": 8590, "grubunĠ": 8591, "gunĠ": 8592, "imindeĠ": 8593, "tedar": 8594, "ĠFir": 8595, "memnuniyet": 8596, "ĠsÃ¼t": 8597, "sep": 8598, "ÅŁu": 8599, "dÄ±ÄŁÄ±nÄ±": 8600, "ultan": 8601, "ĠmaddeĠ": 8602, "akÄ±llÄ±Ġ": 8603, "sindeĠ": 8604, "sefer": 8605, "kumaÅŁ": 8606, "liyeĠ": 8607, "ineĠgir": 8608, "Ä±ÅŁmaĠ": 8609, "vuf": 8610, "ĠofĠtheĠ": 8611, "ĠOk": 8612, "ĠYalnÄ±z": 8613, "cr": 8614, "kapan": 8615, "imetr": 8616, "metod": 8617, "iÅŁiniĠ": 8618, "olduÄŁuĠgibi": 8619, "tuĠ": 8620, "yarak": 8621, "Ã¶lÃ¼": 8622, "ĠAf": 8623, "Ä°st": 8624, "seÃ§ilenĠ": 8625, "gÃ¶rÃ¼ÅŁmeĠ": 8626, "ĠÃ§Ã¶zÃ¼m": 8627, "matematikĠ": 8628, "gÃ¼nÃ¼": 8629, "Uy": 8630, "suzlukĠ": 8631, "geneldeĠ": 8632, "lolar": 8633, "iyanĠ": 8634, "Ã§abaĠ": 8635, "Mat": 8636, "hayvanĠ": 8637, "ĠmodeliĠ": 8638, "norm": 8639, "ĠhavaĠ": 8640, "Ġtec": 8641, "Ġnumun": 8642, "kullanÄ±cÄ±Ġ": 8643, "cinsel": 8644, "oĠkadarĠ": 8645, "ĠÃ§alÄ±ÅŁan": 8646, "atÄ±k": 8647, "ĠSin": 8648, "ĠEkimĠ": 8649, "pos": 8650, "Ġnormal": 8651, "zamanÄ±ndaĠ": 8652, "Kas": 8653, "ĠYas": 8654, "enkĠ": 8655, "pencer": 8656, "aĠsahip": 8657, "Ã¼Ã§Ã¼ncÃ¼Ġ": 8658, "baÄŁlamÄ±ndaĠ": 8659, "Ä±mÄ±nÄ±nĠ": 8660, "saray": 8661, "ĠGÃ¼ney": 8662, "ĠSpor": 8663, ")Ċ": 8664, "laraĠulaÅŁ": 8665, "Ġap": 8666, "odaklan": 8667, "oranlarÄ±Ġ": 8668, "ĠdÃ¼nyanÄ±nĠ": 8669, "bilimsel": 8670, "sevg": 8671, "maat": 8672, "bakÄ±ÅŁĠaÃ§Ä±s": 8673, "ĠMek": 8674, "ÄŁÄ±t": 8675, "amak": 8676, "diliĠ": 8677, "Ġmin": 8678, "bahar": 8679, "ĠHaf": 8680, "trop": 8681, "Ä±ÅŁÄ±ÄŁÄ±ndaĠ": 8682, "leÅŁme": 8683, "isiniz": 8684, "bireyler": 8685, "dÄ±ÅŁÄ±ndakiĠ": 8686, "sayf": 8687, "á¸³": 8688, "ĠuluslararasÄ±Ġ": 8689, "dolayÄ±sÄ±yla": 8690, "aksineĠ": 8691, "tey": 8692, "sÄ±nÄ±rlandÄ±r": 8693, "Ä±rt": 8694, "davetĠ": 8695, "Ã¶rgÃ¼tÃ¼nĠ": 8696, "Mak": 8697, "ĠBÃ¶yleĠbirĠ": 8698, "kasÄ±nÄ±nĠ": 8699, "ĠTÃ¼rkÃ§eĠ": 8700, "masÄ±ndanĠdolayÄ±Ġ": 8701, "desteÄŁiĠ": 8702, "US": 8703, "pm": 8704, "vans": 8705, "genetikĠ": 8706, "BaÅŁkanÄ±Ġ": 8707, "rivayet": 8708, "dayananĠ": 8709, "benimĠ": 8710, "telefonĠ": 8711, "iet": 8712, "ĠdiÅŁ": 8713, "VA": 8714, "Ġedilebilir": 8715, "cezalandÄ±r": 8716, "oranÄ±nÄ±nĠ": 8717, "ĠdoÄŁrudanĠ": 8718, "Ġbilgisayar": 8719, "ĠYah": 8720, "kÃ¶tÃ¼l": 8721, "birbirlerineĠ": 8722, "lenf": 8723, "yerine": 8724, "denem": 8725, "ĠYay": 8726, "ilkes": 8727, "Ġco": 8728, "ĠsonundaĠ": 8729, "memeĠ": 8730, "ikasyonĠ": 8731, "ĠyÃ¼zyÄ±ldaĠ": 8732, "eksin": 8733, "ĠkiÅŁi": 8734, "tac": 8735, "etmen": 8736, "belirter": 8737, "ĠkararĠ": 8738, "postaĠ": 8739, "Ġdol": 8740, "kimyasal": 8741, "ĠEbÃ»": 8742, "iniĠdeĠ": 8743, "Ã¼zgÃ¢r": 8744, "inhib": 8745, "ĠAlan": 8746, "Åŀah": 8747, "ga": 8748, "ial": 8749, "ikiyeĠ": 8750, "esiĠiÃ§inĠ": 8751, "Ã¶t": 8752, "mantÄ±k": 8753, "Sistem": 8754, "Ã¼ĠiÃ§inĠ": 8755, "tanĠsonra": 8756, "tatminĠ": 8757, "liĠyÄ±l": 8758, "lerĠarasÄ±ndakiĠ": 8759, "mayaĠbaÅŁlamÄ±ÅŁtÄ±r": 8760, "hipotez": 8761, "uzunĠsÃ¼reĠ": 8762, "enmeĠ": 8763, "eldeĠedilir": 8764, "yaklaÅŁÄ±mÄ±Ġ": 8765, "topluluk": 8766, "olmasÄ±dÄ±r": 8767, "AÅŁ": 8768, "kuruĠ": 8769, "lerine": 8770, "yapÄ±lan": 8771, "olmasÄ±nÄ±nĠ": 8772, "aralÄ±ÄŁ": 8773, "deÄŁerlerinĠ": 8774, "ovaĠ": 8775, "nesil": 8776, "ĠtasarÄ±m": 8777, "bulan": 8778, "MÃ¼slÃ¼man": 8779, "ĠsayÄ±daĠ": 8780, "ĠÅŁiir": 8781, "Tek": 8782, "iletiÅŁimĠkur": 8783, "Ã§evrim": 8784, "Ġedilmektedir": 8785, "ĠbÃ¶yleceĠ": 8786, "rist": 8787, "ĠMas": 8788, "ĠortalamaĠ": 8789, "kalan": 8790, "dÃ¶nemiĠ": 8791, "oloji": 8792, "muÅŁtu": 8793, "ĠtÃ¼ketim": 8794, "edik": 8795, "ĠAraÅŁtÄ±rma": 8796, "ĠÃ¼r": 8797, "Ġann": 8798, "sÃ¼rÃ¼k": 8799, "ĠcÃ¼m": 8800, "Ġsermay": 8801, "Ġhastan": 8802, "Az": 8803, "arasÄ±ndadÄ±r": 8804, "iÃ§erisineĠ": 8805, "Ġner": 8806, "meli": 8807, "cÄ±larĠ": 8808, "ĠolacakĠ": 8809, "faktÃ¶rlerinĠ": 8810, "DNA": 8811, "staĠ": 8812, "Ã§oÄŁunluklaĠ": 8813, "sÄ±vÄ±Ġ": 8814, "esiĠdeĠ": 8815, "larÄ±mÄ±zÄ±Ġ": 8816, "rok": 8817, "zamanÄ±Ġ": 8818, "bilgisiĠ": 8819, "sÄ±klÄ±kla": 8820, "pil": 8821, "ĠKasÄ±mĠ": 8822, "karÅŁÄ±lÄ±ÄŁ": 8823, "tahmin": 8824, "Ġah": 8825, "Î²": 8826, "Ã¶zdeÅŁ": 8827, "ĠÅŁehir": 8828, "deĠiseĠ": 8829, "ĠBuĠyÃ¶ntem": 8830, "ortayaĠkoymaktadÄ±r": 8831, "ink": 8832, "dijital": 8833, "uldu": 8834, "Ã¶zgÃ¼rlÃ¼ÄŁ": 8835, "miy": 8836, "lerden": 8837, "Ġserbest": 8838, "iberĠ": 8839, "farklÄ±ĠolarakĠ": 8840, "insanlarĠ": 8841, "tÄ±ÄŁÄ±": 8842, "amÄ±ÅŁ": 8843, "yel": 8844, "gÃ¶rÃ¼nÃ¼r": 8845, "iyetinĠ": 8846, "yazÄ±l": 8847, "Ä°ran": 8848, "ĠMÃ¼dÃ¼r": 8849, "kimlikĠ": 8850, "layÄ±cÄ±": 8851, "ÂŃ": 8852, "ou": 8853, "eth": 8854, "dif": 8855, "Ġistatist": 8856, "Ã§ekt": 8857, "muÅŁĠveĠ": 8858, "Deniz": 8859, "zek": 8860, "kÄ±smÄ±nÄ±Ġ": 8861, "sÄ±rala": 8862, "Ġav": 8863, "Hukuk": 8864, "Bay": 8865, "sedÃ¼r": 8866, "iÅŁletmeninĠ": 8867, "Ã¼lÃ¼": 8868, "mayacakĠ": 8869, "detaylÄ±Ġ": 8870, "kabulĠedilmiÅŁtir": 8871, "ĠikenĠ": 8872, "medyaĠ": 8873, "ĠÅŀim": 8874, "insanlaraĠ": 8875, "cins": 8876, "popÃ¼ler": 8877, "leÅŁtirilmiÅŁ": 8878, "elerindekiĠ": 8879, "ĠkiÅŁilerinĠ": 8880, "aÄŁÄ±nĠ": 8881, "tÃ¼n": 8882, "gerekliĠolanĠ": 8883, "row": 8884, "oksijenĠ": 8885, "enceĠ": 8886, "Almanya": 8887, "ĠgeÃ§er": 8888, "edar": 8889, "smanĠ": 8890, "YÃ¶ntem": 8891, "Pol": 8892, "ĠMartĠ": 8893, "belirsiz": 8894, "kÃ¶pr": 8895, "Ä±mÄ±nÄ±Ġ": 8896, "kaÅŁ": 8897, "erÃ§ev": 8898, "ĉĠ": 8899, "ĠarasÄ±ndaĠdeÄŁiÅŁ": 8900, "toĠ": 8901, "Ġyurt": 8902, "nik": 8903, "halineĠgetir": 8904, "ork": 8905, "lereĠveĠ": 8906, "ranÄ±ÅŁ": 8907, "Ã§oÄŁunlukla": 8908, "topluĠ": 8909, "ĠdaÄŁÄ±lÄ±m": 8910, "ĠQ": 8911, "ement": 8912, "makĠisted": 8913, "Ġkab": 8914, "Ã¼seyinĠ": 8915, "abancÄ±Ġ": 8916, "belirley": 8917, "cerrahiĠ": 8918, "devamĠeder": 8919, "Ä±nĠbuĠ": 8920, "ĠyÄ±ldÄ±r": 8921, "eleĠalÄ±nmÄ±ÅŁtÄ±r": 8922, "eleb": 8923, "planĠ": 8924, "larÄ±naĠiliÅŁkinĠ": 8925, "savunmaĠ": 8926, "Ã¼lmesiĠ": 8927, "algÄ±lananĠ": 8928, "geril": 8929, "dÃ¼nyas": 8930, "herkesinĠ": 8931, "sayÄ±sÄ±": 8932, "babaĠ": 8933, "ĠolmalÄ±dÄ±r": 8934, "uÄŁunĠ": 8935, "Ġsa": 8936, "ÃľM": 8937, "ĠSit": 8938, "birazĠdahaĠ": 8939, "ĠsizeĠ": 8940, "lamayaĠÃ§alÄ±ÅŁ": 8941, "lanÄ±yor": 8942, "ĠMilliĠ": 8943, "gul": 8944, "maaÅŁ": 8945, "Ġwh": 8946, "ĠÄ°slÃ¢m": 8947, "Ã¶zelliklerĠ": 8948, "sinyal": 8949, "ous": 8950, "aleyh": 8951, "hiper": 8952, "liseĠ": 8953, "larÄ±ĠgibiĠ": 8954, "Ä±rk": 8955, "Ankara": 8956, "Ġmec": 8957, "with": 8958, "vermeĠ": 8959, "dÃ¼ÅŁman": 8960, "anÄ±ndaĠ": 8961, "ĠolduÄŁunaĠ": 8962, "iment": 8963, "Arab": 8964, "KÃ¼rt": 8965, "orant": 8966, "ĠTak": 8967, "kimyasalĠ": 8968, "masraf": 8969, "ĠkarÄ±ÅŁ": 8970, "Yaz": 8971, "Ġoku": 8972, "varyans": 8973, "hÄ±r": 8974, "ekleĠ": 8975, "Ã¶rf": 8976, "kayd": 8977, "dolayÄ±": 8978, "yapmaktadÄ±r": 8979, "eÄŁindenĠ": 8980, "laraĠyÃ¶nelikĠ": 8981, "Ber": 8982, "ĠveĠG": 8983, "oranĠ": 8984, "Ã¶lÃ§ekĠ": 8985, "ĠakÄ±l": 8986, "dÃ¶nÃ¼kĠ": 8987, "sayÄ±Ġ": 8988, "anlamlÄ±ĠbirĠiliÅŁkiĠ": 8989, "aneĠ": 8990, "ecekĠolanĠ": 8991, "ĠYok": 8992, "internetĠ": 8993, "ĠBuĠnoktadaĠ": 8994, "ĠBuĠdÃ¶nemdeĠ": 8995, "Ġus": 8996, "atay": 8997, "Yer": 8998, "deÄŁerlerininĠ": 8999, "Ġbulgu": 9000, "lerĠarasÄ±Ġ": 9001, "ĠGenellikleĠ": 9002, "ĠkalanĠ": 9003, "dayanmaktadÄ±r": 9004, "AmerikanĠ": 9005, "bÃ¼tÃ§": 9006, "adÄ±r": 9007, "Ġkategor": 9008, "kendisininĠ": 9009, "madÄ±ÄŁÄ±": 9010, "errah": 9011, "alacakĠ": 9012, "ĠSu": 9013, "atÄ±kĠ": 9014, "Kanunu": 9015, "alizm": 9016, "emeyenĠ": 9017, "ekleriĠ": 9018, "kÄ±yaslaĠ": 9019, "ĠMev": 9020, "yÃ¶nÃ¼ndenĠ": 9021, "ĠAhmed": 9022, "ĠMÄ±sÄ±r": 9023, "mekanikĠ": 9024, "onar": 9025, "ilis": 9026, "TanrÄ±": 9027, "oÄŁaz": 9028, "BS": 9029, "ĠSch": 9030, "iyatr": 9031, "Ä±da": 9032, "kaÃ§Ä±nÄ±lmaz": 9033, "anlatÄ±r": 9034, "esiĠolanĠ": 9035, "Ã§ak": 9036, "zorundadÄ±r": 9037, "masÄ±na": 9038, "ebileceÄŁiniĠ": 9039, "ciddiĠbirĠ": 9040, "uĠolarakĠ": 9041, "kamer": 9042, "konuÅŁmaĠ": 9043, "ĠsiyasiĠ": 9044, "ÅŁif": 9045, "herĠtÃ¼rlÃ¼": 9046, "gÃ¶rÃ¼ÅŁmeler": 9047, "ĠElektr": 9048, "alÄ±ÄŁÄ±Ġ": 9049, "arasÄ±naĠ": 9050, "ĠSam": 9051, "ĠDur": 9052, "paralel": 9053, "Plan": 9054, "pla": 9055, "birineĠ": 9056, "iklerininĠ": 9057, "emizdeĠ": 9058, "Ġmar": 9059, "tasarÄ±mĠ": 9060, "tenĠsonra": 9061, "kiÅŁi": 9062, "etkiliĠbirĠ": 9063, "olduÄŁunuĠdÃ¼ÅŁÃ¼n": 9064, "eÄŁlenc": 9065, "Ġbet": 9066, "motif": 9067, "bala": 9068, "ulduÄŁ": 9069, "titr": 9070, "Ã¼lkemizdeĠ": 9071, "iliÅŁkilerinĠ": 9072, "Ä°ngiltere": 9073, "ĠSONUÃĩ": 9074, "Hay": 9075, "ĠKaynak": 9076, "ininĠveĠ": 9077, "ĠBilgiĠ": 9078, "acebo": 9079, "beÄŁen": 9080, "ĠhareketĠ": 9081, "ĠÃľlk": 9082, "ĠsÃ¼reciĠ": 9083, "ĠhaldeĠ": 9084, "liktenĠ": 9085, "Ä±cÄ±sÄ±Ġ": 9086, "olduÄŁunuĠveĠ": 9087, "aĠkadar": 9088, "kusuz": 9089, "ĠFiz": 9090, "Ä±sÄ±nda": 9091, "geldiÄŁiniĠ": 9092, "satÄ±nĠalmaĠ": 9093, "hastanÄ±nĠ": 9094, "Ġdakika": 9095, "ĠEvet": 9096, "elerde": 9097, "siyasalĠ": 9098, "engelliĠ": 9099, "miras": 9100, "kÄ±saĠsÃ¼redeĠ": 9101, "atur": 9102, "ĠBuĠsayedeĠ": 9103, "Muhammed": 9104, "tÃ¼keticiĠ": 9105, "arasÄ±ndaĠbirĠ": 9106, "ilinĠ": 9107, "ĠulaÅŁ": 9108, "ĠÃĩalÄ±ÅŁmamÄ±zdaĠ": 9109, "konuyaĠ": 9110, "olitikĠ": 9111, "dÃ¶viz": 9112, "ticaretĠ": 9113, "yÃ¶ntemleriĠ": 9114, "ĠTr": 9115, "Ġkonsantrasyon": 9116, "ediciĠ": 9117, "dedeĠ": 9118, "vÃ¼cud": 9119, "darĠ": 9120, "kavramÄ±nÄ±nĠ": 9121, "ayÄ±ndaĠ": 9122, "hitap": 9123, "sÄ±ÄŁÄ±n": 9124, "ĠyanÄ±t": 9125, "Ã¼cÃ¼Ġ": 9126, "adetĠ": 9127, "galĠ": 9128, "buz": 9129, "Ã»n": 9130, "ĠKÃ¼Ã§Ã¼kĠ": 9131, "Ġdiya": 9132, "gerekenĠbirĠ": 9133, "isit": 9134, "ĠTes": 9135, "belirlenmiÅŁ": 9136, "Jap": 9137, "Ä±lmasÄ±nÄ±nĠ": 9138, "geliÅŁtirmeĠ": 9139, "seyir": 9140, "eph": 9141, "ĠKamuĠ": 9142, "SelÃ§": 9143, "ĠBununĠyanÄ±ndaĠ": 9144, "eliniĠ": 9145, "ally": 9146, "onlineĠ": 9147, "iyorsanÄ±z": 9148, "ÅŁunlardÄ±r": 9149, "ĠÃ¶ÄŁrenciĠ": 9150, "enĠfazla": 9151, "ĠAileĠ": 9152, "mosfer": 9153, "ĠEylÃ¼lĠ": 9154, "ĠtedaviĠ": 9155, "agan": 9156, "soruÅŁtur": 9157, "amaÃ§lanmÄ±ÅŁtÄ±r": 9158, "belediy": 9159, "ulacakĠ": 9160, "mÄ±ÅŁĠbirĠ": 9161, "Ä±naĠyÃ¶nelikĠ": 9162, "ĠMem": 9163, "eyeĠgir": 9164, "siziĠ": 9165, "Hat": 9166, "ĠsÃ¼resiĠ": 9167, "etkilerininĠ": 9168, "reat": 9169, "ĠHÃ¼kÃ¼m": 9170, "diÄŁindenĠ": 9171, "eceksiniz": 9172, "orij": 9173, "MÃ¼z": 9174, "eÅŁya": 9175, "erinĠ": 9176, "rag": 9177, "kapÄ±Ġ": 9178, "ĠAm": 9179, "diÄŁineĠ": 9180, "yÄ±ldaĠ": 9181, "bÄ±rakt": 9182, "kanÄ±nĠ": 9183, "Ã§ekmeĠ": 9184, "ĠaralÄ±ÄŁÄ±ndaĠ": 9185, "demiĠ": 9186, "Ġbeyaz": 9187, "ediyorum": 9188, "etleriĠ": 9189, "DÃ¶nem": 9190, "esef": 9191, "Ã¼mrÃ¼kĠ": 9192, "elemeĠ": 9193, "desteklem": 9194, "ruĠ": 9195, "laÅŁma": 9196, "yaprak": 9197, "Ġsayf": 9198, "sahipĠolduklarÄ±Ġ": 9199, "Kam": 9200, "Tas": 9201, "Ã¼ntÃ¼": 9202, "yapÄ±lar": 9203, "aÄŁÄ±rlÄ±klÄ±Ġ": 9204, "riyet": 9205, "ĠdÃ¼nya": 9206, "yaÅŁadÄ±ÄŁ": 9207, "partiĠ": 9208, "ĠÃľlkemizdeĠ": 9209, "atÄ±rÄ±m": 9210, "lamak": 9211, "ortal": 9212, "ektekiĠ": 9213, "zaĠ": 9214, "ĠSig": 9215, "Ä±lÄ±ÄŁÄ±ĠileĠ": 9216, "Ã¼zyonĠ": 9217, "koc": 9218, "Dil": 9219, "asÄ±ylaĠ": 9220, "bakÄ±mdanĠ": 9221, "Se": 9222, "medenĠÃ¶nceĠ": 9223, "Cl": 9224, "hu": 9225, "ĠEfendi": 9226, "TR": 9227, "Dair": 9228, "ĠhizmetĠ": 9229, "gÃ¶zĠÃ¶nÃ¼neĠalÄ±n": 9230, "ĠDin": 9231, "Ä±mlarÄ±Ġ": 9232, "orumaĠ": 9233, "mekĠiÃ§in": 9234, "birazĠ": 9235, "paket": 9236, "farkÄ±ndaĠ": 9237, "YÃ¼ksekĠ": 9238, "teÅŁkil": 9239, "kÃ¼reselĠ": 9240, "muay": 9241, "ĠaylÄ±kĠ": 9242, "nasÄ±lĠbirĠ": 9243, "ortamÄ±Ġ": 9244, "seviyedeĠ": 9245, "Ermen": 9246, "yÃ¼rÃ¼rlÃ¼ÄŁ": 9247, "larÄ±nÄ±nĠdaĠ": 9248, "ĠilgiliĠ": 9249, "Ã¢rÃ®": 9250, "dengel": 9251, "SO": 9252, "Ã¼Ã§Ġ": 9253, "Ku": 9254, "dinam": 9255, "Ġolsun": 9256, "onksiyonĠ": 9257, "ustur": 9258, "sanaĠ": 9259, "far": 9260, "Ä±lanĠbirĠ": 9261, "DK": 9262, "ĠDep": 9263, "durumaĠ": 9264, "ÃľR": 9265, "Ġdeniz": 9266, "VeĠ": 9267, "UK": 9268, "metab": 9269, "Ã®d": 9270, "toplananĠ": 9271, "Sor": 9272, "olat": 9273, "haseb": 9274, "ĠDaÄŁ": 9275, "ĠmiĠ": 9276, "lÄ±lÄ±ÄŁÄ±nÄ±Ġ": 9277, "ĠdeÄŁerlendir": 9278, "kronikĠ": 9279, "eyim": 9280, "aniĠ": 9281, "leriĠtarafÄ±ndanĠ": 9282, "eksiĠ": 9283, "Ġsabit": 9284, "Ġkitl": 9285, "imkanÄ±Ġ": 9286, "hastalÄ±ÄŁÄ±Ġ": 9287, "iÅŁti": 9288, "duruÅŁ": 9289, "karaĠ": 9290, "Ko": 9291, "MR": 9292, "oliz": 9293, "ĠYol": 9294, "imkÃ¢nÄ±Ġ": 9295, "Ã§Ä±kmÄ±ÅŁtÄ±r": 9296, "Ġtoprak": 9297, "maddelerinĠ": 9298, "imzalan": 9299, "manÄ±n": 9300, "kaydet": 9301, "nedeniyle": 9302, "tiveĠ": 9303, "layabilir": 9304, "ĠÄ°yiĠ": 9305, "Ä°RÄ°Åŀ": 9306, "ĠBkz": 9307, "Ġstat": 9308, "DÃ¼ÅŁ": 9309, "ĠgenelĠ": 9310, "nut": 9311, "siteĠ": 9312, "Bit": 9313, "tanÄ±Ġ": 9314, "benimsen": 9315, "artmÄ±ÅŁtÄ±r": 9316, "ĠyÃ¼ksel": 9317, "kalemeĠ": 9318, "malÄ±y": 9319, "ĠetmesiĠ": 9320, "zurum": 9321, "olduÄŁundaĠ": 9322, "ilerleyenĠ": 9323, "aw": 9324, "Ġmes": 9325, "GF": 9326, "Akdeniz": 9327, "okuryazar": 9328, "makĠiÃ§in": 9329, "kalÄ±cÄ±Ġ": 9330, "TeÅŁ": 9331, "lamalar": 9332, "ilmesininĠ": 9333, "Ã¼leymanĠ": 9334, "pe": 9335, "bÃ¶yl": 9336, "denir": 9337, "resm": 9338, "diÄŁini": 9339, "ĠGenelĠolarakĠ": 9340, "AlmanĠ": 9341, "loc": 9342, "soh": 9343, "fon": 9344, "emektedir": 9345, "idinĠ": 9346, "Ã¶zellikleri": 9347, "ts": 9348, "ĠRek": 9349, "Mehmet": 9350, "esk": 9351, "diplo": 9352, "niteliÄŁiĠ": 9353, "GÃ¶": 9354, "evizyon": 9355, "skor": 9356, "No": 9357, "imdenĠ": 9358, "gÄ±tay": 9359, "Ġmotor": 9360, "gÃ¼zelĠbirĠ": 9361, "meyveĠ": 9362, "koordin": 9363, "Ã¶ÄŁrencininĠ": 9364, "Ã§aÄŁdaÅŁ": 9365, "Ġgr": 9366, "iliÅŁkininĠ": 9367, "ĠbilgilerĠ": 9368, "aklÄ±Ġ": 9369, "evlilikĠ": 9370, "ĠAraÅŁtÄ±rmayaĠ": 9371, "karÅŁÄ±ĠkarÅŁÄ±yaĠ": 9372, "hemĠ": 9373, "dezavantaj": 9374, "olduklarÄ±nÄ±Ġ": 9375, "devamĠed": 9376, "yaÅŁamĠkalit": 9377, "MÃ¼": 9378, "imkÃ¢nĠ": 9379, "yolunaĠ": 9380, "Ġsavun": 9381, "Ġnef": 9382, "ÅŁehr": 9383, "iklerĠ": 9384, "ĠolsaĠdaĠ": 9385, "wh": 9386, "konusundakiĠ": 9387, "dÄ±ÄŁÄ±ndanĠ": 9388, "Ã¼ÄŁÃ¼nĠ": 9389, "ĠkÃ¼m": 9390, "ikiĠfarklÄ±Ġ": 9391, "politikaĠ": 9392, "ĠBirĠbaÅŁkaĠ": 9393, "tÃ¼rlÃ¼": 9394, "Mev": 9395, "etme": 9396, "tad": 9397, "yapabilir": 9398, "Ä·": 9399, "arasÄ±": 9400, "hesiz": 9401, "desi": 9402, "ĠNitekimĠ": 9403, "ĠFer": 9404, "ĠAnadoluĠ": 9405, "ĠbizeĠ": 9406, "Ã¶nlen": 9407, "yerĠalÄ±r": 9408, "yahut": 9409, "oyunuĠ": 9410, "Vak": 9411, "etkinliÄŁiĠ": 9412, "vil": 9413, "sÃ¼recininĠ": 9414, "kred": 9415, "ithalat": 9416, "tohum": 9417, "imlerininĠ": 9418, "layan": 9419, "nitelikteĠ": 9420, "lehineĠ": 9421, "ĠilÃ§": 9422, "durumunda": 9423, "HerĠ": 9424, "verilmiÅŁ": 9425, "leninĠ": 9426, "dÃ¼zenliĠ": 9427, "ĠyÃ¶ntemiĠ": 9428, "fot": 9429, "Ġeylem": 9430, "leriniz": 9431, "mayaĠbaÅŁladÄ±": 9432, "LA": 9433, "Ã¶zgÃ¼nĠ": 9434, "imleĠ": 9435, "ĠKitap": 9436, "oĠkadar": 9437, "ĠÅŀah": 9438, "ĠBÃ¼yÃ¼k": 9439, "ida": 9440, "Ġperformans": 9441, "gÃ¶sterilmektedir": 9442, "NeĠ": 9443, "sorunlarÄ±nĠ": 9444, "DÄ±ÅŁ": 9445, "pul": 9446, "motivasyon": 9447, "rakip": 9448, "faktÃ¶rler": 9449, "bahset": 9450, "ĠEnd": 9451, "etkilerĠ": 9452, "ĠGÃ¶rÃ¼ÅŁ": 9453, "ĠolmadÄ±ÄŁÄ±nÄ±Ġ": 9454, "Ġbelg": 9455, "ĠÃ¶lÃ¼m": 9456, "ĠSo": 9457, "eksen": 9458, "geliÅŁmelerĠ": 9459, "ĠFransÄ±z": 9460, "cÄ±sÄ±Ġ": 9461, "ĠArdÄ±ndanĠ": 9462, "deÄŁerininĠ": 9463, "Ġdav": 9464, "Ġex": 9465, "milliyet": 9466, "ĠBunlarĠ": 9467, "kritikĠ": 9468, "mÄ±ÅŁĠolanĠ": 9469, "ĠtoplumsalĠ": 9470, "olduÄŁununĠ": 9471, "dÄ±ÅŁÄ±naĠ": 9472, "taÃ§": 9473, "tamamÄ±Ġ": 9474, "arasÄ±ndakiĠiliÅŁkiyiĠ": 9475, "BirleÅŁikĠ": 9476, "ĠAlmanya": 9477, "vuz": 9478, "Bak": 9479, "gÃ¼venliĠ": 9480, "ĠBuradanĠ": 9481, "debiyat": 9482, "ĠDahaĠÃ¶nceĠ": 9483, "veÃ§": 9484, "dayanarakĠ": 9485, "Ġbut": 9486, "dÄ±ÄŁÄ±ĠveĠ": 9487, "Ġolgu": 9488, "Ã»d": 9489, "alÄ±yor": 9490, "tarihsel": 9491, "rep": 9492, "geleceÄŁ": 9493, "element": 9494, "ĠsÄ±f": 9495, "zekÃ¢": 9496, "yed": 9497, "bankaĠ": 9498, "semptom": 9499, "Ġsez": 9500, "mun": 9501, "lob": 9502, "Ã¶zelliklerineĠ": 9503, "iÃ§indenĠ": 9504, "yargÄ±Ġ": 9505, "katsayÄ±sÄ±Ġ": 9506, "Ã¼cretĠ": 9507, "Evet": 9508, "hÃ¢lÃ¢": 9509, "bÃ¶lgesindeĠ": 9510, "Ġdoz": 9511, "kaynaklanmaktadÄ±r": 9512, "birĠÃ§okĠ": 9513, "ismiĠ": 9514, "Ãĸrn": 9515, "ĠedilerekĠ": 9516, "bulunuyor": 9517, "elineĠ": 9518, "ĠBuĠÅŁekildeĠ": 9519, "izminĠ": 9520, "ilginÃ§": 9521, "katkÄ±": 9522, "alama": 9523, "iyleĠilgiliĠ": 9524, "farklÄ±lÄ±kĠgÃ¶ster": 9525, "Ã¶nemĠtaÅŁÄ±maktadÄ±r": 9526, "amamÄ±ÅŁtÄ±r": 9527, "yÃ¼zÃ¼ndenĠ": 9528, "insanÄ±Ġ": 9529, "durumu": 9530, "maÄŁaz": 9531, "farkÄ±Ġ": 9532, "âĢĸ": 9533, "gelip": 9534, "ĠGelenek": 9535, "ĠmÄ±Ġ": 9536, "ilist": 9537, "ĠCumhur": 9538, "yapÄ±daĠ": 9539, "Ġkriter": 9540, "kullanabil": 9541, "ĠmiktarÄ±Ġ": 9542, "ĠyeriĠ": 9543, "haksÄ±z": 9544, "kaynaklarÄ±nĠ": 9545, "larkenĠ": 9546, "ĠâĢķ": 9547, "mÄ±ÅŁĠolduÄŁuĠ": 9548, "aff": 9549, "ĠgrubununĠ": 9550, "ukur": 9551, "iyaz": 9552, "gÃ¶k": 9553, "mayacak": 9554, ".:": 9555, "ĠsÄ±v": 9556, "astr": 9557, "ĠHizmet": 9558, "keyif": 9559, "ĠkendisineĠ": 9560, "pon": 9561, "sÃ¶zcÃ¼k": 9562, "lamatu": 9563, "dÃ¼ÅŁtÃ¼ÄŁ": 9564, "ĠyaÅŁÄ±ndakiĠ": 9565, "sigaraĠ": 9566, "hususundaĠ": 9567, "ibadet": 9568, "gÃ¶zdenĠgeÃ§ir": 9569, "takib": 9570, "uzay": 9571, "kidenĠ": 9572, "vah": 9573, "BÃ¼yÃ¼k": 9574, "yÄ±lÄ±nĠ": 9575, "sever": 9576, "alanÄ±nĠ": 9577, "lenerekĠ": 9578, "Ã§evreselĠ": 9579, "Ã¼nÃ¼n": 9580, "inanc": 9581, "umunĠ": 9582, "ĠgiriÅŁ": 9583, "ilgilendir": 9584, "afet": 9585, "direkt": 9586, "FA": 9587, "sessiz": 9588, "Ã§oÄŁunluÄŁuĠ": 9589, "farklÄ±lÄ±klarĠ": 9590, "ĠBÃ¶lÃ¼m": 9591, "dokuz": 9592, "Ã¶rneÄŁiĠ": 9593, "ĠamaÃ§": 9594, "ĠMur": 9595, "alma": 9596, "ME": 9597, "iyod": 9598, "sonuĠ": 9599, "ceph": 9600, "besinĠ": 9601, "ĠmÃ¼cadel": 9602, "ĠMehmet": 9603, "adil": 9604, "ÅŁekildedir": 9605, "ĠyÄ±lÄ±nÄ±nĠ": 9606, "eye": 9607, "nadir": 9608, "Ã§okluĠ": 9609, "UluslararasÄ±Ġ": 9610, "Ġtoplumsal": 9611, "ifades": 9612, "lÃ¼t": 9613, "HÃ¼kÃ¼m": 9614, "alanlarÄ±ndaĠ": 9615, "lerinĠdeĠ": 9616, "masÄ±naĠveĠ": 9617, "aÄŁaĠ": 9618, "div": 9619, "ikalĠ": 9620, "ĠboyuĠ": 9621, "herĠÅŁeyiĠ": 9622, "Ekonom": 9623, "meleri": 9624, "ĠgÃ¼neÅŁ": 9625, "ack": 9626, "halĠ": 9627, "ĠyerleÅŁ": 9628, "rakiĠ": 9629, "Ä±nÄ±zdaĠ": 9630, "vetĠ": 9631, "atar": 9632, "durumunuĠ": 9633, "masÄ±naĠraÄŁmenĠ": 9634, "Ã¼lÃ¼r": 9635, "Sal": 9636, "dÃ¼ÄŁÃ¼ndeĠ": 9637, "incelenmesiĠ": 9638, "imleriniĠ": 9639, "ipto": 9640, "AtatÃ¼r": 9641, "dom": 9642, "Ä±lÄ±ÅŁ": 9643, "ĠAc": 9644, "sÄ±kÄ±ntÄ±": 9645, "ĠaÄŁr": 9646, "ano": 9647, "ÅŁahÄ±s": 9648, "birĠarayaĠgetir": 9649, "Ã§erÃ§evedeĠ": 9650, "incelemekĠ": 9651, "inleĠ": 9652, "Test": 9653, "entr": 9654, "yoksaĠ": 9655, "Ġkriz": 9656, "BT": 9657, "nefes": 9658, "literatÃ¼rdeĠ": 9659, "ĠBaÅŁkan": 9660, "kapsamaktadÄ±r": 9661, "PA": 9662, "Ġïĥĺ": 9663, "dÄ±kĠ": 9664, "ĠBizimĠ": 9665, "bÃ¼yÃ¼kĠÃ¶lÃ§Ã¼deĠ": 9666, "ĠbulunmuÅŁtur": 9667, "gÃ¼venliÄŁiĠ": 9668, "dÃ¶": 9669, "ĠhakkÄ±Ġ": 9670, "ĠBet": 9671, "Ġïģ": 9672, "ĠyeniĠbirĠ": 9673, "Sam": 9674, "proteinĠ": 9675, "CH": 9676, "farkÄ±nd": 9677, "ĠbaÅŁkaĠbirĠ": 9678, "ilerĠiÃ§inĠ": 9679, "Ka": 9680, "tÃ¼rlÃ¼Ġ": 9681, "madÄ±m": 9682, "hik": 9683, "metot": 9684, "ĠÃ¼rÃ¼nĠ": 9685, "yerdenĠ": 9686, "dahaĠazĠ": 9687, "ĠKuzey": 9688, "Her": 9689, "Ã¼ĠdeĠ": 9690, "meleriĠiÃ§inĠ": 9691, "ĠetmekĠiÃ§inĠ": 9692, "Ġcinsiyet": 9693, "ĠnÃ¼fus": 9694, "edenĠbirĠ": 9695, "ilerĠtarafÄ±ndanĠ": 9696, "menfaat": 9697, "effaf": 9698, "Ã¢k": 9699, "lardaĠdaĠ": 9700, "ĠaslÄ±ndaĠ": 9701, "liber": 9702, "hakikat": 9703, "yÃ¶nĠ": 9704, "Ã§eveĠ": 9705, "ius": 9706, "ĠVeriĠ": 9707, "etay": 9708, "Kuzey": 9709, "ikselĠolarakĠ": 9710, "Ġno": 9711, "otomobil": 9712, "hakem": 9713, "baÄŁÄ±ÅŁ": 9714, "uyumĠ": 9715, "tras": 9716, "eÅŁlikĠ": 9717, "regresyonĠ": 9718, "Ã¶zgÃ¼": 9719, "ĠyoluĠ": 9720, "Ġss": 9721, "adap": 9722, "incisi": 9723, "enlereĠ": 9724, "dÃ¼nĠ": 9725, "oksidanĠ": 9726, "bozukluk": 9727, "toplantÄ±": 9728, "ino": 9729, "ĠÄ°stanbulĠ": 9730, "GE": 9731, "yerelĠ": 9732, "seriĠ": 9733, "ergen": 9734, "endi": 9735, "yapmayaĠ": 9736, "saÄŁlamakĠiÃ§inĠ": 9737, "nakĠ": 9738, "au": 9739, "icr": 9740, "korunmasÄ±Ġ": 9741, "ortakĠbirĠ": 9742, "Ġkuram": 9743, "anketĠ": 9744, "Ã§evresindeĠ": 9745, "alarÄ±nÄ±Ġ": 9746, "sÄ±kÄ±Ġ": 9747, "ĠinÅŁ": 9748, "dÃ¼zeyleriĠ": 9749, "Ġhipotez": 9750, "liam": 9751, "yalĠ": 9752, "yerleÅŁim": 9753, "GÃ¼l": 9754, "isiĠolarakĠ": 9755, "ĠDoÄŁuĠ": 9756, "Ġsilah": 9757, "mayacaÄŁ": 9758, "ĠyapanĠ": 9759, "profil": 9760, "ĠedildiÄŁiĠ": 9761, "ĠkayÄ±t": 9762, "Ã¶ndeĠ": 9763, "ĠÃ¼lkeĠ": 9764, "sellikĠ": 9765, "kayaĠ": 9766, "Ã§okĠaz": 9767, "Ġmaliyet": 9768, "termal": 9769, "Ġro": 9770, "aÃ§Ä±ktÄ±r": 9771, "yenil": 9772, "ĠbaÄŁlant": 9773, "indenĠsonraĠ": 9774, "ĠyabancÄ±Ġ": 9775, "ĠardÄ±Ġ": 9776, "yararlÄ±Ġ": 9777, "YayÄ±nlarÄ±": 9778, "Ä±tÄ±m": 9779, "yacaÄŁÄ±nÄ±Ġ": 9780, "TaÅŁ": 9781, "dÃ¼ÅŁÃ¼nÃ¼yor": 9782, "bonus": 9783, "tutuk": 9784, "gebel": 9785, "Ã§Ã¶zelt": 9786, "sÄ±kÄ±nt": 9787, "ĠKaf": 9788, "tereĠ": 9789, "lÄ±larÄ±nĠ": 9790, "ebilirler": 9791, "ĠbulunanĠ": 9792, "dÃ¼ÄŁÃ¼m": 9793, "ĠDurum": 9794, "Ġdem": 9795, "ĠMey": 9796, "izam": 9797, "ĠbaÅŁlÄ±klÄ±Ġ": 9798, "ĠPlan": 9799, "mÃ¼f": 9800, "Ã¶nemĠkazan": 9801, "Ġpas": 9802, "deÄŁiÅŁkeniĠ": 9803, "iÅŁtenĠ": 9804, "yoÄŁunluÄŁ": 9805, "sÄ±caklÄ±k": 9806, "saÄŁlanmÄ±ÅŁtÄ±r": 9807, "bilgininĠ": 9808, "ĠyoluylaĠ": 9809, "ĠbaÅŁtaĠ": 9810, "ĠherĠzamanĠ": 9811, "eseriĠ": 9812, "nav": 9813, "hoc": 9814, "yerliĠ": 9815, "Ġ`": 9816, "ÅŁeyinĠ": 9817, "ĠkuruĠ": 9818, "esnaf": 9819, "ĠmodernĠ": 9820, "Ġmuh": 9821, "alakalÄ±Ġ": 9822, "lantÄ±": 9823, "ĠYÃĸ": 9824, "italist": 9825, "Ġmakin": 9826, "ĠMus": 9827, "Con": 9828, "hÄ±zlandÄ±r": 9829, "benzerlikĠ": 9830, "nÃ¼kle": 9831, "yakala": 9832, "gÃ¶v": 9833, "gÃ¼nah": 9834, "Ãľl": 9835, "Yay": 9836, "yasaĠ": 9837, "Ġhafta": 9838, "ilereĠgÃ¶reĠ": 9839, "Ġettik": 9840, "iyiz": 9841, "ĠiĠ": 9842, "ĠgeÃ§enĠ": 9843, "laĠberaberĠ": 9844, "emat": 9845, "ĠgrubundakiĠ": 9846, "polimer": 9847, "hayatÄ±Ġ": 9848, "Ġkalp": 9849, "sÃ¶ylÃ¼yor": 9850, "asÄ±nda": 9851, "alÄ±ndÄ±": 9852, "civar": 9853, "dÃ¼zeylerininĠ": 9854, "hel": 9855, "ĠTemmuzĠ": 9856, "Ġuyar": 9857, "sada": 9858, "zihn": 9859, "ĠareĠ": 9860, "masÄ±z": 9861, "kamp": 9862, "yabancÄ±": 9863, "ojistikĠ": 9864, "yatay": 9865, "etmeyiĠ": 9866, "leriniziĠ": 9867, "disiplin": 9868, "asÄ±yla": 9869, "Ã¶rnekĠolarakĠ": 9870, "eyz": 9871, "yandan": 9872, "ĠyÄ±llarÄ±ndaĠ": 9873, "cilt": 9874, "manyetikĠ": 9875, "ĠGÃ¼nÃ¼mÃ¼z": 9876, "ĠAdam": 9877, "maksÄ±zÄ±nĠ": 9878, "AraÅŁtÄ±rmaĠ": 9879, "http": 9880, "eceriĠ": 9881, "olduÄŁuĠtespitĠedilmiÅŁtir": 9882, "beraberindeĠgetir": 9883, "kullanÄ±mÄ±nÄ±nĠ": 9884, "ĠMut": 9885, "dÄ±ÄŁÄ±m": 9886, "Ã§iler": 9887, "tÃ¼rk": 9888, "iyeĠveĠ": 9889, "Ä±lavuz": 9890, "cÃ¼Ġ": 9891, "ĠuygulamaĠ": 9892, "gÃ¶revlendir": 9893, "veriyor": 9894, "konuyuĠ": 9895, "bulgular": 9896, "paraĠkazan": 9897, "Ġtaleb": 9898, "zey": 9899, "performansÄ±Ġ": 9900, "ovid": 9901, "ĠhukukĠ": 9902, "yaĠgÃ¶reĠ": 9903, "ÃĸL": 9904, "duÄŁumuz": 9905, "larÄ±naĠgÃ¶re": 9906, "BirliÄŁiĠ": 9907, "ĠAfr": 9908, "ĠdÃ¶nemdeĠ": 9909, "sunduÄŁuĠ": 9910, "ĠNormal": 9911, "yazÄ±lmÄ±ÅŁ": 9912, "baÅŁvuruĠ": 9913, "ĠHerkes": 9914, "gÃ¶rÃ¼ldÃ¼": 9915, "ĠÃ¼ret": 9916, "likĠbirĠ": 9917, "ĠvatandaÅŁ": 9918, "olanlarÄ±nĠ": 9919, "ellif": 9920, "ĠkullanÄ±mÄ±Ġ": 9921, "etenĠ": 9922, "elerĠiÃ§inĠ": 9923, "img": 9924, "Mad": 9925, "karÅŁÄ±mÄ±zaĠÃ§Ä±kmaktadÄ±r": 9926, "ĠolduÄŁuĠiÃ§inĠ": 9927, "unt": 9928, "cularÄ±nĠ": 9929, "pah": 9930, "hiĠ": 9931, "ĠtipiĠ": 9932, "dÃ¼ÄŁÃ¼nÃ¼": 9933, "ova": 9934, "ĠmeÅŁ": 9935, "ĠSen": 9936, "brekĠ": 9937, "ĠoluÅŁum": 9938, "ĠyetiÅŁtir": 9939, "edim": 9940, "Ä±nca": 9941, "sĠand": 9942, "luĠveĠ": 9943, "ĠhÃ¢": 9944, "Ä°lk": 9945, "denkĠ": 9946, "altÄ±nda": 9947, "OH": 9948, "kayded": 9949, "Ġmon": 9950, "gÃ¶rÃ¼ÅŁleriniĠ": 9951, "ÅŁiddetĠ": 9952, "makĠamacÄ±yla": 9953, "bastÄ±r": 9954, "Ã¼sÃ¼nÃ¼nĠ": 9955, "yuvar": 9956, "larĠoluÅŁtur": 9957, "ĠyaptÄ±ÄŁÄ±Ġ": 9958, "dÃ¼zenlenmiÅŁtir": 9959, "onal": 9960, "ĠgÃ¼nÃ¼mÃ¼zdeĠ": 9961, "indeks": 9962, "davranÄ±ÅŁlarÄ±nÄ±Ġ": 9963, "aĠkadarĠ": 9964, "diÄŁiĠgibiĠ": 9965, "dokuĠ": 9966, "yapÄ±sÄ±nÄ±Ġ": 9967, "yapÄ±larÄ±nĠ": 9968, "koruyucuĠ": 9969, "imzaĠ": 9970, "arta": 9971, "ĠkapsamÄ±ndaĠ": 9972, "ettim": 9973, "ĠmaÄŁ": 9974, "yumur": 9975, "hastalÄ±ÄŁ": 9976, "tÄ±ÄŁÄ±ndaĠ": 9977, "ĠAbdÃ¼l": 9978, "Åŀer": 9979, "iliÅŁkilidir": 9980, "Ġrahat": 9981, ".),": 9982, "ineĠait": 9983, "nitelikĠ": 9984, "Ġrol": 9985, "ĠIV": 9986, "Ã®n": 9987, "kalem": 9988, "Ġgez": 9989, "beslenmeĠ": 9990, "iliÄŁindenĠ": 9991, "yumuÅŁakĠ": 9992, "ĠPsik": 9993, "yardÄ±mcÄ±Ġolur": 9994, "ĠGeliÅŁ": 9995, "buĠikiĠ": 9996, "ahh": 9997, "Ham": 9998, "araÅŁtÄ±rmacÄ±Ġ": 9999, "izley": 10000, "ani": 10001, "deyiÅŁleĠ": 10002, "cevab": 10003, "ĠTÃ¼mĠbuĠ": 10004, "viÃ§": 10005, "Ġthis": 10006, "Alman": 10007, "kÄ±smÄ±nÄ±nĠ": 10008, "ecekĠÅŁekildeĠ": 10009, "ĠFilm": 10010, "ĠHip": 10011, "larÄ±naĠkarÅŁÄ±Ġ": 10012, "verĠ": 10013, "larÄ±ĠiseĠ": 10014, "ĠKu": 10015, "unuĠveĠ": 10016, "Ġolmas": 10017, "egemenĠ": 10018, "ĠÃĸncelikleĠ": 10019, "ĠveĠF": 10020, "ÃĩokĠ": 10021, "Ġst": 10022, "Ã¼man": 10023, "HÄ±rist": 10024, "ĠNa": 10025, "asÄ±ĠileĠ": 10026, "ĠhalkĠ": 10027, "ekir": 10028, "Ġmevcuttur": 10029, "ste": 10030, "ale": 10031, "suzluk": 10032, "maktaĠolanĠ": 10033, "Ġsur": 10034, "taÅŁÄ±r": 10035, "kurulmuÅŁtur": 10036, "bert": 10037, "telefon": 10038, "Ġkonut": 10039, "ĠAhmet": 10040, "lic": 10041, "talyaĠ": 10042, "gÃ¼v": 10043, "iras": 10044, "tarÄ±mĠ": 10045, "deÄŁeriniĠ": 10046, "bÃ¶lgelerdeĠ": 10047, "eÅŁilĠ": 10048, "nakl": 10049, "sizliÄŁiĠ": 10050, "ĠÃ¶nemliĠ": 10051, "boyutuĠ": 10052, "eygamberĠ": 10053, "ĠVak": 10054, "Ġesas": 10055, "hÃ¼c": 10056, "alacaÄŁ": 10057, "ĠanlamÄ±naĠ": 10058, "ecekleriniĠ": 10059, "ĠfotoÄŁraf": 10060, "mikĠ": 10061, "ĠsÄ±radaĠ": 10062, "isimlendir": 10063, "Ġzih": 10064, "Ã§ocuklar": 10065, "belediyeĠ": 10066, "eral": 10067, "profesyonel": 10068, "urkenĠ": 10069, "gay": 10070, "ĠAÃ§Ä±k": 10071, "ĠCo": 10072, "Ġsub": 10073, "mezar": 10074, "tayÄ±Ġ": 10075, "Ġhap": 10076, "bÃ¶lgeninĠ": 10077, "birbirleriyleĠ": 10078, "ĠayÄ±ndaĠ": 10079, "fol": 10080, "ĠZaman": 10081, "Ãľzer": 10082, "formÃ¼l": 10083, "milletvekil": 10084, "ĠyanlÄ±ÅŁ": 10085, "landÄ±ÄŁÄ±nÄ±Ġ": 10086, "Na": 10087, "ibaret": 10088, "ulabilir": 10089, "tikleriĠ": 10090, "amasÄ±Ġ": 10091, "ufakĠ": 10092, "Ġplatform": 10093, "ilkĠdefaĠ": 10094, "dans": 10095, "ĠYaÅŁam": 10096, "okuluĠ": 10097, "yapmÄ±ÅŁĠolduÄŁuĠ": 10098, "ĠolarakĠbulunmuÅŁtur": 10099, "Ã¼stlen": 10100, "zamanĠzamanĠ": 10101, "ĠiletiÅŁim": 10102, "ĠKanun": 10103, "olaylarÄ±nĠ": 10104, "neĠzamanĠ": 10105, "ĠyoksaĠ": 10106, "ĠiÃ§indekiĠ": 10107, "grubaĠ": 10108, "ĠZatenĠ": 10109, "vic": 10110, "GÃ¼r": 10111, "aĠÃ§Ä±kar": 10112, "Ġettir": 10113, "Ġfelsef": 10114, "yatanĠ": 10115, "ĠEner": 10116, "ekonomiĠ": 10117, "Ġharc": 10118, "iktir": 10119, "ĠDik": 10120, "Ġdef": 10121, "ART": 10122, "BeÅŁ": 10123, "Ġedildi": 10124, "ĠyaÅŁan": 10125, "eticiĠ": 10126, "olduÄŁuĠsÃ¶ylenebilir": 10127, "yapmasÄ±Ġ": 10128, "ĠyapÄ±Ġ": 10129, "hemenĠhemenĠ": 10130, "ĠPan": 10131, "ivas": 10132, "belirtildiÄŁiĠ": 10133, "dersiĠ": 10134, "ulaÅŁabil": 10135, "ineĠyÃ¶nelikĠ": 10136, "amayaĠ": 10137, "aseĠ": 10138, "ĠmerkeziĠ": 10139, "birĠkez": 10140, "salĠbirĠ": 10141, "eyi": 10142, "zaf": 10143, "katkÄ±daĠbulun": 10144, "RusyaĠ": 10145, "imalat": 10146, "rikĠ": 10147, "olduÄŁunuĠgÃ¶stermektedir": 10148, "lerĠgibiĠ": 10149, "mayaĠyÃ¶nelikĠ": 10150, "dengeĠ": 10151, "Yas": 10152, "iknaĠ": 10153, "Ġgereksin": 10154, "grubundaĠ": 10155, "gÃ¶Ã§men": 10156, "almakĠiÃ§inĠ": 10157, "ĠSonuÃ§Ġolarak": 10158, "ebiliyor": 10159, "Ġfrom": 10160, "bÃ¼l": 10161, "larÄ±ndaĠdaĠ": 10162, "makro": 10163, "saÄŁlamÄ±ÅŁtÄ±r": 10164, "meyv": 10165, "Ä±nÄ±nĠbirĠ": 10166, "Ġayak": 10167, "Ġun": 10168, "ulusalĠ": 10169, "iptalĠ": 10170, "ĠSuĠ": 10171, "almasÄ±Ġ": 10172, "ĠyÃ¼zdeĠ": 10173, "olabileceÄŁiniĠ": 10174, "enn": 10175, "Ã§Ã¼n": 10176, "mÃ¼hendis": 10177, "olupĠolmadÄ±ÄŁÄ±nÄ±Ġ": 10178, "kalmÄ±ÅŁ": 10179, "fÃ¶y": 10180, "ĠolduÄŁunu": 10181, "gerÃ§ekleÅŁmiÅŁtir": 10182, "isyonuĠ": 10183, "vererekĠ": 10184, "Ġref": 10185, "neÅŁ": 10186, "á¹": 10187, "ĠeleÅŁtir": 10188, "ĠeÄŁitimĠ": 10189, "taĠveĠ": 10190, "arayÄ±ÅŁ": 10191, "rens": 10192, "yazdÄ±ÄŁÄ±Ġ": 10193, "kullanÄ±lacakĠ": 10194, "hatÄ±rlat": 10195, "ĠKitab": 10196, "istasyon": 10197, "lerleĠilgiliĠ": 10198, "gÃ¼ndeĠ": 10199, "Ã¼rÃ¼z": 10200, "ineĠkarÅŁÄ±Ġ": 10201, "lamasÄ±": 10202, "baÅŁlÄ±kĠ": 10203, "ĠmÃ¼ÅŁteriĠ": 10204, "atÄ±l": 10205, "bÃ¼yÃ¼klÃ¼ÄŁ": 10206, "ollan": 10207, "ĠmilyarĠdolar": 10208, "indeĠbulun": 10209, "Ġkompl": 10210, "zamanda": 10211, "SD": 10212, "ekte": 10213, "lÄ±klarÄ±nÄ±Ġ": 10214, "ĠAil": 10215, "ĠÅŁÃ¼p": 10216, "niÅŁ": 10217, "ĠninĠ": 10218, "iyaĠ": 10219, "ĠiÃ§erenĠ": 10220, "Ġlider": 10221, "eÄŁim": 10222, "ozof": 10223, "saÄŁlayabil": 10224, "liliÄŁinĠ": 10225, "bahisĠsit": 10226, "maddelerĠ": 10227, "deÄŁeri": 10228, "ĠhastanÄ±nĠ": 10229, "algÄ±Ġ": 10230, "obikĠ": 10231, "Ã¶ykÃ¼": 10232, "Ġunsur": 10233, "araÃ§larÄ±Ġ": 10234, "ĠileĠbirlikteĠ": 10235, "ĠÃĩeÅŁit": 10236, "ugh": 10237, "neĠdeĠ": 10238, "iĠileĠilgiliĠ": 10239, "iyyeĠ": 10240, "maddeninĠ": 10241, "ĠCh": 10242, "ĠÅŀirket": 10243, "anlamÄ±ndaĠ": 10244, "lamas": 10245, "Ä±cÄ±lÄ±ÄŁ": 10246, "zeĠ": 10247, "ĠÄ°Ã§er": 10248, "vakÄ±f": 10249, "ĠgÃ¼nÃ¼": 10250, "Ġfil": 10251, "dÄ±ÅŁÄ±nda": 10252, "lardaĠveĠ": 10253, "Ġsaptan": 10254, "bilgiyiĠ": 10255, "dÄ±rÄ±m": 10256, "gÃ¶zet": 10257, "kÃ¶r": 10258, "binlerceĠ": 10259, "ehl": 10260, "Ã§Ä±lar": 10261, "ayrÄ±lanĠ": 10262, "ĠBÃ¶yleĠ": 10263, "Ġpotansiy": 10264, "kapsamlÄ±Ġ": 10265, "temelindeĠ": 10266, "Ġkart": 10267, "err": 10268, "toplumdaĠ": 10269, "Ġdedim": 10270, "ray": 10271, "sonucuĠolarakĠ": 10272, "ĠDiÄŁer": 10273, "gariĠ": 10274, "eynĠ": 10275, "ĠHalkĠ": 10276, "paras": 10277, "manÄ±zÄ±Ġ": 10278, "ĠGÃ¼r": 10279, "Ġdenklem": 10280, "ĠÅŀeh": 10281, "imparator": 10282, "mÃ¢": 10283, "eksikliÄŁiĠ": 10284, "laraĠsahip": 10285, "ĠTay": 10286, "burayaĠ": 10287, "kabulĠedilenĠ": 10288, "sÃ¶yleyenĠ": 10289, "gÃ¶rÃ¼ldÃ¼ÄŁÃ¼Ġ": 10290, "obez": 10291, "larÄ±naĠyÃ¶nelikĠ": 10292, "iyye": 10293, "gidec": 10294, "gÃ¶steriyor": 10295, "Ã¼ccar": 10296, "tabiĠtut": 10297, "berg": 10298, "renkliĠ": 10299, "iÅŁleriĠBakan": 10300, "katman": 10301, "dijitalĠ": 10302, "sorular": 10303, "istediÄŁiniz": 10304, "IK": 10305, "lÃ¼ĠveĠ": 10306, "gÃ¶zĠardÄ±Ġ": 10307, "lerimiziĠ": 10308, "ieĠ": 10309, "Ġop": 10310, "hÄ±zla": 10311, "olmayaĠ": 10312, "ihtiyaÃ§larÄ±Ġ": 10313, "MP": 10314, "sonsuz": 10315, "duyulanĠ": 10316, "ebilmesiĠ": 10317, "olmaktanĠ": 10318, "benimsem": 10319, "ĠIs": 10320, "farklÄ±dÄ±r": 10321, "ĠZamanĠ": 10322, "nat": 10323, "ĠolduÄŁuĠgÃ¶rÃ¼lmektedir": 10324, "amaktadÄ±r": 10325, "ĠtoprakĠ": 10326, "seÃ§imĠ": 10327, "ĠÅŁiddet": 10328, "Val": 10329, "yetkil": 10330, "Dergisi": 10331, "PaÅŁaĠ": 10332, "derĠ": 10333, "akterĠ": 10334, "Bah": 10335, "ĠOnuĠ": 10336, "Ġmobil": 10337, "kaleĠ": 10338, "bileÅŁen": 10339, "ekran": 10340, "transferĠ": 10341, "ĠbirliÄŁiĠ": 10342, "yÃ¶nÃ¼yleĠ": 10343, "elliĠ": 10344, "oment": 10345, "tÄ±bbiĠ": 10346, "parÃ§alan": 10347, "celen": 10348, "radyo": 10349, "likle": 10350, "masÄ±naĠsebep": 10351, "ĠSonr": 10352, "kurumsalĠ": 10353, "eci": 10354, "kÃ¶kĠ": 10355, "tlaÅŁ": 10356, "makĠamacÄ±ylaĠ": 10357, "ĠMevcut": 10358, "sorununĠ": 10359, "lanan": 10360, "ĠkanĠ": 10361, "Ã¼ĠolanĠ": 10362, "alÄ±nÄ±r": 10363, "iyarbakÄ±r": 10364, "Ã¶rnekleriĠ": 10365, ";Ċ": 10366, "dinamikĠ": 10367, "ĠMez": 10368, "yirmiĠ": 10369, "Azerbay": 10370, "plant": 10371, "ĠÄ°nternet": 10372, "ÅŁirketinĠ": 10373, "ipariÅŁ": 10374, "Ä±nc": 10375, "bÃ¼nyesindeĠ": 10376, "Ã½": 10377, "eÄŁilimiĠ": 10378, "LE": 10379, "bÃ¶lgeyeĠ": 10380, "acÄ±k": 10381, "ĠveĠbirĠ": 10382, "Fransa": 10383, "ĠFinans": 10384, "afor": 10385, "halaĠ": 10386, "geriyeĠ": 10387, "iÃ§sel": 10388, "aĠait": 10389, "Ä±ncÄ±Ġ": 10390, "oluÅŁanĠbirĠ": 10391, "kademikĠ": 10392, "elal": 10393, "yapÄ±sÄ±nÄ±nĠ": 10394, "Ã¶nemli": 10395, "halkÄ±Ġ": 10396, "ĠBo": 10397, "enj": 10398, "Ġbed": 10399, "alabilir": 10400, "danĠitibarenĠ": 10401, "organizeĠ": 10402, "AÃ§": 10403, "sÄ±kĠsÄ±kĠ": 10404, "NO": 10405, "tidar": 10406, "Ġyerel": 10407, "ortayaĠkoymuÅŁtur": 10408, "Ä±msÄ±z": 10409, "iyeliĠ": 10410, "by": 10411, "ĠÃ§ocuklarÄ±nĠ": 10412, "ĠdÃ¶nemiĠ": 10413, "incelenenĠ": 10414, "gÃ¶rselĠ": 10415, "Ä°nsanĠ": 10416, "AnkaraĠ": 10417, "maklaĠbirlikteĠ": 10418, "Ġsanay": 10419, "kÄ±smÄ±ndaĠ": 10420, "GÃ¶reĠ": 10421, "laraĠiliÅŁkinĠ": 10422, "ĠYÃ¶ntem": 10423, "Ä°Z": 10424, "Ġiken": 10425, "kiÅŁilereĠ": 10426, "siyas": 10427, "ĠveĠL": 10428, "mamalÄ±dÄ±r": 10429, "uydur": 10430, "ĠdoÄŁum": 10431, "Ġpoz": 10432, "ĠmekÃ¢n": 10433, "anlayÄ±ÅŁÄ±Ġ": 10434, "sy": 10435, "EbÃ»": 10436, "muhalef": 10437, "].": 10438, "Ġasker": 10439, "maj": 10440, "ĠAyrÄ±caĠbuĠ": 10441, "Ġotur": 10442, "inleriĠ": 10443, "YÃ¼z": 10444, "beklem": 10445, "deÄŁiÅŁtirmeĠ": 10446, "ledikleriĠ": 10447, "tavsiy": 10448, "dola": 10449, "sÃ¶mÃ¼r": 10450, "olmayanĠbirĠ": 10451, "Ã¶ncÃ¼l": 10452, "indistan": 10453, "diyet": 10454, "elaĠ": 10455, "Ã¶nder": 10456, "ileriyleĠ": 10457, "imen": 10458, "isti": 10459, "Ã¼rÃ¼nler": 10460, "olojisiĠ": 10461, "ÅŁef": 10462, "ĠolmasÄ±ĠveĠ": 10463, "leĠveĠ": 10464, "Ã§okĠfazla": 10465, "unutul": 10466, "Ġaktivit": 10467, "ĠDes": 10468, "ĠBuĠkapsamdaĠ": 10469, "Ahmet": 10470, "ĠseÃ§en": 10471, "Grup": 10472, "karÅŁÄ±n": 10473, "ĠRusya": 10474, "ĠpsikolojikĠ": 10475, "elast": 10476, "Ġgem": 10477, "katÄ±lÄ±mcÄ±Ġ": 10478, "line": 10479, "yukarÄ±Ġ": 10480, "olarakĠgÃ¶r": 10481, "laraĠdaĠ": 10482, "ĠKelimeler": 10483, "engellem": 10484, "ĠbÃ¼yÃ¼kĠbirĠ": 10485, "laboratuvar": 10486, "ĠherĠikiĠ": 10487, "verilebilir": 10488, "hayatÄ±nĠ": 10489, "robot": 10490, "TE": 10491, "tanÄ±ÅŁ": 10492, "gÃ¶zÃ¼k": 10493, "Ã§okĠfazlaĠ": 10494, "Ã¶ÄŁretmeninĠ": 10495, "dÃ¼zeyindeĠ": 10496, "Ġid": 10497, "ĠettikleriĠ": 10498, "Ã¢deĠ": 10499, "vefat": 10500, "sokak": 10501, "ĠbundanĠ": 10502, "rof": 10503, "SÄ±r": 10504, "ĠmÃ¼mkÃ¼nĠ": 10505, "Sev": 10506, "eyy": 10507, "nis": 10508, "Ä°dar": 10509, "yerĠalan": 10510, "OK": 10511, "akrab": 10512, "kral": 10513, "ender": 10514, "Gazet": 10515, "itler": 10516, "Mus": 10517, "olaÄŁan": 10518, "Ġsiyaset": 10519, "leriniĠdeĠ": 10520, "tabak": 10521, "duyarlÄ±Ġ": 10522, "devrim": 10523, "sÃ»": 10524, "amayanĠ": 10525, "Ã¼mÃ¼zdekiĠ": 10526, "Ġdos": 10527, "ĠAnadolu": 10528, "Ã¶rtÃ¼ÅŁ": 10529, "Ġduygu": 10530, "ĠHerĠbirĠ": 10531, "deÄŁiÅŁiklikler": 10532, "KÃ¶": 10533, "anlarÄ±Ġ": 10534, "eĠsahiptir": 10535, "eme": 10536, "ĠBuĠikiĠ": 10537, "Mek": 10538, "ĠGÃ¼neÅŁ": 10539, "HayÄ±r": 10540, "saÄŁlanÄ±r": 10541, "ĠÃ§alÄ±ÅŁmasÄ±ndaĠ": 10542, "Ac": 10543, "ĠÃ§eÅŁ": 10544, "ĠgenelĠolarakĠ": 10545, "hazÄ±rlanmÄ±ÅŁ": 10546, "cort": 10547, "yÃ¼zÃ¼neĠ": 10548, "gÃ¼nlerdeĠ": 10549, "ĠÄ°ngiltere": 10550, "Ġmetal": 10551, "ÅŁeyler": 10552, "Ġ{Ċ": 10553, "ĠmetreĠ": 10554, "Be": 10555, "taÅŁÄ±nmaz": 10556, "aynÄ±ĠÅŁekildeĠ": 10557, "ĠBiy": 10558, "Ġwas": 10559, "Ġham": 10560, "insÃ¼l": 10561, "doÄŁu": 10562, "hall": 10563, "Ã§oÄŁuĠzamanĠ": 10564, "babasÄ±Ġ": 10565, "deÄŁiÅŁikliÄŁiĠ": 10566, "sÄ±kÃ§aĠ": 10567, "gÃ¼lÃ¼m": 10568, "tedavisiĠ": 10569, "ĠTeÅŁ": 10570, "ederler": 10571, "kullandÄ±klarÄ±Ġ": 10572, "yaÅŁamÄ±nĠ": 10573, "Ġsend": 10574, "ĠÃľzer": 10575, "tatil": 10576, "devletlerinĠ": 10577, "Hizmet": 10578, "aileninĠ": 10579, "kesim": 10580, "hereĠ": 10581, "gÃ¶revĠyapanĠ": 10582, "yetkiliĠ": 10583, "sizlereĠ": 10584, "ÃĸÄŁrenc": 10585, "dasÄ±Ġ": 10586, "ĠÅŁekil": 10587, "yaÅŁant": 10588, "ĠhaveĠ": 10589, "ðĿĲ": 10590, "ĠseneĠ": 10591, "yapma": 10592, "enflasyonĠ": 10593, "ĠÃ§erÃ§ev": 10594, "ĠGÃ¶k": 10595, "ijital": 10596, "ĠhalkÄ±nĠ": 10597, "nitelikliĠ": 10598, "demokrat": 10599, "ektrum": 10600, "Ġsil": 10601, "olupĠolmadÄ±ÄŁÄ±Ġ": 10602, "Ch": 10603, "karbon": 10604, "Ã¶zenĠ": 10605, "ÅŁub": 10606, "ĠdaÄŁ": 10607, "ĠgelenĠ": 10608, "tekniÄŁiĠ": 10609, "dece": 10610, "Ê¿": 10611, "mecbur": 10612, "Ġ}": 10613, "Ġrapor": 10614, "etĠveĠ": 10615, "Ġkah": 10616, "mayÄ±": 10617, "farklÄ±lÄ±klar": 10618, "adamÄ±nĠ": 10619, "ebilmeĠ": 10620, "hayataĠgeÃ§ir": 10621, "Tes": 10622, "enter": 10623, "eĠyÃ¶nelikĠ": 10624, "kalmÄ±ÅŁtÄ±r": 10625, "ĠHazÄ±r": 10626, "ĠKabul": 10627, "larĠiÃ§indeĠ": 10628, "ĠWeb": 10629, "DL": 10630, "beyinĠ": 10631, "meyen": 10632, "ĠðĿĳ": 10633, "esnekĠ": 10634, "rÄ±z": 10635, "farkÄ±nĠ": 10636, "Sch": 10637, "OP": 10638, "atÄ±f": 10639, "vs": 10640, "yÄ±llar": 10641, "ĠyÄ±k": 10642, "Ä±lamaz": 10643, "akadem": 10644, "gerilim": 10645, "uygulanabilir": 10646, "ĠTÃ¼rkÃ§": 10647, "hareketeĠ": 10648, "Ã¼rkenĠ": 10649, "Ä±naĠvar": 10650, "ertel": 10651, "nedenĠolmaktadÄ±r": 10652, "ĠgibiĠbirĠ": 10653, "plaz": 10654, "ĠbuĠdurum": 10655, "ĠÅŀubatĠ": 10656, "anlama": 10657, "SultanĠ": 10658, "Fer": 10659, "ĠkimiĠ": 10660, "spesif": 10661, "ĠdikkateĠ": 10662, "fikriĠ": 10663, "asÄ±dÄ±r": 10664, "DaÄŁ": 10665, "yumĠ": 10666, "igh": 10667, "belirlemekĠiÃ§inĠ": 10668, "bulur": 10669, "Ã¶ÄŁretmenĠadaylarÄ±nÄ±nĠ": 10670, "ĠOÄŁ": 10671, "ĠYaÄŁ": 10672, "yapÄ±sÄ±naĠ": 10673, "enĠÃ¼st": 10674, "ĠaraÅŁtÄ±r": 10675, "DeÄŁerlendir": 10676, "otif": 10677, "Ġmemur": 10678, "ortayaĠko": 10679, "coinĠ": 10680, "duygusuĠ": 10681, "ĠmÃ¼dah": 10682, "iyeti": 10683, "Su": 10684, "metikĠ": 10685, "kalkÄ±n": 10686, "iklet": 10687, "biliÅŁsel": 10688, "tartÄ±ÅŁmaĠ": 10689, "aslaĠ": 10690, "ĠKuÅŁ": 10691, "YunanĠ": 10692, "ifiyeĠ": 10693, "ĠHÄ±z": 10694, "BÃ¶lÃ¼m": 10695, "edikleriĠ": 10696, "MÃ¼dÃ¼rlÃ¼ÄŁÃ¼": 10697, "gah": 10698, "yaklaÅŁÄ±mĠ": 10699, "ÃĸlÃ§eÄŁi": 10700, "bulunduklarÄ±Ġ": 10701, "ĠHayÄ±r": 10702, "Ä±ylaĠilgiliĠ": 10703, "Ġgerekt": 10704, "seneĠ": 10705, "Meclis": 10706, "yarata": 10707, "aziĠ": 10708, "piÅŁir": 10709, "nedenĠolur": 10710, "atĠveĠ": 10711, "elindenĠ": 10712, "Proj": 10713, "ittif": 10714, "Ed": 10715, "Ġkenar": 10716, "anlatanĠ": 10717, "masÄ±ndakiĠ": 10718, "isimĠ": 10719, "ĠÃ¶ÄŁretim": 10720, "makĠistey": 10721, "burg": 10722, "letim": 10723, "defter": 10724, "ĠkullanÄ±lmaktadÄ±r": 10725, "yapacak": 10726, "kÄ±ymet": 10727, "Ä±mÄ±naĠ": 10728, "kÃ¼tÃ¼phan": 10729, "alÄ±nmÄ±ÅŁ": 10730, "omer": 10731, "Afr": 10732, "ĠdiyeĠkonuÅŁtu": 10733, "ÃĩaÄŁ": 10734, "ĠÃĸÄŁretmenĠ": 10735, "kahv": 10736, "Haz": 10737, "ish": 10738, "alesef": 10739, "gn": 10740, "paralelĠolarakĠ": 10741, "Ġsert": 10742, "ĠEkonomikĠ": 10743, "belirleyiciĠ": 10744, "ĠBuĠanlamdaĠ": 10745, "ĠkÃ¶ÅŁ": 10746, "ĠeÄŁerĠ": 10747, "geleĠ": 10748, "uzunluÄŁ": 10749, "kurulmuÅŁ": 10750, "unuzuĠ": 10751, "sÃ¼rekliĠolarakĠ": 10752, "benzerĠbirĠ": 10753, "konularÄ±Ġ": 10754, "geliÅŁtirilmesiĠ": 10755, "Ã¶yledir": 10756, "tetik": 10757, "ĠkaldÄ±r": 10758, "asÄ±ĠveĠ": 10759, "Ġdey": 10760, "Ġbon": 10761, "Ġbeb": 10762, "Ġinternet": 10763, "SI": 10764, "konak": 10765, "elerĠileĠ": 10766, "ĠÅŁimdiĠ": 10767, "masÄ±nÄ±ĠveĠ": 10768, "Ã§an": 10769, "ĠyerĠalmaktadÄ±r": 10770, "lerineĠveĠ": 10771, "mekĠistem": 10772, "ememiÅŁtir": 10773, "mandaĠ": 10774, "Ã¢c": 10775, "firmalarÄ±nĠ": 10776, "algÄ±sÄ±Ġ": 10777, "muhafazaĠ": 10778, "lerĠÃ¼zerindeĠ": 10779, "gÃ¶nderilenĠ": 10780, "eserinĠ": 10781, "isterĠ": 10782, "yaÄŁÄ±ÅŁ": 10783, "lerkenĠ": 10784, "kaynaklarÄ±nÄ±nĠ": 10785, "Ġdep": 10786, "ansÄ±": 10787, "Ġadres": 10788, "ĠSonĠolarakĠ": 10789, "pratikĠ": 10790, "ĠaraÅŁtÄ±rmaĠ": 10791, "malÄ±sÄ±nÄ±z": 10792, "Ä±nanĠ": 10793, "ĠbÃ¶lÃ¼mÃ¼ndeĠ": 10794, "kitleĠ": 10795, "ĠhÃ¼km": 10796, "allah": 10797, "Alan": 10798, "ĠPat": 10799, "zararlÄ±Ġ": 10800, "Ġbasit": 10801, "birĠkÄ±smÄ±Ġ": 10802, "mesinde": 10803, "ĠyÃ¶netimiĠ": 10804, "krit": 10805, "laraĠgÃ¶re": 10806, "birtakÄ±m": 10807, "nuĠ": 10808, "yetkiĠ": 10809, "topraÄŁ": 10810, "ĠOlay": 10811, "kÄ±sacaĠ": 10812, "oksikĠ": 10813, "ĠbakÄ±ÅŁ": 10814, "ĠmarkaĠ": 10815, "liliÄŁininĠ": 10816, "intih": 10817, "daimaĠ": 10818, "anlaÅŁÄ±lÄ±r": 10819, "alanÄ±naĠ": 10820, "maddesiĠ": 10821, "ĠsizinĠ": 10822, "yaratÄ±cÄ±Ġ": 10823, "sanatĠ": 10824, "bach": 10825, "evinĠ": 10826, "ĠkendisiniĠ": 10827, "ÃĸLÃľM": 10828, "ĠSol": 10829, "kesint": 10830, "ĠAÄŁustosĠ": 10831, "belirleyenĠ": 10832, "unum": 10833, "KanunĠ": 10834, "ÅŁiddetliĠ": 10835, "esap": 10836, "saÄŁlÄ±ÄŁÄ±Ġ": 10837, "ulan": 10838, "kimseninĠ": 10839, "Ġskor": 10840, "laÅŁmÄ±ÅŁ": 10841, "suyunĠ": 10842, "Ã¼perĠ": 10843, "asyonu": 10844, "riskĠfaktÃ¶r": 10845, "yalan": 10846, "Ġtutum": 10847, "araÅŁtÄ±rmalar": 10848, "dahaĠbÃ¼yÃ¼kĠ": 10849, "bunun": 10850, "olaylarÄ±Ġ": 10851, "Ä°lgiliĠ": 10852, "ĠTÃ¼r": 10853, "belirlenmesindeĠ": 10854, "ĠyÃ¼kÃ¼m": 10855, "ĠKanunu": 10856, "yaÄŁmur": 10857, "bulaÅŁ": 10858, "verildi": 10859, "Karadeniz": 10860, "tasarÄ±mÄ±Ġ": 10861, "gÃ¼nÃ¼nĠ": 10862, "BA": 10863, "baktÄ±": 10864, "Nur": 10865, "cununĠ": 10866, "eor": 10867, "Ġmimar": 10868, "faaliyetleriniĠ": 10869, "karÅŁÄ±laÅŁtÄ±rÄ±ldÄ±ÄŁÄ±ndaĠ": 10870, "Ä±ndanĠsonraĠ": 10871, "Ä°ngilizceĠ": 10872, "ĠbaÅŁkan": 10873, "telif": 10874, "iÄŁimĠ": 10875, "KÃ¶y": 10876, "ĠGÃ¶rÃ¼l": 10877, "bunlar": 10878, "sÃ¼recinĠ": 10879, "azÄ±n": 10880, "HO": 10881, "orkĠ": 10882, "Ä°srail": 10883, "kalÄ±r": 10884, "ĠveĠR": 10885, "iÃ§inĠbuĠ": 10886, "aynÄ±ĠandaĠ": 10887, "saÄŁlayacaktÄ±r": 10888, "Kral": 10889, "eÄŁitimĠveĠ": 10890, "maĠileĠ": 10891, "Mur": 10892, "Ã¼rÃ¼nÃ¼": 10893, "Ä±mdanĠ": 10894, "formuĠ": 10895, "eynir": 10896, "girenĠ": 10897, "okrat": 10898, "kaygÄ±Ġ": 10899, "Ã¶zÃ¼m": 10900, "Ã¼ndedir": 10901, "hafÄ±z": 10902, "sÄ±rt": 10903, "ĠDÃ¶n": 10904, "klor": 10905, "ĠmÃ¼k": 10906, "sektÃ¶rÃ¼ndeĠ": 10907, "durumlarÄ±Ġ": 10908, "alanlarÄ±nĠ": 10909, "kesin": 10910, "ĠbuĠkonudaĠ": 10911, "yonĠveĠ": 10912, "ĠyaklaÅŁÄ±m": 10913, "ilav": 10914, "endeĠ": 10915, "payÄ±Ġ": 10916, "ĠGÃ¼venlikĠ": 10917, "bulunduÄŁunuĠ": 10918, "New": 10919, "yakÄ±nĠbirĠ": 10920, "zordur": 10921, "halenĠ": 10922, "ayÄ±ÅŁ": 10923, "odaklÄ±Ġ": 10924, "Ahmed": 10925, "artÄ±ÅŁĠgÃ¶ster": 10926, "teÅŁkilat": 10927, "ĠgerekliĠ": 10928, "bulunmamÄ±ÅŁtÄ±r": 10929, "ÃľniversitesiĠ": 10930, "Am": 10931, "ivan": 10932, "oluÅŁturmuÅŁtur": 10933, "tablolar": 10934, "yonaĠ": 10935, "ĠSes": 10936, "tid": 10937, "sunmaktadÄ±r": 10938, "ildiÄŁiniĠ": 10939, "restor": 10940, "gelmesiĠ": 10941, "akÃ¼lt": 10942, "yÃ¼klen": 10943, "Ġbeklent": 10944, "ĠSenĠ": 10945, "ĠakÄ±ÅŁ": 10946, "fl": 10947, "yÃ¼rÃ¼tÃ¼lenĠ": 10948, "lediÄŁiniĠ": 10949, "Ã¶zgÃ¼Ġ": 10950, "Ã¶yle": 10951, "ĠAnn": 10952, "uch": 10953, "ĠBaÅŁkanÄ±Ġ": 10954, "ĠPazar": 10955, "ph": 10956, "Mac": 10957, "Ġkanun": 10958, "seniĠ": 10959, "Ġsebep": 10960, "buhar": 10961, "diÄŁim": 10962, "laraĠait": 10963, "ilerineĠgÃ¶reĠ": 10964, "Kaynak": 10965, "geliÅŁtirilmiÅŁtir": 10966, "ĠdevletinĠ": 10967, "ium": 10968, "Ã¶ÄŁrenimĠ": 10969, "ĠAnahtarĠKelimeler": 10970, "iÅŁbir": 10971, "Ġgelen": 10972, "ĠTarihi": 10973, "Ġcan": 10974, "havuz": 10975, "olduÄŁuĠbelirlenmiÅŁtir": 10976, "Ġyazar": 10977, "dro": 10978, "canlandÄ±r": 10979, "Ġnesn": 10980, "deĠbulunanĠ": 10981, "sonucunaĠulaÅŁÄ±lmÄ±ÅŁtÄ±r": 10982, "obÃ¼s": 10983, "hazÄ±rla": 10984, "bÃ¶lÃ¼mÃ¼": 10985, "Ġdeneyim": 10986, "araziĠ": 10987, "Ticaret": 10988, "ciÄŁer": 10989, "CHP": 10990, "esinin": 10991, "Ã§ininĠ": 10992, "Ġyetenek": 10993, "belirtti": 10994, "ĠJap": 10995, "mÃ¼kellef": 10996, "manÄ±": 10997, "yerĠver": 10998, "ĠboyutluĠ": 10999, "Ġcom": 11000, "Ä°D": 11001, "ÅŁeyleriĠ": 11002, "ĠDar": 11003, "aks": 11004, "baskÄ±nĠ": 11005, "etnikĠ": 11006, "coÄŁrafiĠ": 11007, "Ġdoyum": 11008, "Sah": 11009, "Ã§alÄ±ÅŁmalarÄ±nÄ±nĠ": 11010, "ilayet": 11011, "nedenĠolanĠ": 11012, "Ã¶ÄŁrencileriĠ": 11013, "lerineĠiliÅŁkinĠ": 11014, "olabilecekĠ": 11015, "stabil": 11016, "iklikĠ": 11017, "ĠOt": 11018, "Ġnm": 11019, "Ã¼neĠgÃ¶reĠ": 11020, "hÄ±zlÄ±ĠbirĠÅŁekildeĠ": 11021, "etteĠ": 11022, "ĠMill": 11023, "olayÄ±Ġ": 11024, "ĠCev": 11025, "etkisi": 11026, "yapÄ±sal": 11027, "sÃ¼reliĠ": 11028, "leriĠgibiĠ": 11029, "ĠSem": 11030, "ÅŁekillerdeĠ": 11031, "antren": 11032, "Rab": 11033, "alÃ§": 11034, "sevkĠ": 11035, "Ã¼zgar": 11036, "larlaĠbirlikteĠ": 11037, "ĠdeÄŁiÅŁim": 11038, "Ä°ranĠ": 11039, "eÄŁlenceĠ": 11040, "deh": 11041, "aÃ§Ä±ÄŁaĠ": 11042, "meclis": 11043, "istiyor": 11044, "ĠsorumlulukĠ": 11045, "acÄ±kĠ": 11046, "Ã§evreyeĠ": 11047, "aÃ§Ä±kĠbirĠ": 11048, "yapÄ±lmalÄ±dÄ±r": 11049, "anol": 11050, "mayÄ±ĠbaÅŁar": 11051, "melerininĠ": 11052, "likeĠ": 11053, "antib": 11054, "ĠkrediĠ": 11055, "olsaĠdaĠ": 11056, "KÄ±brÄ±s": 11057, "Ġnitelik": 11058, "halde": 11059, "Ġolumsuz": 11060, "ĠbuĠnedenleĠ": 11061, "kÃ¼Ã§Ã¼k": 11062, "Ä±lanĠbuĠ": 11063, "AV": 11064, "ihraÃ§": 11065, "ÃĩinĠ": 11066, "Ġrisk": 11067, "ĠbirlikteĠ": 11068, "tions": 11069, "Ġgerektir": 11070, "saÄŁlananĠ": 11071, "bilgi": 11072, "EV": 11073, "olmasÄ±naĠraÄŁmenĠ": 11074, "amacaĠ": 11075, "yapÄ±salĠ": 11076, "andÄ±r": 11077, "kolon": 11078, "indeĠbulunanĠ": 11079, "vaka": 11080, "ird": 11081, "KiÅŁ": 11082, "rafikĠ": 11083, "misafir": 11084, "etleĠ": 11085, "dÃ¼ÅŁÃ¼nÃ¼lebilir": 11086, "padiÅŁah": 11087, "Ġmis": 11088, "asyonunĠ": 11089, "ĠModernĠ": 11090, "alay": 11091, "basÄ±nĠ": 11092, "ĠdahaĠÃ§okĠ": 11093, "ĠbelirliĠbirĠ": 11094, "iliÅŁkisiniĠ": 11095, "Ġkala": 11096, "vaĠ": 11097, "tasavvuf": 11098, "grafikĠ": 11099, "ÅŁartlarÄ±Ġ": 11100, "ĠvergiĠ": 11101, "Ġbakter": 11102, "DM": 11103, "ĠBanka": 11104, "ĠÃĩaÄŁ": 11105, "ifadeyleĠ": 11106, "deÄŁerlendirilmektedir": 11107, "baskÄ±": 11108, "Ġtesis": 11109, "ĠaltÄ±Ġ": 11110, "yaÅŁamÄ±ÅŁ": 11111, "halinde": 11112, "yÃ¼rÃ¼rlÃ¼ÄŁeĠgir": 11113, "Ġdoku": 11114, "ĠOrgan": 11115, "katÄ±lÄ±mcÄ±lar": 11116, "ĠardÄ±ndanĠ": 11117, "ĠÃ¼zerindekiĠ": 11118, "deÄŁiÅŁikliklerĠ": 11119, "izleyic": 11120, "bizzat": 11121, "Ġverim": 11122, "Ã§okĠÃ¶nemliĠ": 11123, "ifadeĠetmiÅŁlerdir": 11124, "Ã¶zgÃ¼rlÃ¼kĠ": 11125, "muha": 11126, "almayaĠ": 11127, "gelerekĠ": 11128, "ĠKul": 11129, "nedenĠolduÄŁuĠ": 11130, "geÃ§enĠgÃ¼nĠ": 11131, "seĠde": 11132, "Ä±nÄ±nĠdaĠ": 11133, "hesaplananĠ": 11134, "ĠseÃ§enek": 11135, "ortalamalarÄ±Ġ": 11136, "Ġppm": 11137, "sekĠ": 11138, "GK": 11139, "iĠgibiĠ": 11140, "SavaÅŁÄ±": 11141, "Ã§alÄ±ÅŁmalarÄ±nÄ±Ġ": 11142, "ĠGÃ¼Ã§": 11143, "tÃ¼y": 11144, "fÄ±rsatÄ±Ġ": 11145, "YÃ¶nelikĠ": 11146, "ĠolmadÄ±ÄŁ": 11147, "ĠbÃ¶lgesindeĠ": 11148, "Ġharf": 11149, "uyuÅŁmaz": 11150, "iÅŁaretĠetmektedir": 11151, "ĠsektÃ¶rÃ¼ndeĠ": 11152, "ĠAnaĠ": 11153, "sevgil": 11154, "ĠFa": 11155, "Sp": 11156, "ea": 11157, "amacÄ±ĠileĠ": 11158, "sÃ¶yleyebiliriz": 11159, "dib": 11160, "Mill": 11161, "ecekler": 11162, "firma": 11163, "bÃ¼": 11164, "lÄ±klarÄ±nÄ±nĠ": 11165, "lantÄ±Ġ": 11166, "iÅŁlerinĠ": 11167, "desen": 11168, "aÅŁkÄ±nĠ": 11169, "gat": 11170, "ĠkullanÄ±l": 11171, "hala": 11172, "sÃ¶ylemiÅŁtir": 11173, "ĠgeceĠ": 11174, "Ã§atÄ±ÅŁmaĠ": 11175, "anĠbuĠ": 11176, "ĠBoz": 11177, "meyenĠbirĠ": 11178, "gol": 11179, "iktisadiĠ": 11180, "yolaĠÃ§Ä±karakĠ": 11181, "balaj": 11182, "dÄ±ÅŁarÄ±Ġ": 11183, "ĠaÃ§Ä±k": 11184, "Ã¼zerinde": 11185, "Ä±cÄ±yaĠ": 11186, "ĠBununĠÃ¼zerineĠ": 11187, "yÃ¼kÃ¼mlÃ¼lÃ¼k": 11188, "ĠRad": 11189, "larÄ±ĠÃ¼zerindeĠ": 11190, "ĠpekĠÃ§okĠ": 11191, "eĠof": 11192, "oterap": 11193, "Ph": 11194, "virÃ¼s": 11195, "lemesiĠ": 11196, "Ġderin": 11197, "liklerinĠ": 11198, "memiz": 11199, "ĠterÃ¶r": 11200, "kanser": 11201, "horm": 11202, "lerdeĠdeĠ": 11203, "Ã¼ksek": 11204, "lex": 11205, "Ä±mÄ±ndaĠ": 11206, "ĠAnket": 11207, "fas": 11208, "sayfa": 11209, "sonĠyÄ±llardaĠ": 11210, "kabulĠedilmektedir": 11211, "ĠTut": 11212, "altÄ±nÄ±Ġ": 11213, "Ġthe": 11214, "makĠgerekir": 11215, "dÃ¶v": 11216, "mekÃ¢nĠ": 11217, "aĠindir": 11218, "araÅŁtÄ±rmada": 11219, "NF": 11220, "geliÅŁimĠ": 11221, "Ġdenir": 11222, "ĠBanaĠ": 11223, "denĠÃ¶nceĠ": 11224, "aÅŁkĠ": 11225, "ĠAÄŁÄ±r": 11226, "CA": 11227, "gelecekteĠ": 11228, "ier": 11229, "eÄŁitimeĠ": 11230, "devamĠetmiÅŁtir": 11231, "ĠSar": 11232, "ĠAynÄ±ĠÅŁekildeĠ": 11233, "okullardaĠ": 11234, "Ġediyorum": 11235, "Tah": 11236, "ĠanĠ": 11237, "tipiĠ": 11238, "isiĠolanĠ": 11239, "gerektirir": 11240, "Ã¶lÃ§ekliĠ": 11241, "ĠgÃ¼ndeĠ": 11242, "ĠverenĠ": 11243, "gÃ¶rmeĠ": 11244, "ikÃ¢yet": 11245, "kadro": 11246, "faaliyetĠgÃ¶sterenĠ": 11247, "lokĠ": 11248, "ĠTeor": 11249, "Ã¼zerine": 11250, "arter": 11251, "LERÄ°": 11252, "video": 11253, "buradanĠ": 11254, "Åŀeyh": 11255, "olamaz": 11256, "alanÄ±ndakiĠ": 11257, "uyr": 11258, "tul": 11259, "Ġzor": 11260, "ĠhoÅŁ": 11261, "hariÃ§": 11262, "sÃ¼reciniĠ": 11263, "ekstr": 11264, "deÄŁerlendirildiÄŁindeĠ": 11265, "ĠÃ¶l": 11266, "Ġyoluyla": 11267, "etmeninĠ": 11268, "karÅŁÄ±mÄ±zaĠ": 11269, "ÅŁehrinĠ": 11270, "ĠalanÄ±Ġ": 11271, "Ã§okĠÃ¶nemlidir": 11272, "gÃ¶rdÃ¼": 11273, "Bo": 11274, "ĠnedeniyleĠ": 11275, "ĠMo": 11276, "mayacaÄŁÄ±Ġ": 11277, "gidip": 11278, "demekĠ": 11279, "ayaktaĠ": 11280, "tum": 11281, "yerĠalmÄ±ÅŁtÄ±r": 11282, "Ġ#": 11283, "tihat": 11284, "Durum": 11285, "ĠKir": 11286, "hakkÄ±nÄ±Ġ": 11287, "lanmasÄ±ndaĠ": 11288, "inov": 11289, "RT": 11290, "Dur": 11291, "tefsir": 11292, "olumluĠyÃ¶ndeĠ": 11293, "asla": 11294, "mÃ¼kemmel": 11295, "eÄŁiĠveĠ": 11296, "isteÄŁiĠ": 11297, "ty": 11298, "ĠYayÄ±nlarÄ±": 11299, "selam": 11300, "Ã¶ldÃ¼rÃ¼l": 11301, "ĠÃľÃ§Ã¼ncÃ¼": 11302, "sif": 11303, "ĠGeÃ§miÅŁ": 11304, "ĠHe": 11305, "fit": 11306, "ĠbÃ¶yleĠbirĠ": 11307, "ĠÃ§Ã¶zelt": 11308, "tacakĠ": 11309, "```": 11310, "yolundaĠ": 11311, "ekonomikĠveĠ": 11312, "karac": 11313, "doÄŁruĠbirĠ": 11314, "usur": 11315, "okut": 11316, "OsmanlÄ±": 11317, "gÃ¶reviniĠ": 11318, "genelĠbirĠ": 11319, "ĠkendileriniĠ": 11320, "sÄ±nÄ±Ġ": 11321, "ĠBin": 11322, "dimĠ": 11323, "tiktenĠsonraĠ": 11324, "sÃ¢": 11325, "Ġâī": 11326, "Ġederim": 11327, "sh": 11328, "ĠmaddesiĠ": 11329, "ĠFakatĠbuĠ": 11330, "iciĠveĠ": 11331, "Ġtuz": 11332, "ondaĠ": 11333, "ĠmaÃ§": 11334, "uÃ§uÅŁ": 11335, "vit": 11336, "anlamÄ±naĠgelmektedir": 11337, "ĠPekiĠ": 11338, "bulgularĠ": 11339, "ĠDiÄŁerĠtaraftanĠ": 11340, "CI": 11341, "Oy": 11342, "ĠkiĠbuĠ": 11343, "araÅŁtÄ±rmalarĠ": 11344, "ĠBuĠÃ§alÄ±ÅŁmaĠ": 11345, "that": 11346, "beyanĠ": 11347, "ĠdahaĠÃ¶nceĠ": 11348, "ĠÃĸzelĠ": 11349, "ĠÄ°dar": 11350, "kendisindenĠ": 11351, "nazaranĠ": 11352, "taÅŁÄ±ma": 11353, "peygamber": 11354, "oyununĠ": 11355, "masÄ±naĠyolĠaÃ§": 11356, "ihdam": 11357, "faaliyetlerininĠ": 11358, "ĠAli": 11359, "ash": 11360, "mÃ¼kemm": 11361, "hatÄ±rla": 11362, "ebbÃ¼s": 11363, "Ä±ndal": 11364, "ĠaltĠboyut": 11365, "Ġbulunur": 11366, "ideolojikĠ": 11367, "uĠolanĠ": 11368, "Kim": 11369, "ederkenĠ": 11370, "ĠhatÄ±r": 11371, "depolamaĠ": 11372, "Ġreklam": 11373, "gruplarÄ±nĠ": 11374, "ĠPr": 11375, "heb": 11376, "Ã§alÄ±ÅŁmalarÄ±naĠ": 11377, "eld": 11378, "Ġsinyal": 11379, "iyaret": 11380, "hisseĠsen": 11381, "sonradanĠ": 11382, "boÅŁluk": 11383, "HB": 11384, "ever": 11385, "ĠdoÄŁal": 11386, "ronĠ": 11387, "Ġgiz": 11388, "ĠBuĠbÃ¶lÃ¼mdeĠ": 11389, "ĠyapÄ±": 11390, "artmÄ±ÅŁ": 11391, "CD": 11392, "ecekti": 11393, "Ġedip": 11394, "ence": 11395, "Ġyour": 11396, "layacakĠ": 11397, "ff": 11398, "bayr": 11399, "transfer": 11400, "ĠherĠbirĠ": 11401, "Ġweb": 11402, "larĠhakkÄ±ndaĠ": 11403, "ĠkadarĠ": 11404, "hazÄ±rlanmÄ±ÅŁtÄ±r": 11405, "baÄŁlantÄ±lÄ±Ġ": 11406, "duc": 11407, "Ã¶ÄŁÃ¼t": 11408, "Ġbelirlen": 11409, "alamaĠ": 11410, "dÃ¼zgÃ¼nĠ": 11411, "ĠbelirliĠ": 11412, "cor": 11413, "ĠuĠ": 11414, "fÃ®": 11415, "iĠiseĠ": 11416, "Å«": 11417, "bant": 11418, "tiyatro": 11419, "aÅŁk": 11420, "GÃ¶k": 11421, "tutun": 11422, "bulunma": 11423, "OD": 11424, "ĠOp": 11425, "televizyonĠ": 11426, "ĠettiÄŁiniĠ": 11427, "ĠÃ§alÄ±ÅŁanlarÄ±nĠ": 11428, "ĠolsunĠ": 11429, "duranĠ": 11430, "uro": 11431, "ĠsenĠ": 11432, "Tr": 11433, "ihtimaliĠ": 11434, "mahkemeĠ": 11435, "adan": 11436, "birbiriyleĠ": 11437, "iÅŁgalĠ": 11438, "ĠØ": 11439, "Ġmotiv": 11440, "efsan": 11441, "baÅŁÄ±nÄ±Ġ": 11442, "mekĠamacÄ±yla": 11443, "lemesineĠ": 11444, "talimat": 11445, "cemaat": 11446, "Ġasit": 11447, "Ã¼rken": 11448, "Ġmark": 11449, "Belir": 11450, "sosy": 11451, "bugÃ¼neĠ": 11452, "oksida": 11453, "ĠeĠ": 11454, "Ġip": 11455, "sesiĠ": 11456, "herĠgÃ¼nĠ": 11457, "benlikĠ": 11458, "ÅŁeker": 11459, "geÃ§tiÄŁiĠ": 11460, "tarafÄ±ndan": 11461, "aÃ§Ä±klanmÄ±ÅŁtÄ±r": 11462, "ĠEvr": 11463, "ĠBelediyeĠ": 11464, "ĠAmerikanĠ": 11465, "ĠsisteminĠ": 11466, "Ġdost": 11467, "ĠïĢ": 11468, "ESÄ°": 11469, "unlarÄ±Ġ": 11470, "ĠÃ§ocuÄŁunĠ": 11471, "ulduÄŁuĠ": 11472, "maĠgibiĠ": 11473, "iÃ§eĠ": 11474, "ĠSoÄŁ": 11475, "temeliniĠ": 11476, "koz": 11477, "elveriÅŁ": 11478, "Ä±kĠveĠ": 11479, "bilgisayarĠ": 11480, "nif": 11481, "gÃ¼cÃ¼nÃ¼nĠ": 11482, "yaptÄ±ÄŁÄ±mÄ±z": 11483, "emiÅŁ": 11484, "ĠBundanĠdolayÄ±Ġ": 11485, "ĠolanĠbirĠ": 11486, "ĠyÄ±ldaĠ": 11487, "ĠbiÃ§imdeĠ": 11488, "ĠgerekseĠ": 11489, "Ġedebilir": 11490, "ĠBuĠaÃ§Ä±danĠ": 11491, "ĠAksiĠ": 11492, "OM": 11493, "devamĠetti": 11494, "je": 11495, "iĉ": 11496, "ĠyÃ¼zeĠ": 11497, "oÄŁol": 11498, "ĠdurumdaĠ": 11499, "lemeĠveĠ": 11500, "abilmesiĠiÃ§inĠ": 11501, "memleket": 11502, "onyaĠ": 11503, "rabzon": 11504, "anlamlÄ±ĠfarkĠ": 11505, "dÃ¼ÅŁÃ¼ktÃ¼r": 11506, "nedeniĠileĠ": 11507, "ĠÃ¶ÄŁrenmeĠ": 11508, "arayaĠ": 11509, "lamalarĠ": 11510, "Ġbat": 11511, "Ġpop": 11512, "ĠolarakĠbelirlenmiÅŁtir": 11513, "SÄ±nÄ±f": 11514, "indeĠveĠ": 11515, "olayÄ±nĠ": 11516, "Ã§abukĠ": 11517, "Ã¼lkeyeĠ": 11518, "lerarasÄ±Ġ": 11519, "ndekiĠ": 11520, "ilmeyeĠ": 11521, "Ã¶rneÄŁinĠ": 11522, "ĠdeÄŁiÅŁ": 11523, "objektif": 11524, "olojik": 11525, "ĠdiniĠ": 11526, "ĠveĠA": 11527, "aracÄ±ĠolarakĠ": 11528, "lerininĠveĠ": 11529, "ikleri": 11530, "Dev": 11531, "celĠ": 11532, "enĠÃ¶nem": 11533, "kabulĠedilebilir": 11534, "lamÄ±ÅŁlardÄ±r": 11535, "elekt": 11536, "ĠBuĠsonuÃ§": 11537, "denetimĠ": 11538, "saatĠ": 11539, "ĠyaÅŁÄ±ndaĠ": 11540, "sĠof": 11541, "ĠvÃ¼cut": 11542, "duktanĠsonraĠ": 11543, "ĠkuruÅŁ": 11544, "itlikĠ": 11545, "ingĠtheĠ": 11546, "baÅŁlangÄ±c": 11547, "Ġme": 11548, "hastalÄ±ÄŁÄ±nĠ": 11549, "likleriniĠ": 11550, "ĠkavramÄ±Ġ": 11551, "entegreĠ": 11552, "ĠÃ¶nĠ": 11553, "Belediy": 11554, "ĠKÄ±saĠ": 11555, "larÄ±ĠolanĠ": 11556, "lasÄ±Ġ": 11557, "RS": 11558, "aracÄ±lÄ±ÄŁÄ±ĠileĠ": 11559, "ice": 11560, "ÅŁikayet": 11561, "konudakiĠ": 11562, "ĠKÄ±brÄ±s": 11563, "odyum": 11564, "tutanĠ": 11565, "ecilikĠ": 11566, "mÃ¢n": 11567, "ĠkonuĠ": 11568, "ĠÃ§evreĠ": 11569, "araÅŁtÄ±rÄ±lmÄ±ÅŁtÄ±r": 11570, "trafikĠ": 11571, "ĠcÃ¼ml": 11572, "Ã¶lÃ§eÄŁiĠ": 11573, "ĠMac": 11574, "araÅŁtÄ±rmalardaĠ": 11575, "pasif": 11576, "sadakat": 11577, "Ã¶nemĠarzĠetmektedir": 11578, "baÅŁkaĠbirĠÅŁey": 11579, "isteĠ": 11580, "kurgu": 11581, "Ã§ekin": 11582, "bilgilereĠ": 11583, "klin": 11584, "EnĠ": 11585, "sorunlarĠ": 11586, "lerimizinĠ": 11587, "alatasar": 11588, "Ġvur": 11589, "ĠyÃ¶netimĠ": 11590, "emliĠ": 11591, "ĠÅŀer": 11592, "Kend": 11593, "etmel": 11594, "sigortaĠ": 11595, "Ã¢det": 11596, "konununĠ": 11597, "ulaÅŁmÄ±ÅŁtÄ±r": 11598, "ĠgÃ¼z": 11599, "tÃ¼p": 11600, "romb": 11601, "ÅŁuĠÅŁekildedir": 11602, "ĠbaÅŁlÄ±ÄŁÄ±Ġ": 11603, "ĠolduÄŁumuz": 11604, "presyon": 11605, "usunda": 11606, "yapmakĠiÃ§inĠ": 11607, "edd": 11608, "ĠveĠdiÄŁerĠ": 11609, "ÅŁirketlerinĠ": 11610, "alanÄ±nÄ±nĠ": 11611, "kompleks": 11612, "serĠ": 11613, "alatasaray": 11614, "ĠBÃ¶ylece": 11615, "anlamÄ±naĠgel": 11616, "ĠdÃ¼ÅŁÃ¼nceĠ": 11617, "sÃ¼resinceĠ": 11618, "fizyolojikĠ": 11619, "dÄ±ÄŁÄ±ĠbirĠ": 11620, "Ġdoktor": 11621, "adÃ¼f": 11622, "ettinĠ": 11623, "uzananĠ": 11624, "IP": 11625, "ĠolarakĠdaĠ": 11626, "problemĠÃ§Ã¶z": 11627, "dakikaĠ": 11628, "mesini": 11629, "Ã§Ä±ktÄ±ÄŁÄ±Ġ": 11630, "teorikĠ": 11631, "ĠtanÄ±": 11632, "olacakĠÅŁekildeĠ": 11633, "ebr": 11634, "mÃ¼ÅŁtÃ¼": 11635, "elasyon": 11636, "yapÄ±lmÄ±ÅŁĠveĠ": 11637, "one": 11638, "ĠHukuk": 11639, "lÃ»": 11640, "ineĠgÃ¶re": 11641, "lop": 11642, "rolÃ¼": 11643, "erkeklerinĠ": 11644, "mesafeĠ": 11645, "imm": 11646, "ĠdolayÄ±sÄ±ylaĠ": 11647, "ĠetmeyeĠ": 11648, "Ġgerekir": 11649, "ildiÄŁindeĠ": 11650, "gitti": 11651, "kavem": 11652, "iÃ§eriĠ": 11653, "ĠbunlarÄ±Ġ": 11654, "ĠCon": 11655, "yapmak": 11656, "Ġbez": 11657, "imit": 11658, "ĠsÃ¼reĠ": 11659, "biyo": 11660, "olmakĠiÃ§inĠ": 11661, "olanlar": 11662, "Tut": 11663, "Ã¼Ã§Ã¼k": 11664, "Ã¼slim": 11665, "Ġkula": 11666, "koÅŁullarÄ±Ġ": 11667, "kesmeĠ": 11668, "ĠkÃ¶k": 11669, "kurut": 11670, "EP": 11671, "toplumaĠ": 11672, "Ġyarar": 11673, "OBÄ°": 11674, "Kes": 11675, "iÅŁgal": 11676, "ĠgÃ¶rÃ¼l": 11677, "ĠgÃ¶nder": 11678, "ĠbaÅŁka": 11679, "ĠdoÄŁur": 11680, "ĠHerhangiĠbirĠ": 11681, "OÄŁ": 11682, "Ã§elikĠ": 11683, "ĠmiktardaĠ": 11684, "bildirmiÅŁlerdir": 11685, "manaĠ": 11686, "haliĠ": 11687, "programÄ±Ġ": 11688, "HK": 11689, "olasÄ±lÄ±ÄŁ": 11690, "kavuÅŁtur": 11691, "ix": 11692, "Ġhafif": 11693, "tamĠbirĠ": 11694, "ĠBuĠamaÃ§": 11695, "Ġrez": 11696, "durumunaĠ": 11697, "ĠÄ°lgiliĠ": 11698, "malarÄ±ndaĠ": 11699, "ÙĨ": 11700, "Ã¶ÄŁretmeniĠ": 11701, "ĠKemal": 11702, "uykuĠ": 11703, "Ġenz": 11704, "ÅŁeylerĠ": 11705, "miÅŁĠolduÄŁuĠ": 11706, "ĠkÄ±smÄ±ndaĠ": 11707, "vektÃ¶r": 11708, "eleriĠdeĠ": 11709, "imet": 11710, "evindeĠ": 11711, "yapacaÄŁ": 11712, "idor": 11713, "ĠKarar": 11714, "ĠBununĠyanÄ±ĠsÄ±raĠ": 11715, "duklarÄ±nÄ±Ġ": 11716, "TV": 11717, "laÃ§": 11718, "gÃ¶rÃ¼yoruz": 11719, "belkiĠ": 11720, "anlaÅŁmaĠ": 11721, "ĠKarÅŁ": 11722, "rec": 11723, "ĠSaf": 11724, "kanserĠ": 11725, "maviĠ": 11726, "ĠÅŁah": 11727, "baÄŁlanmaĠ": 11728, "fonksiyonĠ": 11729, "ĠHastan": 11730, "Ġkayb": 11731, "RomaĠ": 11732, "neĠveĠ": 11733, "Ã¶mr": 11734, "ĠGÄ°RÄ°Åŀ": 11735, "ĠBÃĸLÃľM": 11736, "ĠsosyalĠveĠ": 11737, "Ġpost": 11738, "sos": 11739, "kendileriĠ": 11740, "zamanĠdil": 11741, "yanÄ±l": 11742, "ĠbuĠdaĠ": 11743, "TÃ¼r": 11744, "hukukaĠ": 11745, "Ä±nÄ±zÄ±nĠ": 11746, "uyru": 11747, "ie": 11748, "baÅŁÄ±ndanĠ": 11749, "baÅŁlayarakĠ": 11750, "ĠTedav": 11751, "ĠkÄ±sÄ±t": 11752, "kombin": 11753, "artÄ±ÅŁÄ±Ġ": 11754, "ĠYukarÄ±dakiĠ": 11755, "iliÅŁkileriniĠ": 11756, "oluÅŁturulmasÄ±Ġ": 11757, "bÃ¼tÃ§eĠ": 11758, "BirliÄŁi": 11759, "Ã¢yeĠ": 11760, "elininĠ": 11761, "esineĠgÃ¶reĠ": 11762, "nek": 11763, "ilenĠbirĠ": 11764, "Ä±lacaÄŁ": 11765, "ĠÃľstelikĠ": 11766, "ayrÄ±lmÄ±ÅŁtÄ±r": 11767, "oluÅŁtuÄŁuĠ": 11768, "dersĠ": 11769, "HakkÄ±ndaĠ": 11770, "Fark": 11771, "artÄ±k": 11772, "zorunda": 11773, "mayaĠÃ§alÄ±ÅŁÄ±lmÄ±ÅŁtÄ±r": 11774, "abilirler": 11775, "terim": 11776, "ĠbirkaÃ§": 11777, "atmosfer": 11778, "ortadanĠkalk": 11779, "lilikĠveĠ": 11780, "ĠmL": 11781, "Ġsonra": 11782, "icidir": 11783, "modelinĠ": 11784, "bid": 11785, "eleriĠiÃ§inĠ": 11786, "imkanĠ": 11787, "azaldÄ±ÄŁÄ±Ġ": 11788, "boyutluĠ": 11789, "sÄ±zĠbirĠ": 11790, "yÃ¶nelik": 11791, "Ã¨": 11792, "Ġsabah": 11793, "ĠbÃ¶": 11794, "tabanlÄ±Ġ": 11795, "Ġresim": 11796, "Ä±rÄ±l": 11797, "Ġbenzer": 11798, "Ġhaz": 11799, "ĠYunan": 11800, "birimĠ": 11801, "Ã®ĠbirĠ": 11802, "Ġzeng": 11803, "atmaĠ": 11804, "kullandÄ±": 11805, "cÃ¼mleĠ": 11806, "FaktÃ¶r": 11807, "eleriĠarasÄ±ndaĠ": 11808, "oyuncuĠ": 11809, "taklit": 11810, "oogleĠ": 11811, "kadÄ±nlar": 11812, "ĠveĠdÄ±ÅŁ": 11813, "hizmetlerinĠ": 11814, "ĠÃ¶ÄŁ": 11815, "siyum": 11816, "ĠcoÄŁraf": 11817, "kilit": 11818, "ĠKuruluĠ": 11819, "perspektif": 11820, "deÄŁiÅŁkenlerinĠ": 11821, "manlar": 11822, "saptandÄ±": 11823, "ĠveĠN": 11824, "dÃ¼ÅŁÃ¼nceleriniĠ": 11825, "Kontrol": 11826, "DV": 11827, "paylaÅŁÄ±m": 11828, "noktasÄ±Ġ": 11829, "ĠbuĠtÃ¼r": 11830, "taÅŁÄ±dÄ±ÄŁÄ±Ġ": 11831, "bulunan": 11832, "ayÄ±p": 11833, "caz": 11834, "vez": 11835, "sosyalĠmed": 11836, "ĠFransa": 11837, "lerindeĠdeĠ": 11838, "dular": 11839, "Dr": 11840, "Ã§okĠsev": 11841, "ĠMon": 11842, "ifadeĠedilenĠ": 11843, "dedenĠ": 11844, "hazÄ±rlÄ±kĠ": 11845, "Ã§Ã¼r": 11846, "alarÄ±": 11847, "ĠbÃ¶lgedeĠ": 11848, "nÃ¼s": 11849, "lerdenĠdolayÄ±Ġ": 11850, "Ã¶zelĠsektÃ¶r": 11851, "ihtiyacÄ±nÄ±Ġ": 11852, "Ã¼leyman": 11853, "etmiÅŁlerdir": 11854, "sigorta": 11855, "otal": 11856, "ĠÃ¶ncekiĠ": 11857, "atÄ±lanĠ": 11858, "ĠAydÄ±n": 11859, "tiĠveĠ": 11860, "ĠNur": 11861, "onlarĠ": 11862, "ĠteknikĠ": 11863, "fÄ±": 11864, "sÃ¶n": 11865, "Ġbask": 11866, "--------": 11867, "diniz": 11868, "timum": 11869, "ĠkaynakĠ": 11870, "mevsim": 11871, "ĠbilinÃ§": 11872, "iktaÅŁ": 11873, "zehir": 11874, "Ġgar": 11875, "iant": 11876, "Ġkok": 11877, "GA": 11878, "prosedÃ¼r": 11879, "birbiriniĠ": 11880, "ĠLiteratÃ¼rdeĠ": 11881, "ĠveĠkontrol": 11882, "sadeceĠbirĠ": 11883, "aus": 11884, "ĠHaber": 11885, "deÄŁerlendirmeler": 11886, "ekĠolarak": 11887, "So": 11888, "ĠolmalarÄ±Ġ": 11889, "sistematikĠ": 11890, "duaĠ": 11891, "layanĠbirĠ": 11892, "ĠbitkiĠ": 11893, "gÃ¶rdÃ¼m": 11894, "ĠPaÅŁaĠ": 11895, "ĠOnĠ": 11896, "okuldaĠ": 11897, "Ã¼nlÃ¼Ġ": 11898, "gerĠ": 11899, "kullanÄ±r": 11900, "evineĠ": 11901, "planlamaĠ": 11902, "nu": 11903, "Yol": 11904, "off": 11905, "tÃ¼ketimĠ": 11906, "geniÅŁlem": 11907, "Ã¢hir": 11908, "Ã¼leĠ": 11909, "encereĠ": 11910, "ĠÄ°letiÅŁim": 11911, "ĠSosyalĠ": 11912, "Sovyet": 11913, "kÄ±yafet": 11914, "Paris": 11915, "politikasÄ±Ġ": 11916, "Ġmate": 11917, "daÄŁÄ±tÄ±m": 11918, "ĠEd": 11919, "ĠÄ°ran": 11920, "ĠbaÅŁÄ±naĠ": 11921, "adetaĠ": 11922, "zevk": 11923, "Ġmo": 11924, "Ġidi": 11925, "iÄŁeriĠ": 11926, "ĠveĠE": 11927, "Ġton": 11928, "insanaĠ": 11929, "kaldÄ±ÄŁÄ±Ġ": 11930, "iÃ§indeĠbulunduÄŁuĠ": 11931, "maliyetiĠ": 11932, "bunlaraĠ": 11933, "Ġyard": 11934, "kasÄ±naĠ": 11935, "anks": 11936, "Ġep": 11937, "yuĠ": 11938, "sch": 11939, "Ä±yorĠveĠ": 11940, "ĠparÃ§a": 11941, "hiz": 11942, "Sen": 11943, "ĠkiÅŁisel": 11944, "elereĠgÃ¶reĠ": 11945, "Ġmetod": 11946, "mezunĠ": 11947, "seÃ§imiĠ": 11948, "erj": 11949, "ĠgÃ¶rÃ¼ntÃ¼": 11950, "yolunuĠ": 11951, "leÅŁenĠ": 11952, "Ùħ": 11953, "Ã¼sÃ¼ndeĠ": 11954, "teĠbirĠ": 11955, "isteyenĠ": 11956, "ehber": 11957, "iyy": 11958, "yoksunĠ": 11959, "askerĠ": 11960, "zamanlaĠ": 11961, "adamÄ±Ġ": 11962, "eceÄŁiĠveĠ": 11963, "LARI": 11964, "ĠÃ¶zelĠ": 11965, "farkÄ±ndalÄ±kĠ": 11966, "ĠMuh": 11967, "doÄŁaĠ": 11968, "ĠBilin": 11969, "gÃ¼nÃ¼Ġ": 11970, "gÃ¶rebil": 11971, "him": 11972, "ĠdeÄŁerlerininĠ": 11973, "ĠKavram": 11974, "sÄ±kÄ±ntÄ±Ġ": 11975, "ackĠ": 11976, "ĠÄ°t": 11977, "leÅŁmesiĠ": 11978, "mimariĠ": 11979, "iliÅŁkisininĠ": 11980, "enĠsonĠ": 11981, "ĠÅŀehir": 11982, "maliyetĠ": 11983, "liliÄŁi": 11984, "rezerv": 11985, "nedeni": 11986, "iÅŁlemler": 11987, "taraftar": 11988, "retĠ": 11989, "ĠhenÃ¼z": 11990, "iyal": 11991, "AmerikaĠ": 11992, "vazgeÃ§ilmez": 11993, "ĠbelliĠ": 11994, "atÄ±r": 11995, "ĠgeliÅŁmiÅŁ": 11996, "araÅŁtÄ±rmacÄ±lar": 11997, "alandakiĠ": 11998, "mÄ±s": 11999, "ehr": 12000,
[...]
